/**
  ******************************************************************************
  * @file    weights/conv2d.cc
  * @author  Pierre-Emmanuel Novac <penovac@unice.fr>, LEAT, CNRS, Université Côte d'Azur, France
  * @version V2.0
  * @date    24 march 2020
  * @brief   Template generating plain C code for the implementation of Convolutional Neural Networks on MCU
  */

#include <stdint.h>

#define INPUT_CHANNELS     8
#define CONV_FILTERS       16
#define CONV_KERNEL_SIZE_Y 3
#define CONV_KERNEL_SIZE_X 3
#define CONV_GROUPS        1


const float conv2d_6_bias[CONV_FILTERS] = {0x0.0p+0, 0x0.0p+0, 0x0.0p+0, 0x0.0p+0, 0x0.0p+0, 0x0.0p+0, 0x0.0p+0, 0x0.0p+0, 0x0.0p+0, 0x0.0p+0, 0x0.0p+0, 0x0.0p+0, 0x0.0p+0, 0x0.0p+0, 0x0.0p+0, 0x0.0p+0}
;


const float conv2d_6_kernel[CONV_FILTERS][CONV_KERNEL_SIZE_Y][CONV_KERNEL_SIZE_X][INPUT_CHANNELS / CONV_GROUPS] = {{{{0x1.98eb740000000p-4, -0x1.82d8300000000p-6, -0x1.051acc0000000p-4, -0x1.be3d000000000p-4, -0x1.b90fa00000000p-4, 0x1.f93d400000000p-5, 0x1.0f05800000000p-9, -0x1.1f8f000000000p-3}
, {0x1.d863a00000000p-7, 0x1.631db00000000p-6, -0x1.9e320c0000000p-4, 0x1.94b6040000000p-4, -0x1.5641160000000p-4, 0x1.c3ff980000000p-5, 0x1.144b000000000p-4, 0x1.a4f4d00000000p-6}
, {-0x1.3e601c0000000p-3, -0x1.a2e1580000000p-5, 0x1.189eca0000000p-3, 0x1.a676280000000p-5, -0x1.8704ac0000000p-4, -0x1.4ea3760000000p-4, 0x1.6058980000000p-5, 0x1.9ee8ec0000000p-4}
}
, {{-0x1.1d44a60000000p-3, 0x1.9ece800000000p-6, 0x1.49ed7a0000000p-3, 0x1.21cb180000000p-5, -0x1.bedb4c0000000p-4, -0x1.5e93d60000000p-4, -0x1.53add00000000p-3, -0x1.38d03c0000000p-3}
, {-0x1.554eb60000000p-4, 0x1.6d0b840000000p-4, -0x1.2314700000000p-3, -0x1.7a094c0000000p-4, 0x1.4f13000000000p-5, -0x1.93e6980000000p-5, -0x1.7caac00000000p-8, 0x1.9856c00000000p-5}
, {-0x1.0e6c960000000p-4, -0x1.0901760000000p-3, -0x1.4eb1960000000p-3, 0x1.e7a3980000000p-5, 0x1.4146460000000p-3, -0x1.38b1a60000000p-3, 0x1.5ad2b00000000p-6, 0x1.6e8a140000000p-4}
}
, {{-0x1.d51ac00000000p-4, 0x1.223ea80000000p-5, 0x1.27f6ac0000000p-4, -0x1.877c560000000p-4, -0x1.3de5000000000p-4, 0x1.6651180000000p-5, 0x1.a0f1680000000p-5, -0x1.e91d2c0000000p-4}
, {-0x1.5c1e800000000p-9, -0x1.3d54600000000p-7, 0x1.4352200000000p-4, -0x1.90b94c0000000p-4, 0x1.bd7fc00000000p-5, -0x1.0a7d200000000p-3, 0x1.35cc3a0000000p-3, 0x1.03b18c0000000p-4}
, {0x1.4ca7260000000p-3, -0x1.ae3a8c0000000p-4, -0x1.63e6ec0000000p-5, -0x1.4ae9800000000p-3, 0x1.79cfa40000000p-4, 0x1.df8a580000000p-5, -0x1.a541360000000p-4, -0x1.45abe00000000p-4}
}
}
, {{{-0x1.16918c0000000p-4, -0x1.3858ec0000000p-3, -0x1.37a8bc0000000p-3, -0x1.1f90d00000000p-3, 0x1.c560b40000000p-4, -0x1.27b9ec0000000p-4, 0x1.f180c00000000p-5, -0x1.e3e8cc0000000p-4}
, {-0x1.2aa5cc0000000p-3, 0x1.8a5e800000000p-9, 0x1.fd70040000000p-4, 0x1.36ff680000000p-5, -0x1.29bc300000000p-3, 0x1.e301040000000p-4, 0x1.131ff20000000p-3, 0x1.424be20000000p-3}
, {-0x1.a91a800000000p-6, -0x1.ad5d360000000p-4, 0x1.a623d00000000p-6, -0x1.2e69600000000p-3, 0x1.32452a0000000p-3, 0x1.01d21a0000000p-3, -0x1.c558000000000p-5, 0x1.ea5c000000000p-7}
}
, {{-0x1.b0cc000000000p-5, -0x1.ef21a00000000p-7, 0x1.c117600000000p-7, 0x1.978c2c0000000p-4, 0x1.74fed40000000p-4, -0x1.8d0fc00000000p-4, -0x1.b2c44c0000000p-4, -0x1.3e8a400000000p-4}
, {-0x1.06c8fc0000000p-3, -0x1.1379960000000p-4, -0x1.4852000000000p-7, -0x1.fa59760000000p-4, -0x1.09237c0000000p-3, -0x1.334e300000000p-6, -0x1.1d1dec0000000p-4, 0x1.d539280000000p-5}
, {-0x1.0476000000000p-6, -0x1.4aa8e00000000p-4, 0x1.4324000000000p-7, -0x1.f175500000000p-6, -0x1.4d35dc0000000p-3, 0x1.5abaa00000000p-7, 0x1.4ff5800000000p-4, -0x1.4232500000000p-6}
}
, {{0x1.2913760000000p-3, 0x1.524e320000000p-3, 0x1.4f8c140000000p-4, 0x1.f7c2600000000p-7, 0x1.8885440000000p-4, -0x1.7d63160000000p-4, -0x1.1e67900000000p-3, -0x1.0337a00000000p-7}
, {0x1.1b39600000000p-4, 0x1.064a360000000p-3, -0x1.b8ab600000000p-7, 0x1.2a8f280000000p-5, 0x1.be10a40000000p-4, 0x1.2c181a0000000p-3, -0x1.8d19cc0000000p-4, -0x1.f483cc0000000p-4}
, {-0x1.4a73560000000p-4, -0x1.38c04c0000000p-4, -0x1.cddf980000000p-5, 0x1.abe80c0000000p-4, 0x1.50a0140000000p-4, -0x1.2b3e760000000p-4, -0x1.0a3e460000000p-3, 0x1.005a520000000p-3}
}
}
, {{{-0x1.66f2cc0000000p-4, 0x1.1729ac0000000p-4, 0x1.5992600000000p-7, -0x1.80e2ec0000000p-5, -0x1.00a3000000000p-10, 0x1.a86c980000000p-5, -0x1.3d700c0000000p-3, -0x1.1851e00000000p-4}
, {-0x1.9205d80000000p-5, 0x1.2140000000000p-4, 0x1.4923f40000000p-4, 0x1.594a600000000p-7, 0x1.ffc4280000000p-5, 0x1.fd05e40000000p-4, -0x1.40995c0000000p-3, -0x1.0e7dac0000000p-3}
, {0x1.bc3e240000000p-4, -0x1.1f4c000000000p-5, -0x1.2003ec0000000p-4, 0x1.36826c0000000p-4, 0x1.03b6f20000000p-3, 0x1.2031300000000p-6, 0x1.435c660000000p-3, -0x1.4d56b00000000p-3}
}
, {{-0x1.dfbea00000000p-7, -0x1.c836f60000000p-4, -0x1.1b69c00000000p-5, -0x1.4dfbb60000000p-4, -0x1.3eb9000000000p-4, 0x1.ddc02c0000000p-4, -0x1.07b5800000000p-3, 0x1.69c1980000000p-5}
, {0x1.afcbb40000000p-4, 0x1.716e940000000p-4, 0x1.867a180000000p-5, 0x1.0c958c0000000p-4, -0x1.0066000000000p-4, 0x1.b860000000000p-15, 0x1.5e30940000000p-4, -0x1.0315180000000p-5}
, {-0x1.3ddf180000000p-5, -0x1.00aa800000000p-4, -0x1.4062300000000p-6, 0x1.a46cd80000000p-5, -0x1.58d8ec0000000p-5, -0x1.a911000000000p-4, 0x1.8ca0500000000p-6, 0x1.3aaaec0000000p-4}
}
, {{-0x1.6966500000000p-6, -0x1.76c8760000000p-4, 0x1.ee23400000000p-5, -0x1.e49c400000000p-4, 0x1.13a4940000000p-4, 0x1.4b0ff60000000p-3, 0x1.9a07800000000p-6, 0x1.3625d60000000p-3}
, {0x1.9981600000000p-7, -0x1.e42b800000000p-5, -0x1.a939760000000p-4, 0x1.4886760000000p-3, -0x1.da1d160000000p-4, 0x1.60fa440000000p-4, -0x1.7497000000000p-4, -0x1.85fdc00000000p-4}
, {-0x1.deff360000000p-4, 0x1.2f2e9a0000000p-3, -0x1.9bd8560000000p-4, -0x1.ecf2960000000p-4, -0x1.cade500000000p-6, -0x1.b42b000000000p-4, 0x1.b0b2500000000p-6, -0x1.0a91e00000000p-4}
}
}
, {{{0x1.e825b40000000p-4, 0x1.3b43180000000p-5, -0x1.2e16fc0000000p-3, -0x1.17c06c0000000p-3, -0x1.2b54b60000000p-3, 0x1.7b46800000000p-5, 0x1.06b42a0000000p-3, -0x1.376fec0000000p-4}
, {0x1.95b3340000000p-4, 0x1.0bfb400000000p-5, -0x1.99a32c0000000p-5, 0x1.2a8da60000000p-3, -0x1.304f6c0000000p-3, -0x1.143bac0000000p-4, 0x1.03e9200000000p-4, 0x1.fcaf040000000p-4}
, {-0x1.2a3f2c0000000p-4, -0x1.cd4bf60000000p-4, 0x1.a66bc40000000p-4, 0x1.c1cc680000000p-5, -0x1.6ed3ec0000000p-5, -0x1.e7dfa00000000p-7, -0x1.52dd4c0000000p-3, -0x1.b26bd60000000p-4}
}
, {{0x1.5d2bc00000000p-5, -0x1.f7d4000000000p-4, -0x1.1837300000000p-3, 0x1.0e5cf40000000p-4, 0x1.c8c4340000000p-4, -0x1.d5abd00000000p-6, 0x1.544fd60000000p-3, -0x1.4df7c00000000p-3}
, {-0x1.282f560000000p-4, 0x1.3ab6660000000p-3, 0x1.eaff980000000p-5, 0x1.826c000000000p-6, -0x1.0bc0e00000000p-3, -0x1.cd48180000000p-5, 0x1.08ea800000000p-5, -0x1.6193300000000p-6}
, {0x1.7605400000000p-5, 0x1.78bb000000000p-10, -0x1.0b29ac0000000p-4, -0x1.f2f2c00000000p-5, 0x1.720bc40000000p-4, -0x1.49bd2c0000000p-3, 0x1.3ec2800000000p-5, 0x1.53b3ac0000000p-4}
}
, {{-0x1.1a6c580000000p-5, -0x1.ec54ec0000000p-5, 0x1.85f4ec0000000p-4, -0x1.4710600000000p-7, -0x1.17fd6c0000000p-3, -0x1.255fdc0000000p-3, -0x1.9b8a000000000p-11, -0x1.e2a1d00000000p-6}
, {-0x1.1ee2800000000p-3, -0x1.e9d0e00000000p-4, -0x1.505b6c0000000p-3, -0x1.1cea800000000p-4, -0x1.ba28000000000p-8, -0x1.06ef760000000p-4, 0x1.87a68c0000000p-4, 0x1.ebdc180000000p-5}
, {0x1.20aefa0000000p-3, -0x1.abf3760000000p-4, -0x1.3122000000000p-3, 0x1.1b47b20000000p-3, 0x1.e28d4c0000000p-4, 0x1.e8c76c0000000p-4, -0x1.61022c0000000p-4, -0x1.e12f2c0000000p-4}
}
}
, {{{-0x1.f119800000000p-4, 0x1.c8c9640000000p-4, 0x1.ec93500000000p-6, 0x1.0e267a0000000p-3, -0x1.7234b00000000p-6, 0x1.b329600000000p-7, -0x1.0dcc860000000p-3, -0x1.eac3c00000000p-5}
, {0x1.3e4fe80000000p-5, 0x1.37e8000000000p-8, 0x1.72c16c0000000p-4, 0x1.1d42000000000p-4, 0x1.824bc00000000p-5, 0x1.47c8000000000p-6, 0x1.4bbc3a0000000p-3, 0x1.5889c00000000p-5}
, {-0x1.cce0960000000p-4, -0x1.d7ca200000000p-4, -0x1.5f072c0000000p-4, 0x1.5d5b540000000p-4, 0x1.0d46a60000000p-3, -0x1.e4dd560000000p-4, 0x1.1f3f800000000p-4, -0x1.1105dc0000000p-3}
}
, {{0x1.3021e00000000p-4, -0x1.acbf360000000p-4, 0x1.6332ec0000000p-4, -0x1.3ad2d60000000p-4, -0x1.696ed00000000p-6, -0x1.fa24400000000p-5, -0x1.be44800000000p-4, -0x1.ae51b60000000p-4}
, {-0x1.7de2600000000p-4, 0x1.3f3f540000000p-4, 0x1.a47c0c0000000p-4, 0x1.f460340000000p-4, 0x1.530e340000000p-4, -0x1.2f8f300000000p-6, 0x1.b9d7d40000000p-4, -0x1.2aecec0000000p-4}
, {0x1.fcf6340000000p-4, 0x1.b21fc00000000p-5, -0x1.4f55760000000p-4, -0x1.3daca00000000p-7, 0x1.91b30c0000000p-4, 0x1.17c1360000000p-3, -0x1.4104560000000p-3, 0x1.7a32640000000p-4}
}
, {{-0x1.ab82000000000p-7, 0x1.461e660000000p-3, 0x1.1d548a0000000p-3, 0x1.9854e40000000p-4, 0x1.ec66600000000p-7, 0x1.7895400000000p-5, -0x1.3eed960000000p-3, -0x1.3dca360000000p-3}
, {0x1.f3cd540000000p-4, 0x1.1945740000000p-4, -0x1.1519160000000p-4, -0x1.2dba3c0000000p-3, 0x1.4c97e00000000p-4, -0x1.3154260000000p-3, 0x1.0b17b60000000p-3, -0x1.6922000000000p-8}
, {0x1.bfa2640000000p-4, -0x1.00e3bc0000000p-3, 0x1.3c74980000000p-5, -0x1.f5824c0000000p-4, -0x1.a6a4000000000p-9, 0x1.f246180000000p-5, 0x1.1ab9500000000p-6, -0x1.5ee4000000000p-5}
}
}
, {{{0x1.0a204a0000000p-3, -0x1.aae3b00000000p-6, 0x1.db53300000000p-6, 0x1.e9b4c40000000p-4, 0x1.27f3680000000p-5, -0x1.0a43e80000000p-5, -0x1.651e160000000p-4, -0x1.ef31000000000p-6}
, {-0x1.46e4160000000p-3, -0x1.529e360000000p-3, 0x1.b99a800000000p-6, -0x1.30bc460000000p-3, -0x1.0ea6f60000000p-4, -0x1.7b766c0000000p-5, 0x1.b1d5ac0000000p-4, 0x1.49f9160000000p-3}
, {-0x1.5c16160000000p-4, -0x1.9a36000000000p-6, 0x1.4b38180000000p-5, 0x1.de866c0000000p-4, -0x1.2020c00000000p-5, -0x1.a3f2c00000000p-4, 0x1.a790540000000p-4, 0x1.395b660000000p-3}
}
, {{0x1.5bc4300000000p-6, 0x1.20a21a0000000p-3, 0x1.42c5f60000000p-3, -0x1.921bb00000000p-6, 0x1.4a1d600000000p-4, -0x1.8a60960000000p-4, -0x1.1cb4ec0000000p-4, -0x1.4b78800000000p-3}
, {0x1.c4a6440000000p-4, -0x1.08aa400000000p-5, -0x1.5a362c0000000p-4, -0x1.14343c0000000p-3, -0x1.1f8f100000000p-3, 0x1.5198d20000000p-3, 0x1.0c4c500000000p-6, -0x1.04118c0000000p-4}
, {-0x1.03069c0000000p-3, 0x1.fe69b40000000p-4, 0x1.4db80c0000000p-4, 0x1.ebe44c0000000p-4, 0x1.b517e80000000p-5, -0x1.1f80bc0000000p-3, 0x1.2bc5520000000p-3, 0x1.005cc00000000p-8}
}
, {{0x1.1010b00000000p-6, 0x1.0e87800000000p-6, 0x1.348d000000000p-5, -0x1.e8b0d80000000p-5, -0x1.966ad60000000p-4, -0x1.39cc960000000p-3, -0x1.ba30a00000000p-4, -0x1.d5ac580000000p-5}
, {-0x1.2c261c0000000p-3, -0x1.d8c7400000000p-4, -0x1.bd04000000000p-8, -0x1.c74b6c0000000p-5, -0x1.a5b2e00000000p-4, 0x1.86f7e40000000p-4, 0x1.0594a00000000p-7, 0x1.98c8500000000p-6}
, {-0x1.2361bc0000000p-3, -0x1.50b4580000000p-5, 0x1.324d6c0000000p-4, 0x1.df5cf40000000p-4, 0x1.50a7e60000000p-3, 0x1.211b9a0000000p-3, 0x1.79db000000000p-6, 0x1.ce5f2c0000000p-4}
}
}
, {{{-0x1.9943b60000000p-4, 0x1.b583540000000p-4, 0x1.29788a0000000p-3, -0x1.3abd4c0000000p-4, -0x1.dd38000000000p-8, 0x1.b2114c0000000p-4, 0x1.11cc500000000p-6, 0x1.2f35d60000000p-3}
, {0x1.859c800000000p-5, -0x1.f8c0760000000p-4, 0x1.5ebe280000000p-5, -0x1.6e58a00000000p-4, 0x1.2d38000000000p-6, -0x1.4bb4600000000p-3, -0x1.2838d80000000p-5, 0x1.a4cb940000000p-4}
, {-0x1.cce3800000000p-5, 0x1.a054c40000000p-4, 0x1.f6518c0000000p-4, -0x1.3248c00000000p-3, 0x1.1b7cb60000000p-3, 0x1.b2a3400000000p-8, -0x1.d2a6000000000p-7, 0x1.bf9fd80000000p-5}
}
, {{-0x1.af950c0000000p-4, 0x1.017e2c0000000p-4, 0x1.ea00800000000p-5, 0x1.47c4fa0000000p-3, 0x1.71f06c0000000p-4, 0x1.f49d940000000p-4, -0x1.9871b60000000p-4, -0x1.3249c00000000p-3}
, {-0x1.1c944c0000000p-3, 0x1.7db7e40000000p-4, -0x1.00cbb00000000p-6, -0x1.6f36360000000p-4, 0x1.7317600000000p-7, -0x1.3e59000000000p-6, 0x1.728a440000000p-4, -0x1.46d9ac0000000p-3}
, {0x1.a9d6840000000p-4, 0x1.299ca60000000p-3, -0x1.f5ec160000000p-4, -0x1.a47d4c0000000p-4, 0x1.58f0a00000000p-7, -0x1.34ace00000000p-4, 0x1.7f01800000000p-5, 0x1.9a00240000000p-4}
}
, {{0x1.850eac0000000p-4, 0x1.9767ec0000000p-4, 0x1.8d5f140000000p-4, 0x1.03218c0000000p-4, -0x1.c5bd980000000p-5, 0x1.e43a600000000p-7, 0x1.11a1140000000p-4, -0x1.81a6800000000p-6}
, {-0x1.495a2c0000000p-4, 0x1.1bca000000000p-11, 0x1.21a4d20000000p-3, 0x1.50f6800000000p-5, 0x1.3c31180000000p-5, -0x1.5909cc0000000p-4, -0x1.ac05000000000p-6, 0x1.1ba99a0000000p-3}
, {0x1.bcb5ac0000000p-4, -0x1.760b200000000p-4, -0x1.18393c0000000p-3, 0x1.44b8a60000000p-3, -0x1.ae6d500000000p-6, -0x1.3ef84c0000000p-3, -0x1.38aa700000000p-3, -0x1.0f13800000000p-4}
}
}
, {{{0x1.196b800000000p-5, 0x1.65edec0000000p-4, 0x1.d9c4d00000000p-6, -0x1.3714580000000p-5, 0x1.4839d60000000p-3, 0x1.bcd46c0000000p-4, -0x1.1864b00000000p-3, -0x1.04cb2c0000000p-3}
, {-0x1.1604560000000p-3, 0x1.b305e40000000p-4, 0x1.1ffbc00000000p-5, 0x1.bda9600000000p-7, 0x1.4392120000000p-3, -0x1.cddcd60000000p-4, -0x1.fe5b300000000p-6, -0x1.2967b00000000p-3}
, {-0x1.aecc000000000p-4, -0x1.340e980000000p-5, -0x1.141ce60000000p-3, 0x1.cc7eb00000000p-6, -0x1.199eac0000000p-3, 0x1.ce0acc0000000p-4, 0x1.2015400000000p-8, 0x1.ea24ac0000000p-4}
}
, {{-0x1.3a9f5c0000000p-3, 0x1.9c17a40000000p-4, -0x1.8339300000000p-6, 0x1.66be8c0000000p-4, 0x1.515c400000000p-5, 0x1.0d855a0000000p-3, -0x1.a1f9400000000p-8, -0x1.91e2800000000p-4}
, {0x1.2fc7260000000p-3, -0x1.a902e00000000p-4, 0x1.0112da0000000p-3, -0x1.f7de180000000p-5, -0x1.eb28c00000000p-4, 0x1.3876120000000p-3, -0x1.a959c00000000p-5, 0x1.82bf000000000p-6}
, {-0x1.4e28ec0000000p-4, -0x1.0c01ac0000000p-3, 0x1.d778000000000p-10, 0x1.3adb8c0000000p-4, -0x1.54ee800000000p-4, 0x1.0b798a0000000p-3, -0x1.8497d00000000p-6, 0x1.45b19a0000000p-3}
}
, {{-0x1.8b31c00000000p-5, -0x1.0671e00000000p-3, 0x1.b4f4400000000p-5, -0x1.0f0c180000000p-5, 0x1.9d0f300000000p-6, -0x1.24a7ac0000000p-3, -0x1.8aa68c0000000p-4, -0x1.59ba2c0000000p-4}
, {-0x1.7e3c980000000p-5, 0x1.14efac0000000p-4, -0x1.1790180000000p-5, -0x1.33d40c0000000p-4, -0x1.3923c00000000p-4, 0x1.0229d20000000p-3, -0x1.23fe4c0000000p-4, -0x1.3761160000000p-3}
, {0x1.3700720000000p-3, 0x1.1f64a80000000p-5, 0x1.4284400000000p-4, -0x1.445eac0000000p-4, 0x1.de61040000000p-4, -0x1.ddb9960000000p-4, -0x1.823c2c0000000p-5, 0x1.7d17740000000p-4}
}
}
, {{{-0x1.2e64ac0000000p-3, 0x1.adf3400000000p-8, -0x1.50b6a00000000p-3, 0x1.46fb420000000p-3, -0x1.c785600000000p-4, 0x1.329b4c0000000p-4, -0x1.20728c0000000p-3, -0x1.c4bb6c0000000p-4}
, {0x1.b833e40000000p-4, -0x1.8e22200000000p-4, -0x1.9cbdac0000000p-5, 0x1.1676d00000000p-6, 0x1.48f16c0000000p-4, -0x1.95cdd00000000p-6, -0x1.34cca00000000p-7, 0x1.ac4b6c0000000p-4}
, {-0x1.226bec0000000p-3, 0x1.09b0a00000000p-7, 0x1.b0eaa00000000p-7, 0x1.9181040000000p-4, 0x1.fb91600000000p-7, -0x1.0b66d00000000p-3, -0x1.7f37000000000p-4, 0x1.05316c0000000p-4}
}
, {{0x1.2ec9580000000p-5, 0x1.cc61500000000p-6, 0x1.bcf2000000000p-5, 0x1.31872a0000000p-3, -0x1.a3ad400000000p-5, -0x1.41aa600000000p-3, 0x1.764b000000000p-7, 0x1.c7b6740000000p-4}
, {-0x1.26e8600000000p-4, -0x1.3166c00000000p-3, -0x1.e305800000000p-9, -0x1.1cc0660000000p-3, -0x1.8139980000000p-5, -0x1.2d32200000000p-4, 0x1.852bb00000000p-6, -0x1.4a12c60000000p-3}
, {0x1.4e8d400000000p-5, -0x1.3320560000000p-3, 0x1.ee50000000000p-9, 0x1.0831800000000p-6, -0x1.7a8f580000000p-5, -0x1.41bb100000000p-3, 0x1.7e79640000000p-4, -0x1.1032a00000000p-3}
}
, {{0x1.0a0fec0000000p-4, -0x1.0526260000000p-3, -0x1.b31b180000000p-5, -0x1.9f0ea00000000p-4, 0x1.e24f280000000p-5, -0x1.1170800000000p-6, -0x1.100d800000000p-3, -0x1.11dc000000000p-9}
, {-0x1.16d7e00000000p-4, -0x1.255c900000000p-3, 0x1.b585740000000p-4, 0x1.f69e980000000p-5, 0x1.5144340000000p-4, 0x1.6dc9940000000p-4, 0x1.fd53b40000000p-4, -0x1.14b5fc0000000p-3}
, {0x1.a448000000000p-9, 0x1.3159800000000p-5, 0x1.1bd1000000000p-5, -0x1.13f7e80000000p-5, -0x1.4ccd800000000p-3, 0x1.e893400000000p-8, 0x1.b3680c0000000p-4, -0x1.56f6d60000000p-4}
}
}
, {{{-0x1.7c88ac0000000p-5, -0x1.102f600000000p-3, -0x1.6172160000000p-4, 0x1.a2ba000000000p-5, -0x1.1701e00000000p-4, -0x1.35d89c0000000p-3, -0x1.cdd2e00000000p-4, -0x1.14fbe80000000p-5}
, {0x1.c985980000000p-5, 0x1.22b7d80000000p-5, -0x1.00cf360000000p-4, 0x1.f051840000000p-4, 0x1.eabdec0000000p-4, -0x1.0aa1760000000p-3, 0x1.2e15b20000000p-3, -0x1.496d800000000p-4}
, {-0x1.29eb500000000p-6, 0x1.f9efe80000000p-5, -0x1.fea4580000000p-5, -0x1.ea2e000000000p-8, 0x1.2ec9300000000p-6, -0x1.2a04860000000p-3, -0x1.f09a400000000p-5, 0x1.4ec0c00000000p-4}
}
, {{0x1.34016a0000000p-3, 0x1.1ab9f60000000p-3, 0x1.86306c0000000p-4, -0x1.0c65ec0000000p-3, 0x1.26d4da0000000p-3, 0x1.1c14f40000000p-4, 0x1.3fa0e00000000p-4, -0x1.c9556c0000000p-5}
, {-0x1.bdff2c0000000p-4, 0x1.6a9fcc0000000p-4, 0x1.b1634c0000000p-4, 0x1.af9fb00000000p-6, 0x1.4d7bda0000000p-3, 0x1.06fd580000000p-5, -0x1.825a500000000p-6, 0x1.2d63740000000p-4}
, {0x1.3d4f660000000p-3, 0x1.f0892c0000000p-4, 0x1.7ee5580000000p-5, 0x1.e68d4c0000000p-4, -0x1.dbf0a00000000p-4, 0x1.cea0400000000p-5, -0x1.d6b3000000000p-10, 0x1.0c75560000000p-3}
}
, {{0x1.3faf660000000p-3, 0x1.15471a0000000p-3, 0x1.a5b8300000000p-6, 0x1.0a13000000000p-7, 0x1.b6b2c00000000p-5, -0x1.09fa9c0000000p-3, 0x1.0dc5660000000p-3, 0x1.6c8b280000000p-5}
, {0x1.1313140000000p-4, -0x1.9d20000000000p-8, 0x1.4d72860000000p-3, -0x1.a76d980000000p-5, 0x1.5d5ca40000000p-4, 0x1.1615d60000000p-3, -0x1.27d6400000000p-3, -0x1.4e72400000000p-5}
, {-0x1.3ff3500000000p-3, -0x1.27b3a00000000p-7, 0x1.40f7ba0000000p-3, -0x1.69a1b60000000p-4, -0x1.9792d00000000p-6, -0x1.5471160000000p-3, 0x1.83d0000000000p-7, -0x1.2e71c00000000p-5}
}
}
, {{{-0x1.b268800000000p-5, -0x1.126f680000000p-5, 0x1.2743e80000000p-5, -0x1.7099600000000p-7, -0x1.0302a00000000p-7, 0x1.3673e80000000p-5, 0x1.53f3ca0000000p-3, -0x1.4fd6200000000p-4}
, {0x1.896e800000000p-9, -0x1.4ba4000000000p-3, -0x1.297af60000000p-3, 0x1.d556e80000000p-5, 0x1.8347280000000p-5, -0x1.26697c0000000p-3, -0x1.0e7dd60000000p-4, -0x1.27bd400000000p-3}
, {0x1.f1a9580000000p-5, 0x1.2b65d00000000p-6, 0x1.dbeb280000000p-5, -0x1.f6f3800000000p-4, 0x1.5137b20000000p-3, -0x1.4e85400000000p-5, 0x1.1b15f60000000p-3, 0x1.68bae40000000p-4}
}
, {{0x1.c9c3a00000000p-7, 0x1.6dda040000000p-4, -0x1.0439800000000p-9, -0x1.7ff2b60000000p-4, -0x1.14f4300000000p-6, 0x1.aaad800000000p-6, 0x1.1d9faa0000000p-3, 0x1.3af9980000000p-5}
, {-0x1.52ed1c0000000p-3, -0x1.3417900000000p-3, -0x1.6468ac0000000p-4, -0x1.ac66580000000p-5, 0x1.43b3d00000000p-6, 0x1.59648c0000000p-4, -0x1.b27b8c0000000p-4, -0x1.2acf800000000p-5}
, {-0x1.4b03260000000p-3, -0x1.2545560000000p-3, -0x1.421b800000000p-5, -0x1.456c500000000p-6, -0x1.1d90180000000p-5, 0x1.ad99540000000p-4, 0x1.6b13e40000000p-4, 0x1.8620ac0000000p-4}
}
, {{-0x1.452aac0000000p-3, -0x1.5a49800000000p-6, 0x1.75fa340000000p-4, -0x1.a922c00000000p-8, 0x1.abe94c0000000p-4, 0x1.2b47b00000000p-6, -0x1.9fe58c0000000p-4, 0x1.55578c0000000p-4}
, {0x1.21e3ea0000000p-3, -0x1.68e9600000000p-4, 0x1.3872400000000p-5, 0x1.51f8c20000000p-3, 0x1.4f2ac00000000p-4, -0x1.d6f4ac0000000p-5, -0x1.28738c0000000p-3, 0x1.0165a00000000p-7}
, {0x1.6581ac0000000p-4, -0x1.0146e00000000p-3, 0x1.ee2a340000000p-4, -0x1.cbe2b00000000p-6, 0x1.497cec0000000p-4, -0x1.2c00ec0000000p-4, -0x1.8e3dcc0000000p-4, 0x1.ec32740000000p-4}
}
}
, {{{0x1.ba3a8c0000000p-4, 0x1.3690460000000p-3, 0x1.e2d7540000000p-4, -0x1.a077800000000p-6, -0x1.4488c00000000p-8, 0x1.14eb200000000p-4, 0x1.63f1500000000p-6, 0x1.4bba6c0000000p-4}
, {-0x1.0118bc0000000p-3, 0x1.0e5bc20000000p-3, 0x1.d805980000000p-5, -0x1.e37ef60000000p-4, 0x1.cdd8580000000p-5, 0x1.4b81740000000p-4, -0x1.fedf400000000p-8, 0x1.d834500000000p-6}
, {0x1.292eb20000000p-3, 0x1.4c75000000000p-10, 0x1.69ee800000000p-6, -0x1.0c4c460000000p-3, -0x1.216b500000000p-6, -0x1.1fb54c0000000p-4, -0x1.44a03c0000000p-3, -0x1.5151000000000p-5}
}
, {{-0x1.43d4860000000p-3, 0x1.5073820000000p-3, -0x1.e17f600000000p-4, 0x1.9a0e000000000p-6, 0x1.8eb6e80000000p-5, -0x1.136e8c0000000p-4, 0x1.d219a00000000p-7, 0x1.063f400000000p-8}
, {-0x1.06896c0000000p-4, 0x1.452e740000000p-4, -0x1.0db62c0000000p-4, 0x1.f912300000000p-6, 0x1.6f05f40000000p-4, -0x1.54497c0000000p-3, 0x1.56cbe80000000p-5, 0x1.280dea0000000p-3}
, {0x1.0895000000000p-4, -0x1.77422c0000000p-5, 0x1.c62b6c0000000p-4, 0x1.fdf6740000000p-4, -0x1.154ba00000000p-7, 0x1.5dba8c0000000p-4, 0x1.9cb0ac0000000p-4, -0x1.4b49500000000p-6}
}
, {{0x1.b14f000000000p-5, 0x1.8187b40000000p-4, 0x1.b24f940000000p-4, 0x1.844d000000000p-6, -0x1.565e000000000p-8, -0x1.82ac180000000p-5, -0x1.ca87560000000p-4, 0x1.7fc2c00000000p-5}
, {-0x1.a0f1580000000p-5, 0x1.7bd5180000000p-5, -0x1.1082cc0000000p-4, 0x1.1685060000000p-3, -0x1.5502800000000p-6, -0x1.cfb9cc0000000p-4, -0x1.49d3200000000p-4, 0x1.5536b00000000p-6}
, {-0x1.e04c000000000p-9, -0x1.85c1a00000000p-4, -0x1.52bea00000000p-7, 0x1.8dcce40000000p-4, 0x1.6cd3e80000000p-5, -0x1.35abdc0000000p-3, 0x1.73eca00000000p-7, 0x1.0bbf920000000p-3}
}
}
, {{{0x1.ee4b280000000p-5, 0x1.ab69980000000p-5, 0x1.270e740000000p-4, 0x1.2551b20000000p-3, 0x1.4c51400000000p-8, 0x1.deb5d40000000p-4, -0x1.d1efec0000000p-4, 0x1.a9c26c0000000p-4}
, {0x1.66ef580000000p-5, -0x1.c23f6c0000000p-4, 0x1.dd84500000000p-6, 0x1.44dde80000000p-5, 0x1.27d6060000000p-3, 0x1.25c9280000000p-5, 0x1.0a9b4c0000000p-4, 0x1.f90dac0000000p-4}
, {0x1.fb35840000000p-4, 0x1.323a3a0000000p-3, -0x1.9af8400000000p-4, 0x1.c915000000000p-10, -0x1.e64aa00000000p-7, 0x1.a1a2e80000000p-5, -0x1.b502c00000000p-8, 0x1.095d400000000p-4}
}
, {{-0x1.0462d00000000p-6, -0x1.1a70f60000000p-3, -0x1.237cec0000000p-4, 0x1.a323d00000000p-6, -0x1.3330ec0000000p-4, 0x1.30a5a00000000p-4, 0x1.0767b00000000p-6, 0x1.0f318c0000000p-4}
, {0x1.c6c4000000000p-5, 0x1.3e0fc60000000p-3, 0x1.ba5bb40000000p-4, 0x1.2fa7ea0000000p-3, 0x1.096e500000000p-6, 0x1.1a3bfa0000000p-3, 0x1.71e3e40000000p-4, 0x1.38b34c0000000p-4}
, {0x1.94a0c00000000p-5, 0x1.435a920000000p-3, -0x1.213d6c0000000p-3, 0x1.1191d00000000p-6, -0x1.d74a400000000p-4, -0x1.88ed8c0000000p-4, -0x1.716a000000000p-8, 0x1.49c9680000000p-5}
}
, {{0x1.5228060000000p-3, 0x1.2295d40000000p-4, -0x1.c13aec0000000p-5, 0x1.6d4a000000000p-7, -0x1.0212fc0000000p-3, -0x1.81fab60000000p-4, -0x1.a9bf800000000p-6, 0x1.4ba6000000000p-4}
, {0x1.c624940000000p-4, 0x1.c592440000000p-4, 0x1.ddaa640000000p-4, 0x1.5f2c440000000p-4, -0x1.acdb560000000p-4, -0x1.99fe800000000p-9, 0x1.459ac60000000p-3, 0x1.ed97140000000p-4}
, {0x1.f13b580000000p-5, 0x1.5853d00000000p-6, -0x1.eaed800000000p-6, -0x1.54d82c0000000p-4, -0x1.2fb0d00000000p-6, -0x1.0a7cd80000000p-5, 0x1.159e160000000p-3, 0x1.da4a600000000p-7}
}
}
, {{{-0x1.2fe9180000000p-5, -0x1.01f6e00000000p-4, -0x1.7f33b00000000p-6, 0x1.cd2c800000000p-5, -0x1.a6c5c00000000p-5, -0x1.511e5c0000000p-3, 0x1.a8d8840000000p-4, -0x1.e783980000000p-5}
, {-0x1.14ca860000000p-3, 0x1.6cda840000000p-4, 0x1.2f7f980000000p-5, 0x1.7878000000000p-7, -0x1.528df00000000p-3, -0x1.c205ac0000000p-4, 0x1.9a4f500000000p-6, -0x1.2e18d00000000p-6}
, {-0x1.814fa00000000p-4, -0x1.38895c0000000p-3, 0x1.e297c00000000p-5, 0x1.1ea7d20000000p-3, 0x1.0d11260000000p-3, 0x1.88f0540000000p-4, -0x1.ab7b6c0000000p-4, 0x1.5853000000000p-6}
}
, {{-0x1.22e0c60000000p-3, 0x1.ef4d940000000p-4, -0x1.2eefe00000000p-4, 0x1.38046c0000000p-4, -0x1.e776980000000p-5, 0x1.37ec4a0000000p-3, 0x1.09c7a00000000p-4, 0x1.680c000000000p-6}
, {-0x1.1d4a960000000p-4, 0x1.7b46580000000p-5, 0x1.2b00600000000p-7, -0x1.1982200000000p-3, -0x1.ada4800000000p-6, 0x1.447ac20000000p-3, -0x1.3fbca00000000p-3, 0x1.2627340000000p-4}
, {0x1.bb4c000000000p-8, 0x1.914f000000000p-6, 0x1.d850800000000p-5, -0x1.d99cf60000000p-4, -0x1.3df7c00000000p-4, -0x1.5422400000000p-4, -0x1.b139580000000p-5, -0x1.8253800000000p-5}
}
, {{-0x1.683f180000000p-5, -0x1.503ad60000000p-4, 0x1.f0d9d80000000p-5, 0x1.19af660000000p-3, 0x1.cdbb2c0000000p-4, -0x1.9d19d00000000p-6, -0x1.20b3960000000p-4, -0x1.9c2dec0000000p-4}
, {0x1.aae6240000000p-4, -0x1.04718c0000000p-3, -0x1.63f4800000000p-4, 0x1.34812a0000000p-3, 0x1.029d580000000p-5, 0x1.1784660000000p-3, -0x1.dfbc160000000p-4, 0x1.c7aad80000000p-5}
, {-0x1.ff8d000000000p-10, -0x1.1d5a000000000p-4, -0x1.c62fd60000000p-4, 0x1.2357d60000000p-3, -0x1.48d5960000000p-3, 0x1.5965e40000000p-4, -0x1.f05ecc0000000p-4, -0x1.f15c400000000p-4}
}
}
, {{{-0x1.0167100000000p-3, 0x1.78fa740000000p-4, 0x1.93c4240000000p-4, 0x1.8635840000000p-4, 0x1.47fb1a0000000p-3, 0x1.529db20000000p-3, -0x1.4efe280000000p-5, -0x1.4a4cd60000000p-4}
, {0x1.2555a80000000p-5, -0x1.b1fb160000000p-4, -0x1.5212680000000p-5, 0x1.1068860000000p-3, -0x1.1fa1b00000000p-3, -0x1.432f660000000p-3, -0x1.8dc98c0000000p-4, -0x1.1ecc260000000p-3}
, {0x1.c3b5800000000p-9, 0x1.32be000000000p-8, 0x1.8a646c0000000p-4, 0x1.be4a980000000p-5, 0x1.49b71a0000000p-3, 0x1.40a0560000000p-3, 0x1.9598f40000000p-4, 0x1.ec6a000000000p-7}
}
, {{0x1.7eb7400000000p-5, -0x1.0df12c0000000p-4, 0x1.3a47000000000p-4, -0x1.0f94fc0000000p-3, -0x1.b2fb300000000p-6, -0x1.0282960000000p-3, 0x1.2ed66a0000000p-3, 0x1.32e0800000000p-6}
, {-0x1.1a676c0000000p-4, 0x1.1819760000000p-3, 0x1.2e8f1a0000000p-3, 0x1.9c04000000000p-5, 0x1.85f7980000000p-5, 0x1.1b1c460000000p-3, 0x1.bd61b00000000p-6, -0x1.40916c0000000p-4}
, {-0x1.426c2c0000000p-4, -0x1.5f2e2c0000000p-4, 0x1.5cd8000000000p-9, -0x1.e266800000000p-5, -0x1.5bd5000000000p-5, 0x1.3334280000000p-5, -0x1.063f960000000p-4, 0x1.d52c180000000p-5}
}
, {{-0x1.10396c0000000p-3, -0x1.3c84560000000p-3, 0x1.7710500000000p-6, -0x1.a785400000000p-8, -0x1.36d9c00000000p-4, -0x1.ef16200000000p-4, 0x1.29b3aa0000000p-3, -0x1.2e35000000000p-6}
, {0x1.53bc060000000p-3, 0x1.2002960000000p-3, 0x1.dacca00000000p-7, -0x1.2d52ec0000000p-4, 0x1.f8b6840000000p-4, 0x1.ab47980000000p-5, 0x1.5c73c40000000p-4, -0x1.e106160000000p-4}
, {0x1.03f2a60000000p-3, -0x1.9cea800000000p-4, 0x1.ca30a80000000p-5, -0x1.2120ec0000000p-3, -0x1.d0dcec0000000p-5, 0x1.c7f0a80000000p-5, -0x1.88a0ec0000000p-5, 0x1.c7d6340000000p-4}
}
}
, {{{0x1.8c0cc00000000p-5, 0x1.1273e00000000p-4, 0x1.99de140000000p-4, 0x1.85c4340000000p-4, -0x1.2ae5600000000p-4, 0x1.b0d0240000000p-4, 0x1.86a1f40000000p-4, 0x1.1512200000000p-4}
, {-0x1.0df3a00000000p-3, -0x1.6f03ec0000000p-4, 0x1.51bcb40000000p-4, -0x1.a46fc00000000p-5, -0x1.3d2e3c0000000p-3, -0x1.66762c0000000p-4, -0x1.0a593c0000000p-3, -0x1.240b060000000p-3}
, {-0x1.0984fc0000000p-3, -0x1.5516d60000000p-3, -0x1.32b4360000000p-4, -0x1.0059800000000p-3, -0x1.e215800000000p-5, 0x1.0b6b200000000p-4, 0x1.f9f6b40000000p-4, -0x1.191bcc0000000p-3}
}
, {{0x1.cc31c00000000p-5, 0x1.e3b9980000000p-5, 0x1.004d7a0000000p-3, 0x1.95f1cc0000000p-4, 0x1.f7cda00000000p-7, 0x1.5e1f640000000p-4, 0x1.e34d340000000p-4, -0x1.c562d80000000p-5}
, {0x1.1b62ba0000000p-3, 0x1.475a560000000p-3, 0x1.141d0a0000000p-3, -0x1.65d9a00000000p-7, 0x1.99e5000000000p-6, -0x1.03d2bc0000000p-3, 0x1.2789680000000p-5, -0x1.b6eee00000000p-4}
, {-0x1.809b000000000p-4, 0x1.13c89a0000000p-3, -0x1.6e70a00000000p-4, -0x1.e162ac0000000p-4, -0x1.1771f60000000p-4, -0x1.d37f300000000p-6, -0x1.cbfc400000000p-5, -0x1.10a5280000000p-5}
}
, {{0x1.c481800000000p-5, 0x1.908e240000000p-4, -0x1.9b44c00000000p-5, 0x1.2dbcda0000000p-3, -0x1.b6ab800000000p-6, 0x1.359f820000000p-3, 0x1.0225b00000000p-6, -0x1.9580800000000p-4}
, {0x1.3eb50a0000000p-3, 0x1.e9e3980000000p-5, -0x1.0cfdc00000000p-3, -0x1.b061cc0000000p-4, 0x1.90d8000000000p-5, 0x1.3a438a0000000p-3, 0x1.b472800000000p-6, -0x1.4da4000000000p-8}
, {-0x1.15972c0000000p-4, 0x1.5f07980000000p-5, 0x1.c303680000000p-5, 0x1.a35a600000000p-7, 0x1.893b440000000p-4, -0x1.3659900000000p-3, 0x1.625a8c0000000p-4, 0x1.0795e20000000p-3}
}
}
}
;

#undef INPUT_CHANNELS
#undef CONV_FILTERS
#undef CONV_KERNEL_SIZE_X
#undef CONV_KERNEL_SIZE_Y
#undef CONV_GROUPS