/**
  ******************************************************************************
  * @file    weights/conv2d.cc
  * @author  Pierre-Emmanuel Novac <penovac@unice.fr>, LEAT, CNRS, Université Côte d'Azur, France
  * @version V2.0
  * @date    24 march 2020
  * @brief   Template generating plain C code for the implementation of Convolutional Neural Networks on MCU
  */

#include <stdint.h>

#define INPUT_CHANNELS     8
#define CONV_FILTERS       16
#define CONV_KERNEL_SIZE_Y 3
#define CONV_KERNEL_SIZE_X 3
#define CONV_GROUPS        1


const float conv2d_10_bias[CONV_FILTERS] = {0x0.0p+0, 0x0.0p+0, 0x0.0p+0, 0x0.0p+0, 0x0.0p+0, 0x0.0p+0, 0x0.0p+0, 0x0.0p+0, 0x0.0p+0, 0x0.0p+0, 0x0.0p+0, 0x0.0p+0, 0x0.0p+0, 0x0.0p+0, 0x0.0p+0, 0x0.0p+0}
;


const float conv2d_10_kernel[CONV_FILTERS][CONV_KERNEL_SIZE_Y][CONV_KERNEL_SIZE_X][INPUT_CHANNELS / CONV_GROUPS] = {{{{0x1.5649680000000p-5, 0x1.f5b2300000000p-6, -0x1.0a7c0c0000000p-3, -0x1.30b0d80000000p-5, -0x1.8188ec0000000p-5, -0x1.e94ee00000000p-4, -0x1.d91d000000000p-4, 0x1.0db4020000000p-3}
, {-0x1.0f9b800000000p-4, 0x1.cc65d40000000p-4, -0x1.034bdc0000000p-3, 0x1.a956b00000000p-6, -0x1.0746680000000p-5, 0x1.92cb8c0000000p-4, -0x1.729b000000000p-10, 0x1.90ddf40000000p-4}
, {-0x1.2ab6d00000000p-6, 0x1.46e2680000000p-5, 0x1.10586c0000000p-4, 0x1.2f6f400000000p-8, 0x1.0b90540000000p-4, -0x1.8ef1400000000p-8, 0x1.4928180000000p-5, -0x1.4c1fa60000000p-3}
}
, {{0x1.c34d680000000p-5, -0x1.bf322c0000000p-5, -0x1.0679300000000p-6, 0x1.0c22a00000000p-7, -0x1.b376960000000p-4, -0x1.3d604c0000000p-3, 0x1.ed878c0000000p-4, -0x1.fe62580000000p-5}
, {0x1.9dcb140000000p-4, -0x1.04c2c00000000p-4, 0x1.5183020000000p-3, -0x1.e935960000000p-4, -0x1.049e680000000p-5, -0x1.e8f2d80000000p-5, 0x1.a9f1400000000p-5, 0x1.c0da800000000p-6}
, {0x1.d492c00000000p-8, 0x1.66ae0c0000000p-4, -0x1.1e43ec0000000p-4, -0x1.ee93d00000000p-6, -0x1.efbb560000000p-4, -0x1.bad40c0000000p-4, 0x1.071c020000000p-3, 0x1.606e240000000p-4}
}
, {{0x1.3459960000000p-3, 0x1.b3b4e80000000p-5, 0x1.74bfd00000000p-6, -0x1.cadcac0000000p-5, -0x1.e5d6960000000p-4, -0x1.2649460000000p-3, -0x1.14d8e00000000p-4, 0x1.bcbbe80000000p-5}
, {0x1.100bcc0000000p-4, -0x1.1fdeac0000000p-4, 0x1.53460a0000000p-3, -0x1.a0a8800000000p-5, 0x1.4f3c660000000p-3, 0x1.c082a80000000p-5, 0x1.65e7b00000000p-6, -0x1.f851400000000p-8}
, {-0x1.0f50600000000p-4, 0x1.46e88a0000000p-3, 0x1.323d340000000p-4, -0x1.637c000000000p-9, -0x1.072ed60000000p-4, 0x1.3f8b8a0000000p-3, -0x1.b5f6ac0000000p-5, -0x1.0772e80000000p-5}
}
}
, {{{-0x1.3f11d60000000p-4, -0x1.150e580000000p-5, 0x1.8f7d580000000p-5, 0x1.f4f36c0000000p-4, 0x1.5407f60000000p-3, 0x1.448fd60000000p-3, 0x1.d4f96c0000000p-4, 0x1.e9f7e80000000p-5}
, {0x1.109f280000000p-5, 0x1.4198c00000000p-8, 0x1.1f21600000000p-4, 0x1.f64c0c0000000p-4, 0x1.d881340000000p-4, 0x1.93f52c0000000p-4, 0x1.016c0a0000000p-3, 0x1.3b09fa0000000p-3}
, {-0x1.216ff60000000p-3, 0x1.295f0a0000000p-3, 0x1.4264ba0000000p-3, 0x1.0381140000000p-4, -0x1.7246d00000000p-6, 0x1.bc50640000000p-4, 0x1.70df0c0000000p-4, -0x1.7040000000000p-9}
}
, {{-0x1.464d000000000p-5, 0x1.2f88600000000p-7, 0x1.bb8b500000000p-6, -0x1.e2fad60000000p-4, 0x1.17f5a60000000p-3, -0x1.45ccd60000000p-3, -0x1.2947700000000p-3, -0x1.7eb9400000000p-5}
, {-0x1.29a7c00000000p-5, 0x1.f329340000000p-4, -0x1.b5f9400000000p-4, 0x1.d310e40000000p-4, 0x1.2911800000000p-4, 0x1.0c65c20000000p-3, -0x1.87c3600000000p-7, -0x1.cec0ec0000000p-4}
, {-0x1.99f1600000000p-4, 0x1.2c5e660000000p-3, -0x1.e0a14c0000000p-4, -0x1.a398980000000p-5, 0x1.2dd09a0000000p-3, -0x1.1d6f280000000p-5, -0x1.29d84c0000000p-4, -0x1.44fc500000000p-3}
}
, {{0x1.725c8c0000000p-4, -0x1.43c4c00000000p-4, 0x1.9045ac0000000p-4, -0x1.6b06560000000p-4, -0x1.3f608c0000000p-4, 0x1.c759d40000000p-4, -0x1.f4e8980000000p-5, 0x1.86ba0c0000000p-4}
, {0x1.368ef60000000p-3, 0x1.1774400000000p-5, 0x1.9ced800000000p-9, 0x1.475be00000000p-4, -0x1.244b200000000p-4, 0x1.673b800000000p-5, -0x1.25cb900000000p-3, -0x1.2425760000000p-3}
, {-0x1.3d27e60000000p-3, -0x1.5a42180000000p-5, -0x1.d52c160000000p-4, -0x1.0fc2400000000p-4, 0x1.916dd00000000p-6, 0x1.4c5bf20000000p-3, -0x1.e19f800000000p-6, -0x1.018d400000000p-8}
}
}
, {{{0x1.2d040a0000000p-3, -0x1.d78f400000000p-5, 0x1.43d4060000000p-3, -0x1.3605fc0000000p-3, 0x1.e0d1980000000p-5, -0x1.2424800000000p-5, -0x1.e2d9000000000p-4, 0x1.2425e60000000p-3}
, {-0x1.800e000000000p-4, 0x1.59c1400000000p-5, 0x1.edce400000000p-5, 0x1.c23d340000000p-4, -0x1.20ab560000000p-4, 0x1.7528540000000p-4, -0x1.7e74800000000p-4, 0x1.2b5e680000000p-5}
, {-0x1.3cfc1c0000000p-3, 0x1.bc0c2c0000000p-4, -0x1.3afbb00000000p-3, 0x1.f1a9500000000p-6, -0x1.efe4000000000p-6, -0x1.3c9e680000000p-5, -0x1.0c91460000000p-3, 0x1.d058540000000p-4}
}
, {{-0x1.cebe180000000p-5, 0x1.f4576c0000000p-4, -0x1.d601d00000000p-6, 0x1.5518680000000p-5, -0x1.36f6100000000p-3, -0x1.5398800000000p-5, -0x1.fd36000000000p-5, -0x1.3170dc0000000p-3}
, {0x1.007bba0000000p-3, 0x1.2351340000000p-4, -0x1.096d680000000p-5, 0x1.4102680000000p-5, -0x1.0981b60000000p-3, -0x1.0419e00000000p-3, 0x1.2c9bcc0000000p-4, -0x1.33f1cc0000000p-4}
, {-0x1.6a9f960000000p-4, 0x1.3c26a60000000p-3, -0x1.452e600000000p-3, -0x1.1f06f60000000p-4, 0x1.14d3400000000p-4, 0x1.4428a80000000p-5, -0x1.0710800000000p-3, 0x1.8c11440000000p-4}
}
, {{0x1.2144000000000p-7, -0x1.7d77800000000p-6, 0x1.21ff1a0000000p-3, 0x1.c6eaa80000000p-5, 0x1.b4aec40000000p-4, -0x1.6dd2c00000000p-8, 0x1.f00d000000000p-5, 0x1.de4c2c0000000p-4}
, {0x1.76ba540000000p-4, -0x1.d2212c0000000p-5, -0x1.b1cb980000000p-5, 0x1.03e20a0000000p-3, -0x1.94b6600000000p-4, 0x1.3a8f2a0000000p-3, -0x1.89db800000000p-6, -0x1.5034800000000p-6}
, {0x1.4a780a0000000p-3, -0x1.2ac2360000000p-4, 0x1.a8f16c0000000p-4, 0x1.996f280000000p-5, -0x1.0c2c000000000p-3, -0x1.e5f6360000000p-4, -0x1.378bac0000000p-4, -0x1.6847400000000p-8}
}
}
, {{{-0x1.d1d8c00000000p-8, 0x1.2781740000000p-4, 0x1.c50b340000000p-4, -0x1.65e9000000000p-5, 0x1.59dde80000000p-5, -0x1.be96cc0000000p-4, 0x1.0d47600000000p-4, -0x1.2daf460000000p-3}
, {0x1.0e7eb00000000p-6, -0x1.a2a9360000000p-4, -0x1.1abf000000000p-3, -0x1.cd4d300000000p-6, -0x1.2509c00000000p-3, -0x1.c300000000000p-9, -0x1.5a26800000000p-5, 0x1.065faa0000000p-3}
, {-0x1.410a600000000p-4, 0x1.d34b540000000p-4, -0x1.886cd60000000p-4, 0x1.ce71e80000000p-5, 0x1.2e15260000000p-3, 0x1.001ed20000000p-3, 0x1.2150360000000p-3, 0x1.40d7360000000p-3}
}
, {{0x1.9ede0c0000000p-4, 0x1.079ed20000000p-3, -0x1.35a0360000000p-3, -0x1.50b2bc0000000p-3, 0x1.2c10d20000000p-3, -0x1.0b64e00000000p-4, -0x1.27235c0000000p-3, -0x1.7fc98c0000000p-4}
, {0x1.3d29260000000p-3, -0x1.3a75fc0000000p-3, -0x1.1e68280000000p-5, 0x1.bcd3140000000p-4, 0x1.b0f2ec0000000p-4, -0x1.d6fe8c0000000p-4, 0x1.09183a0000000p-3, -0x1.2a50d60000000p-3}
, {0x1.9be1a40000000p-4, -0x1.926ee00000000p-4, 0x1.f308a40000000p-4, -0x1.36c8500000000p-3, -0x1.ec2aac0000000p-4, -0x1.3f30d60000000p-3, -0x1.890c980000000p-5, -0x1.15afb00000000p-6}
}
, {{0x1.0845d40000000p-4, 0x1.4ca4600000000p-4, -0x1.efd6d00000000p-6, -0x1.1f36cc0000000p-4, 0x1.aeb1e80000000p-5, -0x1.96a9d60000000p-4, 0x1.c6f1840000000p-4, -0x1.16e5960000000p-3}
, {-0x1.1cd10c0000000p-4, 0x1.00c4320000000p-3, -0x1.c5bdd00000000p-6, -0x1.0626700000000p-3, 0x1.c73bd40000000p-4, 0x1.b05dac0000000p-4, -0x1.0bd5000000000p-6, -0x1.45ec460000000p-3}
, {0x1.2b8b920000000p-3, 0x1.4314da0000000p-3, 0x1.d5e5840000000p-4, 0x1.6006c00000000p-8, 0x1.76a10c0000000p-4, -0x1.2ba1000000000p-4, 0x1.230e000000000p-5, 0x1.971e2c0000000p-4}
}
}
, {{{-0x1.6474000000000p-7, 0x1.23d3000000000p-4, -0x1.cd40960000000p-4, 0x1.e8a1800000000p-9, 0x1.2e18720000000p-3, 0x1.d324000000000p-9, -0x1.d839300000000p-6, -0x1.ec9c000000000p-5}
, {0x1.096be80000000p-5, -0x1.d205160000000p-4, -0x1.54a13c0000000p-3, -0x1.3ea8bc0000000p-3, -0x1.031f160000000p-3, 0x1.9079640000000p-4, -0x1.0bc7500000000p-3, 0x1.aa28280000000p-5}
, {-0x1.0d11900000000p-3, -0x1.6350000000000p-14, 0x1.0daa800000000p-4, 0x1.e1b6c00000000p-8, -0x1.236a6c0000000p-3, -0x1.4d622c0000000p-4, -0x1.9067000000000p-6, -0x1.75d5ec0000000p-4}
}
, {{0x1.3ecd600000000p-7, -0x1.7f5b180000000p-5, -0x1.5ea4ac0000000p-5, -0x1.77d3a00000000p-4, 0x1.2103a60000000p-3, 0x1.7536d80000000p-5, 0x1.4058b40000000p-4, -0x1.f0ac600000000p-7}
, {0x1.1304aa0000000p-3, 0x1.e981ac0000000p-4, 0x1.5369b60000000p-3, -0x1.20d4300000000p-3, 0x1.4ac8ec0000000p-4, 0x1.c19b000000000p-6, 0x1.00a8020000000p-3, 0x1.5b550c0000000p-4}
, {0x1.11faa80000000p-5, -0x1.d104000000000p-6, 0x1.6a02140000000p-4, -0x1.ce490c0000000p-4, -0x1.1f9f580000000p-5, -0x1.28bf400000000p-3, 0x1.e979140000000p-4, 0x1.d46dcc0000000p-4}
}
, {{-0x1.0eedec0000000p-3, 0x1.4fffe80000000p-5, 0x1.a95ee40000000p-4, -0x1.1f0aa60000000p-3, 0x1.09b7e00000000p-4, 0x1.29385a0000000p-3, -0x1.53091c0000000p-3, -0x1.c1fcac0000000p-4}
, {-0x1.3bd9000000000p-4, -0x1.a675400000000p-8, -0x1.9b34980000000p-5, -0x1.6144c00000000p-8, -0x1.1fa48c0000000p-3, -0x1.8b18000000000p-10, 0x1.8d9e440000000p-4, 0x1.0f1a0a0000000p-3}
, {0x1.16158c0000000p-4, -0x1.3ad8fc0000000p-3, 0x1.7c71840000000p-4, -0x1.58336c0000000p-4, -0x1.5c59cc0000000p-4, 0x1.a0e3580000000p-5, 0x1.22b92c0000000p-4, 0x1.44d1300000000p-6}
}
}
, {{{-0x1.12e6000000000p-11, 0x1.77a7400000000p-8, -0x1.6e78600000000p-7, 0x1.1142300000000p-6, 0x1.3213860000000p-3, -0x1.12a2a00000000p-7, -0x1.9a22400000000p-5, 0x1.42a1ea0000000p-3}
, {-0x1.2dfaac0000000p-3, -0x1.d3b04c0000000p-4, -0x1.4c86b00000000p-6, -0x1.fea9000000000p-4, 0x1.0014ea0000000p-3, -0x1.1f36860000000p-3, 0x1.260d800000000p-5, -0x1.211f800000000p-3}
, {0x1.f662940000000p-4, -0x1.68e08c0000000p-4, 0x1.f94b280000000p-5, 0x1.3a51020000000p-3, 0x1.cffd800000000p-6, -0x1.a2ed6c0000000p-4, 0x1.1059580000000p-5, 0x1.06fec00000000p-4}
}
, {{0x1.a380140000000p-4, -0x1.547ad80000000p-5, 0x1.a78ea80000000p-5, 0x1.a58cd80000000p-5, -0x1.7a65800000000p-5, -0x1.014b4c0000000p-3, 0x1.91bbcc0000000p-4, -0x1.d247ac0000000p-4}
, {-0x1.22ebe00000000p-4, -0x1.fe16000000000p-4, 0x1.00db000000000p-4, -0x1.06ce460000000p-3, 0x1.0ddcac0000000p-4, -0x1.0aeed00000000p-6, 0x1.3befd40000000p-4, 0x1.4a018a0000000p-3}
, {0x1.0432860000000p-3, 0x1.988f680000000p-5, 0x1.3da7660000000p-3, 0x1.1b18800000000p-4, 0x1.ed40800000000p-5, -0x1.b233980000000p-5, -0x1.0a7b960000000p-3, 0x1.90b4d00000000p-6}
}
, {{-0x1.3ab4100000000p-3, -0x1.61a4d00000000p-6, -0x1.6b898c0000000p-4, 0x1.155a400000000p-5, 0x1.a4f5600000000p-7, -0x1.1cd7800000000p-4, -0x1.08d6860000000p-3, 0x1.29b4b00000000p-6}
, {0x1.a000b40000000p-4, -0x1.4484360000000p-3, 0x1.234ed60000000p-3, 0x1.5a96000000000p-7, -0x1.e7b5ac0000000p-5, 0x1.c009cc0000000p-4, 0x1.a1e26c0000000p-4, -0x1.2469ec0000000p-3}
, {0x1.1c07c20000000p-3, -0x1.5530660000000p-3, -0x1.0f2aa00000000p-3, -0x1.cb18600000000p-7, 0x1.6ef2ac0000000p-4, -0x1.c687b00000000p-6, -0x1.271cf60000000p-4, -0x1.bc42000000000p-4}
}
}
, {{{-0x1.4b31000000000p-3, 0x1.3462140000000p-4, 0x1.3645d40000000p-4, -0x1.5945980000000p-5, -0x1.8e11000000000p-6, -0x1.d3cb200000000p-4, 0x1.76e20c0000000p-4, 0x1.0ea8400000000p-5}
, {0x1.0682580000000p-5, 0x1.bfc0000000000p-10, -0x1.9d52500000000p-6, 0x1.1bccd00000000p-6, 0x1.a57cb00000000p-6, 0x1.5194580000000p-5, -0x1.1e8cd00000000p-3, 0x1.3b09820000000p-3}
, {0x1.2d42680000000p-5, -0x1.238b760000000p-4, -0x1.518f580000000p-5, 0x1.b724a40000000p-4, 0x1.c8e6a00000000p-7, -0x1.2cfc980000000p-5, 0x1.ee8c840000000p-4, 0x1.b15ee80000000p-5}
}
, {{0x1.1c95800000000p-5, 0x1.7c15000000000p-6, 0x1.cbe60c0000000p-4, 0x1.a354600000000p-7, 0x1.98dce40000000p-4, 0x1.d440ec0000000p-4, -0x1.3d5fa00000000p-7, -0x1.a664000000000p-5}
, {0x1.48dc520000000p-3, 0x1.25b6d00000000p-6, 0x1.3960260000000p-3, 0x1.d745040000000p-4, 0x1.07b6300000000p-6, -0x1.6763000000000p-6, 0x1.d998000000000p-8, -0x1.7f06800000000p-6}
, {-0x1.3030960000000p-3, 0x1.eb66d00000000p-6, -0x1.0713360000000p-3, 0x1.16823a0000000p-3, -0x1.360b4c0000000p-4, -0x1.5540800000000p-4, -0x1.f7df2c0000000p-5, -0x1.a058360000000p-4}
}
, {{-0x1.f470a00000000p-7, 0x1.ad55240000000p-4, 0x1.1dc6760000000p-3, 0x1.11b4600000000p-7, 0x1.2093300000000p-6, 0x1.e4b4580000000p-5, -0x1.8f50800000000p-6, -0x1.3929960000000p-3}
, {-0x1.acf0800000000p-6, 0x1.da61440000000p-4, 0x1.4d87800000000p-6, 0x1.1012a80000000p-5, 0x1.6df8600000000p-7, 0x1.8f7ec00000000p-8, -0x1.8ecf500000000p-6, 0x1.dbae000000000p-7}
, {0x1.2fed960000000p-3, -0x1.1a82260000000p-3, 0x1.8893ac0000000p-4, -0x1.37efa00000000p-4, 0x1.eff3680000000p-5, -0x1.c25db00000000p-6, 0x1.0941460000000p-3, -0x1.45cb400000000p-3}
}
}
, {{{0x1.2bd1500000000p-6, -0x1.7cad800000000p-9, 0x1.c091980000000p-5, -0x1.6025360000000p-4, 0x1.1988000000000p-4, -0x1.ae73d60000000p-4, -0x1.5ad2500000000p-6, -0x1.5748d60000000p-4}
, {0x1.e071b40000000p-4, 0x1.0eedb00000000p-6, -0x1.139ad80000000p-5, -0x1.0a78300000000p-6, 0x1.4c20800000000p-4, -0x1.dee24c0000000p-4, -0x1.43fe000000000p-3, -0x1.7a6eac0000000p-4}
, {-0x1.4a9fcc0000000p-3, -0x1.1fd96c0000000p-3, -0x1.04d6a00000000p-7, -0x1.c0178c0000000p-4, 0x1.7bbb000000000p-5, 0x1.e3d6cc0000000p-4, 0x1.2c85b00000000p-6, -0x1.3ae3000000000p-4}
}
, {{-0x1.ce89f60000000p-4, 0x1.e40c000000000p-6, -0x1.c982400000000p-5, 0x1.6a6d680000000p-5, 0x1.3903980000000p-5, 0x1.5cce6c0000000p-4, 0x1.bc24e80000000p-5, -0x1.dafa160000000p-4}
, {-0x1.8475cc0000000p-4, 0x1.289b000000000p-4, 0x1.f2e30c0000000p-4, 0x1.d3c2cc0000000p-4, -0x1.8700160000000p-4, -0x1.2709200000000p-3, -0x1.4fec400000000p-4, 0x1.a0cab40000000p-4}
, {-0x1.3059060000000p-3, -0x1.0345a00000000p-7, 0x1.3d2c720000000p-3, 0x1.8c3a040000000p-4, 0x1.1382800000000p-4, -0x1.3c67e00000000p-4, -0x1.4028c60000000p-3, -0x1.5016100000000p-3}
}
, {{-0x1.d8aad80000000p-5, 0x1.cb3c000000000p-7, 0x1.832e640000000p-4, 0x1.e233340000000p-4, 0x1.28bb320000000p-3, -0x1.b86a0c0000000p-4, -0x1.1c3b360000000p-3, -0x1.780d600000000p-7}
, {0x1.0cfc120000000p-3, -0x1.af3d160000000p-4, -0x1.1e9ff00000000p-3, 0x1.0757aa0000000p-3, 0x1.a25cb00000000p-6, 0x1.df9e600000000p-7, 0x1.4540760000000p-3, -0x1.c012600000000p-7}
, {0x1.c5cbac0000000p-4, -0x1.2d98280000000p-5, -0x1.6591a00000000p-4, 0x1.e33da00000000p-7, -0x1.24a3a80000000p-5, -0x1.8fbc000000000p-9, -0x1.6223000000000p-5, 0x1.f384a40000000p-4}
}
}
, {{{-0x1.bda7d60000000p-4, -0x1.e828c00000000p-5, -0x1.cbadb60000000p-4, 0x1.1ea5d00000000p-6, 0x1.5d3a600000000p-7, 0x1.2b36a00000000p-7, -0x1.06fcd00000000p-3, -0x1.4d0c460000000p-3}
, {-0x1.3d4fdc0000000p-3, 0x1.898e0c0000000p-4, 0x1.6259000000000p-7, -0x1.b720000000000p-9, 0x1.41c61a0000000p-3, -0x1.3ea5600000000p-3, 0x1.1dbc300000000p-6, 0x1.7723f40000000p-4}
, {0x1.1116f40000000p-4, -0x1.71bde00000000p-4, -0x1.1b544c0000000p-3, -0x1.cde2cc0000000p-4, 0x1.37a0f60000000p-3, -0x1.416a680000000p-5, 0x1.26c4920000000p-3, 0x1.5421560000000p-3}
}
, {{0x1.d1f4d00000000p-6, -0x1.ff25800000000p-6, -0x1.00cd000000000p-10, 0x1.07020c0000000p-4, 0x1.4c1d680000000p-5, -0x1.0ad1560000000p-3, -0x1.e833ec0000000p-4, 0x1.6b30640000000p-4}
, {0x1.15ee520000000p-3, -0x1.3b13ec0000000p-3, -0x1.27ec800000000p-3, -0x1.783c800000000p-5, -0x1.d028800000000p-4, 0x1.d858a40000000p-4, 0x1.2dc5020000000p-3, 0x1.b360000000000p-9}
, {0x1.793b000000000p-7, 0x1.5466820000000p-3, -0x1.4ea4560000000p-3, -0x1.180a2c0000000p-4, -0x1.428bc00000000p-3, -0x1.34a1000000000p-3, 0x1.468a800000000p-6, 0x1.47dc620000000p-3}
}
, {{-0x1.165cd80000000p-5, 0x1.845e440000000p-4, 0x1.2461d00000000p-6, -0x1.5b53500000000p-6, 0x1.1a59000000000p-4, 0x1.51348c0000000p-4, 0x1.ce77b00000000p-6, 0x1.201ae80000000p-5}
, {-0x1.7334400000000p-4, -0x1.387a6c0000000p-3, -0x1.cf3ecc0000000p-4, 0x1.4e5a340000000p-4, -0x1.b783d00000000p-6, 0x1.3c6f740000000p-4, 0x1.443e320000000p-3, -0x1.4d4a280000000p-5}
, {-0x1.8ebba00000000p-4, 0x1.e469400000000p-5, 0x1.4037820000000p-3, 0x1.87a7cc0000000p-4, 0x1.18c30a0000000p-3, 0x1.5209160000000p-3, -0x1.9a40800000000p-4, -0x1.f9230c0000000p-4}
}
}
, {{{0x1.8b2f040000000p-4, 0x1.c31ed00000000p-6, -0x1.01af7c0000000p-3, -0x1.06c6360000000p-3, 0x1.7e6d540000000p-4, 0x1.614c440000000p-4, 0x1.52d2cc0000000p-4, 0x1.a13ee40000000p-4}
, {-0x1.42bf800000000p-3, -0x1.64ba000000000p-8, -0x1.42abd00000000p-3, -0x1.8ec1a00000000p-4, 0x1.52a2600000000p-4, 0x1.60f88c0000000p-4, 0x1.7f36b40000000p-4, 0x1.306f000000000p-5}
, {0x1.cb2a000000000p-7, 0x1.9f46180000000p-5, 0x1.59d6a80000000p-5, 0x1.3d70f60000000p-3, 0x1.48ba520000000p-3, 0x1.25e4740000000p-4, -0x1.3e48000000000p-6, 0x1.f751040000000p-4}
}
, {{-0x1.75516c0000000p-5, 0x1.2a14c60000000p-3, 0x1.c8ba180000000p-5, 0x1.b8b9340000000p-4, 0x1.e3fecc0000000p-4, -0x1.f969a00000000p-7, -0x1.baea6c0000000p-4, 0x1.b916180000000p-5}
, {0x1.48fdb20000000p-3, -0x1.ab17b60000000p-4, -0x1.15d9600000000p-3, -0x1.46b8c00000000p-3, -0x1.634ab60000000p-4, -0x1.51e76c0000000p-4, -0x1.02eee00000000p-3, -0x1.4956560000000p-3}
, {0x1.ced5800000000p-6, -0x1.6da0c00000000p-8, -0x1.315b4c0000000p-4, -0x1.ca2cd60000000p-4, 0x1.e671600000000p-7, 0x1.610d040000000p-4, 0x1.6626180000000p-5, -0x1.0114560000000p-3}
}
, {{-0x1.87cb600000000p-4, -0x1.82b8a00000000p-7, 0x1.8b68000000000p-13, 0x1.0512600000000p-7, 0x1.17bce80000000p-5, -0x1.43315c0000000p-3, -0x1.32b95c0000000p-3, 0x1.dbd9e80000000p-5}
, {-0x1.c0e3600000000p-4, 0x1.14b9680000000p-5, -0x1.5a7c6c0000000p-5, -0x1.12ca960000000p-3, -0x1.638be00000000p-4, 0x1.2820720000000p-3, -0x1.0bd9700000000p-3, -0x1.16a2300000000p-6}
, {-0x1.40b8300000000p-3, -0x1.4e9de00000000p-3, -0x1.c113760000000p-4, 0x1.23f1ea0000000p-3, -0x1.3e37800000000p-3, -0x1.a576360000000p-4, 0x1.404b9a0000000p-3, 0x1.4f0c500000000p-6}
}
}
, {{{-0x1.19b1400000000p-8, 0x1.a8a3800000000p-5, -0x1.19a36c0000000p-4, 0x1.0a799a0000000p-3, -0x1.2163a80000000p-5, -0x1.f653000000000p-7, 0x1.f537600000000p-7, -0x1.be38d80000000p-5}
, {0x1.078c2c0000000p-4, -0x1.93fd0c0000000p-4, 0x1.9edc300000000p-6, -0x1.4f63600000000p-4, 0x1.448b400000000p-8, 0x1.1d27760000000p-3, 0x1.4544c20000000p-3, 0x1.d488c00000000p-8}
, {-0x1.ecf1560000000p-4, 0x1.32ec620000000p-3, 0x1.855d040000000p-4, 0x1.514ab20000000p-3, 0x1.038bfa0000000p-3, 0x1.11acba0000000p-3, 0x1.3aefda0000000p-3, 0x1.67c1000000000p-6}
}
, {{-0x1.98b32c0000000p-5, 0x1.3123160000000p-3, -0x1.9abe400000000p-5, -0x1.ad90400000000p-4, 0x1.0d6bd60000000p-3, 0x1.f9ae000000000p-6, -0x1.053a060000000p-3, -0x1.cc3ca00000000p-7}
, {0x1.3c01000000000p-6, -0x1.1471a80000000p-5, 0x1.278b0c0000000p-4, -0x1.4e39900000000p-3, 0x1.4838600000000p-4, 0x1.4cb4c20000000p-3, 0x1.1e4d960000000p-3, -0x1.9eced00000000p-6}
, {-0x1.fd99b60000000p-4, -0x1.d140800000000p-4, 0x1.b4ba000000000p-8, -0x1.a6fda00000000p-4, -0x1.f5c94c0000000p-4, 0x1.4c98940000000p-4, -0x1.d069e00000000p-4, 0x1.8ef4cc0000000p-4}
}
, {{-0x1.f5becc0000000p-4, -0x1.188e8c0000000p-4, 0x1.074a000000000p-5, -0x1.209d680000000p-5, 0x1.975a180000000p-5, 0x1.cc42d80000000p-5, -0x1.f79b400000000p-4, -0x1.a32cac0000000p-4}
, {-0x1.ac6a400000000p-4, -0x1.5ad48c0000000p-4, 0x1.cf2dd00000000p-6, -0x1.52e6e80000000p-5, 0x1.48f2020000000p-3, 0x1.815cb00000000p-6, -0x1.a5bc400000000p-4, 0x1.a97dac0000000p-4}
, {-0x1.0c0ffc0000000p-3, 0x1.b629800000000p-9, 0x1.1f15400000000p-4, 0x1.59a40c0000000p-4, 0x1.20d0180000000p-5, -0x1.516f500000000p-6, -0x1.f886c00000000p-8, 0x1.a761580000000p-5}
}
}
, {{{-0x1.1d24860000000p-3, -0x1.e358b60000000p-4, 0x1.3f9cac0000000p-4, 0x1.adbc340000000p-4, 0x1.54b91a0000000p-3, -0x1.4bd0e00000000p-4, 0x1.a0c8cc0000000p-4, -0x1.9255c00000000p-4}
, {-0x1.2e0dc60000000p-3, -0x1.48c5200000000p-4, -0x1.f776c00000000p-8, -0x1.9170960000000p-4, -0x1.3a8b900000000p-3, 0x1.00f2720000000p-3, 0x1.410ca60000000p-3, -0x1.99e5a00000000p-7}
, {-0x1.3b1b000000000p-6, -0x1.27ce300000000p-3, -0x1.439a800000000p-3, 0x1.489e420000000p-3, 0x1.095f340000000p-4, -0x1.94cb300000000p-6, 0x1.0d0b360000000p-3, -0x1.44f46c0000000p-4}
}
, {{-0x1.5cc7400000000p-8, 0x1.4b6d060000000p-3, 0x1.8dca000000000p-5, 0x1.b57a6c0000000p-4, 0x1.3f91120000000p-3, -0x1.79b12c0000000p-5, 0x1.af77c40000000p-4, 0x1.f93a540000000p-4}
, {0x1.f3d3600000000p-7, 0x1.0667020000000p-3, -0x1.f39bf60000000p-4, -0x1.30a25c0000000p-3, -0x1.ce7f160000000p-4, 0x1.1aaf0c0000000p-4, 0x1.51d44a0000000p-3, -0x1.38b1b60000000p-3}
, {-0x1.551fc00000000p-3, 0x1.781fe80000000p-5, -0x1.34fb560000000p-3, 0x1.64db000000000p-10, -0x1.db7e6c0000000p-4, -0x1.1276400000000p-4, 0x1.2f8d8c0000000p-4, -0x1.68bf8c0000000p-4}
}
, {{0x1.4453a20000000p-3, -0x1.28bfac0000000p-4, -0x1.93c3600000000p-7, -0x1.06a3760000000p-3, 0x1.3d25e00000000p-4, -0x1.26fb000000000p-4, 0x1.1021b20000000p-3, 0x1.49dd800000000p-4}
, {-0x1.28b5400000000p-5, 0x1.292cb60000000p-3, -0x1.c1b0400000000p-5, -0x1.d2a7300000000p-6, 0x1.389b060000000p-3, 0x1.33d60c0000000p-4, -0x1.9479000000000p-6, -0x1.54c8400000000p-3}
, {0x1.a7c0680000000p-5, 0x1.9729800000000p-6, 0x1.1ce1fa0000000p-3, 0x1.10f8d20000000p-3, 0x1.4713120000000p-3, 0x1.4ebf820000000p-3, -0x1.2a53000000000p-10, 0x1.4691940000000p-4}
}
}
, {{{-0x1.8455cc0000000p-4, -0x1.90be000000000p-5, -0x1.7b34300000000p-6, -0x1.c30a580000000p-5, 0x1.091a960000000p-3, 0x1.0e3ada0000000p-3, -0x1.875d6c0000000p-5, -0x1.2b92f60000000p-4}
, {-0x1.63e5960000000p-4, 0x1.510e160000000p-3, -0x1.eda3300000000p-6, 0x1.4af8320000000p-3, -0x1.5ae2000000000p-7, 0x1.8198600000000p-7, -0x1.e130000000000p-11, 0x1.8a3b940000000p-4}
, {-0x1.111ca80000000p-5, 0x1.b6260c0000000p-4, 0x1.22c8060000000p-3, -0x1.6ef0600000000p-7, -0x1.e27c6c0000000p-5, -0x1.20fc300000000p-3, 0x1.0cbd020000000p-3, -0x1.065f900000000p-3}
}
, {{-0x1.5035860000000p-3, -0x1.4263ec0000000p-3, 0x1.7ba8400000000p-5, -0x1.3fe18c0000000p-4, 0x1.387a060000000p-3, -0x1.e0f0b60000000p-4, 0x1.4dd0660000000p-3, 0x1.42e3920000000p-3}
, {-0x1.2e28c60000000p-3, -0x1.ea380c0000000p-4, -0x1.cfaaa00000000p-7, -0x1.c770cc0000000p-4, 0x1.1f44020000000p-3, 0x1.1352c60000000p-3, 0x1.e809940000000p-4, 0x1.f5bac00000000p-5}
, {0x1.0e4fb60000000p-3, -0x1.bd486c0000000p-4, -0x1.2d1d200000000p-3, 0x1.4e0b060000000p-3, -0x1.3b6b000000000p-4, 0x1.f4cd300000000p-6, -0x1.c2f2800000000p-9, 0x1.ece1400000000p-5}
}
, {{-0x1.4123560000000p-3, -0x1.3f2f900000000p-3, -0x1.0370400000000p-5, 0x1.9842ec0000000p-4, 0x1.e2d3740000000p-4, 0x1.5031ec0000000p-4, 0x1.76a7500000000p-6, -0x1.c4c6e00000000p-4}
, {-0x1.3cf2b60000000p-4, -0x1.30b32c0000000p-3, -0x1.ff48400000000p-5, 0x1.3ef33a0000000p-3, 0x1.9cdb6c0000000p-4, 0x1.1d55980000000p-5, -0x1.1046a00000000p-3, 0x1.485a300000000p-6}
, {-0x1.171e760000000p-3, -0x1.59a56c0000000p-5, -0x1.279e400000000p-3, 0x1.35dd280000000p-5, 0x1.1ec4d40000000p-4, 0x1.44a20a0000000p-3, 0x1.9bdf540000000p-4, -0x1.3412a00000000p-3}
}
}
, {{{0x1.2f30560000000p-3, -0x1.662c400000000p-4, -0x1.3af6e60000000p-3, 0x1.39afca0000000p-3, -0x1.4f91460000000p-3, 0x1.c120a00000000p-7, 0x1.2df9800000000p-9, -0x1.487ea00000000p-4}
, {-0x1.5cd8980000000p-5, 0x1.23c6600000000p-4, 0x1.38ca3a0000000p-3, -0x1.31370c0000000p-4, 0x1.0299b20000000p-3, -0x1.deab580000000p-5, -0x1.e60d960000000p-4, 0x1.1cbc800000000p-6}
, {0x1.f514800000000p-5, 0x1.9882a80000000p-5, -0x1.3d5ff00000000p-3, -0x1.f6e5000000000p-4, -0x1.4bb3760000000p-3, -0x1.3e3b860000000p-3, 0x1.437e820000000p-3, 0x1.41c0180000000p-5}
}
, {{-0x1.9190c00000000p-5, -0x1.22c5360000000p-3, -0x1.5ecc600000000p-7, 0x1.9ce1800000000p-9, 0x1.11ecf40000000p-4, 0x1.07e9da0000000p-3, -0x1.4af0f60000000p-3, 0x1.8324ec0000000p-4}
, {0x1.ed0aac0000000p-4, 0x1.af1d040000000p-4, -0x1.4dc6f60000000p-3, -0x1.a36d960000000p-4, -0x1.37dd160000000p-3, 0x1.c5deb00000000p-6, -0x1.36e1e00000000p-4, -0x1.b28e800000000p-9}
, {-0x1.f324ac0000000p-5, -0x1.42b01c0000000p-3, -0x1.b376000000000p-5, -0x1.0ae3bc0000000p-3, -0x1.ea43000000000p-5, -0x1.5058160000000p-4, -0x1.c821f60000000p-4, -0x1.159ee80000000p-5}
}
, {{-0x1.2a94280000000p-5, -0x1.f510000000000p-8, 0x1.2f5f460000000p-3, 0x1.00639a0000000p-3, -0x1.f7e0ac0000000p-4, 0x1.db3c440000000p-4, -0x1.6b07160000000p-4, 0x1.e918140000000p-4}
, {0x1.46f5a00000000p-7, 0x1.b07ce40000000p-4, -0x1.1d20e80000000p-5, -0x1.30b8000000000p-5, -0x1.36d6560000000p-3, 0x1.23e4b20000000p-3, -0x1.fe1a600000000p-7, 0x1.5acc640000000p-4}
, {-0x1.389f000000000p-5, 0x1.3e84e00000000p-4, -0x1.4845860000000p-3, -0x1.9e6c500000000p-6, 0x1.1fa6660000000p-3, -0x1.36ac4c0000000p-3, -0x1.7fb4960000000p-4, 0x1.03ce800000000p-9}
}
}
, {{{0x1.2624d20000000p-3, 0x1.bd28ac0000000p-4, 0x1.d4eaec0000000p-4, 0x1.0d6ed40000000p-4, 0x1.5874000000000p-8, -0x1.4532bc0000000p-3, 0x1.6b50540000000p-4, 0x1.219a600000000p-7}
, {0x1.4f130c0000000p-4, 0x1.b160c00000000p-5, -0x1.8a1fec0000000p-4, 0x1.4520660000000p-3, 0x1.c342a80000000p-5, -0x1.7e996c0000000p-4, 0x1.c896040000000p-4, -0x1.505cc60000000p-3}
, {0x1.a7cb300000000p-6, -0x1.f9e3200000000p-4, 0x1.1807000000000p-7, -0x1.6b39360000000p-4, 0x1.2558740000000p-4, -0x1.0490e80000000p-5, -0x1.21d8e00000000p-4, -0x1.cbdfc00000000p-5}
}
, {{0x1.abaf000000000p-5, 0x1.5316d60000000p-3, -0x1.c24cac0000000p-4, 0x1.083aa00000000p-7, 0x1.27bfa20000000p-3, -0x1.1c8e400000000p-4, -0x1.a0b7ec0000000p-5, -0x1.0f5dac0000000p-4}
, {0x1.d811600000000p-7, -0x1.f3c6ac0000000p-5, -0x1.38f9e60000000p-3, 0x1.d01da80000000p-5, -0x1.4a393c0000000p-3, -0x1.3a6c0c0000000p-4, -0x1.c4250c0000000p-4, -0x1.10acc00000000p-5}
, {-0x1.3d2c600000000p-3, -0x1.9491200000000p-4, 0x1.b6ff000000000p-5, 0x1.a0ae340000000p-4, 0x1.4016000000000p-4, -0x1.314e500000000p-3, -0x1.e4524c0000000p-4, 0x1.3774260000000p-3}
}
, {{-0x1.0354400000000p-3, 0x1.7835e40000000p-4, 0x1.35e7800000000p-4, 0x1.f761280000000p-5, 0x1.f3e1b40000000p-4, -0x1.0da65c0000000p-3, 0x1.5456620000000p-3, 0x1.1871d00000000p-6}
, {-0x1.07e1500000000p-3, 0x1.5fd6800000000p-6, 0x1.7f8a940000000p-4, -0x1.4c42800000000p-5, -0x1.3c6da00000000p-4, -0x1.32fed00000000p-3, 0x1.699fcc0000000p-4, 0x1.e425240000000p-4}
, {-0x1.f63f4c0000000p-4, 0x1.d74a500000000p-6, -0x1.70e8ac0000000p-5, 0x1.03a9260000000p-3, 0x1.8f11300000000p-6, -0x1.ef8f2c0000000p-5, 0x1.2a9ae80000000p-5, 0x1.4c87a20000000p-3}
}
}
, {{{0x1.067ba60000000p-3, 0x1.a28ce80000000p-5, 0x1.881ad40000000p-4, -0x1.33a4900000000p-3, -0x1.538a6c0000000p-3, -0x1.3679000000000p-6, -0x1.2b345c0000000p-3, 0x1.d7422c0000000p-4}
, {0x1.f80f640000000p-4, 0x1.6ac0140000000p-4, -0x1.d9aee00000000p-4, 0x1.0c96c00000000p-4, -0x1.c80f600000000p-7, -0x1.c2d1760000000p-4, 0x1.00c5b60000000p-3, 0x1.1257d60000000p-3}
, {-0x1.1b47d80000000p-5, 0x1.e4d1c40000000p-4, -0x1.3d05e00000000p-4, 0x1.bf03680000000p-5, -0x1.78192c0000000p-4, 0x1.07620a0000000p-3, -0x1.dc286c0000000p-5, -0x1.71930c0000000p-4}
}
, {{0x1.61a7d40000000p-4, 0x1.212b420000000p-3, 0x1.c1e7d80000000p-5, -0x1.f4acc00000000p-5, 0x1.218d0c0000000p-4, -0x1.27a4400000000p-5, 0x1.2fa64c0000000p-4, 0x1.6dd5740000000p-4}
, {-0x1.a1d7e00000000p-4, -0x1.c19be00000000p-4, -0x1.414fcc0000000p-4, 0x1.7d28340000000p-4, -0x1.49f7400000000p-8, 0x1.1c5c400000000p-4, -0x1.5ff7400000000p-8, 0x1.32ac3a0000000p-3}
, {-0x1.671f760000000p-4, 0x1.1616ac0000000p-4, -0x1.257ac00000000p-8, 0x1.d913f40000000p-4, 0x1.6d732c0000000p-4, 0x1.8348000000000p-6, -0x1.66228c0000000p-4, -0x1.3dba360000000p-4}
}
, {{0x1.94e9cc0000000p-4, 0x1.3ee7920000000p-3, -0x1.1e2eb00000000p-3, -0x1.35a60c0000000p-4, 0x1.c7b7d00000000p-6, 0x1.17669a0000000p-3, -0x1.e01b500000000p-6, 0x1.509c660000000p-3}
, {0x1.be4cf40000000p-4, 0x1.e484a00000000p-7, -0x1.5d7b180000000p-5, 0x1.d79dc40000000p-4, 0x1.d7f1040000000p-4, -0x1.42937c0000000p-3, -0x1.114d8c0000000p-4, -0x1.0de3c00000000p-3}
, {0x1.e20fa40000000p-4, 0x1.4b6be80000000p-5, -0x1.0a42280000000p-5, -0x1.bdc4d60000000p-4, -0x1.001a000000000p-11, 0x1.65f7940000000p-4, -0x1.1211360000000p-3, 0x1.988e640000000p-4}
}
}
}
;

#undef INPUT_CHANNELS
#undef CONV_FILTERS
#undef CONV_KERNEL_SIZE_X
#undef CONV_KERNEL_SIZE_Y
#undef CONV_GROUPS