/**
  ******************************************************************************
  * @file    weights/conv2d.cc
  * @author  Pierre-Emmanuel Novac <penovac@unice.fr>, LEAT, CNRS, Université Côte d'Azur, France
  * @version V2.0
  * @date    24 march 2020
  * @brief   Template generating plain C code for the implementation of Convolutional Neural Networks on MCU
  */

#include <stdint.h>

#define INPUT_CHANNELS     8
#define CONV_FILTERS       16
#define CONV_KERNEL_SIZE_Y 3
#define CONV_KERNEL_SIZE_X 3
#define CONV_GROUPS        1


const float conv2d_1_bias[CONV_FILTERS] = {0x1.80a92a0000000p-6, -0x1.fbacd40000000p-8, -0x1.7229020000000p-3, -0x1.6c99720000000p-6, -0x1.3981c00000000p-4, 0x1.cfb9e60000000p-5, -0x1.0798dc0000000p-7, -0x1.fa78440000000p-3, 0x1.7177c20000000p-6, 0x1.b64f580000000p-7, 0x1.9aa2980000000p-9, 0x1.a4a96a0000000p-8, 0x1.48eaca0000000p-9, 0x1.0b16f20000000p-5, -0x1.167a180000000p-6, -0x1.0ee9640000000p-2}
;


const float conv2d_1_kernel[CONV_FILTERS][CONV_KERNEL_SIZE_Y][CONV_KERNEL_SIZE_X][INPUT_CHANNELS / CONV_GROUPS] = {{{{-0x1.61e05e0000000p+0, -0x1.6534700000000p-3, -0x1.9e95640000000p-2, -0x1.5c1abe0000000p-5, -0x1.a33b780000000p-6, 0x1.d9ee6a0000000p-6, -0x1.126b260000000p-4, 0x1.bb1ef60000000p-4}
, {0x1.88c3e20000000p-3, 0x1.195ec60000000p-3, 0x1.ee33c20000000p-7, 0x1.394c5a0000000p-3, 0x1.15e2ca0000000p-3, -0x1.f1805e0000000p-3, 0x1.596a1a0000000p-3, 0x1.0cd9180000000p-2}
, {0x1.9d9fd20000000p-3, -0x1.8450fc0000000p-6, -0x1.6c15300000000p-3, 0x1.d2d3fc0000000p-7, 0x1.1be8c80000000p-4, -0x1.beddd40000000p-2, 0x1.81df3e0000000p-4, -0x1.a4efe80000000p-2}
}
, {{-0x1.14cc240000000p+1, -0x1.21b0ac0000000p-2, -0x1.adadb20000000p-2, -0x1.0dbbe80000000p-3, -0x1.4309e20000000p-1, -0x1.c986940000000p-4, -0x1.dc29aa0000000p-2, 0x1.3f69200000000p-3}
, {0x1.0a5ce40000000p-2, 0x1.de65c80000000p-3, -0x1.02f4d80000000p-2, 0x1.3b7ab40000000p-3, 0x1.e9d63a0000000p-3, -0x1.76a09e0000000p-4, 0x1.d1d3320000000p-3, 0x1.d64b7a0000000p-3}
, {0x1.2b54c80000000p-2, 0x1.0193c00000000p-7, -0x1.3ba26e0000000p-3, -0x1.06302c0000000p-3, 0x1.923baa0000000p-3, -0x1.219bc20000000p-1, -0x1.6ebf160000000p-6, -0x1.40aaa20000000p-1}
}
, {{-0x1.6690760000000p-1, -0x1.d8303e0000000p-4, -0x1.8f94620000000p-3, -0x1.b47dec0000000p-5, -0x1.014ae60000000p+0, -0x1.6121d80000000p-3, -0x1.768da00000000p-2, 0x1.244a7c0000000p-4}
, {0x1.acae980000000p-3, 0x1.6b980c0000000p-3, -0x1.6b5faa0000000p-4, 0x1.93b2040000000p-4, 0x1.6236760000000p-3, -0x1.36466c0000000p-4, 0x1.16aa900000000p-3, 0x1.ee5a420000000p-4}
, {0x1.05125a0000000p-4, -0x1.c72fce0000000p-4, -0x1.078f400000000p-3, -0x1.c31d5e0000000p-4, 0x1.beaa240000000p-4, -0x1.2151a00000000p-1, -0x1.c8fd000000000p-4, -0x1.38145e0000000p-2}
}
}
, {{{-0x1.0ee8fc0000000p-2, -0x1.88dcf40000000p-1, -0x1.64348e0000000p-7, -0x1.78bbe00000000p-1, -0x1.633e5c0000000p-3, -0x1.2214380000000p-4, -0x1.dc9a200000000p-2, -0x1.94e7ac0000000p-1}
, {-0x1.9512a60000000p-5, -0x1.63896e0000000p+0, 0x1.2a47c00000000p-2, -0x1.a514d40000000p+0, -0x1.4273be0000000p-1, -0x1.5548920000000p-7, -0x1.3564200000000p-1, -0x1.12360c0000000p+0}
, {0x1.b814e40000000p-4, -0x1.4a8fb80000000p+0, -0x1.b36ff60000000p-2, -0x1.f776bc0000000p-1, -0x1.07d2960000000p-1, 0x1.2c7e480000000p-2, -0x1.fb3c680000000p-3, -0x1.51b2580000000p-1}
}
, {{-0x1.25ed480000000p-6, 0x1.21c6e80000000p-4, 0x1.f28cc20000000p-4, 0x1.5a2e6a0000000p-5, -0x1.cb3f9c0000000p-3, -0x1.0281760000000p-2, -0x1.2316bc0000000p-2, 0x1.2423020000000p-4}
, {0x1.3c73300000000p-3, 0x1.34ddc00000000p-3, -0x1.b2e4e60000000p-6, 0x1.af5dae0000000p-4, -0x1.7888020000000p-2, 0x1.01113c0000000p-1, 0x1.99490c0000000p-2, 0x1.a5765a0000000p-3}
, {0x1.62558a0000000p-2, 0x1.32233a0000000p-5, 0x1.b361120000000p-4, -0x1.1283240000000p-6, -0x1.3250960000000p-1, 0x1.1ee2a80000000p-6, -0x1.4955b00000000p-3, -0x1.f3d7a00000000p-5}
}
, {{-0x1.fad71c0000000p-4, 0x1.2322340000000p-4, 0x1.1d166c0000000p-4, 0x1.0b99560000000p-4, 0x1.dcd0de0000000p-3, 0x1.16a8c80000000p-3, 0x1.36b6320000000p-2, 0x1.bb1ecc0000000p-4}
, {0x1.423d8c0000000p-3, 0x1.9565e60000000p-3, 0x1.f74cac0000000p-3, 0x1.2ec3fe0000000p-3, -0x1.1f96340000000p-4, 0x1.800e6e0000000p-3, 0x1.b04c340000000p-3, 0x1.6a399a0000000p-4}
, {0x1.bd0d440000000p-3, 0x1.5676b60000000p-5, 0x1.d4b3b80000000p-3, 0x1.a0034a0000000p-4, -0x1.3f69900000000p-2, 0x1.8ef3480000000p-2, 0x1.dc356a0000000p-5, 0x1.2d3a4e0000000p-4}
}
}
, {{{0x1.e047220000000p-3, 0x1.26df8e0000000p-4, 0x1.920a8a0000000p-5, 0x1.bfaf9e0000000p-7, 0x1.d9fc4e0000000p-4, -0x1.a2a0400000000p-3, 0x1.67fc840000000p-4, -0x1.4bfed20000000p-5}
, {0x1.61c6900000000p-5, -0x1.3a46660000000p-8, 0x1.4625700000000p-2, -0x1.c28fa40000000p-5, 0x1.99c9b00000000p-5, -0x1.10e9ae0000000p-2, -0x1.06bd4a0000000p-2, -0x1.560d220000000p-4}
, {-0x1.0fee360000000p-2, -0x1.25b7b00000000p-4, -0x1.b6a5aa0000000p-6, 0x1.e440a20000000p-5, 0x1.44a5060000000p-3, 0x1.d7d4f20000000p-5, -0x1.9d2e6e0000000p-4, 0x1.3db6000000000p-6}
}
, {{0x1.cd4c880000000p-3, 0x1.1a1a9e0000000p-4, -0x1.4a76380000000p-3, 0x1.22aaf40000000p-3, -0x1.b0340a0000000p-3, 0x1.09daa60000000p-11, 0x1.684cb40000000p-4, 0x1.85bf4e0000000p-5}
, {0x1.6389060000000p-3, 0x1.ab4f600000000p-4, 0x1.8034d20000000p-3, 0x1.3b29d40000000p-4, -0x1.e18efe0000000p-4, -0x1.b7fc360000000p-2, -0x1.398b040000000p-4, 0x1.b766fe0000000p-4}
, {0x1.2a811c0000000p-4, -0x1.9d2c920000000p-2, 0x1.c9572e0000000p-4, -0x1.9b477e0000000p-3, 0x1.98c3b80000000p-4, -0x1.14ecf00000000p-3, -0x1.4629020000000p-2, -0x1.84afd80000000p-2}
}
, {{0x1.f5201c0000000p-4, -0x1.59bf880000000p-6, -0x1.ea8fc20000000p-2, -0x1.9895440000000p-6, -0x1.8bbae20000000p-3, -0x1.164dd40000000p-5, 0x1.4811d60000000p-5, -0x1.39fea60000000p-5}
, {0x1.84d5160000000p-2, 0x1.8ca6640000000p-4, -0x1.12a6080000000p-2, 0x1.b62fd80000000p-3, -0x1.19097c0000000p-4, 0x1.1add200000000p-3, 0x1.5d19c40000000p-3, 0x1.3556fe0000000p-2}
, {0x1.a00b1e0000000p-3, 0x1.f77f880000000p-5, 0x1.0ac5e80000000p-3, 0x1.5d99700000000p-4, -0x1.20d2220000000p-3, -0x1.3c5da00000000p-2, -0x1.87db080000000p-3, -0x1.6023fa0000000p-6}
}
}
, {{{-0x1.61533a0000000p-2, -0x1.4a0a360000000p-3, -0x1.345d720000000p-6, -0x1.0130720000000p-3, -0x1.9a07040000000p-1, -0x1.82785e0000000p-3, -0x1.40ef1a0000000p-2, 0x1.bed3800000000p-4}
, {-0x1.68e73a0000000p-4, 0x1.dc96a20000000p-4, 0x1.d2ac2c0000000p-6, 0x1.ea89c80000000p-4, 0x1.211f700000000p-2, -0x1.197ee40000000p-2, 0x1.1c23200000000p-3, 0x1.381f5c0000000p-4}
, {-0x1.41f1ce0000000p-5, 0x1.020d1e0000000p-4, -0x1.af13b20000000p-4, -0x1.7fd5e60000000p-6, 0x1.0097c60000000p-3, -0x1.d0303a0000000p-7, 0x1.d015620000000p-3, -0x1.cf97f80000000p-4}
}
, {{-0x1.be4bfa0000000p-3, 0x1.2185780000000p-3, 0x1.db83220000000p-5, 0x1.1ce1ec0000000p-3, 0x1.cedc7a0000000p-2, -0x1.3a7bf20000000p-1, -0x1.f17af00000000p-3, 0x1.c8c8a00000000p-4}
, {-0x1.2471ce0000000p-4, 0x1.06a92c0000000p-3, -0x1.fc86040000000p-2, 0x1.32acbe0000000p-3, 0x1.e701580000000p-3, -0x1.a65cb60000000p-3, 0x1.9f8faa0000000p-3, 0x1.3f72e80000000p-3}
, {0x1.2bb4520000000p-4, -0x1.4337760000000p-3, -0x1.c3a0080000000p-1, -0x1.a8d0800000000p-3, 0x1.5c44ea0000000p-4, -0x1.296b5e0000000p-4, 0x1.04ae240000000p-3, -0x1.1a7d4c0000000p-1}
}
, {{-0x1.4b81be0000000p-4, 0x1.06afee0000000p-3, -0x1.2f8cd20000000p-1, 0x1.2b6cd00000000p-4, 0x1.c237280000000p-4, -0x1.e0fe280000000p-4, 0x1.1753ea0000000p-3, 0x1.e6aeb80000000p-7}
, {-0x1.ccc1c80000000p-4, -0x1.2a08c00000000p-5, -0x1.07933c0000000p-1, -0x1.0b8e880000000p-4, -0x1.a8c0860000000p-6, -0x1.1de8d20000000p-4, 0x1.a6a07c0000000p-3, -0x1.6e00060000000p-3}
, {-0x1.cc302c0000000p-5, -0x1.87421c0000000p-3, -0x1.9bb2e20000000p-5, -0x1.ea2c600000000p-3, 0x1.1acfe60000000p-6, 0x1.383a8e0000000p-4, -0x1.82695a0000000p-4, -0x1.f438320000000p-2}
}
}
, {{{-0x1.4125d60000000p-6, -0x1.14051c0000000p-4, -0x1.9f5e040000000p-3, -0x1.87dd840000000p-6, -0x1.84a79a0000000p-2, -0x1.5964380000000p-3, -0x1.8bdcfc0000000p-5, 0x1.d0773e0000000p-6}
, {0x1.9207e80000000p-5, 0x1.3f93ee0000000p-4, -0x1.1af00c0000000p-3, 0x1.24e5160000000p-6, -0x1.a1f4cc0000000p-6, -0x1.17c5f80000000p-1, 0x1.f8bcb80000000p-6, 0x1.7adff40000000p-7}
, {0x1.3e534a0000000p-5, 0x1.29d9700000000p-4, -0x1.123c1e0000000p-2, -0x1.226b860000000p-5, 0x1.7c78980000000p-4, -0x1.63e2520000000p-2, -0x1.4bde3e0000000p-7, -0x1.145e900000000p-4}
}
, {{-0x1.fc12c80000000p-2, -0x1.2fe24e0000000p-9, -0x1.8f72120000000p-1, 0x1.32cec80000000p-4, -0x1.90e2420000000p-1, -0x1.d7e74c0000000p-8, 0x1.9a27700000000p-4, 0x1.f1d7360000000p-4}
, {0x1.278e9e0000000p-2, 0x1.dbd5860000000p-3, -0x1.3b79820000000p-2, 0x1.8429be0000000p-3, -0x1.5f561e0000000p-2, -0x1.7b85500000000p-3, 0x1.d910140000000p-4, 0x1.130c480000000p-3}
, {0x1.b3186e0000000p-4, 0x1.2bf9740000000p-3, -0x1.7cd2920000000p-6, 0x1.0889600000000p-3, -0x1.325c5e0000000p-2, -0x1.a502780000000p-1, -0x1.3d74dc0000000p-6, 0x1.6e03560000000p-4}
}
, {{-0x1.16e2200000000p+0, -0x1.48c0980000000p-3, -0x1.9207b60000000p-1, -0x1.5bbe7e0000000p-4, -0x1.e4daf60000000p-1, 0x1.bd495c0000000p-5, 0x1.0633380000000p-5, 0x1.289bc00000000p-4}
, {0x1.1611440000000p-4, 0x1.ec19ce0000000p-4, -0x1.7c9c500000000p-1, 0x1.3996ea0000000p-4, -0x1.c059020000000p-2, 0x1.8f83600000000p-5, 0x1.420e0e0000000p-5, -0x1.2254f60000000p-5}
, {0x1.f18fa60000000p-4, 0x1.517ec80000000p-3, -0x1.8c46fc0000000p-10, 0x1.d475aa0000000p-4, -0x1.003a320000000p-2, 0x1.c2ca240000000p-5, 0x1.2689c00000000p-6, 0x1.03e29a0000000p-2}
}
}
, {{{0x1.f4bf260000000p-3, 0x1.8e658a0000000p-5, -0x1.21ea040000000p-7, 0x1.6172fa0000000p-3, 0x1.7dbe380000000p-4, -0x1.d6b6a40000000p-5, 0x1.699e220000000p-3, -0x1.d8ad6e0000000p-2}
, {-0x1.6da77e0000000p-3, -0x1.722c100000000p-1, -0x1.d4898c0000000p-3, -0x1.10ecd80000000p-2, 0x1.088d860000000p-4, -0x1.50bbde0000000p-1, -0x1.3b4db20000000p-2, -0x1.a8ca560000000p-5}
, {-0x1.17c4460000000p-3, 0x1.c5f2ba0000000p-4, 0x1.c4c7320000000p-3, 0x1.f74ea40000000p-3, -0x1.0a722c0000000p-6, -0x1.b517e40000000p-1, -0x1.0631860000000p-3, 0x1.066a5c0000000p-2}
}
, {{0x1.1a7cde0000000p-3, -0x1.90c0b80000000p-4, -0x1.005bf80000000p-3, -0x1.114b220000000p-3, 0x1.98871e0000000p-3, -0x1.4fcab80000000p-1, 0x1.80fb960000000p-3, -0x1.e6d7280000000p-1}
, {-0x1.d1c03a0000000p-1, -0x1.5872000000000p-2, -0x1.5233d20000000p-3, 0x1.03e3fe0000000p-5, -0x1.0da28c0000000p+0, -0x1.3a9be00000000p-1, -0x1.22cf100000000p-1, 0x1.02eb900000000p-3}
, {0x1.7867300000000p-4, 0x1.8d25a60000000p-3, -0x1.c903ea0000000p-5, 0x1.2737440000000p-3, 0x1.8b95f00000000p-3, -0x1.2a266a0000000p-3, 0x1.4430880000000p-2, 0x1.da78900000000p-3}
}
, {{-0x1.c41bb80000000p-5, -0x1.019f120000000p-1, -0x1.6c94220000000p-3, -0x1.6517840000000p-2, -0x1.6296e80000000p-5, -0x1.86fb5c0000000p-1, -0x1.5f0ec20000000p-5, -0x1.8536b60000000p-2}
, {-0x1.a625fa0000000p-1, -0x1.c673600000000p-4, -0x1.1592760000000p-2, -0x1.cb80aa0000000p-5, -0x1.aebbde0000000p-1, -0x1.f209220000000p-3, -0x1.84b02c0000000p-2, 0x1.c09b8c0000000p-4}
, {0x1.0cbd320000000p-2, 0x1.6b4eda0000000p-3, -0x1.0b9f3e0000000p-6, 0x1.534d6a0000000p-3, -0x1.18c45e0000000p-4, -0x1.08a2280000000p-5, 0x1.b411ee0000000p-3, 0x1.f567800000000p-3}
}
}
, {{{0x1.8666e80000000p-5, -0x1.a4ab340000000p-4, 0x1.1d3e600000000p-3, -0x1.cbc6920000000p-4, 0x1.dc3ca60000000p-9, -0x1.020caa0000000p-3, -0x1.99d6a40000000p-5, -0x1.1c4f9e0000000p-3}
, {0x1.dfed8a0000000p-5, 0x1.c473d60000000p-7, 0x1.ced09a0000000p-3, -0x1.ed08840000000p-6, -0x1.0304240000000p-2, -0x1.0165020000000p-1, -0x1.c0105c0000000p-3, -0x1.3cbb540000000p-5}
, {-0x1.05420e0000000p-3, 0x1.dad4ac0000000p-5, 0x1.1027a00000000p-4, 0x1.046d660000000p-4, -0x1.0d60e40000000p-2, -0x1.8b438e0000000p-2, -0x1.28e5460000000p-3, 0x1.4ca52a0000000p-5}
}
, {{-0x1.ea96760000000p-5, 0x1.ef36680000000p-4, 0x1.d186a80000000p-2, 0x1.7225060000000p-3, 0x1.5944b00000000p-3, 0x1.4daae40000000p-3, 0x1.6d3cac0000000p-3, 0x1.0396f80000000p-3}
, {-0x1.3e5f8c0000000p-2, 0x1.7c98e20000000p-3, 0x1.ed701a0000000p-2, 0x1.c2f57e0000000p-3, 0x1.f662ac0000000p-3, 0x1.290e860000000p-2, 0x1.7e41b60000000p-3, 0x1.07a52e0000000p-2}
, {-0x1.babed00000000p-3, 0x1.34dd100000000p-5, -0x1.2084700000000p-1, 0x1.55403c0000000p-4, 0x1.b6d5100000000p-4, 0x1.eb54500000000p-3, 0x1.fefd0c0000000p-4, -0x1.89a4500000000p-6}
}
, {{-0x1.da343e0000000p-3, -0x1.150d080000000p-2, -0x1.c9d60e0000000p-1, -0x1.e9fd9e0000000p-3, 0x1.9403400000000p-8, 0x1.1b9c000000000p-3, 0x1.ac118c0000000p-5, -0x1.3dde3c0000000p-3}
, {-0x1.2118b60000000p-1, -0x1.7251220000000p-3, -0x1.4e64ba0000000p-2, -0x1.005d200000000p-2, 0x1.894c7e0000000p-4, 0x1.aee95c0000000p-3, 0x1.8bf8200000000p-4, -0x1.c824b20000000p-3}
, {-0x1.1c4a760000000p-2, -0x1.6f0ec60000000p-3, -0x1.34cf200000000p-7, -0x1.7fe70a0000000p-3, 0x1.cceff20000000p-3, -0x1.57bb240000000p-4, -0x1.1784ca0000000p-3, -0x1.c682620000000p-4}
}
}
, {{{-0x1.adedee0000000p-4, -0x1.30f6000000000p-6, 0x1.8c46060000000p-3, 0x1.57a83a0000000p-5, -0x1.bd90960000000p-4, 0x1.11db9e0000000p-3, 0x1.3d84b60000000p-4, -0x1.3af5ba0000000p-5}
, {-0x1.3deaa40000000p-2, 0x1.9605360000000p-3, 0x1.219ec20000000p-4, 0x1.33d2940000000p-3, -0x1.a28ba00000000p-6, -0x1.a378a40000000p-5, 0x1.3741fe0000000p-3, 0x1.1a51520000000p-3}
, {-0x1.e1a7b80000000p-3, 0x1.92d1f40000000p-4, -0x1.bd00800000000p-3, 0x1.c758740000000p-4, 0x1.d6a0220000000p-4, -0x1.7f36c60000000p-3, 0x1.8d42a80000000p-3, 0x1.2a20540000000p-3}
}
, {{-0x1.cff2760000000p-2, 0x1.b1b39a0000000p-4, -0x1.03cec60000000p-9, 0x1.0042f80000000p-3, 0x1.f956740000000p-4, 0x1.a160e20000000p-5, 0x1.46b37e0000000p-3, 0x1.21d11c0000000p-9}
, {-0x1.53c2100000000p-4, -0x1.04d2460000000p-4, -0x1.25c35e0000000p+0, -0x1.70f59c0000000p-6, 0x1.c281da0000000p-5, -0x1.1c953c0000000p-3, 0x1.991e3c0000000p-3, 0x1.e2b0a20000000p-4}
, {0x1.3faa3c0000000p-4, 0x1.9425080000000p-6, -0x1.c1686c0000000p-2, 0x1.72a7100000000p-9, -0x1.454dd00000000p-7, -0x1.a2b26a0000000p-3, 0x1.6f49d00000000p-3, 0x1.c8acf00000000p-11}
}
, {{0x1.6fafa00000000p-4, -0x1.9240c20000000p-3, -0x1.b5318e0000000p-1, -0x1.8340d40000000p-3, 0x1.fa18be0000000p-3, -0x1.4bcc3e0000000p-5, 0x1.613d780000000p-9, -0x1.9504300000000p-6}
, {0x1.0931060000000p-1, -0x1.ed26300000000p-6, -0x1.0720800000000p-1, 0x1.0c55ba0000000p-6, -0x1.530f280000000p-3, -0x1.45f14e0000000p-3, -0x1.04aa500000000p-3, 0x1.f5aeb00000000p-4}
, {0x1.45c9880000000p-2, 0x1.72f4be0000000p-3, -0x1.403f1a0000000p-9, 0x1.5c545a0000000p-3, -0x1.ae0f540000000p-4, -0x1.70f1900000000p-5, 0x1.1a81780000000p-3, 0x1.f48da80000000p-3}
}
}
, {{{0x1.ca9bb20000000p-5, 0x1.2486f80000000p-4, -0x1.8ec1480000000p-8, 0x1.e98f440000000p-5, 0x1.9046e80000000p-5, -0x1.590d7a0000000p-4, 0x1.ca04240000000p-5, 0x1.6e08aa0000000p-4}
, {0x1.4b12640000000p-3, -0x1.6c35300000000p-3, 0x1.5fda560000000p-6, -0x1.3435d60000000p-3, -0x1.37d8440000000p-3, 0x1.c6200e0000000p-5, -0x1.4f24880000000p-4, -0x1.0bc4460000000p-1}
, {-0x1.794cea0000000p-4, -0x1.7a41000000000p-2, -0x1.d041c60000000p-4, -0x1.271ee20000000p-2, -0x1.a17b8c0000000p-4, 0x1.01dcf80000000p-4, -0x1.4124180000000p-3, -0x1.6f14200000000p-2}
}
, {{0x1.1d93d00000000p-3, 0x1.d7a2880000000p-3, 0x1.cfe3800000000p-6, 0x1.326a440000000p-3, 0x1.6faa0c0000000p-4, 0x1.cbd58c0000000p-5, 0x1.4fff0e0000000p-3, 0x1.d3a6400000000p-3}
, {0x1.45cd460000000p-3, -0x1.22272e0000000p-4, -0x1.f488760000000p-4, 0x1.e6e4880000000p-6, 0x1.f0a43a0000000p-6, -0x1.92db400000000p-1, 0x1.9505160000000p-7, -0x1.c621220000000p-2}
, {-0x1.8467200000000p-4, -0x1.4601ca0000000p-1, -0x1.937f9a0000000p-2, -0x1.0f3c980000000p-2, -0x1.5029140000000p-3, -0x1.4abb560000000p-2, -0x1.1cf87c0000000p-1, 0x1.9da1ec0000000p-7}
}
, {{0x1.37c4480000000p-5, 0x1.0624da0000000p-2, 0x1.d557160000000p-6, 0x1.73fb360000000p-4, 0x1.2ba83e0000000p-2, 0x1.481ef20000000p-5, 0x1.5ac1aa0000000p-3, 0x1.6fcbd80000000p-3}
, {-0x1.5363c00000000p-11, -0x1.a508e20000000p-5, -0x1.5601da0000000p-3, -0x1.c169440000000p-4, 0x1.5edc100000000p-2, -0x1.0147900000000p-1, 0x1.6911120000000p-3, -0x1.8c6d240000000p-1}
, {-0x1.ccef620000000p-3, -0x1.ff97820000000p-2, -0x1.d5f3320000000p-4, -0x1.0a16e60000000p-2, -0x1.ca93100000000p-3, -0x1.39102a0000000p-2, -0x1.3e95300000000p-1, 0x1.93395e0000000p-3}
}
}
, {{{-0x1.25a7980000000p-2, -0x1.6dc9500000000p-1, -0x1.3d63cc0000000p-2, -0x1.69069c0000000p-2, -0x1.9991340000000p-2, -0x1.c63e8e0000000p-1, -0x1.ae44820000000p-1, -0x1.5cdfda0000000p-3}
, {-0x1.95314a0000000p-2, -0x1.50ec4a0000000p-4, 0x1.f85a6c0000000p-3, 0x1.3cb93e0000000p-4, -0x1.e3de720000000p-1, -0x1.1559ba0000000p-2, -0x1.49cbb80000000p-1, 0x1.4f9f480000000p-4}
, {-0x1.dc0d6c0000000p-3, 0x1.f5d2880000000p-5, 0x1.a007140000000p-5, 0x1.6f09cc0000000p-5, 0x1.eab32c0000000p-5, -0x1.fd0bdc0000000p-2, 0x1.b014a60000000p-6, 0x1.cab1b00000000p-4}
}
, {{-0x1.6ccdd80000000p-1, -0x1.15c0360000000p-1, -0x1.e86ba40000000p-5, -0x1.5803160000000p-2, -0x1.6864140000000p-1, -0x1.7e0bde0000000p+0, -0x1.36bb240000000p+0, 0x1.aed6be0000000p-4}
, {-0x1.3704080000000p-2, 0x1.fe4d8c0000000p-4, 0x1.65fde60000000p-3, 0x1.55403e0000000p-3, 0x1.2c31540000000p-1, -0x1.600e820000000p+0, -0x1.3181340000000p-3, 0x1.e4ebf20000000p-4}
, {-0x1.c038cc0000000p-4, 0x1.3177a20000000p-3, -0x1.cd48d20000000p-3, 0x1.5f43120000000p-3, 0x1.5d5fa20000000p-3, -0x1.5dcabe0000000p-2, 0x1.1210000000000p-3, 0x1.f6e76c0000000p-4}
}
, {{-0x1.1bd77c0000000p-3, 0x1.c4f6320000000p-6, 0x1.cb4d920000000p-4, 0x1.9599740000000p-10, -0x1.21f1080000000p-2, -0x1.803a280000000p-1, -0x1.46cec40000000p-1, 0x1.42e74e0000000p-3}
, {0x1.26cfec0000000p-3, 0x1.a8cb560000000p-4, -0x1.722bf20000000p-2, 0x1.2b17e00000000p-3, 0x1.b4a8d00000000p-2, -0x1.1e78c60000000p-2, 0x1.64bfaa0000000p-3, 0x1.cb63d00000000p-4}
, {0x1.f0aa600000000p-4, 0x1.3fbc660000000p-4, -0x1.da2bc80000000p-2, -0x1.92d3440000000p-5, 0x1.137d0c0000000p-2, -0x1.2f10d80000000p-2, 0x1.6738aa0000000p-4, 0x1.7a1ab20000000p-6}
}
}
, {{{-0x1.8606da0000000p-4, 0x1.dd70ce0000000p-4, -0x1.eef67c0000000p-3, 0x1.bf3eb00000000p-4, -0x1.279eb40000000p-4, 0x1.f509200000000p-5, 0x1.2aef3c0000000p-4, 0x1.e22b440000000p-4}
, {0x1.2553560000000p-4, 0x1.69dede0000000p-5, -0x1.85e60c0000000p-3, 0x1.f904920000000p-5, -0x1.287dc00000000p-3, 0x1.0f6ffe0000000p-2, 0x1.0f12740000000p-3, 0x1.04a02e0000000p-3}
, {0x1.60a1fe0000000p-3, 0x1.cc61220000000p-5, -0x1.824d700000000p-8, -0x1.daa79a0000000p-11, -0x1.5da6fa0000000p-3, 0x1.c2d5cc0000000p-4, 0x1.91fd360000000p-5, -0x1.4f461e0000000p-5}
}
, {{-0x1.61b1660000000p-6, -0x1.e795980000000p-3, -0x1.12fd680000000p+0, -0x1.b17e1a0000000p-3, 0x1.6d08e80000000p-6, -0x1.40f22a0000000p-4, -0x1.e6ec080000000p-6, -0x1.954dce0000000p-5}
, {0x1.54f0000000000p-1, 0x1.568d6c0000000p-4, -0x1.1722a40000000p-2, 0x1.3d31900000000p-4, -0x1.aa139c0000000p-3, 0x1.e2001e0000000p-3, 0x1.fdc9200000000p-4, 0x1.f734f80000000p-5}
, {0x1.5d86d40000000p-2, 0x1.54bf1c0000000p-4, 0x1.40871a0000000p-4, 0x1.f3ed2a0000000p-4, -0x1.7e6e8a0000000p-3, 0x1.369dc20000000p-2, 0x1.7950c40000000p-3, 0x1.2d1a4e0000000p-3}
}
, {{-0x1.aa71f60000000p-3, -0x1.65c4ba0000000p-1, -0x1.3fe6a40000000p-1, -0x1.854bba0000000p-1, -0x1.3f2fe40000000p-2, -0x1.04311e0000000p-5, -0x1.d82c1a0000000p-3, -0x1.4fb8fa0000000p-1}
, {-0x1.cf861e0000000p-1, -0x1.17bd740000000p-2, -0x1.28ca7c0000000p-2, -0x1.ca67660000000p-3, -0x1.bf7e180000000p-2, 0x1.15a5b60000000p-2, 0x1.ec5f520000000p-6, -0x1.74306e0000000p-4}
, {-0x1.d8c2c80000000p-4, -0x1.5666580000000p-8, -0x1.1293de0000000p-4, 0x1.0f5b260000000p-7, -0x1.c3a7d20000000p-3, 0x1.33871a0000000p-2, 0x1.f6c48e0000000p-4, -0x1.fac6dc0000000p-8}
}
}
, {{{-0x1.4e1d520000000p-5, 0x1.b9f67c0000000p-6, -0x1.a9e7bc0000000p-2, 0x1.7f2e340000000p-5, 0x1.e41aac0000000p-6, 0x1.b441aa0000000p-4, 0x1.1ce0640000000p-5, 0x1.c28ff80000000p-5}
, {0x1.8763b20000000p-5, 0x1.25bba80000000p-2, 0x1.1b03180000000p-3, 0x1.8bb1ea0000000p-3, -0x1.13c8f40000000p-13, 0x1.beea4a0000000p-3, 0x1.9f317a0000000p-4, 0x1.d411c20000000p-3}
, {-0x1.93f26e0000000p-4, 0x1.ac6cf40000000p-3, 0x1.d9eaf60000000p-5, 0x1.0159bc0000000p-2, 0x1.7130e80000000p-5, 0x1.23b7620000000p-2, 0x1.d5b60e0000000p-3, 0x1.4f1ea80000000p-3}
}
, {{0x1.785a680000000p-5, -0x1.6d63920000000p-2, 0x1.5726920000000p-3, -0x1.09f3a80000000p-1, -0x1.1b53f80000000p-5, 0x1.b699a40000000p-4, -0x1.200f960000000p-3, -0x1.5b40b80000000p-1}
, {-0x1.39876a0000000p-1, -0x1.e524a20000000p-2, -0x1.4db0ba0000000p-4, -0x1.20defe0000000p-1, -0x1.f72c6c0000000p-7, 0x1.a464020000000p-3, 0x1.a9e6600000000p-4, -0x1.ea213e0000000p-2}
, {-0x1.1f1f040000000p-1, -0x1.ac85980000000p-2, -0x1.f59ee60000000p-2, -0x1.614bcc0000000p-2, 0x1.17db580000000p-3, 0x1.1345f00000000p-3, 0x1.a770d40000000p-3, -0x1.3a78a80000000p-2}
}
, {{0x1.59fe160000000p-5, 0x1.4102c60000000p-3, 0x1.a380de0000000p-3, 0x1.adea9c0000000p-3, -0x1.5dd3d00000000p-6, -0x1.808e0a0000000p-1, -0x1.5a6fa60000000p-6, 0x1.79e7b20000000p-3}
, {0x1.f71dd80000000p-4, -0x1.1532ce0000000p-4, 0x1.8d403c0000000p-5, -0x1.f47f980000000p-6, -0x1.a2da120000000p-2, -0x1.31ee0c0000000p+0, -0x1.fa41ee0000000p-1, 0x1.539ee60000000p-3}
, {-0x1.1ecaa00000000p-7, -0x1.2b39240000000p-3, -0x1.98c43a0000000p-5, 0x1.0f27800000000p-6, -0x1.1fb75e0000000p-1, -0x1.31df340000000p+0, -0x1.6f61f20000000p-1, 0x1.d5fc680000000p-7}
}
}
, {{{0x1.c91db80000000p-8, 0x1.b81a320000000p-3, 0x1.8e4b340000000p-2, 0x1.9d38220000000p-3, 0x1.5dba440000000p-3, 0x1.2519660000000p-4, 0x1.cc82240000000p-3, 0x1.4d60ae0000000p-3}
, {-0x1.e3f66a0000000p-3, 0x1.1fbd9e0000000p-5, -0x1.df70400000000p-1, 0x1.b311d80000000p-5, 0x1.0331900000000p-3, 0x1.2b601a0000000p-4, 0x1.4141880000000p-3, -0x1.dc6dcc0000000p-3}
, {-0x1.3714040000000p-2, -0x1.d602ea0000000p-2, 0x1.64c2b20000000p-4, -0x1.b785920000000p-2, -0x1.4719820000000p-5, -0x1.9c78b40000000p-3, -0x1.1b89ac0000000p-3, -0x1.00e3e20000000p-2}
}
, {{-0x1.5f0afc0000000p-1, -0x1.4e873c0000000p+0, -0x1.82c93e0000000p-2, -0x1.41b8560000000p+0, -0x1.7ca18e0000000p-5, 0x1.48a7d20000000p-3, 0x1.d5c0b20000000p-6, -0x1.f547640000000p-1}
, {-0x1.99f7ee0000000p-2, -0x1.18f7e80000000p-1, 0x1.c5b6b00000000p-2, -0x1.c025760000000p-2, 0x1.6fc0540000000p-2, -0x1.f8cfb20000000p-2, -0x1.86d90e0000000p-1, 0x1.13beb60000000p-7}
, {-0x1.25a8ec0000000p-2, 0x1.6ef9f80000000p-3, 0x1.bd41960000000p-2, 0x1.c1a9680000000p-3, -0x1.22ab080000000p-1, -0x1.852d2e0000000p+0, -0x1.422dd40000000p-1, 0x1.b80a100000000p-4}
}
, {{-0x1.667a6a0000000p-1, -0x1.503da40000000p-2, -0x1.c81e8a0000000p-3, -0x1.a214580000000p-3, -0x1.16eb600000000p-1, -0x1.ea76a00000000p-2, -0x1.2434500000000p+0, -0x1.0db94c0000000p-7}
, {-0x1.1396f00000000p-2, 0x1.14b95c0000000p-3, 0x1.cc66720000000p-3, 0x1.77e2200000000p-3, 0x1.027ffa0000000p-3, 0x1.48fdca0000000p-5, 0x1.7418280000000p-4, 0x1.5872420000000p-3}
, {-0x1.df4fea0000000p-4, 0x1.b439b00000000p-4, 0x1.9d38ea0000000p-2, 0x1.203b460000000p-3, 0x1.d5940c0000000p-4, 0x1.0049fc0000000p-2, 0x1.5fbbdc0000000p-3, 0x1.2cc9500000000p-3}
}
}
, {{{-0x1.668c060000000p-2, -0x1.0db9e20000000p-3, -0x1.6af1880000000p+0, -0x1.84b24a0000000p-3, 0x1.da18b20000000p-5, 0x1.6ff9fa0000000p-4, 0x1.795dc00000000p-3, -0x1.b68db20000000p-7}
, {0x1.9198d00000000p-5, 0x1.964e660000000p-3, -0x1.a031a00000000p-5, 0x1.aefb780000000p-3, 0x1.12f0100000000p-2, 0x1.ac44fa0000000p-7, 0x1.6a0c020000000p-3, 0x1.f142a80000000p-4}
, {-0x1.b5cccc0000000p-2, 0x1.da22e80000000p-4, -0x1.d41eb40000000p-2, 0x1.b43f220000000p-4, 0x1.0db2380000000p-1, 0x1.33585a0000000p-3, 0x1.fbccdc0000000p-3, 0x1.4bdc1c0000000p-4}
}
, {{-0x1.9fd7720000000p-3, -0x1.9619400000000p-1, 0x1.d45a800000000p-3, -0x1.339a6a0000000p+0, -0x1.d9fcac0000000p-1, 0x1.e3d77e0000000p-3, -0x1.d1196a0000000p-1, -0x1.9d7d3e0000000p-1}
, {-0x1.eb4d380000000p-5, -0x1.577ed80000000p+0, 0x1.bc90080000000p-2, -0x1.63d94a0000000p+0, -0x1.d4e2de0000000p-3, 0x1.9f3c180000000p-2, -0x1.fdbb160000000p-6, -0x1.e1fa180000000p-1}
, {-0x1.c511a40000000p-4, -0x1.b329e00000000p-1, 0x1.3562f00000000p-5, -0x1.8ea6ee0000000p-1, 0x1.a4b0e40000000p-3, -0x1.3ab9f40000000p-3, -0x1.56f6900000000p-3, -0x1.eb275e0000000p-2}
}
, {{0x1.dc58ae0000000p-3, 0x1.4e41460000000p-3, 0x1.c67c0a0000000p-4, 0x1.0514900000000p-3, 0x1.1cb4e60000000p-4, -0x1.eb94800000000p-2, 0x1.0141ec0000000p-5, 0x1.8c428e0000000p-3}
, {0x1.8703220000000p-3, 0x1.c907840000000p-4, -0x1.fd97400000000p-6, 0x1.8a15020000000p-4, -0x1.3ac7840000000p-2, -0x1.0060240000000p-1, -0x1.3c45000000000p-3, 0x1.aecd040000000p-3}
, {0x1.c9145a0000000p-3, 0x1.6947360000000p-4, 0x1.57203c0000000p-3, 0x1.108f340000000p-4, -0x1.6f5b2e0000000p-1, -0x1.114eb40000000p-1, -0x1.24b9540000000p-2, 0x1.e39de40000000p-5}
}
}
, {{{0x1.8256940000000p-3, 0x1.ab02e40000000p-5, 0x1.67422e0000000p-3, 0x1.d94f740000000p-4, -0x1.b0fa340000000p-6, 0x1.5af6d40000000p-5, 0x1.417f260000000p-3, 0x1.2c7ece0000000p-4}
, {0x1.c8b4cc0000000p-5, 0x1.10464e0000000p-4, -0x1.836eec0000000p-6, 0x1.f86e880000000p-4, 0x1.42763e0000000p-3, 0x1.215f5e0000000p-4, 0x1.9c10840000000p-4, 0x1.77eef60000000p-4}
, {-0x1.19f2960000000p-3, 0x1.0789680000000p-3, 0x1.935d960000000p-4, 0x1.272b480000000p-3, 0x1.1aeab40000000p-3, -0x1.8cf9e00000000p-6, 0x1.4a80fa0000000p-7, 0x1.a804d80000000p-3}
}
, {{-0x1.dfaf1a0000000p-4, 0x1.dc7aa40000000p-7, -0x1.4be4200000000p-1, -0x1.a4aff80000000p-6, 0x1.18ac6a0000000p-7, 0x1.8f1ae60000000p-3, 0x1.7fa1fa0000000p-4, 0x1.b11a8a0000000p-3}
, {0x1.eb37b80000000p-9, 0x1.4f7e1e0000000p-3, 0x1.d497480000000p-3, 0x1.dbe5260000000p-3, 0x1.ebe9620000000p-4, -0x1.a7ba2c0000000p-5, 0x1.01a1d20000000p-4, 0x1.3b59a40000000p-2}
, {-0x1.2275240000000p-2, 0x1.19f9440000000p-2, -0x1.8685fe0000000p-3, 0x1.3693940000000p-3, 0x1.e2e4800000000p-2, 0x1.d1203c0000000p-6, 0x1.8c140e0000000p-3, 0x1.064a1e0000000p-3}
}
, {{-0x1.38765a0000000p-5, -0x1.7932860000000p-1, 0x1.1910740000000p-1, -0x1.0528460000000p+0, -0x1.3686820000000p-2, 0x1.ade05c0000000p-4, -0x1.b9a1ae0000000p-2, -0x1.30dd840000000p+0}
, {-0x1.d97ae80000000p-2, -0x1.9e2df80000000p+0, -0x1.8ed4140000000p-7, -0x1.e64a160000000p+0, -0x1.27cd560000000p-3, 0x1.3bba920000000p-3, -0x1.03ccb20000000p-3, -0x1.5a7a220000000p+0}
, {-0x1.4434480000000p-1, -0x1.a5cc920000000p+0, 0x1.c0eafe0000000p-5, -0x1.6439360000000p+0, 0x1.b15ea20000000p-3, -0x1.5a913a0000000p-3, -0x1.220cf00000000p-2, -0x1.a69ca80000000p-1}
}
}
, {{{0x1.7b55400000000p-3, 0x1.3d04a40000000p-4, -0x1.2b1b0a0000000p-5, 0x1.fb5fdc0000000p-4, -0x1.e09e640000000p-6, -0x1.5a56960000000p-4, 0x1.6161840000000p-3, 0x1.4785680000000p-4}
, {0x1.70b38e0000000p-3, -0x1.52c56c0000000p-3, 0x1.98ffbc0000000p-3, -0x1.06735c0000000p-4, -0x1.b62a3e0000000p-4, 0x1.00b0320000000p-3, -0x1.54967c0000000p-3, -0x1.531e860000000p-4}
, {0x1.80e4e40000000p-5, -0x1.25db480000000p-3, 0x1.01cffa0000000p-6, -0x1.0c51680000000p-2, -0x1.94a57c0000000p-6, 0x1.3836340000000p-2, -0x1.c6e5c00000000p-3, -0x1.8135f40000000p-3}
}
, {{0x1.0263e80000000p-4, 0x1.06c1040000000p-5, 0x1.987f720000000p-9, 0x1.f505f00000000p-5, -0x1.168e9e0000000p-3, 0x1.9727a20000000p-3, 0x1.8c03e80000000p-3, 0x1.deff8c0000000p-4}
, {0x1.03fe6e0000000p-3, 0x1.eda9220000000p-4, 0x1.de3a400000000p-2, 0x1.0442c80000000p-3, -0x1.9be5780000000p-2, 0x1.26a3a00000000p-1, 0x1.bc32a40000000p-4, 0x1.3b2aa60000000p-4}
, {0x1.fdb53e0000000p-3, 0x1.9ce6b40000000p-4, 0x1.496efe0000000p-2, 0x1.d0523a0000000p-3, -0x1.3914040000000p-4, -0x1.fad30a0000000p-5, 0x1.8388ec0000000p-11, 0x1.9b6a920000000p-4}
}
, {{-0x1.42781e0000000p-2, -0x1.497b960000000p-6, -0x1.bcf3600000000p-3, -0x1.3780d40000000p-3, -0x1.0355b60000000p-4, 0x1.a4568e0000000p-4, -0x1.1552d80000000p-10, -0x1.2f32220000000p-3}
, {-0x1.fa51600000000p-3, -0x1.bb6b9c0000000p-9, -0x1.12d14e0000000p-2, 0x1.3a60740000000p-4, 0x1.fa096c0000000p-4, 0x1.0277940000000p-3, 0x1.4bec6c0000000p-3, -0x1.1d06ac0000000p-6}
, {-0x1.12c36a0000000p-4, 0x1.48b6200000000p-6, 0x1.07db5e0000000p-4, 0x1.1334da0000000p-4, -0x1.c5518e0000000p-5, 0x1.a303140000000p-5, 0x1.f2b19c0000000p-4, 0x1.f6086c0000000p-4}
}
}
}
;

#undef INPUT_CHANNELS
#undef CONV_FILTERS
#undef CONV_KERNEL_SIZE_X
#undef CONV_KERNEL_SIZE_Y
#undef CONV_GROUPS