/**
  ******************************************************************************
  * @file    weights/conv2d.cc
  * @author  Pierre-Emmanuel Novac <penovac@unice.fr>, LEAT, CNRS, Université Côte d'Azur, France
  * @version V2.0
  * @date    24 march 2020
  * @brief   Template generating plain C code for the implementation of Convolutional Neural Networks on MCU
  */

#include <stdint.h>

#define INPUT_CHANNELS     8
#define CONV_FILTERS       16
#define CONV_KERNEL_SIZE_Y 3
#define CONV_KERNEL_SIZE_X 3
#define CONV_GROUPS        1


const float conv2d_1_bias[CONV_FILTERS] = {0x1.27c27c0000000p-3, 0x1.8a5e260000000p-6, -0x1.8b25660000000p-11, 0x1.99f9f20000000p-4, -0x1.5f52800000000p-5, 0x1.1773380000000p-6, -0x1.1527840000000p-7, 0x1.f621320000000p-6, -0x1.0712620000000p-5, 0x1.dfc4840000000p-5, -0x1.04970c0000000p-2, 0x1.4e795a0000000p-4, -0x1.0474680000000p-3, 0x1.7d97040000000p-7, 0x1.1e0de40000000p-5, -0x1.9ca6820000000p-4}
;


const float conv2d_1_kernel[CONV_FILTERS][CONV_KERNEL_SIZE_Y][CONV_KERNEL_SIZE_X][INPUT_CHANNELS / CONV_GROUPS] = {{{{-0x1.2bdb420000000p-2, -0x1.0773f00000000p-3, -0x1.c164e80000000p-1, -0x1.8bdfb20000000p-2, -0x1.a1d5720000000p-3, -0x1.5856620000000p-2, -0x1.d799f00000000p-1, -0x1.e478e40000000p-1}
, {-0x1.74a9ec0000000p-7, -0x1.0e352c0000000p-1, -0x1.75276a0000000p-1, -0x1.8123ca0000000p-4, -0x1.3158d00000000p-4, 0x1.e867f00000000p-4, -0x1.070bc40000000p-3, -0x1.8e18c40000000p+0}
, {-0x1.a8cfc00000000p-5, -0x1.68f10e0000000p-4, -0x1.6b4ffa0000000p+0, 0x1.7eb43a0000000p-4, -0x1.9508b80000000p-4, 0x1.38c7340000000p-3, -0x1.3c90dc0000000p-6, -0x1.5572b00000000p-1}
}
, {{0x1.dfffc40000000p-3, -0x1.d49d3a0000000p-1, -0x1.ad5e180000000p-2, -0x1.7e41da0000000p-2, -0x1.a13cbc0000000p-3, 0x1.1f105a0000000p-5, -0x1.4e23780000000p-2, -0x1.443fa40000000p+0}
, {0x1.14fdde0000000p-4, 0x1.02e6ac0000000p-3, -0x1.750fec0000000p+0, 0x1.718a6e0000000p-4, -0x1.419eb60000000p-4, 0x1.5caffa0000000p-4, 0x1.4a31840000000p-6, -0x1.bc19d40000000p+0}
, {0x1.5c55de0000000p-4, 0x1.16d6d20000000p-3, -0x1.e2054c0000000p-2, 0x1.4187c20000000p-3, -0x1.ebbbf20000000p-3, 0x1.f78c4e0000000p-3, 0x1.9628f60000000p-3, 0x1.3171e20000000p-4}
}
, {{0x1.3f28ea0000000p-3, 0x1.32a18c0000000p-4, -0x1.82545e0000000p-1, 0x1.e669cc0000000p-5, 0x1.3ea9840000000p-4, 0x1.3fde2a0000000p-2, 0x1.5de7520000000p-4, -0x1.7a7f640000000p-1}
, {0x1.ae20340000000p-4, 0x1.31670a0000000p-3, -0x1.c9d3820000000p-2, 0x1.3651e60000000p-4, -0x1.bc805c0000000p-3, 0x1.c84a060000000p-2, 0x1.12daca0000000p-4, 0x1.2abee20000000p-5}
, {-0x1.80a69c0000000p-6, 0x1.cc103c0000000p-4, -0x1.df578e0000000p-4, -0x1.38eefa0000000p-4, -0x1.850a4c0000000p-2, 0x1.58b2860000000p-5, 0x1.0fdd120000000p-8, 0x1.c3a2e00000000p-4}
}
}
, {{{-0x1.55e5580000000p-3, 0x1.7fb96c0000000p-3, 0x1.9d904a0000000p-3, 0x1.d4a3b60000000p-5, 0x1.176c660000000p-2, -0x1.4a7a020000000p-1, -0x1.257d820000000p-5, 0x1.56718a0000000p-6}
, {0x1.52129e0000000p-2, -0x1.a6e3900000000p-2, -0x1.5b0fc20000000p-3, -0x1.41c4720000000p-3, -0x1.b46f920000000p-1, 0x1.c034000000000p-3, 0x1.09ed3c0000000p-6, -0x1.8fe10a0000000p-4}
, {0x1.f7ab340000000p-4, 0x1.4332000000000p-2, -0x1.df93e20000000p-1, 0x1.c4b2d80000000p-4, 0x1.60d6200000000p-7, 0x1.29dc980000000p-2, 0x1.adc6c00000000p-3, -0x1.1983860000000p-1}
}
, {{-0x1.eaffa40000000p-5, 0x1.994bc00000000p-3, -0x1.2c78120000000p-3, 0x1.b228880000000p-8, 0x1.5b598c0000000p-3, -0x1.4204a80000000p-2, -0x1.e4ab520000000p-2, -0x1.a42b2c0000000p-5}
, {0x1.aec22e0000000p-4, -0x1.691caa0000000p-1, -0x1.3c77480000000p-3, -0x1.e4b8c00000000p-4, -0x1.b028840000000p-1, 0x1.bea1c80000000p-4, 0x1.3d36d20000000p-6, -0x1.de0cc40000000p-3}
, {0x1.29fd1a0000000p-3, 0x1.8231560000000p-3, -0x1.104d6a0000000p-1, 0x1.8b090c0000000p-3, -0x1.0d4dd40000000p-4, 0x1.80cf7e0000000p-7, 0x1.2034f60000000p-2, -0x1.d065200000000p-2}
}
, {{-0x1.ddebb40000000p-3, -0x1.9d25560000000p-3, -0x1.b5c07e0000000p-3, -0x1.2649240000000p-2, -0x1.493b660000000p-7, -0x1.05af1a0000000p-2, -0x1.9bd72c0000000p-2, -0x1.73a1b20000000p-3}
, {-0x1.3cfe9a0000000p-5, -0x1.c0e9e20000000p-2, 0x1.4a8ece0000000p-6, -0x1.ec973a0000000p-4, -0x1.15d4980000000p-2, -0x1.cb21520000000p-5, -0x1.6922040000000p-3, -0x1.8ed0ca0000000p-3}
, {0x1.6d78540000000p-3, 0x1.e23e720000000p-5, -0x1.c71f380000000p-6, 0x1.e68f2c0000000p-4, 0x1.12377c0000000p-3, -0x1.2babe20000000p-4, 0x1.2e6a9c0000000p-3, -0x1.62c55e0000000p-3}
}
}
, {{{-0x1.d0ec7e0000000p-6, -0x1.d6b6580000000p-3, 0x1.6a8d440000000p-6, -0x1.cb94220000000p-3, 0x1.1f9e540000000p-5, 0x1.4933a80000000p-7, -0x1.5a98f20000000p-3, 0x1.66981a0000000p-4}
, {0x1.7dd77a0000000p-6, 0x1.b1ab920000000p-6, -0x1.d9b0e40000000p-5, 0x1.53dc960000000p-5, 0x1.b35b280000000p-3, 0x1.8945c80000000p-3, 0x1.4019260000000p-4, -0x1.3949fc0000000p-3}
, {0x1.5f189a0000000p-3, 0x1.20bec80000000p-4, -0x1.ded2a40000000p-1, 0x1.535b380000000p-4, -0x1.8b122c0000000p-4, 0x1.3baaca0000000p-2, 0x1.1caf980000000p-4, -0x1.5692780000000p-3}
}
, {{-0x1.772dee0000000p-6, 0x1.2ce6fc0000000p-4, -0x1.7dfd460000000p-1, 0x1.00c97c0000000p-3, 0x1.47a6b40000000p-4, 0x1.ac29a80000000p-2, 0x1.5a851e0000000p-5, -0x1.47f6960000000p-3}
, {-0x1.650d040000000p-5, 0x1.b5b0b40000000p-3, -0x1.63ef380000000p-3, 0x1.f402c20000000p-3, -0x1.fd74060000000p-4, 0x1.53e2a00000000p-1, 0x1.5061aa0000000p-4, 0x1.bc45460000000p-5}
, {-0x1.d9377a0000000p-2, 0x1.38802e0000000p-3, -0x1.3a960a0000000p-7, -0x1.76f13a0000000p-4, -0x1.076b960000000p-1, -0x1.acaa420000000p-1, -0x1.4c06a20000000p-7, -0x1.b5061e0000000p-7}
}
, {{-0x1.4897c40000000p-2, 0x1.e69b920000000p-5, -0x1.828a540000000p-6, 0x1.35106e0000000p-3, -0x1.e131880000000p-4, -0x1.1387760000000p-3, 0x1.18f8c80000000p-4, 0x1.35fa220000000p-4}
, {-0x1.263c4a0000000p-1, 0x1.0fb6da0000000p-5, 0x1.ac43ae0000000p-8, -0x1.c433180000000p-5, -0x1.c1ef540000000p-2, -0x1.4e411e0000000p-1, -0x1.50ac5e0000000p-4, 0x1.52e5400000000p-3}
, {-0x1.b083fa0000000p-2, -0x1.7035f20000000p-3, -0x1.636be20000000p-3, -0x1.692ac00000000p-2, -0x1.8de9c00000000p-3, -0x1.13e52c0000000p-2, -0x1.1199ea0000000p-2, -0x1.2da1640000000p-4}
}
}
, {{{-0x1.60333c0000000p-6, 0x1.6f283e0000000p-4, 0x1.00cef60000000p-8, 0x1.c496d00000000p-4, -0x1.7f2cbe0000000p-4, -0x1.9af26a0000000p-6, 0x1.0c22a00000000p-3, -0x1.4a56e80000000p-2}
, {0x1.157b460000000p-3, 0x1.0a27c00000000p-3, -0x1.cd83980000000p+0, 0x1.884f5e0000000p-3, -0x1.4ccde80000000p-3, 0x1.39615e0000000p-3, 0x1.0842b00000000p-3, -0x1.d0f83a0000000p-1}
, {0x1.c291c60000000p-4, 0x1.35c3f20000000p-3, -0x1.1d52120000000p-4, 0x1.167cf20000000p-4, -0x1.27486a0000000p-8, 0x1.1611120000000p-5, 0x1.519d5c0000000p-5, -0x1.e3231c0000000p-5}
}
, {{-0x1.3e48360000000p-5, 0x1.26957e0000000p-3, -0x1.5a557e0000000p-1, 0x1.96c1820000000p-4, -0x1.64313a0000000p-2, 0x1.39eff40000000p-5, 0x1.26ccc00000000p-3, -0x1.35f4120000000p-1}
, {0x1.11e5160000000p-3, 0x1.6e0be20000000p-3, -0x1.c0507a0000000p+0, 0x1.92a0360000000p-4, -0x1.00671e0000000p-2, 0x1.f273e60000000p-3, 0x1.49c7660000000p-4, -0x1.7b08800000000p-1}
, {-0x1.9277aa0000000p-1, 0x1.3ae9b40000000p-4, -0x1.3d4c5c0000000p-3, -0x1.fca8ec0000000p-5, -0x1.c170fc0000000p-4, -0x1.274eaa0000000p+0, -0x1.5b49d60000000p-3, 0x1.aa14060000000p-9}
}
, {{-0x1.0f557e0000000p-4, 0x1.20f6bc0000000p-3, -0x1.7c3d560000000p-2, 0x1.bbee7e0000000p-5, -0x1.6d077c0000000p-2, 0x1.ccd2700000000p-4, -0x1.059da20000000p-6, -0x1.39f3700000000p-2}
, {0x1.437a6e0000000p-4, 0x1.c3343e0000000p-5, -0x1.aaff580000000p-1, 0x1.6e98d20000000p-7, -0x1.7061fc0000000p-6, 0x1.4d5ca20000000p-5, 0x1.72944e0000000p-5, -0x1.0c1ce80000000p-1}
, {-0x1.62a00a0000000p-1, -0x1.0a7b780000000p-4, -0x1.a5c80e0000000p-2, -0x1.e2caee0000000p-4, 0x1.5e68860000000p-4, -0x1.47bc4a0000000p-2, -0x1.23765c0000000p-2, -0x1.7197160000000p-2}
}
}
, {{{0x1.edbd740000000p-5, -0x1.26f10e0000000p-5, 0x1.230d080000000p-4, 0x1.8affa20000000p-4, 0x1.e894aa0000000p-5, -0x1.832daa0000000p-3, 0x1.cfaf020000000p-4, 0x1.a2de7c0000000p-4}
, {0x1.313d060000000p-6, 0x1.6208cc0000000p-6, -0x1.27d3ae0000000p-1, 0x1.b6a1600000000p-5, 0x1.64a6640000000p-2, -0x1.1db0800000000p-3, 0x1.17d81e0000000p-3, -0x1.0967920000000p-2}
, {-0x1.bcd50e0000000p-2, -0x1.edb7dc0000000p-4, 0x1.001c760000000p-4, -0x1.085ee80000000p-3, 0x1.1253ee0000000p-2, -0x1.a1f23c0000000p-3, -0x1.67ca6c0000000p-2, -0x1.08cab80000000p-1}
}
, {{0x1.36c29a0000000p-3, -0x1.70ffba0000000p-5, 0x1.2eff040000000p-4, -0x1.9871500000000p-7, -0x1.341df60000000p-2, -0x1.cc0bc60000000p-4, -0x1.1a50020000000p-4, -0x1.071bd60000000p-6}
, {0x1.37740c0000000p-3, 0x1.207c280000000p-4, 0x1.f92a2c0000000p-2, 0x1.1ff6800000000p-3, 0x1.5c9e6c0000000p-1, -0x1.29c4400000000p-2, 0x1.5b1d500000000p-3, 0x1.bf445a0000000p-4}
, {-0x1.82b42a0000000p-2, 0x1.089b5e0000000p-3, -0x1.0a48400000000p-4, 0x1.068f600000000p-2, 0x1.b49b000000000p-2, -0x1.43084c0000000p-2, 0x1.ee02ce0000000p-3, -0x1.49220e0000000p-4}
}
, {{-0x1.168f980000000p-3, -0x1.6c32240000000p-2, -0x1.3c319c0000000p-4, -0x1.49eb540000000p-1, -0x1.86b1ba0000000p-2, -0x1.b13bb40000000p-2, -0x1.155bfa0000000p-1, -0x1.1770260000000p-3}
, {0x1.bd5aa80000000p-5, -0x1.a616140000000p-2, 0x1.ba94720000000p-4, -0x1.cdfe940000000p-3, -0x1.23c0120000000p-1, -0x1.09d53a0000000p-5, -0x1.d738b60000000p-3, 0x1.9d41660000000p-4}
, {0x1.ef70560000000p-4, 0x1.0e315e0000000p-5, 0x1.4852700000000p-4, 0x1.1a69480000000p-3, -0x1.0ee5300000000p-4, -0x1.07691c0000000p-2, 0x1.82fd860000000p-3, 0x1.052b920000000p-3}
}
}
, {{{-0x1.d195240000000p-7, 0x1.25442e0000000p-7, -0x1.b5b2c00000000p-6, -0x1.0e2c020000000p-5, -0x1.7362fc0000000p-1, 0x1.61266e0000000p-6, 0x1.49745c0000000p-3, 0x1.8dfbe60000000p-4}
, {0x1.f19ea00000000p-7, 0x1.6c80100000000p-3, -0x1.ed1c4a0000000p-1, 0x1.3d0cac0000000p-5, 0x1.2b517e0000000p-2, 0x1.1923960000000p-4, 0x1.d382400000000p-5, -0x1.e5f3f80000000p-2}
, {-0x1.911f9e0000000p+0, -0x1.d9f5620000000p-5, 0x1.4d8ee80000000p-3, -0x1.b496600000000p-3, 0x1.5adcb80000000p-3, -0x1.c4063e0000000p-1, -0x1.cae6b80000000p-2, 0x1.5080700000000p-7}
}
, {{0x1.66af2c0000000p-2, -0x1.0c563a0000000p-1, 0x1.2288f00000000p-4, -0x1.242fda0000000p-3, -0x1.1511cc0000000p+0, 0x1.e2c6140000000p-6, 0x1.f626660000000p-5, -0x1.1b1f060000000p-5}
, {0x1.acaf280000000p-2, 0x1.f1a85c0000000p-3, -0x1.37a5d00000000p-1, 0x1.d33baa0000000p-5, 0x1.f532be0000000p-3, 0x1.9aa67e0000000p-5, 0x1.4727e20000000p-3, -0x1.4ce9dc0000000p-2}
, {-0x1.6c3e5a0000000p-1, -0x1.35f11e0000000p-3, -0x1.86e8140000000p-1, -0x1.566cd20000000p-3, 0x1.8720280000000p-3, -0x1.f82e4c0000000p-2, -0x1.09aa3e0000000p-1, -0x1.2c800e0000000p+0}
}
, {{0x1.d0b1f60000000p-4, -0x1.f51d560000000p-3, 0x1.ddc5620000000p-6, -0x1.fa12ce0000000p-4, -0x1.2ffb4a0000000p-2, 0x1.5e04320000000p-6, -0x1.fd4a040000000p-5, -0x1.607b3a0000000p-3}
, {0x1.ed92060000000p-3, 0x1.e88d320000000p-5, 0x1.cf5cde0000000p-5, 0x1.da98a00000000p-5, 0x1.0819380000000p-5, 0x1.dc99440000000p-8, 0x1.fc8cc80000000p-4, -0x1.493e500000000p-6}
, {-0x1.521e860000000p-4, 0x1.3a50ca0000000p-8, -0x1.5320600000000p-3, -0x1.feff820000000p-8, 0x1.da37660000000p-4, -0x1.50ae0e0000000p-2, -0x1.3ac16a0000000p-3, -0x1.ba8d3a0000000p-4}
}
}
, {{{0x1.281ffa0000000p-4, -0x1.064c4a0000000p-4, -0x1.d37a340000000p-2, -0x1.1b767a0000000p-5, 0x1.973e980000000p-6, 0x1.84ef460000000p-4, -0x1.acc0c20000000p-5, 0x1.34f9420000000p-6}
, {-0x1.5bc58e0000000p-3, 0x1.5fc0380000000p-4, -0x1.5ca3000000000p-3, 0x1.1fe28e0000000p-3, 0x1.066a000000000p-4, 0x1.32d9640000000p-3, 0x1.83621e0000000p-4, 0x1.6109b00000000p-2}
, {-0x1.a60d120000000p-3, 0x1.50bee60000000p-6, -0x1.973fda0000000p-4, 0x1.c74d0a0000000p-4, 0x1.03b6c40000000p-5, 0x1.3855c60000000p-3, 0x1.19926a0000000p-5, -0x1.4c9f220000000p-3}
}
, {{0x1.1268020000000p-8, 0x1.80731e0000000p-5, 0x1.6b9d840000000p-6, 0x1.ae6cb20000000p-4, 0x1.882c160000000p-4, -0x1.2689060000000p-4, 0x1.ba49cc0000000p-5, 0x1.daaeac0000000p-3}
, {0x1.0fd0840000000p-5, 0x1.a1e5340000000p-5, 0x1.900eba0000000p-3, 0x1.c487fa0000000p-4, 0x1.00f78e0000000p-2, 0x1.68ab020000000p-3, 0x1.ae91520000000p-5, 0x1.4982080000000p-3}
, {0x1.df0f2c0000000p-7, 0x1.3f8f2e0000000p-3, 0x1.927b800000000p-3, 0x1.b38ba20000000p-3, -0x1.776cca0000000p-3, 0x1.d3bf780000000p-4, 0x1.2da0de0000000p-3, 0x1.862c060000000p-4}
}
, {{-0x1.6fe32e0000000p-3, -0x1.9695a20000000p-4, 0x1.ccc7260000000p-3, -0x1.4ab8580000000p-2, 0x1.b0da820000000p-7, -0x1.1977fe0000000p-2, -0x1.7fb2ee0000000p-2, 0x1.d081e40000000p-4}
, {-0x1.86b8cc0000000p-2, -0x1.624c1e0000000p-2, 0x1.2b23100000000p-3, -0x1.79ffb80000000p-1, 0x1.d276a80000000p-5, -0x1.1883c60000000p-1, -0x1.9a6ac20000000p-2, 0x1.5aa41c0000000p-2}
, {-0x1.90d5640000000p-4, -0x1.4aa8440000000p-2, 0x1.69010c0000000p-4, -0x1.146fe40000000p-1, -0x1.3dac7c0000000p-4, -0x1.8583f60000000p-7, -0x1.6597a80000000p-3, 0x1.935f360000000p-3}
}
}
, {{{-0x1.0262640000000p-2, -0x1.fb21860000000p-9, 0x1.1f65600000000p-4, -0x1.5f94b00000000p-8, 0x1.8fa0ea0000000p-3, -0x1.1c267c0000000p-2, -0x1.ddfc520000000p-4, -0x1.397e2c0000000p-5}
, {-0x1.c21ea00000000p-1, -0x1.15881c0000000p-2, 0x1.4b2c680000000p-5, -0x1.7fc9100000000p-2, 0x1.dc4dba0000000p-3, -0x1.17695c0000000p-1, -0x1.767fe40000000p-1, -0x1.8b3d680000000p-5}
, {0x1.b86bfa0000000p-2, -0x1.4996ec0000000p-1, 0x1.5130340000000p-4, -0x1.9ed5700000000p-2, -0x1.4dd5100000000p-1, -0x1.58171a0000000p-2, -0x1.4425700000000p-2, -0x1.898eb60000000p-8}
}
, {{-0x1.4e9bbe0000000p-5, 0x1.65ef900000000p-3, 0x1.4d64f20000000p-4, 0x1.7761f00000000p-3, 0x1.ac07340000000p-2, -0x1.8978460000000p-5, 0x1.1aac760000000p-2, 0x1.a41d000000000p-3}
, {-0x1.b8c94a0000000p-3, 0x1.2bf97a0000000p-6, -0x1.a9d6f00000000p-2, 0x1.54a5fc0000000p-3, 0x1.96bb040000000p-3, -0x1.04e69c0000000p-2, 0x1.10c7560000000p-2, -0x1.048b280000000p+0}
, {-0x1.8b2e460000000p-1, -0x1.73b78a0000000p-2, 0x1.2df6260000000p-3, -0x1.1892f80000000p-1, -0x1.4895a80000000p-5, -0x1.3d32980000000p-1, -0x1.33dde00000000p+0, -0x1.d3ad9a0000000p-2}
}
, {{0x1.61119a0000000p-2, 0x1.c3aa8a0000000p-3, 0x1.884ade0000000p-3, 0x1.4326680000000p-3, 0x1.7bb9fe0000000p-3, 0x1.59d7fa0000000p-3, 0x1.00fd640000000p-3, 0x1.e6d6f00000000p-5}
, {0x1.7f94b20000000p-1, 0x1.6877b60000000p-3, -0x1.38e00a0000000p-5, 0x1.1159cc0000000p-3, 0x1.4b904a0000000p-3, -0x1.eb4d600000000p-6, 0x1.4031840000000p-4, -0x1.64536e0000000p-4}
, {-0x1.fcbf880000000p-1, -0x1.6ada7c0000000p-3, -0x1.24dd000000000p-1, -0x1.9653980000000p-4, 0x1.1540220000000p-3, -0x1.abb23c0000000p-2, -0x1.23cc380000000p-3, -0x1.6e01e20000000p-1}
}
}
, {{{-0x1.8dac6c0000000p-5, 0x1.8d90ac0000000p-4, 0x1.5853100000000p-3, 0x1.f6521a0000000p-4, 0x1.00e2360000000p-2, -0x1.1cff9e0000000p-3, 0x1.9c15b40000000p-5, 0x1.2d76d80000000p-2}
, {0x1.4174ca0000000p-2, 0x1.9acf2e0000000p-4, 0x1.31eb520000000p-2, 0x1.0ca4da0000000p-4, 0x1.07b6aa0000000p-3, 0x1.94a6280000000p-4, 0x1.54257c0000000p-3, 0x1.97e4e20000000p-5}
, {0x1.45517c0000000p-3, 0x1.ec0c720000000p-3, 0x1.08f3080000000p-2, 0x1.2c8adc0000000p-3, -0x1.c6d3120000000p-5, 0x1.8898840000000p-2, 0x1.dd6bf80000000p-4, 0x1.3a16700000000p-3}
}
, {{0x1.c66b960000000p-2, -0x1.34584c0000000p-3, 0x1.84d1140000000p-3, -0x1.16d9fa0000000p-4, -0x1.3ec75c0000000p-1, -0x1.fb7c8c0000000p-2, 0x1.25a68a0000000p-3, 0x1.2b2aba0000000p-3}
, {0x1.61080c0000000p-3, 0x1.c2144c0000000p-4, 0x1.570cb60000000p-6, 0x1.ada0b00000000p-3, -0x1.8d81320000000p-2, -0x1.72aafa0000000p-3, 0x1.86ad1c0000000p-3, 0x1.2345ee0000000p-7}
, {-0x1.8f95de0000000p-4, 0x1.f627ac0000000p-3, -0x1.3f69b20000000p-8, -0x1.3496380000000p-3, -0x1.811a8c0000000p-1, -0x1.e496380000000p-2, -0x1.aee6b00000000p-5, -0x1.245e640000000p-7}
}
, {{-0x1.4f4b3a0000000p-2, -0x1.3996600000000p-1, 0x1.17441c0000000p-3, -0x1.c14fa40000000p-1, 0x1.b9d5300000000p-2, -0x1.5ab67a0000000p-3, -0x1.34167e0000000p+0, -0x1.267b320000000p-2}
, {-0x1.6c403e0000000p-2, -0x1.cc0b540000000p-1, 0x1.566a480000000p-5, -0x1.a5040e0000000p+0, 0x1.8372940000000p-7, -0x1.d1f0400000000p-2, -0x1.0b1f980000000p+0, -0x1.7683580000000p-4}
, {-0x1.4dd5d20000000p-2, -0x1.2c7cb00000000p+0, -0x1.c473580000000p-3, -0x1.a3b75e0000000p-1, -0x1.e69b2a0000000p-3, -0x1.b80e480000000p-3, -0x1.7cd4400000000p-1, -0x1.adf6a00000000p-2}
}
}
, {{{0x1.2d61d00000000p-2, 0x1.35365e0000000p-3, -0x1.c4a9160000000p-2, 0x1.2eda5c0000000p-4, 0x1.fdd1980000000p-5, 0x1.ec24600000000p-3, 0x1.a098240000000p-4, -0x1.a7ea3e0000000p-4}
, {0x1.e1714a0000000p-2, 0x1.7ffd120000000p-4, -0x1.e108f00000000p-13, 0x1.06044e0000000p-5, 0x1.7f42040000000p-4, -0x1.a3b7fc0000000p-4, 0x1.6309ae0000000p-5, 0x1.02ca2a0000000p-3}
, {-0x1.3cbeda0000000p-1, -0x1.3477600000000p-4, -0x1.bf2efc0000000p-5, -0x1.b8873a0000000p-3, -0x1.2ffd780000000p-3, -0x1.f72f5c0000000p+0, -0x1.d2a4ee0000000p-2, -0x1.2d451a0000000p-4}
}
, {{0x1.190ec80000000p-2, 0x1.b9e2600000000p-3, -0x1.e11d7c0000000p-4, 0x1.8732060000000p-3, -0x1.b463180000000p-6, 0x1.ab79e80000000p-2, 0x1.92f3f60000000p-4, 0x1.29a3e20000000p-6}
, {0x1.1f67180000000p-2, 0x1.90bad60000000p-6, -0x1.4c60800000000p-5, 0x1.4f25f20000000p-7, -0x1.24b9100000000p-2, -0x1.5164780000000p-2, -0x1.8a43440000000p-5, -0x1.4a82e00000000p-4}
, {-0x1.c36f740000000p-2, -0x1.5c4a820000000p-2, -0x1.8f66740000000p-2, -0x1.44f8fe0000000p-1, -0x1.20dfd20000000p-1, -0x1.e88aa40000000p-2, -0x1.1e9e800000000p+0, -0x1.210cae0000000p-2}
}
, {{-0x1.54393a0000000p-5, 0x1.3cf0fa0000000p-3, 0x1.0b14a00000000p-8, 0x1.50ab7e0000000p-4, -0x1.a8f1c40000000p-3, 0x1.a0e92e0000000p-4, 0x1.9a492e0000000p-5, 0x1.9e52b20000000p-3}
, {-0x1.aa46600000000p+0, -0x1.3bca3a0000000p-3, -0x1.96d1c60000000p-3, -0x1.639fb00000000p-2, -0x1.02c8160000000p-1, -0x1.319c9a0000000p-1, -0x1.d914680000000p-2, 0x1.e80d2a0000000p-3}
, {0x1.b9bb660000000p-3, -0x1.fa64480000000p-1, -0x1.7537c60000000p-2, -0x1.37c52c0000000p-2, -0x1.05f81a0000000p-1, 0x1.fabdb20000000p-4, -0x1.2911dc0000000p-1, -0x1.026d6e0000000p-1}
}
}
, {{{-0x1.2c84ae0000000p-3, 0x1.6f5eb20000000p-4, 0x1.9402040000000p-2, 0x1.02b9840000000p-3, 0x1.08330a0000000p-2, -0x1.12ffce0000000p-2, 0x1.a086ea0000000p-3, 0x1.66cb9c0000000p-3}
, {-0x1.d1697a0000000p-2, 0x1.f8982c0000000p-8, -0x1.31baf80000000p-5, 0x1.2c444c0000000p-3, 0x1.12996e0000000p-2, -0x1.d584ce0000000p-2, 0x1.9b1f3c0000000p-3, -0x1.87dad40000000p-5}
, {-0x1.29cc920000000p-1, 0x1.61a9260000000p-3, -0x1.2805b80000000p-3, 0x1.15d6c20000000p-2, 0x1.96164a0000000p-4, -0x1.cb7ee20000000p-3, 0x1.b174b60000000p-4, -0x1.730b100000000p-3}
}
, {{0x1.7f5a280000000p-7, -0x1.3312a80000000p-3, 0x1.bc480a0000000p-4, -0x1.f88b580000000p-4, -0x1.5c44760000000p+0, -0x1.30975a0000000p-2, -0x1.a3d7c80000000p-7, 0x1.1b290a0000000p-5}
, {0x1.143cd00000000p-4, 0x1.123f320000000p-4, 0x1.cb94b20000000p-4, 0x1.6a8bf20000000p-4, 0x1.47a36e0000000p-2, -0x1.4c1f1c0000000p-2, 0x1.4b1afe0000000p-4, -0x1.e2d0ce0000000p-4}
, {-0x1.d434ea0000000p-6, 0x1.240ef00000000p-3, 0x1.62fefc0000000p-5, 0x1.0356320000000p-3, 0x1.ed520a0000000p-8, -0x1.9cdb600000000p-2, 0x1.a2a8ac0000000p-4, -0x1.08afe80000000p-5}
}
, {{0x1.542f960000000p-3, -0x1.ac29100000000p-4, 0x1.60356c0000000p-5, -0x1.11ef000000000p-4, -0x1.3050460000000p-2, 0x1.86c8aa0000000p-2, -0x1.d785580000000p-5, -0x1.6e7fe80000000p-3}
, {0x1.66a6300000000p-4, 0x1.1a15ee0000000p-4, -0x1.aaf2480000000p-3, 0x1.143b2e0000000p-5, -0x1.68dddc0000000p-3, 0x1.01667c0000000p-3, 0x1.5e1d200000000p-5, -0x1.40b4040000000p-3}
, {0x1.449f360000000p-3, 0x1.3305de0000000p-5, 0x1.21736a0000000p-7, 0x1.433bce0000000p-11, -0x1.6c4abe0000000p-4, -0x1.9553640000000p-4, -0x1.720a2a0000000p-5, -0x1.a0bd460000000p-8}
}
}
, {{{0x1.f469c00000000p-3, -0x1.0a21800000000p+0, -0x1.e420ec0000000p-6, -0x1.4096aa0000000p-2, -0x1.5f24080000000p-1, 0x1.d57e080000000p-3, -0x1.de5a3c0000000p-2, -0x1.97320e0000000p-3}
, {0x1.0e8bae0000000p-3, 0x1.e7a95c0000000p-3, -0x1.6a0a2a0000000p-2, 0x1.4d65100000000p-3, -0x1.24092c0000000p-5, 0x1.f88f3e0000000p-4, 0x1.02367a0000000p-3, -0x1.44eda40000000p-1}
, {-0x1.e16db60000000p-10, 0x1.0a50fe0000000p-3, -0x1.cf5c840000000p-1, 0x1.b832d80000000p-5, 0x1.8158020000000p-7, 0x1.e0c3200000000p-6, 0x1.20fa900000000p-3, -0x1.1c63c00000000p-2}
}
, {{0x1.cfd61a0000000p-3, -0x1.316a7c0000000p+0, -0x1.cdf7300000000p-3, -0x1.7a4dc60000000p-2, -0x1.be40760000000p-1, 0x1.9604f80000000p-5, -0x1.2d636c0000000p-2, -0x1.c7c7220000000p-2}
, {0x1.01cf220000000p-4, 0x1.89ec620000000p-3, -0x1.0057c80000000p+0, 0x1.76324a0000000p-4, -0x1.f985720000000p-4, 0x1.2d7fbe0000000p-5, 0x1.7e6b760000000p-3, -0x1.d10ef40000000p-1}
, {0x1.1ee51c0000000p-3, 0x1.349ae40000000p-3, -0x1.29ceb60000000p-1, 0x1.dcb0cc0000000p-5, 0x1.35d17a0000000p-6, 0x1.c252be0000000p-4, 0x1.c2dce80000000p-4, -0x1.13069c0000000p-2}
}
, {{0x1.34c1b00000000p-3, -0x1.1193c00000000p-1, 0x1.8d17320000000p-5, -0x1.2dc35c0000000p-3, -0x1.3793d00000000p-2, 0x1.7729760000000p-7, -0x1.589b040000000p-4, -0x1.d60f080000000p-3}
, {0x1.e4bbae0000000p-3, 0x1.52453a0000000p-3, -0x1.7df05e0000000p-3, 0x1.73f6540000000p-5, -0x1.4cbcca0000000p-3, 0x1.b09bf00000000p-6, 0x1.086c0c0000000p-3, -0x1.7a3f960000000p-4}
, {0x1.443ca20000000p-2, 0x1.02a84c0000000p-4, -0x1.a550380000000p-1, -0x1.2e0d720000000p-6, 0x1.ab69d60000000p-5, -0x1.cae4080000000p-5, 0x1.26b1d40000000p-4, -0x1.dddd4c0000000p-2}
}
}
, {{{-0x1.176e9a0000000p-4, 0x1.ef91940000000p-4, -0x1.b3b9000000000p-2, 0x1.ecef620000000p-8, 0x1.a23fc60000000p-5, -0x1.1d31a80000000p-7, -0x1.38041e0000000p-5, -0x1.6756ae0000000p-5}
, {0x1.46587c0000000p-6, -0x1.699d2c0000000p-3, -0x1.5e19cc0000000p-4, -0x1.aa88280000000p-3, -0x1.2471d80000000p-5, 0x1.e10c6a0000000p-4, -0x1.4e28520000000p-2, 0x1.6661680000000p-5}
, {0x1.4049400000000p-4, 0x1.2b16d40000000p-6, -0x1.77a4040000000p-4, -0x1.5333940000000p-3, -0x1.7e75080000000p-2, 0x1.24dbc80000000p-3, -0x1.0c288e0000000p-6, 0x1.e600fa0000000p-3}
}
, {{-0x1.3b17500000000p-3, 0x1.2a50d60000000p-5, 0x1.5049ea0000000p-2, -0x1.2d1fac0000000p-5, 0x1.af202e0000000p-3, -0x1.054b380000000p-2, 0x1.e3c7f60000000p-4, 0x1.2545de0000000p-3}
, {-0x1.fc71940000000p-5, 0x1.f7692a0000000p-5, -0x1.76a9440000000p-3, 0x1.5ad23a0000000p-6, 0x1.0970d00000000p-2, 0x1.653c720000000p-6, 0x1.1e3e640000000p-3, 0x1.cc566e0000000p-3}
, {-0x1.adb9420000000p-4, 0x1.0d5dfe0000000p-10, -0x1.854b660000000p-2, -0x1.fe6a0e0000000p-4, 0x1.bb2de00000000p-7, 0x1.91f9d60000000p-4, -0x1.94d4260000000p-4, 0x1.a3db840000000p-4}
}
, {{0x1.e7b6580000000p-7, -0x1.bf35280000000p-6, 0x1.6cdfce0000000p-3, -0x1.a29ddc0000000p-5, 0x1.ed11c00000000p-6, -0x1.19b7960000000p-2, -0x1.6697c40000000p-4, 0x1.7a18e80000000p-3}
, {-0x1.f7555c0000000p-10, 0x1.2241560000000p-3, 0x1.56d5380000000p-2, 0x1.8a517e0000000p-4, -0x1.abe5480000000p-4, -0x1.138ca80000000p-2, 0x1.c5d9960000000p-3, 0x1.6a78f60000000p-2}
, {-0x1.0db74e0000000p-2, 0x1.e654ac0000000p-5, 0x1.4561980000000p-4, 0x1.feec260000000p-4, 0x1.5956760000000p-2, -0x1.2c94ee0000000p-2, 0x1.31d7f40000000p-3, 0x1.4cc6c20000000p-3}
}
}
, {{{-0x1.4f44ac0000000p-2, -0x1.5153560000000p+0, 0x1.acd78e0000000p-4, -0x1.fa81d20000000p+0, -0x1.ba54a00000000p-2, -0x1.446fe00000000p-4, -0x1.7ff49e0000000p+0, -0x1.f3d9b00000000p-4}
, {-0x1.8d1a080000000p-2, -0x1.14429a0000000p+0, -0x1.f61cbc0000000p-4, -0x1.c9e2660000000p+0, 0x1.a89b8c0000000p-3, -0x1.0b78c20000000p-2, -0x1.398a660000000p+0, -0x1.fca43a0000000p-5}
, {-0x1.def50e0000000p-3, -0x1.2546780000000p-1, 0x1.3aaf460000000p-3, -0x1.3614160000000p-1, 0x1.480c200000000p-3, -0x1.15c4c40000000p-2, -0x1.dffffa0000000p-2, 0x1.6a94c60000000p-6}
}
, {{0x1.8e8e460000000p-4, 0x1.1f95300000000p-6, -0x1.f49e820000000p-2, -0x1.b9a7620000000p-6, -0x1.9e83800000000p-5, 0x1.bdd8000000000p-2, -0x1.d9f7b00000000p-3, -0x1.ac9f8c0000000p-2}
, {-0x1.1f45820000000p-3, -0x1.82a0e40000000p-6, -0x1.f7e2140000000p-2, 0x1.41e3640000000p-4, 0x1.af54620000000p-4, 0x1.14685c0000000p-3, 0x1.8bb2b60000000p-5, 0x1.1ece700000000p-2}
, {-0x1.f0cb3a0000000p-6, 0x1.5b7d660000000p-4, -0x1.61cbb40000000p-5, 0x1.7af7680000000p-4, 0x1.834cf40000000p-2, 0x1.36cd0e0000000p-6, 0x1.30ef540000000p-5, 0x1.804a200000000p-2}
}
, {{0x1.b593b80000000p-4, 0x1.29de7c0000000p-4, -0x1.4120960000000p-4, 0x1.124ff20000000p-5, -0x1.8a1b300000000p-5, 0x1.11d4000000000p-5, -0x1.e8a1a60000000p-9, 0x1.adccfe0000000p-3}
, {0x1.d0708e0000000p-4, 0x1.0a9b5c0000000p-4, 0x1.9bd3a40000000p-3, 0x1.7ae2620000000p-4, 0x1.1a26c40000000p-3, 0x1.5f86b00000000p-3, 0x1.1ae6900000000p-3, 0x1.056d240000000p-3}
, {0x1.8973960000000p-7, 0x1.66b99a0000000p-4, 0x1.0cf79e0000000p-2, 0x1.12be380000000p-3, 0x1.16a6520000000p-2, 0x1.09f4080000000p-3, 0x1.f386720000000p-4, 0x1.90e3080000000p-3}
}
}
, {{{0x1.6d24760000000p-4, 0x1.00da920000000p-3, 0x1.758cb00000000p-3, 0x1.7111460000000p-3, -0x1.6df1f20000000p-3, -0x1.1c75180000000p-2, 0x1.c12d900000000p-4, 0x1.16757e0000000p-2}
, {0x1.f84c6e0000000p-2, 0x1.2049d00000000p-3, 0x1.88189a0000000p-3, 0x1.0d13560000000p-3, -0x1.61fdc00000000p-3, 0x1.09c7e40000000p-2, 0x1.9284c80000000p-3, 0x1.668a8a0000000p-4}
, {0x1.1268e80000000p-3, 0x1.01bf480000000p-2, 0x1.e4e05c0000000p-6, 0x1.37feba0000000p-5, -0x1.acd9040000000p-1, 0x1.22999e0000000p-2, 0x1.82a2420000000p-4, 0x1.adb23c0000000p-4}
}
, {{-0x1.fe71800000000p-3, -0x1.a9d68e0000000p-2, 0x1.a7bc3e0000000p-3, -0x1.8c47fe0000000p-1, -0x1.c235a80000000p-5, -0x1.b9895e0000000p-3, -0x1.b0be560000000p-1, 0x1.c2b8a00000000p-5}
, {-0x1.0d17b80000000p-1, -0x1.011a5e0000000p+0, 0x1.7816400000000p-3, -0x1.8be7720000000p+0, 0x1.46f53c0000000p-4, -0x1.7b76b20000000p-2, -0x1.ea27fc0000000p-1, 0x1.55a8940000000p-2}
, {-0x1.b3e5c60000000p-2, -0x1.3356420000000p+0, -0x1.9053080000000p-5, -0x1.2ddcf40000000p+0, 0x1.6f1a840000000p-4, -0x1.34e0460000000p-2, -0x1.75a7c80000000p-1, -0x1.cd839a0000000p-4}
}
, {{-0x1.8cb5fe0000000p-5, 0x1.541a860000000p-4, -0x1.00e7f00000000p+0, 0x1.7404820000000p-3, 0x1.ff63380000000p-5, 0x1.9b794e0000000p-2, 0x1.afd4100000000p-7, -0x1.6e76020000000p-1}
, {0x1.6ac9180000000p-5, 0x1.11b8900000000p-5, -0x1.521fcc0000000p-1, 0x1.ddfeea0000000p-3, 0x1.a40f860000000p-4, 0x1.4dfd580000000p-2, 0x1.1d4d660000000p-2, -0x1.bc9a740000000p-2}
, {0x1.e94a800000000p-7, -0x1.31f93c0000000p-4, -0x1.0309800000000p-1, 0x1.189b8e0000000p-3, 0x1.b79f9a0000000p-3, 0x1.6574700000000p-4, 0x1.db40820000000p-3, -0x1.1c50960000000p+0}
}
}
, {{{0x1.075cd60000000p-6, -0x1.e662bc0000000p-7, -0x1.74494a0000000p-5, -0x1.56a5b40000000p-6, -0x1.5891a80000000p-5, -0x1.2d7f680000000p-6, 0x1.48220a0000000p-7, -0x1.6eaaae0000000p-4}
, {-0x1.1aea920000000p-2, -0x1.84210e0000000p-5, 0x1.e871960000000p-4, -0x1.e7ff800000000p-6, 0x1.aead5a0000000p-4, -0x1.21c91a0000000p-5, -0x1.6ac4ca0000000p-3, -0x1.30b34c0000000p-6}
, {-0x1.f2855e0000000p-4, -0x1.97e4120000000p-4, -0x1.b75f460000000p-2, -0x1.a734ea0000000p-4, 0x1.9e49f00000000p-4, 0x1.f6f8860000000p-8, -0x1.3269a00000000p-3, -0x1.a460a40000000p-3}
}
, {{-0x1.4333ce0000000p-4, 0x1.889b320000000p-6, -0x1.2a15b20000000p-5, 0x1.7b8d200000000p-3, 0x1.4fda100000000p-3, -0x1.962d500000000p-4, 0x1.0fd1aa0000000p-4, 0x1.9b1d320000000p-4}
, {-0x1.7dbfbe0000000p-1, 0x1.5b1a400000000p-3, 0x1.dfe2260000000p-3, 0x1.7d26a80000000p-3, 0x1.64117e0000000p-3, -0x1.78b0080000000p-4, 0x1.a8dfc60000000p-3, 0x1.6c081a0000000p-4}
, {-0x1.1764be0000000p-2, 0x1.8ab9c80000000p-3, 0x1.0dee620000000p-3, 0x1.0489ea0000000p-3, 0x1.2c9be20000000p-3, 0x1.175dba0000000p-7, 0x1.7b889c0000000p-3, 0x1.3b93740000000p-4}
}
, {{-0x1.3cd3680000000p-3, -0x1.2b813a0000000p-4, -0x1.b618aa0000000p-5, 0x1.2695fe0000000p-4, -0x1.9bd46c0000000p-1, -0x1.41f7de0000000p-2, -0x1.59e2f20000000p-7, -0x1.448f800000000p-4}
, {-0x1.3799580000000p-2, 0x1.1859fa0000000p-4, 0x1.ece8ea0000000p-5, 0x1.c347a80000000p-3, -0x1.15c75a0000000p-1, -0x1.c55ab40000000p-3, 0x1.3a9c9c0000000p-3, -0x1.71df660000000p-5}
, {-0x1.8460d80000000p-4, 0x1.1b20440000000p-3, 0x1.dd35700000000p-4, 0x1.5d3dd20000000p-5, -0x1.d7b4aa0000000p-3, -0x1.0c135a0000000p-4, 0x1.21dc2a0000000p-4, 0x1.e61dc40000000p-9}
}
}
}
;

#undef INPUT_CHANNELS
#undef CONV_FILTERS
#undef CONV_KERNEL_SIZE_X
#undef CONV_KERNEL_SIZE_Y
#undef CONV_GROUPS