/**
  ******************************************************************************
  * @file    weights/conv2d.cc
  * @author  Pierre-Emmanuel Novac <penovac@unice.fr>, LEAT, CNRS, Université Côte d'Azur, France
  * @version V2.0
  * @date    24 march 2020
  * @brief   Template generating plain C code for the implementation of Convolutional Neural Networks on MCU
  */

#include <stdint.h>

#define INPUT_CHANNELS     8
#define CONV_FILTERS       16
#define CONV_KERNEL_SIZE_Y 3
#define CONV_KERNEL_SIZE_X 3
#define CONV_GROUPS        1


const float conv2d_3_bias[CONV_FILTERS] = {0x0.0p+0, 0x0.0p+0, 0x0.0p+0, 0x0.0p+0, 0x0.0p+0, 0x0.0p+0, 0x0.0p+0, 0x0.0p+0, 0x0.0p+0, 0x0.0p+0, 0x0.0p+0, 0x0.0p+0, 0x0.0p+0, 0x0.0p+0, 0x0.0p+0, 0x0.0p+0}
;


const float conv2d_3_kernel[CONV_FILTERS][CONV_KERNEL_SIZE_Y][CONV_KERNEL_SIZE_X][INPUT_CHANNELS / CONV_GROUPS] = {{{{-0x1.7fcb400000000p-8, -0x1.d3c9400000000p-4, 0x1.de27b40000000p-4, -0x1.4273980000000p-5, 0x1.b8c1000000000p-7, 0x1.444fe00000000p-4, -0x1.ef60600000000p-7, 0x1.d47ed40000000p-4}
, {0x1.ea97000000000p-7, -0x1.3231800000000p-4, -0x1.f4e6d60000000p-4, -0x1.4348180000000p-5, -0x1.5668960000000p-4, 0x1.f40f340000000p-4, -0x1.24e5200000000p-4, -0x1.8a59d60000000p-4}
, {0x1.3660d00000000p-6, -0x1.6dcf000000000p-4, 0x1.dc98940000000p-4, 0x1.3af2260000000p-3, 0x1.404d520000000p-3, -0x1.a078a00000000p-4, -0x1.d7302c0000000p-5, -0x1.8e6e000000000p-7}
}
, {{-0x1.8b29ac0000000p-4, 0x1.e4da980000000p-5, -0x1.300bec0000000p-4, 0x1.a5b5e40000000p-4, -0x1.2fd3700000000p-3, 0x1.15f5740000000p-4, -0x1.002bf60000000p-3, 0x1.11e0740000000p-4}
, {0x1.04d5400000000p-8, -0x1.a75e400000000p-4, -0x1.01d4060000000p-3, -0x1.6e4d000000000p-6, 0x1.05a4920000000p-3, 0x1.edea500000000p-6, 0x1.b1030c0000000p-4, -0x1.60a8000000000p-10}
, {-0x1.ef892c0000000p-5, -0x1.277ed80000000p-5, 0x1.0186a00000000p-7, 0x1.8910e80000000p-5, 0x1.626d640000000p-4, 0x1.0b46860000000p-3, 0x1.76d1640000000p-4, -0x1.aecd0c0000000p-4}
}
, {{-0x1.2d7a3c0000000p-3, 0x1.e02a740000000p-4, -0x1.2156c00000000p-3, 0x1.9ef8640000000p-4, 0x1.4c48a20000000p-3, -0x1.12f7f60000000p-3, -0x1.e4cef60000000p-4, 0x1.174e6a0000000p-3}
, {0x1.d443000000000p-10, 0x1.d0e7400000000p-5, 0x1.c15ff40000000p-4, -0x1.464a800000000p-4, -0x1.5c64d80000000p-5, -0x1.39e3cc0000000p-3, 0x1.36c8ea0000000p-3, -0x1.358fb60000000p-4}
, {-0x1.82fe980000000p-5, -0x1.1c9eb00000000p-6, 0x1.23b3620000000p-3, -0x1.c85f2c0000000p-5, -0x1.bf84500000000p-6, 0x1.215f960000000p-3, 0x1.7c05400000000p-5, 0x1.a2cb4c0000000p-4}
}
}
, {{{0x1.35a3b60000000p-3, -0x1.9fba180000000p-5, 0x1.86e9a00000000p-7, 0x1.18ee800000000p-4, -0x1.1839160000000p-3, -0x1.0ea3180000000p-5, -0x1.20523c0000000p-3, 0x1.22b46a0000000p-3}
, {-0x1.9f202c0000000p-4, 0x1.e92bc00000000p-5, 0x1.38e9c60000000p-3, -0x1.1e65460000000p-3, -0x1.7c4eb00000000p-6, -0x1.12d4b60000000p-4, -0x1.4015160000000p-4, -0x1.d2bb8c0000000p-4}
, {0x1.6bb4a40000000p-4, -0x1.dd8dac0000000p-5, -0x1.5dcf000000000p-7, -0x1.8d55ec0000000p-4, -0x1.0b4ed80000000p-5, -0x1.a9e0c00000000p-8, -0x1.91b8a00000000p-7, -0x1.6fedb00000000p-6}
}
, {{0x1.84e96c0000000p-4, 0x1.13dada0000000p-3, -0x1.08cbd60000000p-3, 0x1.4aa8860000000p-3, -0x1.7f0cc00000000p-8, 0x1.ef68c40000000p-4, 0x1.0244000000000p-8, 0x1.0713c60000000p-3}
, {0x1.07f7c20000000p-3, 0x1.0084ea0000000p-3, -0x1.d985400000000p-8, -0x1.cbbb0c0000000p-4, -0x1.afe2580000000p-5, 0x1.ad7d000000000p-5, -0x1.6c80160000000p-4, -0x1.c467e00000000p-4}
, {-0x1.dfc5ac0000000p-4, 0x1.345f620000000p-3, -0x1.da32000000000p-8, -0x1.e52a160000000p-4, 0x1.58d4300000000p-6, 0x1.f7dd8c0000000p-4, 0x1.c11da80000000p-5, 0x1.0740420000000p-3}
}
, {{0x1.4a5d600000000p-4, 0x1.199b820000000p-3, 0x1.ef6c000000000p-7, 0x1.2602420000000p-3, 0x1.ccc2840000000p-4, 0x1.e3702c0000000p-4, 0x1.f731e40000000p-4, 0x1.d326040000000p-4}
, {0x1.9747a80000000p-5, -0x1.1378000000000p-8, 0x1.b051b00000000p-6, -0x1.31f5000000000p-6, -0x1.a1a7ac0000000p-4, -0x1.6ed5600000000p-4, -0x1.2004800000000p-4, 0x1.185cc00000000p-8}
, {0x1.d287ec0000000p-4, 0x1.8fe4540000000p-4, 0x1.4001580000000p-5, -0x1.274dc00000000p-4, 0x1.1a1d540000000p-4, -0x1.dbe2400000000p-5, 0x1.4448620000000p-3, -0x1.7cd2400000000p-4}
}
}
, {{{0x1.8b3c340000000p-4, -0x1.ee4c000000000p-12, -0x1.156f760000000p-4, -0x1.7f95180000000p-5, 0x1.5e41000000000p-5, 0x1.2bf48c0000000p-4, -0x1.c5d3600000000p-7, 0x1.78a0000000000p-12}
, {-0x1.19a2500000000p-6, 0x1.8929580000000p-5, -0x1.45de8c0000000p-4, 0x1.0cdecc0000000p-4, -0x1.411c580000000p-5, 0x1.5476180000000p-5, -0x1.5547200000000p-4, -0x1.4f81400000000p-8}
, {0x1.69c5e80000000p-5, 0x1.e227c40000000p-4, 0x1.78c3c00000000p-5, 0x1.bcbe580000000p-5, -0x1.9c13c00000000p-5, -0x1.0365000000000p-7, 0x1.639bb00000000p-6, -0x1.e8530c0000000p-4}
}
, {{0x1.0dbff60000000p-3, -0x1.68dd000000000p-5, -0x1.3e3ea00000000p-7, -0x1.365e760000000p-3, 0x1.ef77300000000p-6, -0x1.349d960000000p-3, 0x1.b167c00000000p-5, 0x1.7bf7040000000p-4}
, {0x1.401b000000000p-5, 0x1.04ed720000000p-3, -0x1.225b9c0000000p-3, 0x1.883bc40000000p-4, -0x1.4106160000000p-4, 0x1.d782cc0000000p-4, 0x1.2c034a0000000p-3, 0x1.7bdc580000000p-5}
, {0x1.0199800000000p-6, 0x1.00cf420000000p-3, 0x1.1ca4000000000p-7, 0x1.5d3ee80000000p-5, 0x1.c62fa80000000p-5, -0x1.cbd4960000000p-4, 0x1.24f08a0000000p-3, 0x1.2217a20000000p-3}
}
, {{0x1.9c724c0000000p-4, 0x1.1d67f60000000p-3, 0x1.84f7a40000000p-4, 0x1.f9e2d00000000p-6, 0x1.bde9840000000p-4, -0x1.5354360000000p-4, 0x1.f85a8c0000000p-4, 0x1.809f680000000p-5}
, {0x1.3515140000000p-4, 0x1.3f945a0000000p-3, -0x1.2310a60000000p-3, -0x1.a5b90c0000000p-4, -0x1.0eae980000000p-5, 0x1.080e8c0000000p-4, -0x1.930ec00000000p-4, 0x1.4ed86c0000000p-4}
, {-0x1.376c000000000p-12, -0x1.55e6180000000p-5, 0x1.2c3f280000000p-5, 0x1.d531f40000000p-4, -0x1.4c426c0000000p-4, 0x1.444ed60000000p-3, -0x1.9e01a00000000p-4, -0x1.84ba500000000p-6}
}
}
, {{{-0x1.4058860000000p-3, 0x1.f0f7340000000p-4, 0x1.12fe360000000p-3, 0x1.4eb6140000000p-4, -0x1.bac4000000000p-4, 0x1.39abec0000000p-4, 0x1.c1c7800000000p-5, 0x1.6bd8300000000p-6}
, {-0x1.9c76400000000p-4, 0x1.f2f0ac0000000p-4, -0x1.c515400000000p-8, 0x1.f52ed80000000p-5, 0x1.dcce340000000p-4, 0x1.b22ab40000000p-4, 0x1.95d5000000000p-5, 0x1.b646340000000p-4}
, {-0x1.792ad60000000p-4, -0x1.ed01ec0000000p-5, -0x1.183b600000000p-7, -0x1.4707b00000000p-3, 0x1.3aeff60000000p-3, 0x1.9e3a500000000p-6, -0x1.4e80d60000000p-3, -0x1.faa6300000000p-6}
}
, {{0x1.27a0e20000000p-3, 0x1.1cb81a0000000p-3, -0x1.a662960000000p-4, 0x1.8bc4000000000p-8, 0x1.1dc3b60000000p-3, 0x1.f5a1b00000000p-6, 0x1.9ff7b40000000p-4, -0x1.a2af300000000p-6}
, {0x1.3b154c0000000p-4, -0x1.2ede3c0000000p-3, -0x1.df66400000000p-5, 0x1.5234ca0000000p-3, 0x1.43d6560000000p-3, -0x1.ebfcc00000000p-5, 0x1.4d80000000000p-11, -0x1.af1e760000000p-4}
, {0x1.2f7a560000000p-3, -0x1.6e27760000000p-4, -0x1.6683e00000000p-4, -0x1.04252c0000000p-3, 0x1.613c600000000p-7, 0x1.2c1d7a0000000p-3, 0x1.1f074a0000000p-3, -0x1.a6b0160000000p-4}
}
, {{0x1.f225340000000p-4, 0x1.92a8d40000000p-4, -0x1.c7ec2c0000000p-5, 0x1.e70d240000000p-4, 0x1.33ac300000000p-6, -0x1.30ce6c0000000p-4, 0x1.3438600000000p-4, 0x1.f050000000000p-14}
, {0x1.2054020000000p-3, -0x1.9eaa6c0000000p-4, 0x1.ddda800000000p-6, 0x1.0ce3000000000p-6, -0x1.1c0c900000000p-3, -0x1.1fae800000000p-3, 0x1.f14b500000000p-6, 0x1.f966e40000000p-4}
, {-0x1.c715560000000p-4, 0x1.271a220000000p-3, 0x1.8a94000000000p-7, 0x1.a799440000000p-4, -0x1.8b8cac0000000p-4, -0x1.0975560000000p-3, -0x1.54bae60000000p-3, 0x1.82afc00000000p-5}
}
}
, {{{0x1.6c1f500000000p-6, -0x1.4189200000000p-4, -0x1.973f400000000p-8, 0x1.5466800000000p-4, 0x1.044a680000000p-5, 0x1.6ac5580000000p-5, -0x1.31c3f00000000p-3, -0x1.3d11a60000000p-3}
, {-0x1.ed812c0000000p-5, 0x1.b96ad00000000p-6, 0x1.4d04000000000p-9, -0x1.abaa000000000p-4, -0x1.38b0f60000000p-4, 0x1.295ca20000000p-3, -0x1.09a9f60000000p-3, 0x1.1d3c260000000p-3}
, {-0x1.3e8da80000000p-5, 0x1.ebefd00000000p-6, -0x1.2150c60000000p-3, 0x1.0b09e20000000p-3, -0x1.5b03500000000p-6, 0x1.5159520000000p-3, 0x1.115f000000000p-5, 0x1.52fbf20000000p-3}
}
, {{0x1.d20d0c0000000p-4, 0x1.2dc3c20000000p-3, 0x1.28f8920000000p-3, 0x1.83c6d00000000p-6, 0x1.1625760000000p-3, 0x1.08dcba0000000p-3, 0x1.02edd80000000p-5, -0x1.ac71980000000p-5}
, {0x1.f2e8f40000000p-4, 0x1.7275240000000p-4, -0x1.04e3660000000p-3, 0x1.ea19140000000p-4, 0x1.79cf400000000p-8, 0x1.0f7d0c0000000p-4, -0x1.da29000000000p-6, -0x1.0ce3b60000000p-4}
, {-0x1.9a45800000000p-9, -0x1.2d43600000000p-7, -0x1.58d9a00000000p-7, 0x1.a141000000000p-6, -0x1.d260000000000p-10, -0x1.3e3ac00000000p-8, -0x1.abcf400000000p-8, 0x1.049f0a0000000p-3}
}
, {{0x1.cdf7300000000p-6, 0x1.d102600000000p-7, 0x1.1ec66c0000000p-4, 0x1.9edecc0000000p-4, -0x1.64b8b60000000p-4, -0x1.48d4f00000000p-3, -0x1.c0e66c0000000p-4, -0x1.64c5d60000000p-4}
, {0x1.5f54a80000000p-5, 0x1.b17e740000000p-4, -0x1.2f48d60000000p-4, 0x1.1bc3fa0000000p-3, 0x1.052c060000000p-3, -0x1.427a360000000p-4, -0x1.42db800000000p-5, 0x1.bef7e40000000p-4}
, {0x1.2409720000000p-3, 0x1.2b1cca0000000p-3, -0x1.1afa660000000p-3, -0x1.33f9700000000p-3, 0x1.aed9000000000p-6, -0x1.325efc0000000p-3, -0x1.d03b160000000p-4, 0x1.c63bc00000000p-5}
}
}
, {{{0x1.128e220000000p-3, 0x1.2dc6b40000000p-4, -0x1.0819760000000p-4, 0x1.5bb0800000000p-6, -0x1.e0d7c00000000p-5, -0x1.0bb6600000000p-4, -0x1.0b5e400000000p-3, -0x1.3346400000000p-4}
, {-0x1.09e7d00000000p-6, 0x1.49ca580000000p-5, 0x1.2b72f60000000p-3, -0x1.123e800000000p-3, 0x1.4ae4e80000000p-5, -0x1.03bc000000000p-3, -0x1.4ecbe80000000p-5, 0x1.013eea0000000p-3}
, {-0x1.ef55a00000000p-4, 0x1.e0d7a00000000p-7, -0x1.03b4c60000000p-3, -0x1.1378400000000p-4, -0x1.d84e580000000p-5, -0x1.28c2560000000p-3, 0x1.b0ed180000000p-5, -0x1.ef36b60000000p-4}
}
, {{0x1.13224c0000000p-4, 0x1.faf4d00000000p-6, 0x1.cc85a00000000p-7, 0x1.9b74f40000000p-4, -0x1.136fa60000000p-3, -0x1.486a200000000p-4, -0x1.b1a58c0000000p-4, 0x1.ec4a800000000p-6}
, {0x1.d6e8d00000000p-6, -0x1.11bd800000000p-9, 0x1.37c4500000000p-6, 0x1.1410a00000000p-7, -0x1.2b31d60000000p-4, -0x1.11a5260000000p-3, -0x1.0be2000000000p-4, 0x1.55d7c00000000p-5}
, {0x1.cb30ac0000000p-4, -0x1.a8596c0000000p-4, -0x1.fd922c0000000p-5, -0x1.f97eac0000000p-5, 0x1.2b94000000000p-9, 0x1.10c0a00000000p-7, -0x1.280d000000000p-5, 0x1.91ae300000000p-6}
}
, {{-0x1.4b6a260000000p-3, 0x1.1cbfe60000000p-3, -0x1.fe8b400000000p-4, -0x1.6b03600000000p-4, -0x1.7a11d80000000p-5, 0x1.6428540000000p-4, -0x1.9c44d80000000p-5, 0x1.35670a0000000p-3}
, {-0x1.cdbf400000000p-8, -0x1.167c5c0000000p-3, 0x1.213a800000000p-5, 0x1.fe4e840000000p-4, 0x1.1304e20000000p-3, 0x1.f558a40000000p-4, 0x1.328d800000000p-5, 0x1.5092cc0000000p-4}
, {0x1.30a8000000000p-8, 0x1.4ebd920000000p-3, -0x1.8b59000000000p-4, -0x1.e226600000000p-7, -0x1.3220000000000p-8, 0x1.ecb7740000000p-4, -0x1.f3716c0000000p-5, -0x1.b09f600000000p-4}
}
}
, {{{-0x1.00a5c60000000p-3, -0x1.5d6ec00000000p-4, 0x1.1dc5540000000p-4, 0x1.ccd5e40000000p-4, -0x1.1039700000000p-3, -0x1.82e0000000000p-12, 0x1.b282000000000p-7, 0x1.db6e000000000p-8}
, {-0x1.100e280000000p-5, 0x1.35c7d40000000p-4, 0x1.4f7ac00000000p-8, 0x1.45b5340000000p-4, -0x1.511dc60000000p-3, 0x1.1cb1800000000p-6, -0x1.5ac28c0000000p-4, 0x1.173bd20000000p-3}
, {0x1.151baa0000000p-3, -0x1.f3016c0000000p-4, -0x1.fd38800000000p-4, 0x1.6910280000000p-5, -0x1.26282c0000000p-4, -0x1.9d2e400000000p-4, -0x1.ceab180000000p-5, 0x1.fc1f580000000p-5}
}
, {{0x1.5f53540000000p-4, 0x1.63d28c0000000p-4, 0x1.c65ac00000000p-5, 0x1.28ef000000000p-4, 0x1.f24ad80000000p-5, 0x1.c39cec0000000p-4, -0x1.ee4aac0000000p-5, 0x1.ada3400000000p-8}
, {0x1.21ec4a0000000p-3, -0x1.548c580000000p-5, -0x1.177e500000000p-6, -0x1.9b14a00000000p-4, -0x1.e32ec00000000p-5, -0x1.25a3ec0000000p-4, 0x1.16d1e80000000p-5, 0x1.474f500000000p-6}
, {-0x1.12ac200000000p-3, -0x1.83794c0000000p-4, -0x1.01442c0000000p-4, 0x1.f3f5d80000000p-5, 0x1.0c83000000000p-10, -0x1.46dd900000000p-3, 0x1.ce00540000000p-4, 0x1.83a2ac0000000p-4}
}
, {{-0x1.9aa8b60000000p-4, 0x1.02cf220000000p-3, 0x1.151e000000000p-7, 0x1.ef23300000000p-6, 0x1.6f99400000000p-8, 0x1.5fae000000000p-8, 0x1.661c800000000p-5, 0x1.45ac6a0000000p-3}
, {0x1.7452a00000000p-7, 0x1.a5d2ac0000000p-4, -0x1.58da000000000p-5, -0x1.2423800000000p-4, 0x1.357b360000000p-3, 0x1.0ea32a0000000p-3, 0x1.7754800000000p-5, -0x1.31f9600000000p-4}
, {-0x1.4574b60000000p-4, -0x1.dc3bb00000000p-6, 0x1.92ef800000000p-6, -0x1.4ac8560000000p-4, -0x1.36003c0000000p-3, 0x1.3dd9b20000000p-3, -0x1.2bbb4c0000000p-4, 0x1.f8564c0000000p-4}
}
}
, {{{0x1.ae97ec0000000p-4, 0x1.8bae340000000p-4, 0x1.1115000000000p-10, -0x1.2b0d400000000p-3, 0x1.47db000000000p-10, -0x1.10b3400000000p-4, -0x1.db04c00000000p-5, 0x1.167e340000000p-4}
, {0x1.41bb600000000p-4, 0x1.3c45600000000p-4, 0x1.2cde060000000p-3, 0x1.9727000000000p-6, -0x1.e8ce960000000p-4, 0x1.98e5d80000000p-5, -0x1.a17d400000000p-4, 0x1.4b6f420000000p-3}
, {0x1.24914a0000000p-3, -0x1.5a8ba00000000p-4, 0x1.f40d800000000p-9, -0x1.2f88e60000000p-3, -0x1.9b6d760000000p-4, 0x1.10cb620000000p-3, -0x1.20b4700000000p-3, -0x1.4e82000000000p-4}
}
, {{-0x1.f3cd600000000p-7, -0x1.4333100000000p-3, -0x1.74f0960000000p-4, -0x1.733a4c0000000p-4, 0x1.676e580000000p-5, 0x1.64c5680000000p-5, -0x1.ba2e6c0000000p-4, 0x1.5256000000000p-7}
, {0x1.d450440000000p-4, 0x1.add9400000000p-5, -0x1.0e5b0c0000000p-4, -0x1.f22b8c0000000p-4, -0x1.4f1ba80000000p-5, -0x1.4d06260000000p-3, -0x1.45c89c0000000p-3, -0x1.956d400000000p-5}
, {-0x1.b71fec0000000p-4, -0x1.361d800000000p-3, 0x1.2d0f8a0000000p-3, 0x1.31dd320000000p-3, -0x1.475af00000000p-3, -0x1.a5902c0000000p-4, -0x1.5c40000000000p-5, -0x1.1081bc0000000p-3}
}
, {{-0x1.109ff00000000p-3, -0x1.49985c0000000p-3, -0x1.800f2c0000000p-4, 0x1.060a800000000p-9, 0x1.6c5d240000000p-4, -0x1.3ad9d00000000p-3, 0x1.be6e000000000p-5, -0x1.13fcb00000000p-6}
, {-0x1.993bac0000000p-4, -0x1.356fa80000000p-5, -0x1.952b800000000p-5, 0x1.2984060000000p-3, -0x1.307fac0000000p-4, -0x1.0766000000000p-5, 0x1.0eee500000000p-6, -0x1.8062200000000p-4}
, {-0x1.f5cd500000000p-6, 0x1.bb5d640000000p-4, 0x1.69c7e40000000p-4, 0x1.915c300000000p-6, 0x1.00b72a0000000p-3, -0x1.4f816c0000000p-3, -0x1.0e72d80000000p-5, 0x1.5356360000000p-3}
}
}
, {{{-0x1.b97c500000000p-6, 0x1.2edca20000000p-3, -0x1.32a6c00000000p-3, -0x1.3f131c0000000p-3, -0x1.bd52d60000000p-4, -0x1.bc1a6c0000000p-4, 0x1.7a61800000000p-5, 0x1.485b800000000p-6}
, {0x1.2cce600000000p-4, 0x1.311f740000000p-4, 0x1.b8e3280000000p-5, -0x1.fa7c000000000p-7, -0x1.589f600000000p-4, -0x1.3171ac0000000p-3, 0x1.c1a0500000000p-6, 0x1.b3ce740000000p-4}
, {0x1.221d760000000p-3, 0x1.d25b800000000p-5, 0x1.04b28a0000000p-3, -0x1.6097180000000p-5, 0x1.9def400000000p-8, 0x1.81dfa80000000p-5, -0x1.b64f4c0000000p-4, 0x1.26d0740000000p-4}
}
, {{-0x1.40c5980000000p-5, 0x1.d8ee500000000p-6, -0x1.5ebaa00000000p-7, 0x1.5ae0c00000000p-5, 0x1.2088da0000000p-3, -0x1.10ed4c0000000p-4, -0x1.54b11c0000000p-3, -0x1.52a62c0000000p-4}
, {0x1.31a5a60000000p-3, -0x1.1cc1280000000p-5, 0x1.27ad340000000p-4, 0x1.db8c300000000p-6, 0x1.209bba0000000p-3, -0x1.a721ac0000000p-4, 0x1.9c8ecc0000000p-4, -0x1.2e279c0000000p-3}
, {0x1.4103d80000000p-5, -0x1.5875160000000p-4, 0x1.bb694c0000000p-4, 0x1.2d28c00000000p-5, 0x1.c3e8a40000000p-4, -0x1.bc36800000000p-6, 0x1.4b0faa0000000p-3, -0x1.8c20000000000p-4}
}
, {{-0x1.8dc5ec0000000p-4, -0x1.cf0e800000000p-6, -0x1.9511400000000p-4, 0x1.3231ec0000000p-4, -0x1.3ae22c0000000p-3, 0x1.19cb920000000p-3, 0x1.4146d40000000p-4, -0x1.3f99dc0000000p-3}
, {0x1.602cc40000000p-4, 0x1.3474500000000p-6, -0x1.9a40000000000p-4, 0x1.be8dec0000000p-4, 0x1.a0d7580000000p-5, -0x1.553fc00000000p-3, 0x1.5346260000000p-3, -0x1.de75a00000000p-4}
, {-0x1.48e0e00000000p-4, -0x1.352bb00000000p-6, -0x1.b20c560000000p-4, -0x1.0f9dbc0000000p-3, 0x1.b860d00000000p-6, -0x1.8c07360000000p-4, 0x1.6ade000000000p-5, 0x1.1395b40000000p-4}
}
}
, {{{0x1.f7974c0000000p-4, 0x1.5bfb400000000p-8, 0x1.af4c500000000p-6, -0x1.a20cb60000000p-4, 0x1.cd09ac0000000p-4, 0x1.4cc3020000000p-3, 0x1.caeb980000000p-5, -0x1.a322580000000p-5}
, {-0x1.353e000000000p-6, 0x1.4d55460000000p-3, 0x1.2eb44a0000000p-3, -0x1.14fd300000000p-6, 0x1.aa11a40000000p-4, -0x1.2740580000000p-5, -0x1.19f1a60000000p-3, -0x1.c8c62c0000000p-4}
, {-0x1.3c75800000000p-5, 0x1.3545420000000p-3, -0x1.d08acc0000000p-4, 0x1.ede2180000000p-5, 0x1.22d8400000000p-5, 0x1.4d42140000000p-4, -0x1.36c6000000000p-8, -0x1.bbfd2c0000000p-5}
}
, {{-0x1.27778c0000000p-4, 0x1.76748c0000000p-4, -0x1.0674800000000p-3, -0x1.b2c86c0000000p-5, -0x1.27e7f00000000p-3, 0x1.bd5bf40000000p-4, 0x1.e270440000000p-4, -0x1.1c49f60000000p-3}
, {0x1.e3d7940000000p-4, 0x1.59d3680000000p-5, -0x1.c3a44c0000000p-4, -0x1.3699760000000p-4, -0x1.36b0b60000000p-3, 0x1.9d99640000000p-4, -0x1.473aec0000000p-4, 0x1.e7120c0000000p-4}
, {0x1.8d9a540000000p-4, 0x1.07766a0000000p-3, 0x1.a1be4c0000000p-4, 0x1.19339a0000000p-3, -0x1.1aa5b60000000p-3, 0x1.8074640000000p-4, -0x1.13f2180000000p-5, -0x1.8d0a560000000p-4}
}
, {{-0x1.2086860000000p-3, -0x1.f3e6ac0000000p-5, 0x1.3416d60000000p-3, 0x1.ee1e840000000p-4, 0x1.268a000000000p-7, -0x1.0a89a00000000p-7, -0x1.05717c0000000p-3, 0x1.8a300c0000000p-4}
, {0x1.ab5cd80000000p-5, 0x1.be32d80000000p-5, 0x1.0c198a0000000p-3, 0x1.4df1ea0000000p-3, 0x1.46086a0000000p-3, 0x1.5cb3000000000p-10, -0x1.f09d600000000p-4, 0x1.52da800000000p-5}
, {-0x1.75da000000000p-11, 0x1.0da8e20000000p-3, -0x1.81f28c0000000p-4, 0x1.760e800000000p-5, -0x1.0c49600000000p-4, 0x1.56d2640000000p-4, -0x1.799d800000000p-4, -0x1.de9d6c0000000p-5}
}
}
, {{{0x1.1a6c500000000p-6, 0x1.504fea0000000p-3, -0x1.49b8600000000p-3, -0x1.4a4aac0000000p-4, -0x1.0ff2c60000000p-3, -0x1.2ba2800000000p-9, 0x1.dd9fe80000000p-5, 0x1.8845000000000p-10}
, {0x1.bc1c6c0000000p-4, 0x1.1ba0000000000p-5, -0x1.12b4800000000p-5, 0x1.4cb3f60000000p-3, 0x1.17acac0000000p-4, 0x1.47c8400000000p-4, -0x1.cc7e180000000p-5, 0x1.7575840000000p-4}
, {-0x1.fbf1500000000p-6, 0x1.aa40940000000p-4, -0x1.93aa180000000p-5, 0x1.054a940000000p-4, 0x1.278a980000000p-5, 0x1.7548d40000000p-4, -0x1.615f6c0000000p-5, 0x1.a97ccc0000000p-4}
}
, {{-0x1.51baf60000000p-3, -0x1.2b90060000000p-3, 0x1.bcb9440000000p-4, 0x1.c5a0ec0000000p-4, -0x1.9458200000000p-4, -0x1.1d5fe60000000p-3, 0x1.1fbcc00000000p-5, 0x1.c1ad980000000p-5}
, {0x1.7153ec0000000p-4, -0x1.044aac0000000p-3, 0x1.04fa280000000p-5, 0x1.81fcd00000000p-6, 0x1.d79f8c0000000p-4, -0x1.986e160000000p-4, -0x1.319dd60000000p-3, -0x1.6c20a00000000p-7}
, {-0x1.ee6c580000000p-5, -0x1.7a00000000000p-12, 0x1.91dd980000000p-5, 0x1.7068e80000000p-5, -0x1.9995000000000p-7, 0x1.431b920000000p-3, 0x1.33f6a00000000p-7, 0x1.13d0340000000p-4}
}
, {{-0x1.9c18000000000p-10, -0x1.320b980000000p-5, 0x1.e741340000000p-4, 0x1.2151020000000p-3, 0x1.9362b00000000p-6, -0x1.380f180000000p-5, 0x1.2864820000000p-3, 0x1.26b8e00000000p-4}
, {-0x1.34e95c0000000p-3, 0x1.6957ec0000000p-4, -0x1.67e4000000000p-5, -0x1.8ebbcc0000000p-4, -0x1.9ae9360000000p-4, 0x1.40ac800000000p-5, 0x1.8fc1b40000000p-4, 0x1.2a3a660000000p-3}
, {-0x1.a5ed2c0000000p-5, -0x1.6f85000000000p-6, 0x1.146aec0000000p-4, -0x1.149e000000000p-3, 0x1.80ab000000000p-6, 0x1.59f8a80000000p-5, 0x1.8d6db40000000p-4, -0x1.3d6a000000000p-8}
}
}
, {{{-0x1.288a500000000p-6, -0x1.0a93a60000000p-3, -0x1.a620000000000p-8, 0x1.e2a8000000000p-8, -0x1.74a5560000000p-4, -0x1.246e800000000p-9, 0x1.0e33b40000000p-4, 0x1.4e01520000000p-3}
, {0x1.a3d0340000000p-4, 0x1.5a84740000000p-4, -0x1.3317a80000000p-5, 0x1.753f640000000p-4, -0x1.1d77000000000p-4, -0x1.2dba680000000p-5, -0x1.00c4800000000p-3, 0x1.414eb40000000p-4}
, {0x1.8be12c0000000p-4, 0x1.4ad9520000000p-3, 0x1.2c48260000000p-3, -0x1.c7902c0000000p-5, 0x1.a8e5580000000p-5, 0x1.bb4f840000000p-4, 0x1.ae86a00000000p-7, -0x1.32f9e00000000p-3}
}
, {{0x1.21b8c20000000p-3, -0x1.f718d60000000p-4, -0x1.2ea68c0000000p-4, -0x1.fc18ac0000000p-5, 0x1.21d7a00000000p-4, -0x1.489dc00000000p-3, 0x1.2994ba0000000p-3, 0x1.7c52d40000000p-4}
, {0x1.a202000000000p-7, -0x1.d2c3000000000p-10, 0x1.da1c540000000p-4, -0x1.6cd6560000000p-4, -0x1.9f94c00000000p-8, 0x1.91b2300000000p-6, 0x1.ebb6000000000p-8, -0x1.fa94000000000p-6}
, {0x1.4de72c0000000p-4, -0x1.8ba1300000000p-6, 0x1.4914b20000000p-3, 0x1.a4da040000000p-4, -0x1.37b2d80000000p-5, 0x1.1d12860000000p-3, -0x1.4296e00000000p-3, 0x1.2012500000000p-6}
}
, {{-0x1.8d444c0000000p-4, -0x1.8176980000000p-5, 0x1.1617d20000000p-3, -0x1.5e39400000000p-5, -0x1.772aa00000000p-7, -0x1.c145600000000p-4, -0x1.1357580000000p-5, 0x1.bbb12c0000000p-4}
, {0x1.4e28d40000000p-4, -0x1.4d247c0000000p-3, -0x1.0fee560000000p-3, 0x1.836bc00000000p-5, 0x1.f358c40000000p-4, 0x1.532aa00000000p-4, 0x1.f47aac0000000p-4, 0x1.9d61740000000p-4}
, {0x1.fc78000000000p-6, -0x1.49bb200000000p-4, -0x1.2f8d800000000p-5, -0x1.d5e5000000000p-4, 0x1.4c77800000000p-6, 0x1.29fd4c0000000p-4, -0x1.8a8ee00000000p-4, -0x1.0d7ac00000000p-5}
}
}
, {{{-0x1.12f8f60000000p-3, -0x1.c8ffb60000000p-4, -0x1.1aa60c0000000p-3, 0x1.c7b4680000000p-5, -0x1.e6e6360000000p-4, -0x1.21b92c0000000p-3, -0x1.e7d8960000000p-4, 0x1.c92f800000000p-6}
, {0x1.e6ea180000000p-5, -0x1.b98a800000000p-9, 0x1.07c8160000000p-3, -0x1.4867fc0000000p-3, 0x1.3cb7600000000p-7, -0x1.0d82b00000000p-3, -0x1.fdedac0000000p-4, 0x1.fdaa800000000p-6}
, {0x1.2190b20000000p-3, -0x1.2094d00000000p-3, -0x1.0d950c0000000p-4, 0x1.67b5340000000p-4, 0x1.465c500000000p-6, 0x1.0430b00000000p-6, -0x1.2a15d60000000p-4, -0x1.d5772c0000000p-4}
}
, {{-0x1.0e0b9c0000000p-3, -0x1.7f94600000000p-7, -0x1.b0676c0000000p-5, -0x1.8316400000000p-4, 0x1.a493440000000p-4, -0x1.2afd8c0000000p-3, -0x1.0072ac0000000p-3, 0x1.ac6d400000000p-5}
, {0x1.770bac0000000p-4, -0x1.add6800000000p-9, 0x1.eb78280000000p-5, -0x1.2ce6500000000p-3, -0x1.21d88c0000000p-3, -0x1.81ddc00000000p-4, -0x1.653b600000000p-4, 0x1.070fca0000000p-3}
, {0x1.494a000000000p-6, -0x1.1405a60000000p-3, -0x1.00d6580000000p-5, -0x1.d1c20c0000000p-4, 0x1.18ee400000000p-5, 0x1.90e0b00000000p-6, -0x1.13e43c0000000p-3, 0x1.2ca3800000000p-6}
}
, {{0x1.ebb2a80000000p-5, 0x1.b638ac0000000p-4, 0x1.017bd80000000p-5, -0x1.99d3000000000p-10, -0x1.0bd3700000000p-3, -0x1.4182000000000p-3, -0x1.b1e4800000000p-6, 0x1.4714a60000000p-3}
, {-0x1.4b50a00000000p-3, 0x1.0dc64a0000000p-3, -0x1.0d2d7c0000000p-3, 0x1.b988c00000000p-8, 0x1.a890800000000p-5, -0x1.4f92a80000000p-5, -0x1.0ee7d60000000p-3, 0x1.c038840000000p-4}
, {0x1.edb9cc0000000p-4, 0x1.1b3a400000000p-4, 0x1.2469b00000000p-6, 0x1.c746b00000000p-6, -0x1.6e184c0000000p-4, 0x1.5dc9340000000p-4, 0x1.f565d80000000p-5, 0x1.84a5340000000p-4}
}
}
, {{{0x1.73c0740000000p-4, 0x1.efe7000000000p-6, 0x1.2e2fd80000000p-5, -0x1.bbb3360000000p-4, -0x1.f521f60000000p-4, 0x1.1b8d800000000p-5, -0x1.203a800000000p-9, -0x1.d1a4c00000000p-8}
, {-0x1.c42dc00000000p-5, -0x1.c3a92c0000000p-5, 0x1.1571020000000p-3, 0x1.9679e40000000p-4, -0x1.c38a6c0000000p-5, -0x1.42998c0000000p-3, -0x1.0c80280000000p-5, 0x1.f787b40000000p-4}
, {-0x1.d3df000000000p-5, 0x1.64d3440000000p-4, -0x1.2d46a80000000p-5, 0x1.c9e9000000000p-7, 0x1.8e4d0c0000000p-4, -0x1.434db00000000p-6, 0x1.6637d80000000p-5, -0x1.0a18ec0000000p-4}
}
, {{0x1.6a55300000000p-6, -0x1.07ca560000000p-4, -0x1.092bc60000000p-3, -0x1.566a400000000p-5, 0x1.9222000000000p-7, 0x1.bd15440000000p-4, -0x1.bf60800000000p-5, 0x1.3ce70c0000000p-4}
, {-0x1.8e82c00000000p-4, 0x1.b656040000000p-4, 0x1.8254ac0000000p-4, -0x1.d18bf60000000p-4, -0x1.cbabb60000000p-4, -0x1.e20bec0000000p-4, 0x1.bfa7c00000000p-5, -0x1.43e3b60000000p-3}
, {0x1.21f6f40000000p-4, 0x1.2986800000000p-6, 0x1.3fe30c0000000p-4, -0x1.227f660000000p-3, -0x1.a49a000000000p-8, 0x1.87ef000000000p-7, -0x1.4d3e860000000p-3, -0x1.8a6f500000000p-6}
}
, {{0x1.3818c20000000p-3, -0x1.aca9180000000p-5, 0x1.10bc4c0000000p-4, -0x1.9443000000000p-5, -0x1.272a800000000p-5, 0x1.1a58720000000p-3, 0x1.745eec0000000p-4, -0x1.33b73c0000000p-3}
, {-0x1.b252ac0000000p-5, -0x1.53cc000000000p-12, -0x1.0ab5600000000p-7, 0x1.21bb500000000p-6, -0x1.d062d60000000p-4, 0x1.3faa020000000p-3, -0x1.2c97400000000p-4, -0x1.4518a00000000p-3}
, {0x1.5b0ed40000000p-4, -0x1.21b9500000000p-3, -0x1.b305c00000000p-5, -0x1.8fe98c0000000p-4, -0x1.eaa2180000000p-5, -0x1.3c1cc00000000p-5, 0x1.7dc9b00000000p-6, 0x1.14cdac0000000p-4}
}
}
, {{{-0x1.49c5c00000000p-5, -0x1.20e2c00000000p-4, -0x1.9edaac0000000p-5, 0x1.43a8a00000000p-4, 0x1.09d32c0000000p-4, 0x1.11ac000000000p-6, 0x1.4a57ba0000000p-3, 0x1.c4fdc00000000p-5}
, {-0x1.f180000000000p-6, -0x1.ee72400000000p-4, -0x1.264e760000000p-4, -0x1.1286200000000p-3, 0x1.e6e0000000000p-10, -0x1.18bac00000000p-8, -0x1.055a2c0000000p-4, 0x1.2125800000000p-4}
, {0x1.dc97240000000p-4, 0x1.29d7000000000p-7, -0x1.f2192c0000000p-5, -0x1.f22d000000000p-7, -0x1.ecd54c0000000p-4, -0x1.29f79c0000000p-3, -0x1.c715800000000p-9, 0x1.ee15580000000p-5}
}
, {{0x1.2c39400000000p-8, 0x1.0eeb8c0000000p-4, 0x1.ebb5a00000000p-7, -0x1.40e0800000000p-3, -0x1.e97d2c0000000p-4, -0x1.790f980000000p-5, -0x1.60e02c0000000p-5, 0x1.437e800000000p-9}
, {-0x1.5760d80000000p-5, -0x1.7c3ea00000000p-7, 0x1.1952b40000000p-4, -0x1.7a41d00000000p-6, -0x1.ab3d6c0000000p-5, 0x1.256e860000000p-3, -0x1.66e22c0000000p-5, 0x1.5057a60000000p-3}
, {-0x1.29c85c0000000p-3, -0x1.163dd00000000p-3, -0x1.4151d00000000p-3, -0x1.d84b400000000p-8, 0x1.8ad0c00000000p-5, 0x1.729ad80000000p-5, -0x1.43ea6c0000000p-4, -0x1.2bdfb00000000p-3}
}
, {{0x1.dfa4000000000p-9, -0x1.5c30500000000p-6, -0x1.0b95400000000p-4, 0x1.5b904c0000000p-4, 0x1.50ec260000000p-3, -0x1.382b9c0000000p-3, 0x1.05a5460000000p-3, -0x1.1291980000000p-5}
, {-0x1.21d6a80000000p-5, -0x1.1dbc700000000p-3, 0x1.4430340000000p-4, -0x1.9b17c00000000p-4, 0x1.0c27320000000p-3, 0x1.7390e80000000p-5, -0x1.1bd0cc0000000p-4, 0x1.4b02a80000000p-5}
, {0x1.38ade00000000p-4, -0x1.2072e80000000p-5, 0x1.4a00580000000p-5, 0x1.51851a0000000p-3, 0x1.b795a00000000p-7, 0x1.2829a20000000p-3, 0x1.1292020000000p-3, 0x1.287b9a0000000p-3}
}
}
, {{{-0x1.4f78bc0000000p-3, 0x1.21b6740000000p-4, -0x1.f290000000000p-9, 0x1.2687320000000p-3, -0x1.4269200000000p-3, -0x1.ddabec0000000p-5, 0x1.1151a60000000p-3, 0x1.8e81000000000p-6}
, {0x1.2ad4260000000p-3, -0x1.062e960000000p-3, 0x1.991af40000000p-4, 0x1.7953240000000p-4, -0x1.7222a00000000p-7, 0x1.d744d00000000p-6, -0x1.78592c0000000p-4, 0x1.0ec6160000000p-3}
, {-0x1.aaa8000000000p-6, -0x1.169edc0000000p-3, -0x1.53d3000000000p-10, -0x1.b8f2500000000p-6, -0x1.40e0360000000p-4, 0x1.3695200000000p-4, -0x1.1eff760000000p-3, -0x1.8d66180000000p-5}
}
, {{-0x1.a54b580000000p-5, 0x1.b4af840000000p-4, 0x1.df91000000000p-7, -0x1.c049000000000p-7, 0x1.4e6a600000000p-4, -0x1.1c4dec0000000p-3, -0x1.9dba300000000p-6, 0x1.4ee10a0000000p-3}
, {0x1.f172d80000000p-5, 0x1.907fb00000000p-6, -0x1.12b7a00000000p-7, 0x1.867c400000000p-5, 0x1.bbf7e80000000p-5, -0x1.54ea280000000p-5, 0x1.21aff40000000p-4, -0x1.1482c00000000p-8}
, {-0x1.0deac60000000p-3, -0x1.6610300000000p-6, 0x1.f64dec0000000p-4, 0x1.b842d40000000p-4, -0x1.2361300000000p-6, 0x1.a5c0b00000000p-6, 0x1.d189540000000p-4, 0x1.54b5360000000p-3}
}
, {{0x1.cfa7600000000p-7, 0x1.f261a80000000p-5, -0x1.382d300000000p-6, 0x1.8501800000000p-5, -0x1.a269400000000p-5, 0x1.2793160000000p-3, 0x1.346a4a0000000p-3, -0x1.c88cb00000000p-6}
, {-0x1.c273400000000p-8, -0x1.f5ce200000000p-4, 0x1.0f79520000000p-3, 0x1.9badac0000000p-4, -0x1.20fb1c0000000p-3, 0x1.fc03740000000p-4, 0x1.2c79da0000000p-3, 0x1.3d66000000000p-7}
, {-0x1.10f7660000000p-3, 0x1.0eb7980000000p-5, 0x1.ad5b740000000p-4, 0x1.cc23a40000000p-4, 0x1.3c58800000000p-5, -0x1.baf5000000000p-6, -0x1.dced6c0000000p-5, 0x1.5547060000000p-3}
}
}
}
;

#undef INPUT_CHANNELS
#undef CONV_FILTERS
#undef CONV_KERNEL_SIZE_X
#undef CONV_KERNEL_SIZE_Y
#undef CONV_GROUPS