/**
  ******************************************************************************
  * @file    weights/conv2d.cc
  * @author  Pierre-Emmanuel Novac <penovac@unice.fr>, LEAT, CNRS, Université Côte d'Azur, France
  * @version V2.0
  * @date    24 march 2020
  * @brief   Template generating plain C code for the implementation of Convolutional Neural Networks on MCU
  */

#include <stdint.h>

#define INPUT_CHANNELS     1
#define CONV_FILTERS       16
#define CONV_KERNEL_SIZE_Y 3
#define CONV_KERNEL_SIZE_X 3
#define CONV_GROUPS        1


const float conv2d_8_bias[CONV_FILTERS] = {0x1.6ae51c0000000p-8, -0x1.2a1b460000000p-6, -0x1.30b37c0000000p-5, 0x1.a83a3c0000000p-7, -0x1.f678160000000p-8, -0x1.6bb6480000000p-8, -0x1.b112de0000000p-6, -0x1.0f834c0000000p-6, 0x1.dd595c0000000p-6, -0x1.a0771c0000000p-7, -0x1.9bfe200000000p-6, -0x1.4980400000000p-6, -0x1.1319a80000000p-8, -0x1.f828c00000000p-6, 0x1.2b61d00000000p-8, 0x1.5f6f700000000p-5}
;


const float conv2d_8_kernel[CONV_FILTERS][CONV_KERNEL_SIZE_Y][CONV_KERNEL_SIZE_X][INPUT_CHANNELS / CONV_GROUPS] = {{{{-0x1.5aefec0000000p-4}
, {0x1.3e3a000000000p-3}
, {0x1.7072cc0000000p-5}
}
, {{0x1.4f080c0000000p-4}
, {-0x1.1c29ba0000000p-5}
, {-0x1.99a56e0000000p-4}
}
, {{0x1.6ac0620000000p-4}
, {0x1.939a320000000p-5}
, {0x1.6180180000000p-5}
}
}
, {{{0x1.8c2d0c0000000p-3}
, {-0x1.77b9ea0000000p-4}
, {-0x1.7d715a0000000p-3}
}
, {{-0x1.f9c2380000000p-4}
, {0x1.37f7140000000p-4}
, {-0x1.9c62f80000000p-5}
}
, {{0x1.6c47c00000000p-3}
, {0x1.f5f0fa0000000p-3}
, {0x1.49f8500000000p-3}
}
}
, {{{-0x1.d25cbe0000000p-4}
, {0x1.8680f40000000p-5}
, {0x1.8c7b7c0000000p-5}
}
, {{-0x1.df4b3e0000000p-10}
, {0x1.817ea60000000p-3}
, {-0x1.0dc5120000000p-3}
}
, {{0x1.48cbd00000000p-3}
, {0x1.6b62900000000p-6}
, {-0x1.0f32a20000000p-10}
}
}
, {{{-0x1.1a96c00000000p-3}
, {-0x1.32348c0000000p-3}
, {0x1.9451a00000000p-5}
}
, {{0x1.ee55fa0000000p-4}
, {0x1.9d206c0000000p-3}
, {0x1.c4fd220000000p-5}
}
, {{0x1.1232f20000000p-3}
, {-0x1.3c48720000000p-6}
, {-0x1.bfce340000000p-4}
}
}
, {{{0x1.ebb51e0000000p-4}
, {-0x1.6f7a900000000p-4}
, {-0x1.79aa300000000p-2}
}
, {{0x1.1069940000000p-2}
, {0x1.e02fd80000000p-6}
, {-0x1.67c18c0000000p-3}
}
, {{0x1.97ce1c0000000p-3}
, {-0x1.7773620000000p-5}
, {0x1.7c8fae0000000p-4}
}
}
, {{{0x1.6c5a9a0000000p-3}
, {0x1.0767f00000000p-5}
, {-0x1.47b09e0000000p-2}
}
, {{0x1.7e5b420000000p-3}
, {0x1.22ed4e0000000p-7}
, {-0x1.3f65a00000000p-4}
}
, {{0x1.c674460000000p-3}
, {-0x1.329c9a0000000p-3}
, {-0x1.3e5dc20000000p-11}
}
}
, {{{0x1.9b53e20000000p-5}
, {0x1.70334a0000000p-4}
, {0x1.a572860000000p-5}
}
, {{0x1.05711e0000000p-3}
, {-0x1.148a5e0000000p-3}
, {-0x1.ab7b760000000p-5}
}
, {{0x1.7764f00000000p-3}
, {0x1.2dc12a0000000p-3}
, {-0x1.a7e48c0000000p-8}
}
}
, {{{0x1.42e19a0000000p-4}
, {0x1.785b680000000p-5}
, {0x1.c31a7e0000000p-4}
}
, {{0x1.672a040000000p-3}
, {0x1.b6161c0000000p-3}
, {-0x1.7314dc0000000p-4}
}
, {{0x1.6e409a0000000p-4}
, {0x1.86463a0000000p-3}
, {-0x1.b848020000000p-4}
}
}
, {{{0x1.0a4bc00000000p-5}
, {0x1.eed77a0000000p-3}
, {0x1.145dca0000000p-3}
}
, {{0x1.1cb3440000000p-2}
, {0x1.462d6c0000000p-4}
, {-0x1.c4688e0000000p-4}
}
, {{-0x1.18798c0000000p-5}
, {0x1.0607f20000000p-7}
, {-0x1.9d22100000000p-2}
}
}
, {{{0x1.44a1260000000p-3}
, {0x1.acd7c60000000p-3}
, {-0x1.2db5c40000000p-3}
}
, {{-0x1.1b3f700000000p-3}
, {0x1.25137a0000000p-3}
, {0x1.a888180000000p-3}
}
, {{0x1.910e580000000p-4}
, {0x1.55bc420000000p-3}
, {0x1.c0888c0000000p-3}
}
}
, {{{0x1.cf0fb60000000p-4}
, {-0x1.e3658e0000000p-9}
, {0x1.4139cc0000000p-3}
}
, {{0x1.35f71c0000000p-6}
, {0x1.1ee04a0000000p-4}
, {0x1.099f820000000p-3}
}
, {{-0x1.bc32fc0000000p-5}
, {0x1.84d5980000000p-6}
, {0x1.7318c80000000p-4}
}
}
, {{{0x1.b12f140000000p-3}
, {0x1.7d953e0000000p-3}
, {0x1.b2ae420000000p-6}
}
, {{0x1.34e3080000000p-5}
, {0x1.8acf040000000p-3}
, {0x1.b9a42c0000000p-7}
}
, {{0x1.9d065a0000000p-7}
, {-0x1.80688c0000000p-5}
, {0x1.a2d6400000000p-4}
}
}
, {{{-0x1.50ea980000000p-2}
, {-0x1.c291ec0000000p-10}
, {0x1.9561f40000000p-4}
}
, {{-0x1.a7736a0000000p-4}
, {0x1.29e4100000000p-3}
, {0x1.47a66c0000000p-3}
}
, {{-0x1.58fb280000000p-3}
, {0x1.7f3efe0000000p-4}
, {0x1.d9f88e0000000p-6}
}
}
, {{{0x1.5f8aa80000000p-4}
, {0x1.5a11040000000p-3}
, {0x1.7101540000000p-4}
}
, {{0x1.a206ce0000000p-3}
, {0x1.b9c4e00000000p-6}
, {0x1.1c977a0000000p-3}
}
, {{0x1.71a50a0000000p-6}
, {-0x1.43d33a0000000p-7}
, {0x1.61167e0000000p-7}
}
}
, {{{0x1.99b6e00000000p-3}
, {-0x1.37bf940000000p-6}
, {0x1.5b5dec0000000p-4}
}
, {{0x1.e326160000000p-3}
, {0x1.91fb540000000p-3}
, {-0x1.66d3ae0000000p-3}
}
, {{-0x1.0b7d5c0000000p-3}
, {-0x1.f73ea40000000p-4}
, {-0x1.83d21e0000000p-6}
}
}
, {{{0x1.3486560000000p-2}
, {-0x1.b209420000000p-5}
, {0x1.99b5660000000p-4}
}
, {{-0x1.bcd7e20000000p-4}
, {-0x1.2abc320000000p-5}
, {-0x1.3c34960000000p-3}
}
, {{-0x1.a0724a0000000p-3}
, {-0x1.e3c7240000000p-6}
, {0x1.55f72c0000000p-4}
}
}
}
;

#undef INPUT_CHANNELS
#undef CONV_FILTERS
#undef CONV_KERNEL_SIZE_X
#undef CONV_KERNEL_SIZE_Y
#undef CONV_GROUPS