/**
  ******************************************************************************
  * @file    weights/conv2d.cc
  * @author  Pierre-Emmanuel Novac <penovac@unice.fr>, LEAT, CNRS, Université Côte d'Azur, France
  * @version V2.0
  * @date    24 march 2020
  * @brief   Template generating plain C code for the implementation of Convolutional Neural Networks on MCU
  */

#include <stdint.h>

#define INPUT_CHANNELS     8
#define CONV_FILTERS       16
#define CONV_KERNEL_SIZE_Y 3
#define CONV_KERNEL_SIZE_X 3
#define CONV_GROUPS        1


const float conv2d_15_bias[CONV_FILTERS] = {0x0.0p+0, 0x0.0p+0, 0x0.0p+0, 0x0.0p+0, 0x0.0p+0, 0x0.0p+0, 0x0.0p+0, 0x0.0p+0, 0x0.0p+0, 0x0.0p+0, 0x0.0p+0, 0x0.0p+0, 0x0.0p+0, 0x0.0p+0, 0x0.0p+0, 0x0.0p+0}
;


const float conv2d_15_kernel[CONV_FILTERS][CONV_KERNEL_SIZE_Y][CONV_KERNEL_SIZE_X][INPUT_CHANNELS / CONV_GROUPS] = {{{{0x1.44184c0000000p-4, -0x1.81bb800000000p-6, -0x1.1148760000000p-4, -0x1.9479b60000000p-4, 0x1.2f5fda0000000p-3, 0x1.2695360000000p-3, -0x1.014e800000000p-5, -0x1.aad1000000000p-6}
, {0x1.31a70c0000000p-4, 0x1.3be9220000000p-3, 0x1.d3d5d80000000p-5, 0x1.2cad500000000p-6, 0x1.85feb40000000p-4, 0x1.a24f280000000p-5, 0x1.69d3c40000000p-4, 0x1.df3ab40000000p-4}
, {-0x1.f18d500000000p-6, -0x1.e48ab60000000p-4, -0x1.2dd0500000000p-3, 0x1.4322020000000p-3, -0x1.a82d580000000p-5, -0x1.3a12700000000p-3, 0x1.458d000000000p-4, 0x1.1b31740000000p-4}
}
, {{-0x1.18e8000000000p-8, -0x1.43804c0000000p-3, -0x1.4231e60000000p-3, 0x1.130f200000000p-4, 0x1.b8c5600000000p-7, -0x1.8de42c0000000p-5, 0x1.2525280000000p-5, -0x1.34ec500000000p-3}
, {-0x1.fcd7760000000p-4, 0x1.e9d6800000000p-9, -0x1.109b600000000p-7, 0x1.4dbd740000000p-4, 0x1.f9dd800000000p-5, -0x1.522a960000000p-4, -0x1.0c02c00000000p-8, -0x1.94be980000000p-5}
, {-0x1.c7fb180000000p-5, -0x1.5d09000000000p-5, 0x1.8adc0c0000000p-4, 0x1.51ad000000000p-10, -0x1.467cd00000000p-3, -0x1.d5b6a00000000p-7, -0x1.963ab00000000p-6, 0x1.27db4c0000000p-4}
}
, {{0x1.90fd800000000p-6, -0x1.675e8c0000000p-4, 0x1.2eaaba0000000p-3, -0x1.ad42180000000p-5, -0x1.4a40400000000p-5, 0x1.c494a40000000p-4, 0x1.3fb5a00000000p-4, 0x1.1b55800000000p-9}
, {0x1.5622580000000p-5, 0x1.249d7a0000000p-3, -0x1.7fbbd60000000p-4, -0x1.fcf1000000000p-7, 0x1.35fa940000000p-4, -0x1.1f6ec00000000p-8, 0x1.11a5a80000000p-5, 0x1.d2d9500000000p-6}
, {-0x1.b501960000000p-4, -0x1.19e8060000000p-3, 0x1.03dbe00000000p-4, -0x1.4e7ae00000000p-4, 0x1.8354140000000p-4, -0x1.4a3d000000000p-10, -0x1.21af560000000p-4, 0x1.941c140000000p-4}
}
}
, {{{0x1.33d9680000000p-5, 0x1.76e2c00000000p-5, 0x1.cf02ac0000000p-4, 0x1.62d60c0000000p-4, 0x1.85148c0000000p-4, -0x1.52550c0000000p-3, 0x1.2c25aa0000000p-3, 0x1.4c9c180000000p-5}
, {0x1.53b9d00000000p-6, 0x1.0352060000000p-3, 0x1.de14800000000p-6, -0x1.fe39d00000000p-6, 0x1.9fab000000000p-6, -0x1.72e0c00000000p-8, -0x1.e8f84c0000000p-4, -0x1.68b7960000000p-4}
, {-0x1.244db60000000p-3, -0x1.21a6600000000p-3, -0x1.0ba3e00000000p-3, 0x1.1e8c580000000p-5, -0x1.5155560000000p-3, 0x1.d104d80000000p-5, 0x1.4dd1320000000p-3, -0x1.1002f60000000p-3}
}
, {{-0x1.099bec0000000p-4, -0x1.0eab000000000p-5, 0x1.49b3cc0000000p-4, 0x1.52f1660000000p-3, -0x1.3053a60000000p-3, 0x1.221f8c0000000p-4, -0x1.8bea760000000p-4, 0x1.a237b00000000p-6}
, {-0x1.e577ac0000000p-4, -0x1.6a5b000000000p-4, 0x1.7e60000000000p-11, 0x1.e0b8000000000p-6, 0x1.bb42e80000000p-5, 0x1.cd6b600000000p-7, -0x1.c9a7560000000p-4, 0x1.c692d80000000p-5}
, {0x1.31c4340000000p-4, 0x1.255b000000000p-4, -0x1.1493f60000000p-3, -0x1.2af6a00000000p-7, 0x1.be2e840000000p-4, 0x1.2da3280000000p-5, 0x1.d80eb00000000p-6, 0x1.c1ea000000000p-7}
}
, {{0x1.d3cd140000000p-4, -0x1.b622a00000000p-7, -0x1.3266000000000p-3, 0x1.4af0560000000p-3, -0x1.1f2aac0000000p-4, 0x1.4d9cb60000000p-3, -0x1.d599760000000p-4, -0x1.2156b60000000p-4}
, {0x1.1095560000000p-3, 0x1.724c980000000p-5, -0x1.4ac46c0000000p-4, -0x1.0393460000000p-3, -0x1.c86fac0000000p-5, -0x1.d2e7800000000p-5, 0x1.6b34c00000000p-5, -0x1.42678c0000000p-3}
, {-0x1.eccb200000000p-4, 0x1.9d32ec0000000p-4, 0x1.3791340000000p-4, 0x1.935d680000000p-5, 0x1.3c6c7a0000000p-3, -0x1.2b897c0000000p-3, -0x1.9c1e600000000p-4, -0x1.fae1000000000p-6}
}
}
, {{{0x1.e618640000000p-4, 0x1.d82cc00000000p-8, -0x1.c5f56c0000000p-4, 0x1.165bda0000000p-3, -0x1.9954d80000000p-5, 0x1.78cc0c0000000p-4, 0x1.4836180000000p-5, -0x1.3e70700000000p-3}
, {-0x1.164f4c0000000p-3, -0x1.81d86c0000000p-5, -0x1.a127560000000p-4, -0x1.1394560000000p-4, 0x1.3adc360000000p-3, -0x1.5334800000000p-5, -0x1.f22ec00000000p-4, -0x1.ab48d60000000p-4}
, {0x1.334b660000000p-3, -0x1.52b60c0000000p-4, 0x1.4dd4800000000p-6, 0x1.bef2840000000p-4, -0x1.151ccc0000000p-3, -0x1.2006200000000p-4, 0x1.a7192c0000000p-4, 0x1.3588e60000000p-3}
}
, {{-0x1.1fbb600000000p-7, 0x1.4746c00000000p-8, -0x1.4272600000000p-4, 0x1.1ee3160000000p-3, 0x1.36b9e60000000p-3, -0x1.7cea600000000p-7, -0x1.76c0000000000p-13, -0x1.4952960000000p-3}
, {-0x1.d806000000000p-11, -0x1.0a84360000000p-4, -0x1.13799c0000000p-3, -0x1.fed7d60000000p-4, -0x1.31ec4c0000000p-3, 0x1.7c5e4c0000000p-4, -0x1.0d3e000000000p-3, 0x1.a1cda40000000p-4}
, {0x1.d2c0440000000p-4, 0x1.1356760000000p-3, -0x1.52ebac0000000p-4, -0x1.289d4c0000000p-3, -0x1.0210580000000p-5, -0x1.27fe800000000p-5, -0x1.3d14260000000p-3, 0x1.8521b40000000p-4}
}
, {{-0x1.b993400000000p-8, 0x1.40a42a0000000p-3, -0x1.9d5a000000000p-4, -0x1.89d4c00000000p-4, -0x1.51b4d80000000p-5, 0x1.16e7e00000000p-4, 0x1.39d32c0000000p-4, 0x1.4283b60000000p-3}
, {-0x1.6e5f8c0000000p-4, -0x1.021fd80000000p-5, -0x1.9c2a2c0000000p-5, 0x1.3085720000000p-3, 0x1.94d8ec0000000p-4, 0x1.40048a0000000p-3, -0x1.a508c00000000p-5, -0x1.cf44e00000000p-4}
, {-0x1.f719800000000p-4, -0x1.41ddcc0000000p-3, -0x1.72782c0000000p-5, 0x1.4312800000000p-9, 0x1.513f220000000p-3, 0x1.e682680000000p-5, 0x1.bfd5580000000p-5, 0x1.f549ec0000000p-4}
}
}
, {{{0x1.58448c0000000p-4, 0x1.de83b00000000p-6, -0x1.0a04000000000p-8, -0x1.5b2e400000000p-5, -0x1.00a1e80000000p-5, -0x1.89e2960000000p-4, -0x1.556ce00000000p-4, -0x1.13fefc0000000p-3}
, {0x1.b773140000000p-4, -0x1.4e5e0c0000000p-4, 0x1.3cf54c0000000p-4, -0x1.47ddb00000000p-3, -0x1.56afec0000000p-4, -0x1.d836500000000p-6, -0x1.5c18980000000p-5, -0x1.830fa00000000p-4}
, {-0x1.25d3b00000000p-3, 0x1.c440600000000p-7, -0x1.267b160000000p-4, -0x1.3d890c0000000p-4, 0x1.57fee40000000p-4, -0x1.07978c0000000p-3, -0x1.4332a60000000p-3, -0x1.88ec980000000p-5}
}
, {{-0x1.3359560000000p-3, 0x1.ee23a00000000p-7, -0x1.a770180000000p-5, -0x1.47e7b00000000p-3, -0x1.2ef0700000000p-3, 0x1.3131f40000000p-4, -0x1.3db2160000000p-3, 0x1.e484a00000000p-7}
, {0x1.fad0600000000p-7, 0x1.91c6c00000000p-8, 0x1.c16cb40000000p-4, 0x1.cb62c40000000p-4, 0x1.b127000000000p-5, -0x1.07a4800000000p-3, -0x1.f3f3c00000000p-4, -0x1.1e6f9c0000000p-3}
, {-0x1.c5c9580000000p-5, -0x1.05d16c0000000p-4, 0x1.ce46e80000000p-5, 0x1.6e46000000000p-6, -0x1.26070c0000000p-4, 0x1.4ba1ec0000000p-4, 0x1.44ea180000000p-5, 0x1.0ff4f20000000p-3}
}
, {{0x1.f116140000000p-4, 0x1.4d40500000000p-6, -0x1.c256800000000p-4, 0x1.44c2a60000000p-3, -0x1.5e372c0000000p-4, 0x1.6165840000000p-4, 0x1.6c20cc0000000p-4, 0x1.42bde00000000p-4}
, {-0x1.64822c0000000p-5, -0x1.4055ec0000000p-4, -0x1.3c0cec0000000p-4, 0x1.1725340000000p-4, -0x1.366e580000000p-5, 0x1.691cac0000000p-4, 0x1.d264800000000p-6, 0x1.25f0c00000000p-5}
, {0x1.f42d000000000p-7, 0x1.1a0c000000000p-5, 0x1.203e600000000p-7, -0x1.ed7e6c0000000p-4, 0x1.9d60b00000000p-6, -0x1.f886ec0000000p-5, -0x1.9936000000000p-11, 0x1.3af1a00000000p-7}
}
}
, {{{0x1.5cb0d40000000p-4, 0x1.762d800000000p-6, 0x1.4a11560000000p-3, 0x1.f786940000000p-4, 0x1.3a23660000000p-3, -0x1.e66a0c0000000p-4, -0x1.b79fb60000000p-4, 0x1.e873340000000p-4}
, {0x1.301a000000000p-4, -0x1.8aa1800000000p-9, 0x1.df3a800000000p-9, -0x1.1eb8900000000p-3, 0x1.eb44cc0000000p-4, -0x1.4ec3b00000000p-3, -0x1.c1be180000000p-5, -0x1.d74d2c0000000p-5}
, {-0x1.8012600000000p-7, -0x1.7dedac0000000p-5, -0x1.29d0560000000p-3, 0x1.2384340000000p-4, -0x1.3adaa60000000p-3, 0x1.f419680000000p-5, 0x1.c084740000000p-4, 0x1.4f289a0000000p-3}
}
, {{0x1.1826c00000000p-5, 0x1.cd06a00000000p-7, 0x1.2f1c160000000p-3, -0x1.4d7b180000000p-5, -0x1.31f0360000000p-3, 0x1.eade6c0000000p-4, 0x1.ef69f40000000p-4, 0x1.4722a80000000p-5}
, {-0x1.3994200000000p-3, 0x1.fc04180000000p-5, 0x1.6b49a80000000p-5, 0x1.43c78a0000000p-3, -0x1.1e68400000000p-5, 0x1.6651540000000p-4, -0x1.dc01a00000000p-4, 0x1.e411a80000000p-5}
, {0x1.64ba680000000p-5, 0x1.9ee5f40000000p-4, 0x1.4798120000000p-3, 0x1.9904640000000p-4, -0x1.6958c00000000p-8, -0x1.2fb2a00000000p-3, 0x1.6f0ed40000000p-4, -0x1.641f000000000p-4}
}
, {{0x1.4010800000000p-6, 0x1.31c7c00000000p-5, -0x1.43ea3c0000000p-3, -0x1.5001200000000p-4, 0x1.1b85f60000000p-3, 0x1.11dbc20000000p-3, 0x1.894a940000000p-4, -0x1.95df560000000p-4}
, {0x1.0338d00000000p-6, 0x1.f176680000000p-5, -0x1.7abe000000000p-6, 0x1.3017460000000p-3, -0x1.3f9ca00000000p-7, -0x1.24004c0000000p-4, -0x1.07a0c00000000p-3, -0x1.b61ed60000000p-4}
, {0x1.798da00000000p-7, 0x1.8107c40000000p-4, 0x1.05bfb20000000p-3, 0x1.cf71ac0000000p-4, 0x1.428da00000000p-4, 0x1.30c7da0000000p-3, -0x1.dd7d2c0000000p-4, 0x1.1d61200000000p-4}
}
}
, {{{-0x1.1465cc0000000p-4, 0x1.52f00a0000000p-3, 0x1.50055a0000000p-3, -0x1.cf08d80000000p-5, 0x1.6fd2b00000000p-6, -0x1.1f5fa00000000p-4, 0x1.fcd5180000000p-5, 0x1.111f740000000p-4}
, {-0x1.938b6c0000000p-5, -0x1.a035560000000p-4, 0x1.4967260000000p-3, -0x1.3e0bfc0000000p-3, -0x1.6294ec0000000p-5, -0x1.52b14c0000000p-3, -0x1.32ad400000000p-8, 0x1.24707a0000000p-3}
, {0x1.ada6a00000000p-7, -0x1.8fea180000000p-5, 0x1.9e46040000000p-4, 0x1.4ab7720000000p-3, -0x1.97c0ec0000000p-5, 0x1.ee93680000000p-5, -0x1.7981b00000000p-6, 0x1.a79cc00000000p-5}
}
, {{0x1.4755740000000p-4, -0x1.3b44300000000p-3, -0x1.33a3e00000000p-3, 0x1.d33dd40000000p-4, 0x1.70b4d40000000p-4, 0x1.48cd6a0000000p-3, 0x1.96ec280000000p-5, -0x1.56fc600000000p-4}
, {-0x1.24cb2c0000000p-3, 0x1.1e85e20000000p-3, 0x1.0bd5a00000000p-7, 0x1.f0e1a00000000p-7, -0x1.758f800000000p-6, -0x1.4cb0d60000000p-3, -0x1.0aad460000000p-3, 0x1.caa1b00000000p-6}
, {-0x1.e41b000000000p-6, 0x1.c487000000000p-7, -0x1.119fd00000000p-6, 0x1.4970a20000000p-3, 0x1.a94a600000000p-7, 0x1.8e31180000000p-5, 0x1.19f1000000000p-4, -0x1.1ea72c0000000p-3}
}
, {{0x1.dd34000000000p-12, 0x1.b946000000000p-5, 0x1.cfdb800000000p-5, -0x1.0392600000000p-4, 0x1.b3e1cc0000000p-4, 0x1.0b3d660000000p-3, 0x1.326f420000000p-3, -0x1.c9416c0000000p-4}
, {0x1.29b26c0000000p-4, -0x1.f0ae300000000p-6, -0x1.2ceaec0000000p-4, -0x1.0e42a00000000p-4, 0x1.3494120000000p-3, -0x1.5608ac0000000p-4, 0x1.e64f240000000p-4, -0x1.1c1cb00000000p-6}
, {0x1.7ef3740000000p-4, 0x1.3583400000000p-4, -0x1.533bd00000000p-3, 0x1.f8ef680000000p-5, -0x1.5ad0800000000p-4, -0x1.3263800000000p-4, 0x1.1e46000000000p-5, -0x1.6e724c0000000p-4}
}
}
, {{{-0x1.dec6960000000p-4, 0x1.1bc7a00000000p-7, 0x1.7884b00000000p-6, -0x1.3d31ac0000000p-3, -0x1.5353dc0000000p-3, 0x1.0e45000000000p-10, -0x1.3953600000000p-4, 0x1.8980000000000p-7}
, {-0x1.9f00300000000p-6, 0x1.d6eb240000000p-4, -0x1.3655300000000p-6, -0x1.1f96500000000p-6, -0x1.1813200000000p-3, -0x1.8d2c000000000p-12, -0x1.5d7b960000000p-4, 0x1.e53cb40000000p-4}
, {0x1.2574720000000p-3, 0x1.2630e00000000p-4, -0x1.3e61d00000000p-6, 0x1.ec852c0000000p-4, -0x1.a9d6600000000p-7, -0x1.46998c0000000p-4, 0x1.3d99e80000000p-5, -0x1.55f3180000000p-5}
}
, {{0x1.780dc40000000p-4, -0x1.489e7c0000000p-3, 0x1.6be4980000000p-5, -0x1.a38f560000000p-4, 0x1.5960c00000000p-5, 0x1.83b3b40000000p-4, 0x1.7d03a00000000p-7, -0x1.458ea00000000p-3}
, {0x1.8dc2140000000p-4, 0x1.16087a0000000p-3, -0x1.5165800000000p-9, -0x1.ebce400000000p-5, -0x1.d68d760000000p-4, 0x1.c177940000000p-4, -0x1.cd34800000000p-6, 0x1.065d060000000p-3}
, {0x1.3e9cc60000000p-3, 0x1.3750800000000p-5, -0x1.02b1500000000p-3, 0x1.d04f140000000p-4, -0x1.14eee60000000p-3, -0x1.7abbb60000000p-4, 0x1.d926340000000p-4, -0x1.5300fc0000000p-3}
}
, {{0x1.d45ee40000000p-4, 0x1.a989800000000p-9, -0x1.7e7fc00000000p-4, 0x1.1a86e00000000p-4, 0x1.15bf560000000p-3, 0x1.57b4180000000p-5, 0x1.a85bd80000000p-5, -0x1.9254800000000p-6}
, {0x1.1fe1b00000000p-6, 0x1.908f680000000p-5, -0x1.02d98c0000000p-3, -0x1.c405800000000p-4, 0x1.2e23300000000p-6, -0x1.2035980000000p-5, -0x1.7411ac0000000p-4, 0x1.bc80040000000p-4}
, {-0x1.0c811c0000000p-3, 0x1.825bb40000000p-4, -0x1.19a22c0000000p-3, -0x1.5662400000000p-4, -0x1.b6a6ac0000000p-5, 0x1.4463360000000p-3, -0x1.3e5dbc0000000p-3, 0x1.c90b580000000p-5}
}
}
, {{{0x1.f54da80000000p-5, -0x1.8e78600000000p-4, -0x1.e02f980000000p-5, -0x1.ad94000000000p-5, -0x1.1cc79c0000000p-3, -0x1.79e0580000000p-5, 0x1.400d060000000p-3, -0x1.6aeab00000000p-6}
, {-0x1.3378300000000p-3, -0x1.f55b800000000p-4, -0x1.a5bf4c0000000p-4, 0x1.02385a0000000p-3, 0x1.c73d000000000p-6, -0x1.1481800000000p-3, -0x1.2b7dcc0000000p-4, 0x1.c10ea80000000p-5}
, {-0x1.2447d00000000p-6, 0x1.8607d80000000p-5, -0x1.010b9c0000000p-3, -0x1.2f68760000000p-3, 0x1.3bac740000000p-4, -0x1.0139400000000p-8, 0x1.d142a80000000p-5, 0x1.1745980000000p-5}
}
, {{-0x1.d002d60000000p-4, 0x1.ef51580000000p-5, 0x1.612b400000000p-8, -0x1.5aabec0000000p-4, 0x1.b909d00000000p-6, -0x1.426fe00000000p-3, 0x1.884eec0000000p-4, -0x1.168dc00000000p-5}
, {-0x1.53375c0000000p-3, -0x1.721aec0000000p-4, -0x1.20bf980000000p-5, -0x1.243c2c0000000p-4, -0x1.8977800000000p-5, 0x1.8e4ab00000000p-6, 0x1.1918580000000p-5, 0x1.3ce50a0000000p-3}
, {0x1.354db20000000p-3, 0x1.831ae40000000p-4, 0x1.3916800000000p-6, 0x1.4835400000000p-5, -0x1.59d2000000000p-8, 0x1.4b1b6c0000000p-4, -0x1.4a41800000000p-6, 0x1.108c120000000p-3}
}
, {{0x1.dc94040000000p-4, 0x1.0543fa0000000p-3, -0x1.f3ba760000000p-4, -0x1.e257000000000p-7, -0x1.5642200000000p-4, -0x1.6d29600000000p-7, -0x1.0713000000000p-10, 0x1.c926c00000000p-5}
, {-0x1.112f8c0000000p-3, 0x1.f9d4540000000p-4, -0x1.cfa4580000000p-5, -0x1.ee65160000000p-4, -0x1.2f1bec0000000p-3, -0x1.f0b8d00000000p-6, -0x1.dcec800000000p-6, 0x1.b13da40000000p-4}
, {0x1.5195d20000000p-3, -0x1.30c03c0000000p-3, -0x1.4c4e760000000p-3, -0x1.07c3460000000p-3, -0x1.320d400000000p-5, -0x1.40a3000000000p-5, 0x1.f4ee240000000p-4, -0x1.84f10c0000000p-4}
}
}
, {{{0x1.dd372c0000000p-4, 0x1.6448d80000000p-5, 0x1.5d20000000000p-11, 0x1.4b3ba60000000p-3, -0x1.3d96c00000000p-3, 0x1.2853680000000p-5, -0x1.2b6fc00000000p-3, -0x1.1906000000000p-5}
, {0x1.53042a0000000p-3, -0x1.0bfc700000000p-3, -0x1.d7df6c0000000p-4, 0x1.2413b40000000p-4, -0x1.90b5c00000000p-4, 0x1.25974c0000000p-4, -0x1.c17f400000000p-4, 0x1.56ef680000000p-5}
, {0x1.b07b140000000p-4, 0x1.f980800000000p-5, -0x1.446a1c0000000p-3, 0x1.2d1b360000000p-3, -0x1.fe452c0000000p-5, 0x1.855c740000000p-4, -0x1.0cf6b60000000p-4, -0x1.bc32580000000p-5}
}
, {{-0x1.4eb7e60000000p-3, -0x1.538e400000000p-4, -0x1.15e8160000000p-3, 0x1.f302e80000000p-5, -0x1.b3d7160000000p-4, -0x1.9301a00000000p-7, -0x1.bd2aac0000000p-4, 0x1.45a7920000000p-3}
, {-0x1.cc556c0000000p-5, 0x1.2f07660000000p-3, -0x1.c987c00000000p-5, 0x1.9683740000000p-4, 0x1.4b503a0000000p-3, 0x1.d579440000000p-4, -0x1.2ac09c0000000p-3, 0x1.b6c3d40000000p-4}
, {0x1.fc01d00000000p-6, 0x1.0c6a020000000p-3, -0x1.25b5860000000p-3, -0x1.91cd8c0000000p-4, 0x1.9a57e40000000p-4, -0x1.5249400000000p-5, -0x1.d5e2580000000p-5, 0x1.164e760000000p-3}
}
, {{0x1.526d120000000p-3, -0x1.36db4c0000000p-3, 0x1.5827240000000p-4, 0x1.49af9a0000000p-3, -0x1.a038000000000p-4, -0x1.6e16ac0000000p-4, 0x1.9364600000000p-7, -0x1.c7f28c0000000p-4}
, {0x1.a4a9180000000p-5, -0x1.2853000000000p-6, 0x1.ee16240000000p-4, -0x1.169ecc0000000p-4, 0x1.2a04d80000000p-5, 0x1.7a69940000000p-4, -0x1.7041ac0000000p-5, 0x1.352dd60000000p-3}
, {0x1.87ae800000000p-5, -0x1.34be800000000p-6, -0x1.b1906c0000000p-4, -0x1.4d34180000000p-5, -0x1.1fe2e00000000p-4, -0x1.6e88180000000p-5, -0x1.8828f60000000p-4, 0x1.cc928c0000000p-4}
}
}
, {{{0x1.78b26c0000000p-4, -0x1.23b0860000000p-3, 0x1.07d9ec0000000p-4, -0x1.2499800000000p-3, 0x1.523b9a0000000p-3, -0x1.4610900000000p-3, -0x1.5617560000000p-4, 0x1.7292240000000p-4}
, {-0x1.5a72ac0000000p-5, -0x1.d891560000000p-4, -0x1.a861b00000000p-6, -0x1.d3c9400000000p-4, -0x1.4792760000000p-3, 0x1.4538000000000p-9, -0x1.aaca800000000p-6, -0x1.e934800000000p-5}
, {0x1.20102c0000000p-4, 0x1.ae51680000000p-5, -0x1.2d88cc0000000p-4, -0x1.1e48460000000p-3, 0x1.939c8c0000000p-4, -0x1.e8afcc0000000p-4, 0x1.8069c00000000p-5, -0x1.a672000000000p-7}
}
, {{-0x1.bdcc800000000p-6, -0x1.74a36c0000000p-4, 0x1.d1fee80000000p-5, -0x1.7c67ac0000000p-4, 0x1.9d09000000000p-6, -0x1.4bac700000000p-3, 0x1.75ca8c0000000p-4, 0x1.3418c00000000p-5}
, {0x1.7974ec0000000p-4, 0x1.8d9aec0000000p-4, -0x1.5bcb980000000p-5, -0x1.633d760000000p-4, 0x1.74afac0000000p-4, -0x1.9309800000000p-9, 0x1.3a12460000000p-3, 0x1.03cc800000000p-5}
, {-0x1.5553b60000000p-4, 0x1.d5d4a40000000p-4, 0x1.202e8c0000000p-4, -0x1.38811c0000000p-3, 0x1.7eb58c0000000p-4, 0x1.056ba00000000p-4, 0x1.37cc8c0000000p-4, -0x1.538da60000000p-3}
}
, {{0x1.4b32b00000000p-6, -0x1.6c0b200000000p-4, 0x1.45bfb20000000p-3, -0x1.5fe6c00000000p-8, -0x1.3fa8c00000000p-4, 0x1.9a77d80000000p-5, 0x1.f8afb40000000p-4, 0x1.2ec1760000000p-3}
, {-0x1.0c45b60000000p-4, -0x1.3833960000000p-3, 0x1.2044180000000p-5, 0x1.7cda800000000p-5, -0x1.1bec0c0000000p-3, 0x1.6b56ec0000000p-4, -0x1.e2afb60000000p-4, 0x1.a282ac0000000p-4}
, {-0x1.c652560000000p-4, 0x1.0198000000000p-9, 0x1.0402760000000p-3, -0x1.cf6cac0000000p-4, 0x1.68d0800000000p-6, 0x1.e19fac0000000p-4, 0x1.4a77400000000p-8, 0x1.8677580000000p-5}
}
}
, {{{0x1.f1c1500000000p-6, -0x1.f0caac0000000p-5, 0x1.3fadba0000000p-3, -0x1.1b3d400000000p-8, 0x1.384d860000000p-3, -0x1.6d92580000000p-5, -0x1.8cf4000000000p-8, -0x1.a51bd80000000p-5}
, {-0x1.f683c00000000p-5, 0x1.52bd000000000p-4, 0x1.13f1fa0000000p-3, -0x1.c67b8c0000000p-4, -0x1.2cd5c00000000p-5, 0x1.c255a80000000p-5, 0x1.b437d00000000p-6, 0x1.48a54c0000000p-4}
, {-0x1.16ce960000000p-3, 0x1.9cb9b40000000p-4, -0x1.37bdcc0000000p-4, 0x1.1945360000000p-3, -0x1.6e212c0000000p-5, 0x1.c828c00000000p-8, 0x1.20723a0000000p-3, 0x1.ce92f40000000p-4}
}
, {{0x1.38910c0000000p-4, 0x1.4679760000000p-3, -0x1.2badb60000000p-4, 0x1.464f620000000p-3, -0x1.3ff1800000000p-9, -0x1.5908360000000p-4, 0x1.ee63300000000p-6, -0x1.1b64e60000000p-3}
, {0x1.6f4e6c0000000p-4, -0x1.f443560000000p-4, 0x1.0afb800000000p-4, 0x1.fa2d040000000p-4, -0x1.0349d00000000p-6, 0x1.16e7da0000000p-3, 0x1.e2d0240000000p-4, 0x1.67aa6c0000000p-4}
, {0x1.6e7ab00000000p-6, 0x1.feab400000000p-5, 0x1.ffabd80000000p-5, 0x1.188e680000000p-5, -0x1.f3a0300000000p-6, -0x1.4463000000000p-10, -0x1.6d50000000000p-6, 0x1.9046cc0000000p-4}
}
, {{0x1.ed12000000000p-7, -0x1.403a0c0000000p-3, 0x1.e5dee40000000p-4, 0x1.3b02000000000p-4, 0x1.3681520000000p-3, -0x1.5438c60000000p-3, 0x1.4ff7400000000p-5, -0x1.4470180000000p-5}
, {-0x1.2516d60000000p-3, -0x1.7dadf60000000p-4, 0x1.4377400000000p-5, -0x1.0ba0fc0000000p-3, -0x1.03d0ac0000000p-4, -0x1.64d0e00000000p-4, 0x1.4393820000000p-3, 0x1.cda3800000000p-5}
, {-0x1.2080000000000p-11, 0x1.46f86c0000000p-4, -0x1.7a9d8c0000000p-4, -0x1.030a4c0000000p-3, 0x1.2dd4400000000p-5, 0x1.d5670c0000000p-4, 0x1.ef21540000000p-4, -0x1.e08c760000000p-4}
}
}
, {{{0x1.3b1f000000000p-5, -0x1.eeb4600000000p-4, 0x1.8ceeec0000000p-4, 0x1.61b9f40000000p-4, 0x1.1e604a0000000p-3, -0x1.25ebb60000000p-4, -0x1.5dafc00000000p-4, -0x1.f2fb400000000p-5}
, {0x1.bca2a80000000p-5, -0x1.4268800000000p-4, 0x1.82a22c0000000p-4, -0x1.03ed560000000p-3, -0x1.43dacc0000000p-3, 0x1.dca4680000000p-5, 0x1.453fa60000000p-3, 0x1.fd3dec0000000p-4}
, {-0x1.1acc760000000p-3, 0x1.ac08340000000p-4, -0x1.47c5180000000p-5, -0x1.39f70c0000000p-3, 0x1.2630120000000p-3, 0x1.3703ec0000000p-4, 0x1.3a85d60000000p-3, 0x1.7e23940000000p-4}
}
, {{-0x1.d59ed60000000p-4, 0x1.01dca00000000p-4, 0x1.e9e0340000000p-4, 0x1.812c580000000p-5, 0x1.1582d40000000p-4, -0x1.512f260000000p-3, 0x1.0fdf000000000p-5, 0x1.f2424c0000000p-4}
, {-0x1.07902c0000000p-3, -0x1.e024980000000p-5, 0x1.9a82800000000p-6, 0x1.0d32d40000000p-4, 0x1.ed19240000000p-4, 0x1.f87db40000000p-4, -0x1.5816800000000p-4, 0x1.03c0340000000p-4}
, {-0x1.a29ba00000000p-7, 0x1.d5b8280000000p-5, 0x1.e172600000000p-7, -0x1.75e9300000000p-6, -0x1.f1024c0000000p-4, 0x1.ffd5e80000000p-5, 0x1.fe0dd80000000p-5, -0x1.1d74a60000000p-3}
}
, {{-0x1.0d85500000000p-6, -0x1.a3f2ac0000000p-5, 0x1.fc27a80000000p-5, 0x1.5e88000000000p-8, 0x1.103eb00000000p-6, 0x1.2acaa60000000p-3, 0x1.b9f8c40000000p-4, 0x1.366af20000000p-3}
, {-0x1.bdf1400000000p-8, 0x1.200fa60000000p-3, -0x1.6ba5d80000000p-5, -0x1.4f632c0000000p-4, 0x1.3100200000000p-4, 0x1.13d5680000000p-5, 0x1.17eed20000000p-3, 0x1.b421e40000000p-4}
, {-0x1.bc46f60000000p-4, 0x1.94fc6c0000000p-4, -0x1.733d0c0000000p-4, -0x1.043c3c0000000p-3, -0x1.449dd80000000p-5, -0x1.bad3400000000p-4, -0x1.83a3c00000000p-4, -0x1.4b462c0000000p-3}
}
}
, {{{0x1.4a220a0000000p-3, 0x1.c870d80000000p-5, -0x1.750ac00000000p-8, 0x1.aacf000000000p-6, -0x1.4831060000000p-3, 0x1.7ed2d80000000p-5, -0x1.e502b00000000p-6, -0x1.611bc00000000p-5}
, {0x1.65b5d00000000p-6, -0x1.46e0000000000p-9, 0x1.0af3220000000p-3, -0x1.8e7d000000000p-10, 0x1.c495cc0000000p-4, 0x1.fda0d00000000p-6, -0x1.cf7b980000000p-5, 0x1.8cd9800000000p-5}
, {-0x1.b551760000000p-4, 0x1.34e4f20000000p-3, -0x1.1c49800000000p-9, -0x1.4ea86c0000000p-3, -0x1.7bed000000000p-4, 0x1.1cb6aa0000000p-3, -0x1.be4dec0000000p-5, 0x1.36afb20000000p-3}
}
, {{0x1.407a000000000p-8, -0x1.08e7560000000p-3, -0x1.433e000000000p-6, 0x1.0a0c4c0000000p-4, -0x1.cd432c0000000p-4, -0x1.4d34600000000p-3, -0x1.18ddd60000000p-3, -0x1.63b6000000000p-6}
, {-0x1.9196800000000p-9, -0x1.cf932c0000000p-4, -0x1.46c5f60000000p-3, -0x1.1438060000000p-3, 0x1.8fdaa80000000p-5, 0x1.b9ce800000000p-6, -0x1.35d0760000000p-3, -0x1.7c14e00000000p-4}
, {-0x1.257b600000000p-7, -0x1.00e0c00000000p-8, 0x1.fbab400000000p-8, -0x1.35cf7c0000000p-3, -0x1.27c5500000000p-3, -0x1.42a8a00000000p-3, -0x1.1139200000000p-4, 0x1.4827660000000p-3}
}
, {{-0x1.1f5d160000000p-3, 0x1.48e4fa0000000p-3, -0x1.3670cc0000000p-3, 0x1.89e64c0000000p-4, 0x1.13f6fa0000000p-3, 0x1.d32c800000000p-6, 0x1.0491960000000p-3, -0x1.5349180000000p-5}
, {0x1.1c75000000000p-7, -0x1.78af600000000p-4, 0x1.0390c60000000p-3, 0x1.3e374c0000000p-4, 0x1.2878580000000p-5, 0x1.f824600000000p-7, 0x1.e38b580000000p-5, 0x1.bb570c0000000p-4}
, {-0x1.5b086c0000000p-4, -0x1.0157800000000p-6, 0x1.4790f40000000p-4, -0x1.f074160000000p-4, 0x1.1876e80000000p-5, -0x1.1eded00000000p-6, 0x1.b13de80000000p-5, -0x1.ec26200000000p-4}
}
}
, {{{-0x1.0441ac0000000p-4, 0x1.8543140000000p-4, 0x1.d710000000000p-6, -0x1.362cd80000000p-5, 0x1.6e76980000000p-5, 0x1.f279800000000p-5, 0x1.efcda40000000p-4, -0x1.41674c0000000p-4}
, {0x1.48b25a0000000p-3, -0x1.3a93060000000p-3, -0x1.1943060000000p-3, -0x1.2f52200000000p-3, 0x1.1838280000000p-5, -0x1.5759cc0000000p-4, 0x1.26a6d40000000p-4, 0x1.3616300000000p-6}
, {-0x1.235b600000000p-3, 0x1.2285d40000000p-4, 0x1.1334ac0000000p-4, 0x1.872a540000000p-4, 0x1.b0476c0000000p-4, 0x1.8b76580000000p-5, 0x1.60a7540000000p-4, -0x1.5dca500000000p-6}
}
, {{-0x1.2c1df00000000p-3, 0x1.a204540000000p-4, -0x1.cf1c600000000p-7, 0x1.607c8c0000000p-4, -0x1.1b03d60000000p-3, 0x1.f5ef280000000p-5, 0x1.9e18c00000000p-5, 0x1.e825a80000000p-5}
, {-0x1.f1be160000000p-4, 0x1.afa8980000000p-5, 0x1.784ce40000000p-4, -0x1.e380300000000p-6, 0x1.bb50000000000p-5, 0x1.9d4b640000000p-4, -0x1.4891700000000p-3, 0x1.33a7b60000000p-3}
, {0x1.7d51300000000p-6, 0x1.0617400000000p-8, -0x1.cab02c0000000p-5, -0x1.b8f6cc0000000p-4, -0x1.12e5dc0000000p-3, -0x1.6527000000000p-5, 0x1.19edb60000000p-3, -0x1.45c8d60000000p-3}
}
, {{0x1.72bd800000000p-6, 0x1.1d35c00000000p-4, 0x1.0d14980000000p-5, 0x1.012a600000000p-7, -0x1.2f25f60000000p-3, 0x1.71a5440000000p-4, -0x1.6714d00000000p-6, 0x1.4ff9520000000p-3}
, {-0x1.cc5c6c0000000p-5, -0x1.ccdc000000000p-5, 0x1.488b2c0000000p-4, -0x1.01798c0000000p-4, 0x1.307d800000000p-4, -0x1.11f67c0000000p-3, 0x1.34c4000000000p-8, 0x1.1fc2d20000000p-3}
, {0x1.76e5000000000p-7, 0x1.366ee20000000p-3, -0x1.3d94180000000p-5, -0x1.1983900000000p-3, -0x1.f8e84c0000000p-4, 0x1.21bb660000000p-3, 0x1.d135840000000p-4, -0x1.92a4160000000p-4}
}
}
, {{{-0x1.8c1fc00000000p-5, 0x1.1e40e80000000p-5, -0x1.048df60000000p-3, 0x1.2cba920000000p-3, 0x1.1b27460000000p-3, -0x1.e79ce00000000p-4, 0x1.4f58720000000p-3, 0x1.44dcb60000000p-3}
, {0x1.dc8a180000000p-5, 0x1.0c396a0000000p-3, -0x1.d3df160000000p-4, -0x1.2b7dd00000000p-3, 0x1.232b160000000p-3, 0x1.46f3400000000p-4, 0x1.2a22920000000p-3, 0x1.fc18f40000000p-4}
, {0x1.c936300000000p-6, 0x1.59dfc00000000p-5, 0x1.fb5c340000000p-4, 0x1.a251300000000p-6, 0x1.66adb00000000p-6, 0x1.c2f9400000000p-8, 0x1.d39b000000000p-10, -0x1.0a23400000000p-3}
}
, {{0x1.dd6f800000000p-5, -0x1.ea0f180000000p-5, -0x1.f6ac960000000p-4, -0x1.c11a8c0000000p-4, -0x1.2c29560000000p-4, 0x1.94504c0000000p-4, 0x1.7185a40000000p-4, 0x1.bf1af40000000p-4}
, {0x1.c293180000000p-5, -0x1.5b66ac0000000p-4, 0x1.7236680000000p-5, 0x1.6f68180000000p-5, 0x1.048e940000000p-4, -0x1.3d340c0000000p-3, 0x1.3559020000000p-3, 0x1.351d000000000p-7}
, {0x1.1883cc0000000p-4, 0x1.4198000000000p-13, 0x1.ec520c0000000p-4, 0x1.6cbf180000000p-5, 0x1.a781ec0000000p-4, 0x1.c049d80000000p-5, -0x1.2de1160000000p-4, 0x1.fbc8cc0000000p-4}
}
, {{0x1.413cac0000000p-4, 0x1.ff93f40000000p-4, -0x1.bbb9980000000p-5, -0x1.7afdac0000000p-4, 0x1.4f29800000000p-4, -0x1.b971600000000p-7, -0x1.ee69cc0000000p-4, -0x1.e5f7800000000p-6}
, {0x1.3b1ab20000000p-3, 0x1.bbc7b00000000p-6, 0x1.46204c0000000p-4, 0x1.ecb4d40000000p-4, 0x1.9a180c0000000p-4, -0x1.b811c00000000p-5, -0x1.71b9a00000000p-4, 0x1.13feca0000000p-3}
, {0x1.7b3bcc0000000p-4, -0x1.2e02960000000p-3, -0x1.de8fc00000000p-5, -0x1.0517000000000p-3, 0x1.66e1580000000p-5, 0x1.34544a0000000p-3, 0x1.5cc0840000000p-4, -0x1.eca86c0000000p-4}
}
}
, {{{-0x1.5478dc0000000p-3, -0x1.f57d2c0000000p-4, 0x1.6bd3640000000p-4, -0x1.08778c0000000p-4, 0x1.3c0f400000000p-4, 0x1.93eee40000000p-4, -0x1.aa6b000000000p-7, -0x1.19cc0c0000000p-3}
, {0x1.29460c0000000p-4, -0x1.1bebb60000000p-3, -0x1.b89c600000000p-4, -0x1.52ddb60000000p-4, 0x1.4b7df20000000p-3, 0x1.640d840000000p-4, 0x1.aef1640000000p-4, -0x1.afa36c0000000p-5}
, {0x1.424c8a0000000p-3, -0x1.23aefc0000000p-3, -0x1.48e2980000000p-5, -0x1.851a600000000p-4, 0x1.f52c000000000p-7, -0x1.d0ca980000000p-5, 0x1.d9e7340000000p-4, -0x1.babe360000000p-4}
}
, {{-0x1.3fa4900000000p-3, 0x1.39c2cc0000000p-4, -0x1.48e7180000000p-5, -0x1.7656300000000p-6, 0x1.17bc2a0000000p-3, 0x1.1fcc9a0000000p-3, 0x1.d107ec0000000p-4, -0x1.7f82ec0000000p-4}
, {0x1.66dd800000000p-6, 0x1.13b4f20000000p-3, 0x1.1bf9980000000p-5, 0x1.131a200000000p-4, 0x1.3ad5e20000000p-3, 0x1.8c5f8c0000000p-4, -0x1.1c18000000000p-7, 0x1.82b2b40000000p-4}
, {0x1.e66cb40000000p-4, 0x1.5ab6c00000000p-5, -0x1.2c39800000000p-6, 0x1.35fa740000000p-4, -0x1.2d92000000000p-4, 0x1.0a48cc0000000p-4, -0x1.3fd85c0000000p-3, -0x1.70b70c0000000p-4}
}
, {{0x1.b8656c0000000p-4, 0x1.16ceb00000000p-6, 0x1.df89740000000p-4, 0x1.ab48300000000p-6, -0x1.fd30200000000p-4, -0x1.a8fe000000000p-8, 0x1.9f0aec0000000p-4, -0x1.c852160000000p-4}
, {-0x1.553e4c0000000p-3, 0x1.2113140000000p-4, -0x1.19c04c0000000p-3, -0x1.4ce8c60000000p-3, 0x1.1272ea0000000p-3, -0x1.c9182c0000000p-5, -0x1.266e400000000p-3, 0x1.b498140000000p-4}
, {-0x1.8055580000000p-5, -0x1.4be9200000000p-3, -0x1.1a8b460000000p-3, 0x1.d518940000000p-4, 0x1.5f6fc00000000p-5, -0x1.8104980000000p-5, 0x1.224b4a0000000p-3, 0x1.3d29da0000000p-3}
}
}
}
;

#undef INPUT_CHANNELS
#undef CONV_FILTERS
#undef CONV_KERNEL_SIZE_X
#undef CONV_KERNEL_SIZE_Y
#undef CONV_GROUPS