/**
  ******************************************************************************
  * @file    weights/fc.cc
  * @author  Pierre-Emmanuel Novac <penovac@unice.fr>, LEAT, CNRS, Université Côte d'Azur, France
  * @version 1.0.0
  * @date    24 march 2020
  * @brief   Template generating plain C code for the implementation of Convolutional Neural Networks on MCU
  */

#include <stdint.h>

#define INPUT_SAMPLES 576
#define FC_UNITS 100


const float dense_4_bias[FC_UNITS] = {0x0.0p+0, 0x0.0p+0, 0x0.0p+0, 0x0.0p+0, 0x0.0p+0, 0x0.0p+0, 0x0.0p+0, 0x0.0p+0, 0x0.0p+0, 0x0.0p+0, 0x0.0p+0, 0x0.0p+0, 0x0.0p+0, 0x0.0p+0, 0x0.0p+0, 0x0.0p+0, 0x0.0p+0, 0x0.0p+0, 0x0.0p+0, 0x0.0p+0, 0x0.0p+0, 0x0.0p+0, 0x0.0p+0, 0x0.0p+0, 0x0.0p+0, 0x0.0p+0, 0x0.0p+0, 0x0.0p+0, 0x0.0p+0, 0x0.0p+0, 0x0.0p+0, 0x0.0p+0, 0x0.0p+0, 0x0.0p+0, 0x0.0p+0, 0x0.0p+0, 0x0.0p+0, 0x0.0p+0, 0x0.0p+0, 0x0.0p+0, 0x0.0p+0, 0x0.0p+0, 0x0.0p+0, 0x0.0p+0, 0x0.0p+0, 0x0.0p+0, 0x0.0p+0, 0x0.0p+0, 0x0.0p+0, 0x0.0p+0, 0x0.0p+0, 0x0.0p+0, 0x0.0p+0, 0x0.0p+0, 0x0.0p+0, 0x0.0p+0, 0x0.0p+0, 0x0.0p+0, 0x0.0p+0, 0x0.0p+0, 0x0.0p+0, 0x0.0p+0, 0x0.0p+0, 0x0.0p+0, 0x0.0p+0, 0x0.0p+0, 0x0.0p+0, 0x0.0p+0, 0x0.0p+0, 0x0.0p+0, 0x0.0p+0, 0x0.0p+0, 0x0.0p+0, 0x0.0p+0, 0x0.0p+0, 0x0.0p+0, 0x0.0p+0, 0x0.0p+0, 0x0.0p+0, 0x0.0p+0, 0x0.0p+0, 0x0.0p+0, 0x0.0p+0, 0x0.0p+0, 0x0.0p+0, 0x0.0p+0, 0x0.0p+0, 0x0.0p+0, 0x0.0p+0, 0x0.0p+0, 0x0.0p+0, 0x0.0p+0, 0x0.0p+0, 0x0.0p+0, 0x0.0p+0, 0x0.0p+0, 0x0.0p+0, 0x0.0p+0, 0x0.0p+0, 0x0.0p+0}
;

const float dense_4_kernel[FC_UNITS][INPUT_SAMPLES] = {{-0x1.204e540000000p-4, -0x1.12e70c0000000p-4, 0x1.112dc80000000p-6, -0x1.56d3920000000p-5, -0x1.b92fc00000000p-8, 0x1.ec93f00000000p-5, 0x1.8042b40000000p-4, 0x1.4b32f80000000p-5, -0x1.4db4d00000000p-7, 0x1.34fef80000000p-4, -0x1.4a59220000000p-4, -0x1.31fa600000000p-4, 0x1.6aebc00000000p-5, 0x1.c351080000000p-5, 0x1.8014780000000p-4, 0x1.66daf00000000p-4, -0x1.812ee60000000p-4, -0x1.111b0e0000000p-4, -0x1.34c7c40000000p-5, 0x1.402df40000000p-4, -0x1.118f9e0000000p-4, 0x1.27f0680000000p-4, 0x1.6ee2000000000p-5, 0x1.19b8b00000000p-4, 0x1.7649480000000p-4, 0x1.5eade40000000p-4, -0x1.9ead000000000p-9, 0x1.7e92580000000p-4, -0x1.3975560000000p-5, -0x1.855af80000000p-5, 0x1.a784280000000p-5, 0x1.eb41780000000p-5, -0x1.6166060000000p-4, 0x1.457ed80000000p-6, 0x1.3547300000000p-5, -0x1.689eb40000000p-4, -0x1.41dce00000000p-6, 0x1.f900380000000p-5, -0x1.4b2c0c0000000p-5, -0x1.2a37c40000000p-4, 0x1.5cef580000000p-6, 0x1.9efb300000000p-5, -0x1.273a900000000p-4, 0x1.6fdf1c0000000p-4, 0x1.3ad2940000000p-4, -0x1.10fdda0000000p-4, -0x1.229d400000000p-4, 0x1.0119e80000000p-4, 0x1.c1aa600000000p-5, -0x1.0669000000000p-9, 0x1.3c08880000000p-4, 0x1.8013d80000000p-4, -0x1.db06000000000p-11, -0x1.b64c400000000p-6, 0x1.912d800000000p-5, -0x1.238b300000000p-6, -0x1.1a03760000000p-4, 0x1.43ea800000000p-9, 0x1.a33e900000000p-5, -0x1.0561cc0000000p-5, 0x1.744ff80000000p-5, -0x1.1986d80000000p-4, 0x1.1ac9180000000p-4, -0x1.0c41000000000p-11, -0x1.1875040000000p-4, -0x1.b00b680000000p-6, 0x1.3b78400000000p-4, -0x1.3237e00000000p-6, -0x1.259ea60000000p-5, 0x1.3382400000000p-7, 0x1.c0c3b80000000p-5, 0x1.4ec2980000000p-6, 0x1.ec10680000000p-6, 0x1.30fbc00000000p-8, -0x1.3dc01e0000000p-4, 0x1.0b4a400000000p-8, -0x1.76434c0000000p-4, 0x1.29e1e00000000p-4, -0x1.cb7a180000000p-6, -0x1.7ed48e0000000p-4, 0x1.8b87e00000000p-8, -0x1.f97bac0000000p-5, -0x1.1ec3200000000p-6, -0x1.f6e8aa0000000p-5, 0x1.d093b00000000p-5, 0x1.39abac0000000p-4, -0x1.3445fe0000000p-5, 0x1.17e2500000000p-5, 0x1.4120000000000p-9, 0x1.bf67c80000000p-6, 0x1.3a1cc00000000p-4, 0x1.76316c0000000p-4, -0x1.51015c0000000p-4, -0x1.72a3280000000p-6, -0x1.abd7400000000p-8, 0x1.d805a00000000p-5, -0x1.c5b6b60000000p-5, -0x1.0d2d9c0000000p-4, -0x1.568e420000000p-4, -0x1.2a7bb80000000p-4, -0x1.0f78b00000000p-5, 0x1.80572c0000000p-4, -0x1.7325800000000p-8, -0x1.da0f300000000p-7, 0x1.15fd800000000p-6, 0x1.9498380000000p-6, -0x1.fddc400000000p-8, 0x1.0f5b700000000p-5, 0x1.d6b1c00000000p-5, -0x1.dbe3280000000p-6, -0x1.f424560000000p-5, -0x1.f5e2400000000p-9, -0x1.0db4c80000000p-4, 0x1.ab34680000000p-5, 0x1.3376d00000000p-5, -0x1.bc50e20000000p-5, 0x1.1dcef80000000p-4, 0x1.03ea400000000p-4, -0x1.ccb5240000000p-5, -0x1.1aa7800000000p-9, -0x1.2af9cc0000000p-5, -0x1.13893a0000000p-4, 0x1.c0d7e80000000p-5, -0x1.3342f00000000p-7, -0x1.7351000000000p-7, -0x1.753c500000000p-4, 0x1.ca8bc80000000p-5, -0x1.1a93f40000000p-4, 0x1.7f24c00000000p-4, 0x1.1ffc700000000p-4, -0x1.2d2e5a0000000p-5, -0x1.04350c0000000p-4, -0x1.03053e0000000p-4, 0x1.a539680000000p-5, -0x1.a181760000000p-5, -0x1.03c4240000000p-4, -0x1.eccafe0000000p-5, 0x1.073c5c0000000p-4, 0x1.27d7a00000000p-8, -0x1.749f400000000p-7, -0x1.ea82440000000p-5, -0x1.9d7aa80000000p-6, 0x1.3980300000000p-4, -0x1.8006200000000p-8, -0x1.65f2800000000p-7, -0x1.499e180000000p-4, 0x1.a704500000000p-6, 0x1.a656400000000p-8, -0x1.9425a40000000p-5, 0x1.6076280000000p-5, -0x1.03e0480000000p-4, 0x1.5037c00000000p-4, -0x1.0a34e80000000p-5, 0x1.5bff900000000p-7, -0x1.c2fac40000000p-5, -0x1.dd372c0000000p-5, -0x1.2f491a0000000p-4, 0x1.fdaa800000000p-7, -0x1.9b5b860000000p-5, -0x1.1fa1920000000p-4, 0x1.5b89400000000p-8, -0x1.5d5f000000000p-10, 0x1.0103a80000000p-5, 0x1.534b580000000p-5, 0x1.c5a9580000000p-5, 0x1.f455d00000000p-5, 0x1.9852780000000p-5, 0x1.8202a00000000p-7, 0x1.e881a80000000p-6, -0x1.bc6ea00000000p-7, -0x1.186b020000000p-5, -0x1.4af0740000000p-5, -0x1.e6e8200000000p-6, -0x1.f64d140000000p-5, -0x1.70f0460000000p-4, 0x1.2846c00000000p-9, 0x1.06f6980000000p-4, 0x1.67b6440000000p-4, -0x1.4059460000000p-4, -0x1.e1a23a0000000p-5, 0x1.0b17580000000p-4, -0x1.2e408e0000000p-4, 0x1.2ed7a80000000p-6, -0x1.128cee0000000p-4, 0x1.5d15000000000p-9, -0x1.47f0b00000000p-7, -0x1.e09ca80000000p-6, 0x1.2adbc80000000p-5, -0x1.07a7200000000p-7, -0x1.9e02c00000000p-9, -0x1.b0b0a80000000p-6, -0x1.7196cc0000000p-4, 0x1.e76f380000000p-6, -0x1.e229200000000p-8, 0x1.6f68200000000p-5, -0x1.6d61c00000000p-7, -0x1.51eb200000000p-4, 0x1.e186a00000000p-5, 0x1.a7a5500000000p-6, -0x1.45e4b00000000p-6, -0x1.52c4c00000000p-4, 0x1.8c33f00000000p-7, 0x1.2abeb80000000p-6, 0x1.9c59780000000p-5, 0x1.67b4f00000000p-5, -0x1.088a580000000p-4, -0x1.1d34200000000p-7, -0x1.f0aa300000000p-5, 0x1.42efb00000000p-4, 0x1.5dc0000000000p-5, 0x1.10b3900000000p-7, 0x1.7cd9480000000p-4, -0x1.f2be920000000p-5, 0x1.6647e00000000p-8, 0x1.3ac1780000000p-6, 0x1.6649d00000000p-5, -0x1.adb2b80000000p-6, 0x1.942f700000000p-5, -0x1.218b0c0000000p-4, 0x1.5b4dc40000000p-4, -0x1.03aaa00000000p-6, -0x1.4830600000000p-7, 0x1.1fd6e00000000p-6, -0x1.24685c0000000p-5, -0x1.2bcb5e0000000p-5, -0x1.5670e80000000p-4, 0x1.269d000000000p-4, -0x1.d523d00000000p-6, 0x1.4691500000000p-5, 0x1.81eee80000000p-5, 0x1.2901800000000p-10, 0x1.2213580000000p-4, -0x1.87f9840000000p-5, -0x1.25f2c60000000p-4, -0x1.3d37940000000p-4, 0x1.1164f00000000p-5, -0x1.9e42b00000000p-7, -0x1.c68a720000000p-5, 0x1.4473800000000p-5, 0x1.6597c80000000p-5, -0x1.ac4ecc0000000p-5, 0x1.419ee00000000p-8, -0x1.7fbf6e0000000p-4, 0x1.77bba80000000p-4, 0x1.12fe280000000p-4, -0x1.3879e20000000p-5, -0x1.d389180000000p-5, -0x1.7536d00000000p-6, -0x1.cc01900000000p-6, -0x1.7b0ed80000000p-4, 0x1.ccd4080000000p-6, -0x1.44a3a80000000p-4, 0x1.15c82c0000000p-4, -0x1.0e40620000000p-5, -0x1.7f0aba0000000p-4, -0x1.3b93c00000000p-4, -0x1.6cb8500000000p-4, -0x1.3a05fe0000000p-4, 0x1.54c0980000000p-4, -0x1.7b08400000000p-4, -0x1.e993960000000p-5, -0x1.a74ce00000000p-6, 0x1.84b8200000000p-6, -0x1.35f9000000000p-6, 0x1.173d880000000p-5, 0x1.6923580000000p-5, 0x1.41c5d40000000p-4, -0x1.1f1f200000000p-8, 0x1.1ccfb40000000p-4, -0x1.2be9000000000p-7, -0x1.70dee40000000p-5, -0x1.66d1f00000000p-4, 0x1.527b380000000p-5, 0x1.ac9fe80000000p-6, -0x1.bcef700000000p-6, -0x1.d241c00000000p-6, 0x1.208c900000000p-5, 0x1.2c60640000000p-4, 0x1.4140380000000p-5, 0x1.2336800000000p-4, -0x1.5ead780000000p-5, 0x1.a839280000000p-5, -0x1.c239ae0000000p-5, 0x1.6b7dd00000000p-5, 0x1.1841c80000000p-5, -0x1.443c1e0000000p-4, -0x1.e725c00000000p-7, -0x1.7232800000000p-4, -0x1.8950ea0000000p-5, 0x1.26f3a00000000p-7, 0x1.7a72700000000p-4, -0x1.54b6f00000000p-5, 0x1.841c680000000p-5, -0x1.111bc40000000p-4, -0x1.4041300000000p-7, -0x1.1f56b20000000p-4, 0x1.4323280000000p-4, -0x1.6d7b4e0000000p-5, -0x1.1fd1200000000p-6, -0x1.304e2a0000000p-5, -0x1.4994160000000p-4, -0x1.1c95d00000000p-5, -0x1.14f2d60000000p-5, 0x1.3a93800000000p-4, -0x1.3649c00000000p-4, 0x1.b3e9600000000p-5, -0x1.4def400000000p-8, 0x1.9a9ef80000000p-5, -0x1.6acc9a0000000p-5, -0x1.6e52e80000000p-6, -0x1.2ffcc00000000p-6, 0x1.71c8680000000p-6, -0x1.6b99400000000p-9, -0x1.37ab180000000p-5, 0x1.fb3aa00000000p-5, 0x1.9702780000000p-5, 0x1.9b24000000000p-5, -0x1.f873440000000p-5, -0x1.1b89800000000p-4, -0x1.982dc60000000p-5, 0x1.30cf180000000p-4, -0x1.77572c0000000p-4, 0x1.0febf00000000p-4, 0x1.3d1ef40000000p-4, 0x1.1929340000000p-4, 0x1.e390f80000000p-5, 0x1.276c000000000p-5, 0x1.05b7f00000000p-7, 0x1.95cf600000000p-8, 0x1.dc30500000000p-7, 0x1.6df3000000000p-6, -0x1.0292a00000000p-7, 0x1.2465f80000000p-5, -0x1.1237f00000000p-7, -0x1.44d48e0000000p-5, 0x1.1c9a380000000p-4, -0x1.82b6100000000p-5, 0x1.1d42000000000p-11, -0x1.d5bcda0000000p-5, 0x1.7a57d80000000p-6, 0x1.19b1ec0000000p-4, -0x1.8fa8900000000p-7, -0x1.267f580000000p-4, -0x1.6554680000000p-4, 0x1.d2b0c00000000p-7, 0x1.ec77900000000p-5, 0x1.2971bc0000000p-4, 0x1.c923000000000p-6, 0x1.e158300000000p-5, 0x1.68cc000000000p-5, 0x1.4393940000000p-4, -0x1.c486400000000p-6, 0x1.3080180000000p-5, 0x1.1a8c980000000p-4, 0x1.568b000000000p-7, 0x1.e73b200000000p-5, -0x1.4da0dc0000000p-4, 0x1.b62a180000000p-5, 0x1.e883300000000p-6, -0x1.42ec540000000p-4, 0x1.0b12580000000p-6, -0x1.40e1800000000p-4, -0x1.4e7f000000000p-10, 0x1.c2bef00000000p-7, 0x1.03aaa00000000p-4, 0x1.f32b300000000p-5, 0x1.8400480000000p-5, -0x1.812aa80000000p-5, 0x1.3637a40000000p-4, -0x1.8518c80000000p-6, 0x1.c974400000000p-7, 0x1.21bb800000000p-5, -0x1.7c82220000000p-4, 0x1.1381880000000p-4, -0x1.7d0fb00000000p-6, -0x1.d549100000000p-5, 0x1.b61e600000000p-7, 0x1.5a00800000000p-9, -0x1.3e7fe00000000p-6, -0x1.cf20a20000000p-5, 0x1.a3b2300000000p-7, -0x1.b08e000000000p-6, 0x1.5e09980000000p-5, -0x1.4ab6de0000000p-4, -0x1.45cf700000000p-4, 0x1.3c41bc0000000p-4, 0x1.0f9a480000000p-6, -0x1.85f6300000000p-6, -0x1.4fc45e0000000p-5, -0x1.ec79060000000p-5, 0x1.546c500000000p-7, 0x1.fecf280000000p-5, -0x1.75cb280000000p-5, 0x1.5289cc0000000p-4, 0x1.699b400000000p-5, 0x1.96dc800000000p-5, -0x1.ef4b940000000p-5, -0x1.c4d1960000000p-5, 0x1.1732480000000p-4, 0x1.acd3800000000p-10, -0x1.4df3140000000p-4, -0x1.36983a0000000p-4, -0x1.9e00e00000000p-7, -0x1.a08bfe0000000p-5, 0x1.75f7140000000p-4, 0x1.62dd600000000p-7, 0x1.c93f500000000p-5, 0x1.fc35d00000000p-7, -0x1.78529a0000000p-4, -0x1.d615ee0000000p-5, 0x1.f568600000000p-5, -0x1.5dfe5c0000000p-4, 0x1.1fb5a00000000p-5, -0x1.984b060000000p-5, -0x1.13ac100000000p-7, -0x1.ba11060000000p-5, 0x1.4143280000000p-4, 0x1.69b64c0000000p-4, -0x1.e709a00000000p-5, -0x1.30e3a00000000p-5, 0x1.399a400000000p-8, -0x1.04ec680000000p-5, 0x1.92f5a00000000p-7, -0x1.f243b00000000p-7, 0x1.e20e580000000p-6, -0x1.456c300000000p-5, -0x1.207b760000000p-4, 0x1.03ae680000000p-4, 0x1.44bf200000000p-6, 0x1.e2c2900000000p-6, -0x1.1dcbf40000000p-4, -0x1.1e96e80000000p-4, 0x1.6174180000000p-5, -0x1.0164000000000p-7, 0x1.2c2a600000000p-8, -0x1.078e1c0000000p-4, 0x1.25c60c0000000p-4, 0x1.195ec00000000p-4, -0x1.6053660000000p-5, 0x1.5e00400000000p-6, 0x1.0949400000000p-5, -0x1.cd72ca0000000p-5, -0x1.418cf80000000p-4, -0x1.a500000000000p-8, 0x1.42db2c0000000p-4, -0x1.0b61280000000p-5, -0x1.baf51a0000000p-5, -0x1.792a6a0000000p-4, -0x1.206b0a0000000p-4, -0x1.7b28540000000p-4, -0x1.4c5d0e0000000p-4, 0x1.48654c0000000p-4, -0x1.5390b80000000p-6, 0x1.da8c580000000p-5, 0x1.96a8e00000000p-5, 0x1.cb48d00000000p-7, -0x1.91dd580000000p-6, -0x1.4d45b60000000p-4, -0x1.1ef0620000000p-4, 0x1.325db80000000p-4, 0x1.3816500000000p-5, -0x1.134fec0000000p-5, 0x1.6c7a100000000p-6, -0x1.785a840000000p-4, 0x1.9a6a880000000p-5, 0x1.bea9c00000000p-6, 0x1.58b4540000000p-4, 0x1.81f0980000000p-5, 0x1.8943280000000p-5, -0x1.fb3b760000000p-5, 0x1.6ac1d00000000p-7, 0x1.470d1c0000000p-4, -0x1.a71ad80000000p-6, 0x1.4744f00000000p-6, 0x1.def1f80000000p-5, 0x1.a22d200000000p-5, -0x1.2bac9c0000000p-5, 0x1.45bfb80000000p-4, -0x1.1561400000000p-5, 0x1.2378000000000p-12, -0x1.47c2bc0000000p-4, -0x1.997fc00000000p-7, -0x1.71863c0000000p-4, -0x1.1617c80000000p-6, -0x1.020c800000000p-4, -0x1.02ca080000000p-5, -0x1.b757260000000p-5, 0x1.4419e00000000p-5, -0x1.01104c0000000p-4, 0x1.616a080000000p-5, 0x1.8382d80000000p-6, 0x1.01c8400000000p-9, 0x1.fa41e00000000p-6, 0x1.6823480000000p-4, 0x1.728f800000000p-8, 0x1.d3b7080000000p-5, -0x1.f45a000000000p-12, -0x1.46b8ae0000000p-4, 0x1.0ab0dc0000000p-4, -0x1.1fbfe20000000p-5, 0x1.b9b0200000000p-6, 0x1.fbca000000000p-9, 0x1.0048e00000000p-5, 0x1.22a0280000000p-6, 0x1.56f4980000000p-6, 0x1.01c3940000000p-4, 0x1.1c78c40000000p-4, 0x1.1846380000000p-4, -0x1.9913380000000p-6, -0x1.0281500000000p-6, 0x1.d65f180000000p-5, 0x1.2a84680000000p-4, -0x1.a287800000000p-7, 0x1.224b2c0000000p-4, -0x1.2a6a400000000p-8, 0x1.332d400000000p-4, -0x1.f3760c0000000p-5, -0x1.44e1340000000p-4, -0x1.2f915c0000000p-4, 0x1.5340840000000p-4, -0x1.61cd8a0000000p-4, -0x1.7aeb900000000p-7, -0x1.d673a80000000p-6, 0x1.e81a800000000p-5, -0x1.690b0c0000000p-4, -0x1.85de340000000p-5, -0x1.fe81600000000p-8, -0x1.9f11740000000p-5, -0x1.6d52780000000p-6, 0x1.4cb8500000000p-5, 0x1.448f880000000p-6, 0x1.7ae8000000000p-5, -0x1.2d574a0000000p-5, -0x1.36ed2a0000000p-5, 0x1.671ba00000000p-7, 0x1.0e98ec0000000p-4, -0x1.76f2ca0000000p-5, -0x1.bca1d00000000p-6, 0x1.1d78200000000p-7, -0x1.dc04400000000p-8, -0x1.3b9ea20000000p-5, -0x1.9433120000000p-5, 0x1.6489740000000p-4, -0x1.3c160c0000000p-5, -0x1.3aa8e20000000p-5, 0x1.99d0380000000p-5, -0x1.c39bd20000000p-5, -0x1.6e58a80000000p-4, 0x1.7a57c00000000p-9, -0x1.6dd4980000000p-4, -0x1.55eff40000000p-4, 0x1.46e3d00000000p-7, -0x1.6effbc0000000p-4, 0x1.310ae00000000p-6, -0x1.1a6d3c0000000p-4, 0x1.d58ac80000000p-6, -0x1.4b6b3c0000000p-4, -0x1.83518e0000000p-5, 0x1.8c20980000000p-6, 0x1.bd89900000000p-5, 0x1.d50ae00000000p-5, 0x1.a04ba80000000p-5, 0x1.7a3d680000000p-5, 0x1.8dbe100000000p-7, -0x1.7021500000000p-7, -0x1.5113000000000p-11, -0x1.9133dc0000000p-5, 0x1.4d8eb00000000p-5, 0x1.11eb000000000p-4, 0x1.2d00bc0000000p-4, -0x1.13cb600000000p-8, -0x1.48dafc0000000p-4, -0x1.afac800000000p-8, -0x1.e5ac700000000p-6, -0x1.33d61e0000000p-4, 0x1.2706700000000p-4}
, {-0x1.33291a0000000p-5, 0x1.4223bc0000000p-4, -0x1.4ee6300000000p-7, 0x1.4ffaf80000000p-4, -0x1.0ace200000000p-6, 0x1.431df00000000p-5, -0x1.11abd80000000p-6, -0x1.ca55260000000p-5, -0x1.15f7200000000p-8, 0x1.9ccbf80000000p-5, -0x1.8d42780000000p-6, -0x1.646c100000000p-5, 0x1.d8fed00000000p-5, -0x1.4c59620000000p-4, -0x1.486c6e0000000p-5, -0x1.10a59a0000000p-5, -0x1.4f7d6c0000000p-5, 0x1.e09a280000000p-5, 0x1.df90d80000000p-5, -0x1.102e300000000p-7, -0x1.054e580000000p-4, 0x1.d529f00000000p-6, -0x1.cdf6980000000p-5, 0x1.5e2f040000000p-4, -0x1.1c88aa0000000p-5, 0x1.6339e00000000p-6, -0x1.67a1b00000000p-6, 0x1.52a1000000000p-4, -0x1.31f6700000000p-5, 0x1.b085400000000p-8, 0x1.8f3a380000000p-5, 0x1.bcda700000000p-6, -0x1.6139880000000p-4, -0x1.5f61160000000p-5, -0x1.7579100000000p-6, 0x1.d725f80000000p-5, 0x1.46b7f00000000p-5, 0x1.0595e40000000p-4, 0x1.8c58a00000000p-7, -0x1.1414580000000p-6, -0x1.0917d80000000p-4, -0x1.3779340000000p-4, -0x1.613ce60000000p-5, -0x1.4477840000000p-5, -0x1.8c73b00000000p-5, 0x1.a6df980000000p-6, -0x1.7016640000000p-4, 0x1.0f23600000000p-8, -0x1.1155de0000000p-5, -0x1.72c8fa0000000p-5, 0x1.7ff2800000000p-7, 0x1.cc15a80000000p-5, 0x1.4da1980000000p-4, -0x1.1d13de0000000p-5, 0x1.33eb000000000p-4, -0x1.0169200000000p-6, 0x1.21c3880000000p-4, -0x1.df88800000000p-8, -0x1.7a7baa0000000p-4, 0x1.8c39780000000p-6, -0x1.3a03f00000000p-7, -0x1.cd13b00000000p-5, -0x1.df00500000000p-7, -0x1.250c080000000p-4, -0x1.2e9ef40000000p-4, 0x1.6d84300000000p-4, 0x1.412b780000000p-5, -0x1.ed60f00000000p-7, 0x1.20390c0000000p-4, 0x1.9fb6180000000p-5, 0x1.9d3dc80000000p-5, 0x1.7dc54c0000000p-4, -0x1.e4e2900000000p-7, -0x1.158a400000000p-4, -0x1.47c9660000000p-5, 0x1.f1fd680000000p-5, 0x1.3644580000000p-5, -0x1.5d34a00000000p-8, -0x1.6ae5a80000000p-5, -0x1.0042300000000p-5, 0x1.beef480000000p-5, 0x1.0a31b40000000p-4, -0x1.7f95380000000p-6, -0x1.aa5c200000000p-6, -0x1.30224e0000000p-5, -0x1.f8a1500000000p-7, 0x1.5482800000000p-8, -0x1.5b92cc0000000p-5, 0x1.490f9c0000000p-4, 0x1.73a4f80000000p-4, 0x1.1a1c000000000p-4, -0x1.396b460000000p-4, -0x1.b0014a0000000p-5, 0x1.a546500000000p-6, -0x1.da62140000000p-5, -0x1.2e6abe0000000p-4, 0x1.5984d00000000p-4, 0x1.02f9580000000p-4, 0x1.9944300000000p-7, -0x1.3aa2380000000p-4, -0x1.09e5400000000p-4, -0x1.7070ce0000000p-4, -0x1.26c6cc0000000p-5, -0x1.ae327a0000000p-5, -0x1.21748e0000000p-5, -0x1.1051180000000p-5, -0x1.45c4040000000p-4, 0x1.16b7000000000p-8, 0x1.ed14000000000p-10, -0x1.75ab800000000p-10, -0x1.154d3a0000000p-4, 0x1.9dfc000000000p-9, -0x1.a106300000000p-6, 0x1.17d58c0000000p-4, 0x1.ad0ba80000000p-5, -0x1.3de3360000000p-5, 0x1.c717e80000000p-5, 0x1.91b1f00000000p-7, 0x1.62d2380000000p-4, 0x1.0e20e00000000p-6, 0x1.dc54c80000000p-5, 0x1.3facc40000000p-4, -0x1.a00a380000000p-5, 0x1.618fd00000000p-5, -0x1.063be00000000p-7, -0x1.fa40100000000p-7, -0x1.7177200000000p-8, 0x1.1241280000000p-5, -0x1.03f4120000000p-4, -0x1.18b8400000000p-9, 0x1.45dee00000000p-5, -0x1.eb00800000000p-7, -0x1.881ee80000000p-6, 0x1.fbbee00000000p-5, -0x1.2831520000000p-4, -0x1.37f5e00000000p-7, -0x1.61dd700000000p-4, -0x1.64aa560000000p-4, -0x1.052dca0000000p-5, -0x1.f9a3020000000p-5, -0x1.817a980000000p-6, -0x1.4e9c2a0000000p-4, 0x1.9c5dd80000000p-6, 0x1.4d96580000000p-6, -0x1.7e546e0000000p-5, -0x1.0dbdb00000000p-4, 0x1.dcf6700000000p-6, -0x1.0a79420000000p-5, -0x1.b45d440000000p-5, -0x1.f6d8be0000000p-5, -0x1.8d78800000000p-10, 0x1.13beec0000000p-4, -0x1.7891dc0000000p-4, -0x1.d7fcb80000000p-6, 0x1.af18580000000p-6, -0x1.0d42b80000000p-4, -0x1.c9b2bc0000000p-5, -0x1.1853700000000p-7, -0x1.0587d00000000p-6, 0x1.9a47800000000p-5, -0x1.ff90a80000000p-5, -0x1.286dbc0000000p-4, -0x1.e9add20000000p-5, 0x1.2455f00000000p-7, 0x1.f31e280000000p-6, -0x1.01aace0000000p-4, 0x1.c882280000000p-5, 0x1.6b9e0c0000000p-4, 0x1.c348800000000p-10, -0x1.e6fbc00000000p-8, 0x1.3532fc0000000p-4, -0x1.3781300000000p-4, -0x1.4d68fe0000000p-5, 0x1.2f27180000000p-4, 0x1.9eb9d80000000p-5, 0x1.0dc3000000000p-9, 0x1.a084800000000p-5, -0x1.f6a7ce0000000p-5, 0x1.bc8f280000000p-5, 0x1.5052340000000p-4, 0x1.92c0500000000p-7, 0x1.6511500000000p-4, 0x1.bdb7d80000000p-5, 0x1.d12ae00000000p-7, 0x1.49d7580000000p-5, 0x1.57d1480000000p-5, 0x1.38ec000000000p-12, -0x1.0a30560000000p-4, -0x1.3590c40000000p-4, -0x1.b081fa0000000p-5, 0x1.5aa8100000000p-5, -0x1.7a81640000000p-5, -0x1.82af000000000p-8, -0x1.30f9400000000p-9, -0x1.0289500000000p-4, 0x1.a7e6880000000p-5, -0x1.14e6600000000p-7, -0x1.dc26c40000000p-5, 0x1.8afbc80000000p-5, -0x1.803a6c0000000p-5, 0x1.b51f180000000p-5, 0x1.7739200000000p-7, 0x1.ff0de00000000p-7, 0x1.4dd0b00000000p-7, 0x1.b682000000000p-12, 0x1.a700800000000p-5, 0x1.6432840000000p-4, -0x1.306ce00000000p-4, 0x1.ccfa600000000p-7, 0x1.1c64700000000p-4, -0x1.7951f60000000p-4, -0x1.b5f1b80000000p-6, -0x1.b43efa0000000p-5, 0x1.bb8f180000000p-6, -0x1.a4489e0000000p-5, -0x1.a647b80000000p-6, -0x1.39aab40000000p-5, 0x1.631c500000000p-4, -0x1.7048100000000p-4, 0x1.05cc780000000p-4, 0x1.0a8d600000000p-5, -0x1.62dd800000000p-8, -0x1.4ac4b00000000p-6, 0x1.a7a5f00000000p-5, 0x1.600c640000000p-4, -0x1.6c6f2e0000000p-4, 0x1.0f7b400000000p-9, -0x1.20ff420000000p-5, -0x1.2a03200000000p-4, 0x1.3689280000000p-4, -0x1.2d38200000000p-4, 0x1.cdcf080000000p-6, 0x1.d715000000000p-8, -0x1.19a9800000000p-8, -0x1.2873c80000000p-6, 0x1.1e98700000000p-6, -0x1.6806e20000000p-4, 0x1.d0ed000000000p-9, -0x1.9a02000000000p-10, -0x1.7ab18e0000000p-4, 0x1.189a1c0000000p-4, -0x1.6c00ca0000000p-4, 0x1.76c9400000000p-5, -0x1.4b38320000000p-5, 0x1.5767180000000p-5, 0x1.cd7df80000000p-5, 0x1.452cf00000000p-4, -0x1.dd59300000000p-6, -0x1.7e22680000000p-5, -0x1.4947d20000000p-4, -0x1.8f22100000000p-5, -0x1.c9c9f40000000p-5, -0x1.7dfdb60000000p-4, -0x1.687fa40000000p-4, 0x1.3021d80000000p-5, -0x1.7c67580000000p-6, 0x1.780ae00000000p-8, -0x1.cc35b00000000p-6, 0x1.fbf2a00000000p-6, -0x1.89be4c0000000p-5, -0x1.45c4700000000p-4, 0x1.68db600000000p-4, -0x1.1de1180000000p-6, 0x1.a338700000000p-5, -0x1.8b7abc0000000p-5, 0x1.5754980000000p-4, 0x1.072e100000000p-6, 0x1.3af5380000000p-4, 0x1.e826400000000p-9, -0x1.8745800000000p-7, 0x1.a693000000000p-11, 0x1.5611500000000p-5, 0x1.0765c00000000p-5, -0x1.4cf9ba0000000p-4, -0x1.08a7ce0000000p-5, -0x1.26978e0000000p-5, 0x1.071a340000000p-4, -0x1.6b51780000000p-6, 0x1.2e38100000000p-7, 0x1.a84d380000000p-5, 0x1.516d400000000p-6, -0x1.663a4e0000000p-5, 0x1.097f240000000p-4, -0x1.13b2cc0000000p-5, 0x1.7f512c0000000p-4, -0x1.6893f00000000p-5, 0x1.3fe1f00000000p-5, -0x1.35fd900000000p-4, -0x1.1886c80000000p-4, -0x1.61dc960000000p-5, -0x1.2d21a00000000p-8, -0x1.158a180000000p-4, 0x1.3b9ce80000000p-6, -0x1.0c05940000000p-4, 0x1.c0ae500000000p-5, -0x1.2a2c400000000p-4, -0x1.a71e680000000p-6, -0x1.16fb2a0000000p-5, 0x1.8915300000000p-5, -0x1.e010a80000000p-6, -0x1.4173180000000p-6, -0x1.7d62060000000p-5, -0x1.e54a4e0000000p-5, 0x1.add5080000000p-6, 0x1.25f7a00000000p-5, -0x1.c8f53a0000000p-5, 0x1.1413200000000p-7, -0x1.1bcce20000000p-4, -0x1.b208000000000p-13, 0x1.082e040000000p-4, -0x1.3ec8e80000000p-6, 0x1.b0c3c80000000p-6, -0x1.81854a0000000p-5, 0x1.6898e80000000p-4, 0x1.9077880000000p-5, -0x1.7390840000000p-4, 0x1.0488080000000p-6, -0x1.3060ca0000000p-4, -0x1.4518da0000000p-4, 0x1.65a88c0000000p-4, -0x1.363d800000000p-8, 0x1.f725300000000p-5, 0x1.029d3c0000000p-4, -0x1.0688d20000000p-4, -0x1.273b3e0000000p-4, -0x1.62be9a0000000p-4, -0x1.1e1a000000000p-8, -0x1.199d620000000p-5, -0x1.3f0f8e0000000p-4, 0x1.2b56dc0000000p-4, 0x1.77f7e00000000p-4, -0x1.e7d6100000000p-5, 0x1.f450100000000p-6, -0x1.4de64a0000000p-4, 0x1.cfbbf00000000p-6, -0x1.689bb60000000p-5, 0x1.4353a00000000p-8, -0x1.51bc7e0000000p-4, 0x1.4bbfd80000000p-4, 0x1.711aa40000000p-4, -0x1.dd82360000000p-5, 0x1.6107580000000p-5, 0x1.ab84000000000p-5, 0x1.3087c40000000p-4, -0x1.0f5f1c0000000p-4, 0x1.871ca00000000p-8, -0x1.09d2800000000p-9, 0x1.3986700000000p-4, -0x1.505c780000000p-4, 0x1.b30a600000000p-8, -0x1.3a30280000000p-5, 0x1.619fc80000000p-5, -0x1.9b353a0000000p-5, -0x1.466a5e0000000p-4, -0x1.44907c0000000p-4, 0x1.4a86180000000p-5, -0x1.e2e0b80000000p-6, 0x1.395b240000000p-4, -0x1.392d120000000p-4, 0x1.8fc9100000000p-5, -0x1.40f5060000000p-5, -0x1.bfbe000000000p-6, -0x1.bbcbf40000000p-5, 0x1.b130400000000p-9, -0x1.c90f400000000p-7, -0x1.f0b6860000000p-5, -0x1.ed83140000000p-5, 0x1.f896300000000p-5, -0x1.23384c0000000p-4, -0x1.6521b40000000p-4, 0x1.87f8900000000p-5, -0x1.74db7c0000000p-5, -0x1.73df000000000p-4, 0x1.987af00000000p-5, 0x1.7a6f480000000p-4, 0x1.71eb100000000p-5, -0x1.4897580000000p-4, 0x1.3c3e400000000p-4, -0x1.5397680000000p-6, 0x1.11da300000000p-5, 0x1.a09dc00000000p-9, 0x1.5c47100000000p-5, -0x1.7059e80000000p-6, 0x1.1b7e200000000p-4, -0x1.0e2fde0000000p-4, -0x1.3cc9840000000p-4, -0x1.d7d8e80000000p-6, -0x1.0411ac0000000p-4, 0x1.5c09b80000000p-4, -0x1.7e1e4e0000000p-4, -0x1.2f7b2c0000000p-5, -0x1.540c780000000p-4, -0x1.6a5a200000000p-8, 0x1.0710800000000p-9, 0x1.7d8f100000000p-4, -0x1.5dbc000000000p-10, -0x1.6d5f000000000p-6, 0x1.b4f2080000000p-5, -0x1.d0ae7c0000000p-5, -0x1.2b38360000000p-4, -0x1.6b7af00000000p-6, 0x1.0d900c0000000p-4, -0x1.0f93de0000000p-5, 0x1.3c40700000000p-6, -0x1.fcd8560000000p-5, -0x1.3d360e0000000p-5, -0x1.ae563a0000000p-5, 0x1.0d6fd80000000p-5, 0x1.4742880000000p-5, 0x1.1017dc0000000p-4, -0x1.7c4cd00000000p-5, 0x1.cf01500000000p-6, -0x1.3ca2120000000p-4, -0x1.01f5240000000p-4, -0x1.98738a0000000p-5, -0x1.0a57e80000000p-6, -0x1.d93ba00000000p-8, -0x1.58dac40000000p-5, 0x1.161a6c0000000p-4, 0x1.3400600000000p-4, 0x1.06d6080000000p-4, 0x1.b52c700000000p-5, 0x1.0dee780000000p-4, -0x1.f8ac700000000p-7, 0x1.6d9f040000000p-4, 0x1.496ff00000000p-5, -0x1.bf10740000000p-5, -0x1.eb49800000000p-9, -0x1.0413e40000000p-4, -0x1.0a6fdc0000000p-4, -0x1.27dec00000000p-5, -0x1.7180200000000p-7, -0x1.568ac80000000p-6, 0x1.fbbec00000000p-9, 0x1.1c35140000000p-4, -0x1.bf733c0000000p-5, 0x1.4512b00000000p-6, -0x1.313a9c0000000p-4, -0x1.e174580000000p-5, -0x1.0650900000000p-7, 0x1.712ac80000000p-5, 0x1.0582640000000p-4, 0x1.0154b00000000p-5, -0x1.a88eec0000000p-5, -0x1.c9dd300000000p-6, 0x1.0ed3640000000p-4, 0x1.1088980000000p-5, 0x1.3df5000000000p-4, -0x1.f599c00000000p-8, -0x1.65f2f80000000p-4, 0x1.84f6980000000p-6, -0x1.5b5bec0000000p-4, -0x1.0fd8400000000p-8, -0x1.1c4a640000000p-4, -0x1.200a400000000p-8, 0x1.b5e0a00000000p-5, 0x1.5aa0880000000p-6, -0x1.2b4f320000000p-4, 0x1.f989f00000000p-6, 0x1.45d5800000000p-5, 0x1.7968740000000p-4, -0x1.86750a0000000p-5, -0x1.390c800000000p-8, -0x1.5343ae0000000p-4, 0x1.33fe280000000p-6, 0x1.14f8ac0000000p-4, -0x1.0380000000000p-13, -0x1.6b5f800000000p-10, -0x1.f4d2e80000000p-6, -0x1.b42b400000000p-6, 0x1.c4c3c00000000p-5, 0x1.f580280000000p-5, 0x1.eefd900000000p-6, 0x1.5e59600000000p-5, 0x1.caa4480000000p-5, -0x1.3157a60000000p-5, 0x1.2caa680000000p-6, -0x1.0d67fa0000000p-5, -0x1.3be4240000000p-4, -0x1.3d2a900000000p-6, -0x1.4ce3de0000000p-4, 0x1.d90a400000000p-8, 0x1.a3bb400000000p-5, 0x1.41ac580000000p-4, 0x1.efdf980000000p-5, 0x1.1fff800000000p-9, 0x1.fffc800000000p-6, 0x1.d8d9880000000p-6, -0x1.130a500000000p-6, -0x1.9d6ab80000000p-6, 0x1.5669500000000p-5, -0x1.f322900000000p-7, -0x1.a18fbc0000000p-5, 0x1.5241680000000p-5, -0x1.00c1a20000000p-4, 0x1.338aa80000000p-4, 0x1.6336f80000000p-6, -0x1.e44e580000000p-6, 0x1.88f2400000000p-9, -0x1.3527280000000p-5, -0x1.7ccde00000000p-8, -0x1.af49000000000p-8, -0x1.ba4ef60000000p-5, -0x1.1752660000000p-4, 0x1.3c3f700000000p-7, 0x1.02a2780000000p-5, -0x1.d4e72e0000000p-5, -0x1.550eca0000000p-4, 0x1.56d6680000000p-5, 0x1.7fb3780000000p-6, 0x1.b37be00000000p-5, -0x1.f9397e0000000p-5, -0x1.a2d2ee0000000p-5, -0x1.4090980000000p-6, -0x1.983bd80000000p-6, 0x1.c6eb300000000p-6, 0x1.74dff80000000p-6, 0x1.7c3a780000000p-4, -0x1.26d31e0000000p-4, -0x1.3c64560000000p-4, 0x1.f323000000000p-5, 0x1.e72bf80000000p-5, 0x1.18fed00000000p-5, 0x1.b3f7600000000p-8, 0x1.2dde940000000p-4, -0x1.f47bd00000000p-5, -0x1.0ea95a0000000p-4, -0x1.1aac920000000p-5, -0x1.7eed400000000p-9, -0x1.181fb60000000p-4, 0x1.488f300000000p-4, -0x1.73364a0000000p-4, -0x1.02d9dc0000000p-4, -0x1.7819400000000p-4, 0x1.52c8e80000000p-6, -0x1.54a7720000000p-4, 0x1.4681e80000000p-6, 0x1.e967b80000000p-5, -0x1.bb12740000000p-5, -0x1.9914100000000p-6, -0x1.93bdc00000000p-7, 0x1.81f1380000000p-6, 0x1.e45fb00000000p-6, -0x1.5042f00000000p-4, 0x1.48bec80000000p-5, -0x1.062e3c0000000p-5, -0x1.87e4000000000p-8, 0x1.edb4b80000000p-5, -0x1.5e28e40000000p-4, -0x1.3c3e000000000p-12, 0x1.9ec7000000000p-11, 0x1.43ddb80000000p-4, 0x1.2b1c100000000p-4, 0x1.657ae80000000p-6, 0x1.79b4f80000000p-4, -0x1.60a37a0000000p-5, 0x1.95e5400000000p-6, -0x1.45406c0000000p-5, -0x1.41bdbe0000000p-5, -0x1.0869d00000000p-5, 0x1.f1c3c00000000p-5, 0x1.4ef4000000000p-8, 0x1.6e39a80000000p-6, -0x1.032f300000000p-7, 0x1.cad3580000000p-6, -0x1.d021bc0000000p-5, 0x1.7ce3080000000p-4, -0x1.e5e8100000000p-7, 0x1.ce05480000000p-5, 0x1.6926780000000p-4, -0x1.4735f00000000p-7, -0x1.4ad3040000000p-4, 0x1.7f28940000000p-4, -0x1.4c88400000000p-5, -0x1.3513a80000000p-4, 0x1.e22f680000000p-6}
, {0x1.a933f00000000p-5, -0x1.8089760000000p-5, -0x1.9571fa0000000p-5, 0x1.0b6d200000000p-4, 0x1.4b52fc0000000p-4, -0x1.4719a60000000p-4, 0x1.c617680000000p-5, -0x1.3744e40000000p-4, 0x1.32b3000000000p-5, -0x1.6fb2920000000p-4, 0x1.490c3c0000000p-4, 0x1.224c4c0000000p-4, 0x1.5f2a200000000p-5, -0x1.30ed3c0000000p-5, 0x1.2bc7100000000p-4, -0x1.2b95920000000p-5, 0x1.62f0900000000p-5, -0x1.3fd6c40000000p-5, -0x1.b622500000000p-7, 0x1.cef6180000000p-6, -0x1.70c0800000000p-6, -0x1.24a5580000000p-4, -0x1.6f554e0000000p-4, -0x1.421b0a0000000p-4, -0x1.8e8e780000000p-6, -0x1.477d900000000p-7, -0x1.7afd700000000p-4, 0x1.7f7b800000000p-5, -0x1.782af00000000p-4, -0x1.6c07020000000p-4, 0x1.8ca3100000000p-6, 0x1.7a85d00000000p-6, 0x1.83efd80000000p-5, 0x1.0f1b900000000p-6, 0x1.3181380000000p-4, 0x1.5b41780000000p-4, 0x1.7156980000000p-5, 0x1.2b19d40000000p-4, 0x1.36e4580000000p-6, 0x1.63fbd80000000p-5, -0x1.d2aae00000000p-7, 0x1.761ec40000000p-4, -0x1.4dc8c20000000p-4, -0x1.4925b00000000p-7, 0x1.fac3300000000p-5, -0x1.c59d2e0000000p-5, -0x1.057de40000000p-4, 0x1.136f1c0000000p-4, -0x1.8bcf920000000p-5, 0x1.1812840000000p-4, -0x1.76f7080000000p-5, -0x1.6236cc0000000p-4, 0x1.94bf280000000p-5, 0x1.7f4aa80000000p-4, 0x1.bc69a80000000p-5, -0x1.656e900000000p-7, 0x1.49f2000000000p-5, 0x1.3eac000000000p-4, 0x1.4a33a00000000p-5, -0x1.0c08d00000000p-7, -0x1.f0fe760000000p-5, -0x1.c171700000000p-5, 0x1.70d1780000000p-5, 0x1.29ca180000000p-5, -0x1.70d44c0000000p-5, -0x1.4adfd80000000p-6, 0x1.260dcc0000000p-4, 0x1.7a51000000000p-5, 0x1.996f600000000p-6, 0x1.360c580000000p-4, 0x1.3088500000000p-4, -0x1.ed1c4c0000000p-5, 0x1.4e81b80000000p-4, 0x1.d156080000000p-6, 0x1.37add80000000p-4, 0x1.4fc7600000000p-6, -0x1.1461600000000p-5, 0x1.1287c40000000p-4, -0x1.f363800000000p-6, 0x1.5d90980000000p-4, -0x1.ad03720000000p-5, -0x1.fcbb8e0000000p-5, -0x1.0f4c080000000p-5, 0x1.5a53480000000p-6, -0x1.5cd3000000000p-8, 0x1.aaa4b00000000p-7, 0x1.5a59640000000p-4, -0x1.0d30800000000p-8, 0x1.3213040000000p-4, 0x1.77b3f80000000p-6, 0x1.cd33000000000p-6, -0x1.9ab7a00000000p-7, 0x1.7345800000000p-9, -0x1.8543a00000000p-8, 0x1.50bc500000000p-4, 0x1.d3e7e00000000p-8, -0x1.6b7d2c0000000p-4, 0x1.0d2c780000000p-6, -0x1.b824a00000000p-6, 0x1.068fb00000000p-6, 0x1.4abeb80000000p-5, -0x1.8f60f00000000p-6, 0x1.ab7c680000000p-6, -0x1.80fe660000000p-4, -0x1.6926400000000p-4, -0x1.2e10a60000000p-4, 0x1.f1cbc80000000p-5, -0x1.14e4c00000000p-5, -0x1.cf77800000000p-10, -0x1.5059d40000000p-5, 0x1.d3b7c80000000p-6, 0x1.57b2000000000p-8, 0x1.43e3200000000p-6, 0x1.16101c0000000p-4, 0x1.caff280000000p-5, -0x1.4f99140000000p-5, 0x1.cf82200000000p-5, -0x1.95a2e00000000p-8, -0x1.0393bc0000000p-4, 0x1.7c3d680000000p-4, -0x1.54f5800000000p-6, -0x1.69e0080000000p-4, -0x1.3144140000000p-4, -0x1.33d5dc0000000p-4, -0x1.7794140000000p-5, -0x1.77ef640000000p-4, 0x1.235ff00000000p-4, 0x1.70a4d00000000p-7, 0x1.ab7ba00000000p-5, 0x1.61d2a00000000p-4, -0x1.5221f00000000p-7, -0x1.13a9d80000000p-4, -0x1.3f78220000000p-5, -0x1.0e92c40000000p-4, 0x1.d752d00000000p-5, 0x1.41e52c0000000p-4, 0x1.2423e80000000p-5, -0x1.3dc2580000000p-6, -0x1.5ab83c0000000p-5, -0x1.7627400000000p-4, -0x1.07f6a00000000p-6, -0x1.1612c80000000p-6, -0x1.01e0d00000000p-4, 0x1.40b4500000000p-7, 0x1.16b1000000000p-4, -0x1.f596060000000p-5, 0x1.6bd5e40000000p-4, -0x1.6842200000000p-7, 0x1.4b48500000000p-6, -0x1.6739680000000p-4, -0x1.61d43a0000000p-4, -0x1.6b45540000000p-4, -0x1.f1b7c60000000p-5, -0x1.723b260000000p-5, 0x1.68f5500000000p-4, -0x1.087ec00000000p-4, 0x1.364f900000000p-4, 0x1.0f3ec00000000p-5, -0x1.cfc9ee0000000p-5, -0x1.3616a40000000p-5, 0x1.752ea00000000p-5, -0x1.1fa9000000000p-6, -0x1.2ebc580000000p-6, 0x1.82d3f80000000p-6, -0x1.4233a60000000p-4, -0x1.a5f0500000000p-7, -0x1.98b4a00000000p-7, 0x1.4866280000000p-5, 0x1.7a5c2c0000000p-4, -0x1.5514380000000p-6, -0x1.7e76280000000p-6, 0x1.6816500000000p-6, 0x1.b870180000000p-5, -0x1.131cac0000000p-5, 0x1.430e7c0000000p-4, 0x1.34915c0000000p-4, 0x1.2a03a00000000p-4, -0x1.730ea60000000p-4, 0x1.d433480000000p-5, 0x1.7b0c900000000p-4, -0x1.64552a0000000p-5, -0x1.4fa8200000000p-7, 0x1.f00f700000000p-6, 0x1.05b6480000000p-4, 0x1.7ada480000000p-4, 0x1.1c78d80000000p-5, -0x1.f6b3640000000p-5, 0x1.6397600000000p-8, -0x1.8f932a0000000p-5, -0x1.bf88400000000p-8, -0x1.780da80000000p-5, 0x1.5cdf680000000p-6, -0x1.4708080000000p-5, 0x1.82e5f80000000p-6, -0x1.1a906c0000000p-4, 0x1.cd32080000000p-5, -0x1.45357e0000000p-4, -0x1.12ca480000000p-4, -0x1.1ab7b60000000p-4, -0x1.9a55100000000p-7, -0x1.766a600000000p-4, 0x1.17fce00000000p-5, -0x1.6915580000000p-6, 0x1.3683700000000p-4, -0x1.56cbd80000000p-4, -0x1.0906d00000000p-4, 0x1.f538400000000p-5, 0x1.0b2acc0000000p-4, -0x1.4b1bc00000000p-4, 0x1.0d97980000000p-6, 0x1.58815c0000000p-4, 0x1.30cd7c0000000p-4, -0x1.174a340000000p-4, -0x1.4d27340000000p-4, 0x1.81a0600000000p-4, -0x1.66fa000000000p-4, -0x1.4583680000000p-4, 0x1.17a95c0000000p-4, 0x1.43aca80000000p-4, -0x1.ea31000000000p-11, 0x1.38ef100000000p-4, 0x1.6c77280000000p-4, -0x1.8fa9800000000p-10, -0x1.2d4a020000000p-4, 0x1.0f0a7c0000000p-4, 0x1.4132e80000000p-4, 0x1.4c26700000000p-7, 0x1.ba1e580000000p-6, -0x1.e802600000000p-8, -0x1.516ebe0000000p-4, 0x1.1cb9300000000p-4, 0x1.c820f80000000p-6, -0x1.4188a00000000p-7, -0x1.4b8fa00000000p-4, 0x1.3c9c640000000p-4, -0x1.2373460000000p-4, 0x1.1fc7200000000p-5, -0x1.5a0fec0000000p-4, -0x1.3cc0800000000p-7, -0x1.834d500000000p-6, 0x1.7f24c00000000p-8, 0x1.6a41cc0000000p-4, -0x1.5ebd4c0000000p-5, -0x1.5b749c0000000p-5, 0x1.f7c2b80000000p-5, -0x1.5a666e0000000p-4, 0x1.4eb4d80000000p-6, 0x1.d082000000000p-10, 0x1.07254c0000000p-4, 0x1.ed63d80000000p-5, -0x1.45c33c0000000p-5, -0x1.3054500000000p-4, -0x1.4983940000000p-5, -0x1.d21e9c0000000p-5, -0x1.62bcf00000000p-6, -0x1.0e20ba0000000p-4, 0x1.f319d00000000p-6, 0x1.8b1b700000000p-5, -0x1.6db9200000000p-7, 0x1.2c5cf80000000p-4, -0x1.bdace80000000p-6, 0x1.3cff080000000p-5, -0x1.ed294c0000000p-5, 0x1.70d6080000000p-4, 0x1.dfefc00000000p-7, 0x1.6429200000000p-4, -0x1.fe2c8a0000000p-5, 0x1.5692440000000p-4, 0x1.1f6f200000000p-4, 0x1.5a278c0000000p-4, 0x1.e1bc300000000p-5, -0x1.18eed60000000p-4, 0x1.ca5bb00000000p-5, 0x1.bd3f100000000p-5, -0x1.934c040000000p-5, 0x1.50d1f40000000p-4, 0x1.b160500000000p-5, -0x1.0128400000000p-4, 0x1.11ce200000000p-4, -0x1.23849c0000000p-5, 0x1.ba23680000000p-5, -0x1.613ac00000000p-9, 0x1.4b0f0c0000000p-4, 0x1.1490000000000p-13, -0x1.4aa7d20000000p-4, -0x1.f7a2440000000p-5, 0x1.64a9e00000000p-7, 0x1.0cb34c0000000p-4, 0x1.7b70500000000p-5, 0x1.9984180000000p-6, -0x1.fd97500000000p-7, -0x1.1b4c360000000p-5, -0x1.68ae280000000p-4, 0x1.b52df00000000p-5, 0x1.ffea000000000p-5, 0x1.6a04800000000p-5, -0x1.7a240c0000000p-4, 0x1.0870800000000p-5, 0x1.190e300000000p-7, 0x1.2a12900000000p-5, 0x1.fe49780000000p-5, 0x1.3c3de00000000p-7, 0x1.ad8d480000000p-5, -0x1.f591500000000p-5, 0x1.433e8c0000000p-4, 0x1.2c4da00000000p-5, -0x1.4043a00000000p-6, 0x1.7387d40000000p-4, -0x1.69f8c40000000p-4, 0x1.7d1bc80000000p-5, -0x1.98ca660000000p-5, -0x1.4079c00000000p-4, -0x1.c7c3460000000p-5, -0x1.2d0b780000000p-4, -0x1.22f80a0000000p-5, -0x1.e7cb800000000p-10, -0x1.15568e0000000p-5, 0x1.0bbb480000000p-6, 0x1.0cce980000000p-4, -0x1.f4b6000000000p-6, -0x1.47fe880000000p-5, 0x1.75a01c0000000p-4, -0x1.0724c40000000p-4, -0x1.ee814e0000000p-5, 0x1.6feb100000000p-5, -0x1.76dad00000000p-5, 0x1.f477e80000000p-6, -0x1.119c880000000p-4, -0x1.f9a3ce0000000p-5, -0x1.ed1b300000000p-7, 0x1.2c2dc00000000p-7, -0x1.7985d80000000p-4, 0x1.799b080000000p-5, -0x1.5c650e0000000p-4, -0x1.6380900000000p-7, 0x1.1fe4400000000p-7, -0x1.02b2f80000000p-4, 0x1.24eef00000000p-5, 0x1.6307a40000000p-4, -0x1.a90c5e0000000p-5, 0x1.b77b780000000p-5, -0x1.2f86920000000p-5, 0x1.c53d300000000p-5, 0x1.33e3240000000p-4, -0x1.11dc2a0000000p-5, 0x1.b954a00000000p-8, -0x1.1307300000000p-6, 0x1.e5c5980000000p-6, -0x1.6154740000000p-5, 0x1.c604e00000000p-7, 0x1.0593240000000p-4, -0x1.a13ffc0000000p-5, -0x1.1e93c00000000p-4, -0x1.37fa180000000p-6, -0x1.d714280000000p-5, -0x1.f461900000000p-7, 0x1.5c2c680000000p-4, 0x1.1c18980000000p-5, -0x1.7de5da0000000p-4, 0x1.0eb3300000000p-5, 0x1.3101880000000p-6, 0x1.7936b40000000p-4, 0x1.630ce40000000p-4, 0x1.204d600000000p-7, -0x1.758f060000000p-4, 0x1.076d000000000p-11, -0x1.f1e6380000000p-6, -0x1.e51fba0000000p-5, 0x1.12f9380000000p-4, -0x1.0219440000000p-4, 0x1.e5c3680000000p-5, -0x1.bc72ce0000000p-5, 0x1.365c780000000p-4, 0x1.3eeeb80000000p-4, -0x1.a8ba800000000p-6, 0x1.916a800000000p-9, 0x1.d62ff80000000p-5, 0x1.9bdc080000000p-5, 0x1.7ee8d00000000p-7, 0x1.1e4d400000000p-9, 0x1.c42f400000000p-5, 0x1.1102400000000p-5, -0x1.eac0800000000p-9, 0x1.7ae6a80000000p-6, -0x1.5ec2b80000000p-4, 0x1.6f57780000000p-4, -0x1.2dcad00000000p-4, 0x1.35a37c0000000p-4, 0x1.d619200000000p-7, -0x1.26a1d00000000p-7, -0x1.01cd580000000p-6, 0x1.c284700000000p-6, 0x1.14bf840000000p-4, 0x1.35efb40000000p-4, -0x1.1394400000000p-9, -0x1.4dfcce0000000p-4, -0x1.e62f200000000p-7, -0x1.2181be0000000p-4, 0x1.57b4380000000p-5, -0x1.0b3f6e0000000p-5, 0x1.286a480000000p-5, 0x1.49a8300000000p-5, -0x1.d17cc20000000p-5, 0x1.ca0a400000000p-8, 0x1.80526c0000000p-4, 0x1.5a05180000000p-5, 0x1.01fb5c0000000p-4, 0x1.8142180000000p-4, -0x1.6a98680000000p-4, 0x1.7fe6c80000000p-4, 0x1.b3c2580000000p-5, 0x1.7c46ec0000000p-4, -0x1.e6e6dc0000000p-5, 0x1.2ab9b80000000p-5, -0x1.c703800000000p-9, -0x1.6f4dca0000000p-5, -0x1.039dfc0000000p-4, -0x1.6bcf7e0000000p-4, 0x1.1688100000000p-7, 0x1.570f940000000p-4, 0x1.ed62100000000p-7, 0x1.d809a00000000p-7, 0x1.e92e600000000p-7, 0x1.01fca00000000p-4, 0x1.0ee2740000000p-4, 0x1.bc4e400000000p-7, 0x1.b820900000000p-7, 0x1.435e100000000p-5, -0x1.228b880000000p-4, -0x1.3effc00000000p-4, -0x1.4a88480000000p-4, 0x1.6769b80000000p-5, -0x1.8446160000000p-5, 0x1.59a6680000000p-5, 0x1.6e9a480000000p-5, 0x1.cf13280000000p-5, 0x1.0ab5200000000p-8, 0x1.4b19840000000p-4, 0x1.0439c80000000p-4, -0x1.d648b40000000p-5, 0x1.3d5d000000000p-11, -0x1.2270780000000p-6, -0x1.7a83d80000000p-6, -0x1.192b880000000p-5, -0x1.df7e600000000p-8, -0x1.48c5dc0000000p-4, -0x1.98d5e40000000p-5, -0x1.f9ffa00000000p-7, 0x1.aa40e80000000p-6, 0x1.a85f280000000p-5, -0x1.b094420000000p-5, -0x1.4c174a0000000p-4, 0x1.7b87f80000000p-5, -0x1.ecf9400000000p-5, 0x1.1abb380000000p-5, 0x1.0897780000000p-5, 0x1.b819900000000p-5, 0x1.8da1e80000000p-5, -0x1.28d1400000000p-5, 0x1.a218000000000p-5, -0x1.16a5fe0000000p-5, -0x1.b6bc5c0000000p-5, 0x1.1dcdb00000000p-6, -0x1.145b000000000p-6, 0x1.50b7e80000000p-5, 0x1.38c2480000000p-5, 0x1.4a32300000000p-6, 0x1.2763900000000p-5, 0x1.6725800000000p-5, 0x1.7405880000000p-5, -0x1.9679a00000000p-5, -0x1.1e22340000000p-4, 0x1.d518400000000p-5, 0x1.b94af00000000p-5, -0x1.ae70a80000000p-6, 0x1.3b30d80000000p-5, -0x1.09967c0000000p-4, 0x1.43a4300000000p-5, 0x1.a9eaa00000000p-5, -0x1.624fc20000000p-4, 0x1.4d4d280000000p-5, 0x1.fb76a80000000p-5, 0x1.7109480000000p-4, 0x1.4951440000000p-4, -0x1.2c8ed40000000p-4, -0x1.4a62d60000000p-4, 0x1.70f5ec0000000p-4, 0x1.43a8540000000p-4, -0x1.b078080000000p-6, -0x1.16a5380000000p-4, -0x1.78d4c60000000p-5, -0x1.314b0c0000000p-4, -0x1.0cad980000000p-6, 0x1.e4c9480000000p-6, 0x1.2365200000000p-5, -0x1.347f940000000p-4, 0x1.5e0bf00000000p-6, -0x1.569cf40000000p-4, 0x1.c139000000000p-11, 0x1.d4c3280000000p-5, -0x1.2bde280000000p-6, 0x1.043a600000000p-4, -0x1.c4fbf00000000p-7, -0x1.641f600000000p-6, 0x1.6330c80000000p-5, 0x1.c36d880000000p-6, 0x1.b5d0400000000p-9, -0x1.a68afa0000000p-5, 0x1.500b200000000p-5, -0x1.cec6700000000p-6, 0x1.e7aac80000000p-6, 0x1.6873980000000p-5, 0x1.4882d80000000p-4, -0x1.7a82c20000000p-5, 0x1.4be0000000000p-5, -0x1.2a59900000000p-4, -0x1.4ee2660000000p-5, 0x1.5a0e200000000p-5, 0x1.2d49800000000p-10, -0x1.6fe2000000000p-7, -0x1.f7fc240000000p-5, -0x1.67ecb80000000p-5, -0x1.60c5e20000000p-4, 0x1.d342c00000000p-6, -0x1.4232da0000000p-5, -0x1.3791940000000p-4, -0x1.68eda00000000p-4, -0x1.6fd4760000000p-5, 0x1.d195c00000000p-7, 0x1.c66a800000000p-6, -0x1.7c95960000000p-4, 0x1.492d880000000p-4, -0x1.7e78360000000p-4, -0x1.3ecaaa0000000p-4, -0x1.59a9cc0000000p-4, 0x1.6998e00000000p-7, 0x1.b08e200000000p-5, -0x1.93024c0000000p-5, 0x1.d12f200000000p-6, -0x1.2b44680000000p-4, 0x1.2b8ff80000000p-4, 0x1.8b30a00000000p-6, -0x1.d911ee0000000p-5, 0x1.c628f00000000p-5, -0x1.1dd1d80000000p-6, 0x1.ec7cc00000000p-6, 0x1.54a7c80000000p-6, 0x1.49f9180000000p-5, -0x1.44dde00000000p-5, -0x1.f3e1400000000p-6, 0x1.54bb800000000p-8, 0x1.4f21900000000p-5, 0x1.d6c8c00000000p-6, -0x1.48fc920000000p-5, -0x1.86f5600000000p-7, 0x1.6ab7680000000p-4, 0x1.e32b480000000p-5, 0x1.8029040000000p-4, -0x1.a44a140000000p-5, -0x1.f9d3a00000000p-6, 0x1.3bbdb80000000p-4, -0x1.1101a00000000p-4, 0x1.03ea000000000p-9, 0x1.0379580000000p-6, 0x1.1864a80000000p-5, 0x1.cf7f600000000p-7, 0x1.9c00380000000p-6, -0x1.329f4a0000000p-4, -0x1.18ba2c0000000p-4, -0x1.2f51000000000p-7, -0x1.4464a00000000p-5, -0x1.24509e0000000p-5, -0x1.89af500000000p-5, 0x1.2c941c0000000p-4, 0x1.45a4980000000p-4, -0x1.582e680000000p-4}
, {0x1.83d1900000000p-7, 0x1.3ff8800000000p-5, -0x1.7a52420000000p-4, -0x1.18a9000000000p-7, -0x1.4abe440000000p-4, 0x1.7331000000000p-11, 0x1.22b82c0000000p-4, 0x1.d343c00000000p-5, 0x1.522b380000000p-4, 0x1.1f3c180000000p-5, 0x1.a638200000000p-8, -0x1.333e6a0000000p-4, 0x1.907b580000000p-5, -0x1.b5aa000000000p-9, 0x1.bb02000000000p-12, 0x1.2fcb980000000p-6, 0x1.9badf80000000p-5, -0x1.3fbc200000000p-4, -0x1.5e53140000000p-5, -0x1.6cd0a00000000p-7, -0x1.03e0120000000p-4, 0x1.c618000000000p-14, -0x1.57de500000000p-7, -0x1.6e27380000000p-4, -0x1.20ca560000000p-4, 0x1.e4b0b00000000p-5, 0x1.909e080000000p-5, -0x1.7555400000000p-7, -0x1.ce87600000000p-7, 0x1.4e7f680000000p-4, -0x1.6164a80000000p-5, -0x1.8682900000000p-6, -0x1.9a93540000000p-5, -0x1.35e5160000000p-4, 0x1.71007c0000000p-4, -0x1.6bcc860000000p-4, 0x1.af8a400000000p-6, 0x1.0494a00000000p-7, -0x1.6d52a60000000p-4, -0x1.a55b260000000p-5, 0x1.15c9880000000p-5, 0x1.764fa80000000p-5, 0x1.f6fa600000000p-5, 0x1.b684100000000p-5, 0x1.682c8c0000000p-4, 0x1.30b8200000000p-4, -0x1.f2ec980000000p-6, 0x1.73b9c00000000p-6, 0x1.191a580000000p-5, 0x1.f41eb00000000p-6, -0x1.96696c0000000p-5, 0x1.1b80080000000p-5, -0x1.b408f00000000p-6, -0x1.cdefb80000000p-6, -0x1.dbd0400000000p-9, 0x1.d843c00000000p-5, 0x1.0d5c940000000p-4, -0x1.2c06be0000000p-4, 0x1.944ff00000000p-6, -0x1.62cb9a0000000p-5, 0x1.21b7800000000p-9, 0x1.2658900000000p-5, 0x1.423de40000000p-4, 0x1.575d800000000p-10, 0x1.7b102c0000000p-4, 0x1.70b0280000000p-5, -0x1.3175100000000p-4, 0x1.57f0c00000000p-4, -0x1.e952e00000000p-8, 0x1.67a8dc0000000p-4, 0x1.a2d4f00000000p-5, -0x1.7717e80000000p-4, 0x1.3ebdf80000000p-5, -0x1.e474500000000p-7, 0x1.2186200000000p-5, -0x1.5d62c00000000p-6, -0x1.713fa60000000p-5, -0x1.f4c1040000000p-5, 0x1.02cf000000000p-11, -0x1.2ec12e0000000p-4, -0x1.f245300000000p-7, -0x1.fe07520000000p-5, 0x1.1747e40000000p-4, -0x1.3be2720000000p-4, -0x1.b1481a0000000p-5, 0x1.7a6cc00000000p-5, 0x1.738ab80000000p-5, -0x1.c779900000000p-6, 0x1.7d0b300000000p-4, -0x1.3423940000000p-4, -0x1.5859d20000000p-4, -0x1.0289bc0000000p-4, -0x1.211a100000000p-5, -0x1.0123ec0000000p-5, 0x1.0aa2b40000000p-4, -0x1.2528700000000p-4, -0x1.2b8cac0000000p-4, 0x1.acf2680000000p-5, 0x1.1ea4680000000p-6, -0x1.7e23ea0000000p-4, -0x1.73d7dc0000000p-4, -0x1.3fdc400000000p-4, -0x1.f8f2b00000000p-5, 0x1.a56bd00000000p-7, -0x1.5c8d800000000p-10, -0x1.3270500000000p-7, -0x1.2ca2400000000p-8, 0x1.3cd7940000000p-4, 0x1.cf1fc80000000p-5, 0x1.a783380000000p-6, 0x1.9289e80000000p-5, 0x1.5b46400000000p-6, 0x1.7f8fc00000000p-6, 0x1.318c500000000p-6, -0x1.2102800000000p-10, 0x1.2261540000000p-4, -0x1.51e9280000000p-6, 0x1.d113200000000p-7, 0x1.4c06480000000p-5, 0x1.a36c400000000p-6, 0x1.5ff64c0000000p-4, -0x1.aeae200000000p-8, -0x1.05d1820000000p-4, 0x1.d204880000000p-5, -0x1.52fc200000000p-7, 0x1.248b600000000p-6, -0x1.efb3f00000000p-7, -0x1.1e5eaa0000000p-4, -0x1.7d4d640000000p-5, -0x1.69ff000000000p-11, -0x1.329c000000000p-10, -0x1.60825c0000000p-5, 0x1.31c0740000000p-4, -0x1.852f500000000p-6, 0x1.4e20000000000p-13, 0x1.b7aec00000000p-7, -0x1.d16da40000000p-5, -0x1.648e200000000p-8, -0x1.7baa580000000p-6, 0x1.8949f00000000p-5, 0x1.2523480000000p-5, -0x1.2568e00000000p-7, -0x1.23152e0000000p-4, -0x1.68a17c0000000p-4, 0x1.ddb3700000000p-5, -0x1.c8359a0000000p-5, -0x1.29c5280000000p-5, -0x1.ad586c0000000p-5, 0x1.231ab00000000p-4, 0x1.5cfd600000000p-7, 0x1.2740800000000p-4, -0x1.0f94dc0000000p-5, 0x1.4b6ecc0000000p-4, -0x1.d228800000000p-8, -0x1.b2025c0000000p-5, -0x1.644ab00000000p-7, 0x1.4be7500000000p-4, -0x1.1576e00000000p-6, -0x1.0fb82a0000000p-4, 0x1.7aefa40000000p-4, -0x1.32e1680000000p-5, 0x1.becfc80000000p-5, -0x1.21432a0000000p-4, 0x1.fb7f400000000p-6, -0x1.b62e000000000p-12, -0x1.a6e18e0000000p-5, -0x1.2cb7b80000000p-4, 0x1.023af40000000p-4, -0x1.b743760000000p-5, -0x1.0ea74e0000000p-4, -0x1.0a009e0000000p-4, -0x1.ee36e00000000p-6, -0x1.0764b40000000p-4, -0x1.659d5a0000000p-5, 0x1.bb78b80000000p-5, 0x1.c843400000000p-5, -0x1.4c25900000000p-4, 0x1.03c2300000000p-5, -0x1.a364e80000000p-6, -0x1.288fac0000000p-5, 0x1.f4fb000000000p-10, -0x1.7003800000000p-4, -0x1.5b075e0000000p-4, -0x1.6af7e40000000p-4, -0x1.6ece100000000p-4, -0x1.843aa20000000p-5, -0x1.1df50e0000000p-4, 0x1.8e2f580000000p-5, -0x1.2bb8560000000p-4, 0x1.7f86380000000p-4, 0x1.1cabd00000000p-5, 0x1.59c2300000000p-5, -0x1.3a76640000000p-5, -0x1.8a97100000000p-7, 0x1.cb68880000000p-5, 0x1.4b5c1c0000000p-4, -0x1.73d1800000000p-4, 0x1.1ec1e80000000p-4, 0x1.a30c700000000p-5, -0x1.bf76b80000000p-5, 0x1.e1a7080000000p-5, 0x1.32e3580000000p-6, -0x1.66db440000000p-4, 0x1.b1bff00000000p-5, 0x1.9daa480000000p-5, 0x1.fe75100000000p-6, 0x1.5297e80000000p-6, -0x1.2f88b20000000p-4, 0x1.8e40880000000p-5, 0x1.077c240000000p-4, 0x1.9e49400000000p-6, 0x1.2e3d480000000p-4, 0x1.1c28b80000000p-5, -0x1.184b9c0000000p-4, -0x1.030fd80000000p-5, -0x1.5470e00000000p-7, -0x1.71b9ea0000000p-4, 0x1.74242c0000000p-4, -0x1.06f8fa0000000p-4, -0x1.a86b200000000p-5, 0x1.9ab8500000000p-5, -0x1.7936300000000p-5, -0x1.e819600000000p-8, 0x1.61fa840000000p-4, 0x1.5ae3500000000p-4, -0x1.4a53a40000000p-4, -0x1.ce32820000000p-5, 0x1.28deac0000000p-4, 0x1.52afcc0000000p-4, 0x1.8882f80000000p-5, 0x1.76c4300000000p-4, 0x1.9bf4300000000p-5, 0x1.3a27340000000p-4, -0x1.e709880000000p-5, 0x1.6fd2500000000p-5, -0x1.1d16980000000p-5, -0x1.35625e0000000p-4, 0x1.82a7500000000p-6, 0x1.3fc6200000000p-6, 0x1.1975280000000p-4, 0x1.6f54980000000p-4, -0x1.5a93280000000p-6, -0x1.41e2340000000p-5, 0x1.47c0a40000000p-4, 0x1.00337c0000000p-4, -0x1.a23ac00000000p-9, 0x1.2ac5980000000p-5, -0x1.40a64a0000000p-4, -0x1.3dd3f00000000p-6, 0x1.2f95100000000p-7, -0x1.8fc7800000000p-10, 0x1.3338c80000000p-5, 0x1.601e240000000p-4, -0x1.1a1cbc0000000p-4, 0x1.9e4e900000000p-7, -0x1.2fb19c0000000p-4, 0x1.d60d280000000p-5, -0x1.3098c00000000p-9, -0x1.83fcd80000000p-6, -0x1.f7b6780000000p-6, 0x1.aebc080000000p-6, -0x1.2f08060000000p-4, -0x1.49dd9e0000000p-4, -0x1.3f73360000000p-4, 0x1.84c3780000000p-5, 0x1.3e89b80000000p-5, -0x1.46f59c0000000p-5, -0x1.0230000000000p-11, -0x1.5068640000000p-5, -0x1.83b3d00000000p-7, 0x1.98fa200000000p-5, -0x1.a316b80000000p-6, 0x1.22aa680000000p-4, 0x1.2c7dec0000000p-4, -0x1.5e5f160000000p-4, -0x1.6a475c0000000p-4, 0x1.e195d80000000p-5, 0x1.3c07400000000p-7, 0x1.5c968c0000000p-4, -0x1.1a48980000000p-4, -0x1.83228c0000000p-5, -0x1.5db9cc0000000p-5, -0x1.0bc2200000000p-7, -0x1.46cdc20000000p-4, -0x1.a2cc500000000p-7, -0x1.1f1aec0000000p-4, -0x1.d1b04a0000000p-5, 0x1.70c4240000000p-4, -0x1.03e8400000000p-6, -0x1.1120800000000p-8, 0x1.3a37280000000p-4, 0x1.25a3000000000p-4, -0x1.612d800000000p-7, 0x1.0ae6a00000000p-6, 0x1.66eb440000000p-4, 0x1.6355f80000000p-4, 0x1.e0f9100000000p-7, -0x1.e6b1800000000p-8, -0x1.80ae460000000p-4, 0x1.d668a80000000p-5, -0x1.c976980000000p-6, 0x1.471d900000000p-6, 0x1.c8f5180000000p-5, -0x1.f930300000000p-7, 0x1.f922380000000p-5, -0x1.78fc0a0000000p-4, 0x1.a58a600000000p-8, 0x1.cc02000000000p-12, 0x1.8161380000000p-5, -0x1.35255e0000000p-4, -0x1.48a7a80000000p-6, -0x1.0595480000000p-6, -0x1.7207ec0000000p-4, 0x1.9a41700000000p-7, -0x1.e7a73c0000000p-5, 0x1.4e0e600000000p-5, -0x1.9697800000000p-7, -0x1.f6fdb80000000p-5, 0x1.c74fe00000000p-8, 0x1.3e20400000000p-7, 0x1.dd6e600000000p-5, 0x1.287ed00000000p-5, -0x1.2cac280000000p-5, -0x1.2e52200000000p-8, -0x1.933fde0000000p-5, 0x1.72bdac0000000p-4, -0x1.5662d20000000p-4, -0x1.8053200000000p-7, 0x1.b1f5900000000p-5, 0x1.26cf300000000p-5, -0x1.6c71040000000p-4, -0x1.2dcd020000000p-5, 0x1.8961100000000p-5, -0x1.3d16600000000p-4, -0x1.445b360000000p-4, -0x1.6d58800000000p-6, -0x1.57c6120000000p-5, -0x1.7bd0680000000p-6, -0x1.241e140000000p-5, 0x1.5ed82c0000000p-4, -0x1.2b0cf80000000p-5, 0x1.7e60f00000000p-4, -0x1.3b59160000000p-4, -0x1.73a93a0000000p-4, -0x1.d8d2e00000000p-7, 0x1.f528000000000p-12, -0x1.42f1000000000p-6, -0x1.3672600000000p-4, 0x1.72a2200000000p-5, 0x1.61ccd00000000p-6, -0x1.70db140000000p-4, -0x1.78c1160000000p-4, 0x1.7177a40000000p-4, -0x1.755a8c0000000p-4, -0x1.fb13180000000p-6, -0x1.1936520000000p-5, 0x1.534c700000000p-4, 0x1.0e52700000000p-4, -0x1.4615760000000p-4, 0x1.3121600000000p-5, -0x1.fc8e180000000p-6, -0x1.5d1e1c0000000p-4, 0x1.df3a180000000p-5, -0x1.f56de00000000p-6, 0x1.7140800000000p-4, 0x1.73ca980000000p-5, 0x1.76fcd00000000p-5, 0x1.5baae80000000p-5, -0x1.513f840000000p-4, 0x1.b981380000000p-6, -0x1.843ac00000000p-7, 0x1.3656780000000p-5, 0x1.17b1700000000p-7, 0x1.3c44040000000p-4, 0x1.8a91080000000p-6, 0x1.5a52d40000000p-4, -0x1.0002740000000p-5, -0x1.69af200000000p-8, 0x1.1597a00000000p-4, 0x1.de8a700000000p-5, 0x1.e98b700000000p-6, 0x1.78b2e00000000p-8, -0x1.b8005a0000000p-5, 0x1.a1e2a80000000p-5, -0x1.51a8420000000p-4, 0x1.83dd800000000p-5, 0x1.0464000000000p-8, -0x1.c07c500000000p-6, 0x1.3520000000000p-5, 0x1.7290080000000p-6, -0x1.7225f20000000p-5, -0x1.2fc1500000000p-4, 0x1.389f300000000p-4, 0x1.4993f00000000p-7, -0x1.d651840000000p-5, 0x1.6b7c9c0000000p-4, 0x1.d72cf00000000p-5, -0x1.4114ba0000000p-4, -0x1.723c820000000p-5, 0x1.766e600000000p-7, -0x1.182fc00000000p-9, -0x1.4433060000000p-5, -0x1.a2e67a0000000p-5, -0x1.3958760000000p-5, 0x1.2dd0e80000000p-5, 0x1.45cb600000000p-5, 0x1.7c15800000000p-4, -0x1.7e04480000000p-4, 0x1.fe74200000000p-6, -0x1.c497e00000000p-8, -0x1.e7b5b00000000p-7, -0x1.93fa2a0000000p-5, 0x1.b48c680000000p-5, 0x1.4e4c6c0000000p-4, 0x1.39f6e00000000p-4, 0x1.d93ab80000000p-5, 0x1.5e051c0000000p-4, -0x1.93f9600000000p-6, -0x1.2ca5980000000p-6, 0x1.734dc80000000p-5, -0x1.51bad80000000p-5, -0x1.1af0800000000p-9, 0x1.3a17480000000p-5, -0x1.6423600000000p-4, -0x1.19e20a0000000p-4, -0x1.9e2c880000000p-6, -0x1.019f500000000p-4, -0x1.c10b380000000p-6, -0x1.69dbc00000000p-4, 0x1.4a44200000000p-8, -0x1.7aaf080000000p-5, 0x1.6b72d40000000p-4, 0x1.cbdbb80000000p-6, 0x1.3ad5080000000p-5, -0x1.f3a5400000000p-9, -0x1.07af460000000p-4, -0x1.e4573e0000000p-5, -0x1.aed71c0000000p-5, 0x1.192d840000000p-4, 0x1.c1a4f80000000p-5, -0x1.0fef580000000p-4, 0x1.4ebc000000000p-5, 0x1.1eab540000000p-4, 0x1.0193980000000p-6, 0x1.03f9000000000p-6, -0x1.6305000000000p-4, -0x1.8132260000000p-4, 0x1.3397600000000p-5, -0x1.7f3f280000000p-4, 0x1.3505d80000000p-5, -0x1.045d360000000p-4, 0x1.414c0c0000000p-4, -0x1.f6f13e0000000p-5, -0x1.3468000000000p-9, -0x1.50dc6e0000000p-4, -0x1.81213c0000000p-5, -0x1.9fec8a0000000p-5, 0x1.4bc9000000000p-5, -0x1.39a4000000000p-9, 0x1.4a00a00000000p-7, 0x1.09e9680000000p-5, -0x1.d37f000000000p-8, 0x1.9a7a900000000p-5, 0x1.1055b80000000p-5, -0x1.dc1d400000000p-5, 0x1.1fce300000000p-7, -0x1.814dfc0000000p-5, 0x1.4d447c0000000p-4, -0x1.21e5b00000000p-6, 0x1.23fd180000000p-6, -0x1.92d3d00000000p-6, 0x1.b4a6980000000p-5, 0x1.99ac900000000p-5, 0x1.085f5c0000000p-4, 0x1.9851e80000000p-5, -0x1.80a7f00000000p-5, 0x1.81d6b80000000p-5, 0x1.801f780000000p-5, -0x1.376b600000000p-8, -0x1.340de00000000p-7, -0x1.0ed1a00000000p-4, -0x1.1c1df00000000p-6, 0x1.ee76000000000p-10, -0x1.9080040000000p-5, 0x1.c350e00000000p-6, 0x1.5ec9440000000p-4, -0x1.c192080000000p-6, 0x1.61cc500000000p-4, 0x1.50cbe40000000p-4, 0x1.647aa40000000p-4, 0x1.711f600000000p-6, 0x1.3986dc0000000p-4, 0x1.78abd80000000p-6, -0x1.8b99060000000p-5, 0x1.8c9b600000000p-8, 0x1.1c52000000000p-7, -0x1.b3c1900000000p-7, 0x1.cb48100000000p-6, -0x1.bcef800000000p-10, 0x1.b038e80000000p-5, -0x1.5c8d700000000p-7, -0x1.2fb7ae0000000p-4, -0x1.00f78c0000000p-4, 0x1.5ddd000000000p-7, -0x1.27e60c0000000p-4, -0x1.4f61d20000000p-4, 0x1.3386400000000p-7, 0x1.4fe6c00000000p-4, 0x1.bf2b980000000p-5, 0x1.10be300000000p-4, -0x1.72e1e60000000p-5, -0x1.6d8eaa0000000p-4, 0x1.f046600000000p-5, 0x1.96a3200000000p-8, -0x1.f3abc00000000p-6, -0x1.0940600000000p-4, -0x1.8f5e080000000p-5, -0x1.f6f6900000000p-6, -0x1.5b35e80000000p-4, 0x1.0cabf00000000p-5, -0x1.42b4700000000p-6, -0x1.a528300000000p-6, -0x1.345ff00000000p-6, 0x1.c0f5c00000000p-9, -0x1.fbdf400000000p-6, 0x1.f05b580000000p-5, 0x1.61d0440000000p-4, 0x1.5ad0900000000p-4, 0x1.348df80000000p-4, 0x1.cf37480000000p-6, 0x1.1dc7940000000p-4, -0x1.6bfe440000000p-5, -0x1.ca1e9a0000000p-5, -0x1.5017d60000000p-4, 0x1.7ede280000000p-5, -0x1.2f8b480000000p-5, -0x1.093fa00000000p-7, -0x1.25738c0000000p-5, -0x1.ed1f980000000p-5, 0x1.7fe7a00000000p-4, -0x1.3a4cd20000000p-4, 0x1.5532140000000p-4, 0x1.0365e80000000p-4, 0x1.16cc180000000p-5, 0x1.64d1c80000000p-4, 0x1.afc8700000000p-5, 0x1.1885300000000p-6, 0x1.7aab200000000p-4, 0x1.54f6400000000p-4, -0x1.400a220000000p-4, 0x1.7ce0d00000000p-5, 0x1.2b93680000000p-4, 0x1.9f8e000000000p-6, 0x1.64d4200000000p-5, -0x1.e1922a0000000p-5, -0x1.35fd280000000p-5, 0x1.7cf9d00000000p-6, 0x1.55a8900000000p-4, 0x1.7fd0d80000000p-5, -0x1.fd49b00000000p-6, 0x1.5f8b300000000p-7, 0x1.2862f40000000p-4, 0x1.408aa00000000p-5, 0x1.c783680000000p-5, 0x1.dac9400000000p-5, -0x1.6178880000000p-5, 0x1.88e1000000000p-7, -0x1.2c98460000000p-5, 0x1.1f8cd00000000p-6, -0x1.ca74da0000000p-5, -0x1.5436220000000p-4, 0x1.90c6000000000p-11, -0x1.29bfd00000000p-7, -0x1.6833360000000p-4, 0x1.e1ea880000000p-6, -0x1.a415ee0000000p-5}
, {0x1.3ace500000000p-7, -0x1.2e4a1e0000000p-4, 0x1.21d4480000000p-6, 0x1.f992180000000p-5, -0x1.77cbd00000000p-6, 0x1.3243e80000000p-4, -0x1.3129e00000000p-6, 0x1.7517d00000000p-5, -0x1.0a01f00000000p-4, 0x1.f6e6c00000000p-7, 0x1.3fc2780000000p-4, -0x1.bd38c00000000p-6, -0x1.623b140000000p-5, 0x1.5a46000000000p-5, -0x1.b9eeb00000000p-6, -0x1.38b8940000000p-4, 0x1.6eaa700000000p-6, 0x1.39528c0000000p-4, -0x1.569a380000000p-4, -0x1.5fae4a0000000p-5, -0x1.7afce60000000p-5, 0x1.5bc6dc0000000p-4, 0x1.183da00000000p-4, 0x1.7470280000000p-4, 0x1.5908b00000000p-6, -0x1.4a59340000000p-5, 0x1.3f99440000000p-4, -0x1.32986a0000000p-4, 0x1.44c9740000000p-4, 0x1.7cd0240000000p-4, -0x1.6745840000000p-4, 0x1.1512b80000000p-5, 0x1.74ece00000000p-5, 0x1.686fe80000000p-6, 0x1.044ae40000000p-4, -0x1.0074740000000p-4, -0x1.3d266a0000000p-4, -0x1.4577900000000p-4, -0x1.6e25980000000p-6, -0x1.a603a40000000p-5, -0x1.e186b80000000p-5, 0x1.2af9640000000p-4, 0x1.31f4040000000p-4, 0x1.ead8780000000p-5, 0x1.40ca180000000p-4, -0x1.28387c0000000p-5, -0x1.2512d60000000p-4, -0x1.511ae80000000p-6, 0x1.5512c40000000p-4, 0x1.4694800000000p-8, 0x1.e7d1900000000p-7, 0x1.19b8b80000000p-6, -0x1.ebc7400000000p-5, -0x1.6d3b800000000p-7, -0x1.17b2d40000000p-4, -0x1.5e5a280000000p-6, 0x1.0b269c0000000p-4, -0x1.396a280000000p-6, 0x1.87bd380000000p-6, 0x1.293b9c0000000p-4, 0x1.0946f80000000p-6, 0x1.1686080000000p-4, 0x1.be3e600000000p-7, 0x1.7ca5100000000p-4, -0x1.47884c0000000p-5, -0x1.238e9e0000000p-4, 0x1.6c31d00000000p-6, 0x1.22d9440000000p-4, -0x1.3f46300000000p-7, 0x1.52c6200000000p-4, 0x1.7a43e00000000p-5, -0x1.685f6a0000000p-5, 0x1.1c4a280000000p-4, 0x1.1a9b700000000p-5, 0x1.e978a00000000p-8, -0x1.7eedb00000000p-7, 0x1.1d12200000000p-5, -0x1.5ecd3e0000000p-4, 0x1.0abf900000000p-4, 0x1.2bec880000000p-4, 0x1.0ad2480000000p-4, 0x1.743a700000000p-6, 0x1.ae5fa80000000p-5, -0x1.edd5600000000p-5, -0x1.738ba40000000p-4, -0x1.6d08160000000p-4, -0x1.3aa4800000000p-4, -0x1.1044720000000p-4, -0x1.3144440000000p-4, 0x1.acff580000000p-6, -0x1.8054180000000p-6, 0x1.dfee400000000p-7, -0x1.feb2000000000p-10, -0x1.018b380000000p-4, -0x1.d478e00000000p-7, -0x1.1048e60000000p-4, 0x1.01aad00000000p-4, 0x1.4494f40000000p-4, -0x1.fa6c860000000p-5, 0x1.316a280000000p-4, 0x1.a837680000000p-5, -0x1.fd04b60000000p-5, 0x1.af32d00000000p-5, 0x1.5a6d680000000p-4, -0x1.34a4ac0000000p-5, -0x1.15fbc80000000p-4, 0x1.047ef00000000p-5, 0x1.456f180000000p-5, 0x1.4802700000000p-4, -0x1.24c8200000000p-5, 0x1.5375a80000000p-4, 0x1.651ac00000000p-4, -0x1.76a7180000000p-4, -0x1.9ebb400000000p-7, 0x1.1c55100000000p-4, 0x1.7f34c40000000p-4, -0x1.ab61d80000000p-6, 0x1.6a39640000000p-4, 0x1.6733c00000000p-7, -0x1.fa27600000000p-5, -0x1.1c75e40000000p-4, -0x1.7727ee0000000p-5, 0x1.67fea00000000p-5, -0x1.57bc500000000p-6, 0x1.8e57c80000000p-5, 0x1.7878380000000p-5, 0x1.642af80000000p-5, -0x1.395d540000000p-4, 0x1.3b6aa00000000p-4, 0x1.a0e1b80000000p-6, -0x1.340e860000000p-4, -0x1.c671000000000p-6, 0x1.9441600000000p-8, -0x1.6da2f00000000p-7, -0x1.0c09640000000p-4, 0x1.8689280000000p-6, -0x1.41dc380000000p-6, -0x1.9b25720000000p-5, 0x1.1e11580000000p-4, -0x1.28b3e60000000p-4, -0x1.3720180000000p-6, 0x1.0513600000000p-6, -0x1.81c1280000000p-4, -0x1.c6b9180000000p-6, 0x1.9fa4780000000p-5, -0x1.3633d80000000p-4, 0x1.58367c0000000p-4, -0x1.e048fe0000000p-5, -0x1.d3e1f80000000p-6, 0x1.1c784c0000000p-4, -0x1.74e1fc0000000p-5, 0x1.a51cf80000000p-6, 0x1.ad78c80000000p-6, -0x1.68b1c20000000p-5, -0x1.5f49400000000p-4, -0x1.84ae6c0000000p-5, 0x1.2934500000000p-5, -0x1.032e6a0000000p-4, 0x1.4769700000000p-4, -0x1.e1b6700000000p-6, 0x1.c1ed000000000p-8, 0x1.d321180000000p-5, 0x1.7dc8400000000p-6, 0x1.67d4f80000000p-5, 0x1.71ab980000000p-4, -0x1.f88e360000000p-5, 0x1.348cc00000000p-5, 0x1.ad1c400000000p-7, 0x1.7fb7ac0000000p-4, -0x1.9b1ff00000000p-5, -0x1.c489c00000000p-7, 0x1.339d200000000p-6, -0x1.4c9a200000000p-7, 0x1.dc4ff00000000p-5, 0x1.2669c00000000p-5, -0x1.1133b80000000p-6, -0x1.9222800000000p-10, 0x1.3140000000000p-13, -0x1.31c1360000000p-5, -0x1.80bf800000000p-7, 0x1.29c8800000000p-4, 0x1.d2bdd80000000p-6, 0x1.01ec580000000p-5, -0x1.19b1680000000p-4, 0x1.2309900000000p-7, 0x1.2a223c0000000p-4, -0x1.0151a80000000p-5, 0x1.667c980000000p-5, -0x1.22b66c0000000p-4, -0x1.09de580000000p-4, 0x1.8628e00000000p-6, -0x1.6defea0000000p-4, -0x1.0b4e4a0000000p-4, 0x1.5bc6400000000p-8, 0x1.ebb6b00000000p-7, -0x1.6333240000000p-4, -0x1.a5d3f00000000p-6, 0x1.b4d8f80000000p-5, 0x1.51f5400000000p-4, -0x1.1b6b000000000p-7, 0x1.8f9bf00000000p-7, 0x1.cfa5400000000p-9, 0x1.231db00000000p-4, 0x1.5dd4200000000p-4, -0x1.584a0a0000000p-4, 0x1.a15e300000000p-6, -0x1.11e78c0000000p-4, 0x1.076a180000000p-4, 0x1.ab6f500000000p-6, 0x1.71f2a80000000p-5, -0x1.8af6100000000p-7, 0x1.8e72480000000p-5, 0x1.649d600000000p-4, 0x1.20e7600000000p-5, 0x1.5993900000000p-5, 0x1.f74e180000000p-5, 0x1.7672300000000p-5, -0x1.001e100000000p-4, 0x1.67820c0000000p-4, -0x1.a935a00000000p-6, -0x1.6c1bf20000000p-5, -0x1.3900cc0000000p-4, -0x1.184afa0000000p-5, 0x1.ec4bd00000000p-5, -0x1.8222180000000p-6, -0x1.ef2efc0000000p-5, -0x1.d79e8e0000000p-5, -0x1.1dbba80000000p-4, -0x1.78acb00000000p-4, 0x1.1630000000000p-10, 0x1.66e3000000000p-11, -0x1.5293000000000p-6, -0x1.516c740000000p-4, -0x1.50cd480000000p-6, -0x1.1a884c0000000p-4, 0x1.2ed3000000000p-10, -0x1.eb3eb00000000p-5, 0x1.44c2580000000p-4, -0x1.b18b800000000p-7, -0x1.78ebb20000000p-4, -0x1.d4bcc00000000p-7, -0x1.54a1a80000000p-6, 0x1.69d2480000000p-4, 0x1.29ab600000000p-4, -0x1.c88b260000000p-5, 0x1.6176580000000p-4, 0x1.a597700000000p-5, 0x1.15a7480000000p-5, -0x1.3b89940000000p-5, 0x1.03e8100000000p-5, 0x1.4ec83c0000000p-4, -0x1.9180600000000p-8, 0x1.a86f100000000p-7, -0x1.312f220000000p-5, -0x1.3de1000000000p-4, -0x1.7102dc0000000p-4, -0x1.af6e140000000p-5, 0x1.1dc4e00000000p-5, 0x1.4d5f440000000p-4, 0x1.1e3c480000000p-4, 0x1.9229880000000p-5, -0x1.418a420000000p-4, -0x1.0c60c00000000p-9, 0x1.5463180000000p-4, 0x1.032a740000000p-4, -0x1.af9f000000000p-8, 0x1.0ed9800000000p-4, 0x1.7795a80000000p-4, -0x1.0d08de0000000p-5, 0x1.e16b280000000p-5, -0x1.36134c0000000p-4, -0x1.8475b80000000p-6, -0x1.771db40000000p-5, 0x1.b5d0780000000p-5, 0x1.68daac0000000p-4, -0x1.b86cb00000000p-6, 0x1.ed07280000000p-6, -0x1.97b0e60000000p-5, -0x1.7ab7600000000p-6, -0x1.266a300000000p-4, 0x1.6d6b580000000p-5, -0x1.921baa0000000p-5, -0x1.4301980000000p-4, -0x1.732c9c0000000p-5, -0x1.321cd80000000p-6, 0x1.7402a80000000p-6, -0x1.4725a20000000p-4, 0x1.170fd00000000p-4, -0x1.0b852c0000000p-4, -0x1.29788a0000000p-4, 0x1.7485380000000p-6, 0x1.701af00000000p-5, -0x1.b9d9280000000p-5, 0x1.5a09240000000p-4, 0x1.74fb000000000p-4, 0x1.71e9800000000p-5, 0x1.1fb3f80000000p-5, -0x1.221d900000000p-6, -0x1.6886900000000p-5, 0x1.9278800000000p-7, 0x1.0543f80000000p-6, -0x1.a82ebc0000000p-5, -0x1.0b8d600000000p-6, 0x1.2448180000000p-6, 0x1.c118500000000p-6, 0x1.92c7d00000000p-7, 0x1.7dc2480000000p-4, 0x1.045cac0000000p-4, 0x1.677f300000000p-5, -0x1.1189d00000000p-6, 0x1.631be00000000p-4, 0x1.5c90f40000000p-4, -0x1.18e8680000000p-4, 0x1.7f65200000000p-8, -0x1.702a920000000p-4, -0x1.dc24b00000000p-5, -0x1.5c47240000000p-4, -0x1.dc8d300000000p-7, -0x1.5f7d4e0000000p-4, 0x1.206b840000000p-4, 0x1.64336c0000000p-4, 0x1.47c00c0000000p-4, 0x1.5cd2080000000p-4, 0x1.3791780000000p-4, -0x1.513c880000000p-4, 0x1.4b98f40000000p-4, -0x1.5d457e0000000p-4, 0x1.62bcc00000000p-7, 0x1.0e91e00000000p-5, -0x1.5b0b960000000p-4, -0x1.a8dc9a0000000p-5, -0x1.818fd20000000p-4, -0x1.13d2c20000000p-4, -0x1.11c7640000000p-4, 0x1.30bc740000000p-4, -0x1.7c3d7a0000000p-4, -0x1.e2ec000000000p-8, 0x1.69c16c0000000p-4, -0x1.1979100000000p-5, -0x1.a55ba00000000p-7, -0x1.362c080000000p-4, -0x1.817e2c0000000p-5, -0x1.a4991e0000000p-5, -0x1.ed53b00000000p-5, 0x1.8863800000000p-7, -0x1.4344f80000000p-6, 0x1.8232200000000p-7, -0x1.d6fcee0000000p-5, -0x1.0059a00000000p-8, -0x1.3411360000000p-4, -0x1.3624b40000000p-4, -0x1.1976620000000p-5, -0x1.6ff0800000000p-7, -0x1.03dcf00000000p-4, -0x1.7645a20000000p-5, -0x1.199d000000000p-6, -0x1.12c6a20000000p-4, 0x1.748e400000000p-4, 0x1.46c7900000000p-4, 0x1.421c000000000p-13, -0x1.ee208e0000000p-5, 0x1.44f6500000000p-6, 0x1.13baec0000000p-4, -0x1.bd47100000000p-5, -0x1.786d600000000p-4, -0x1.51861c0000000p-4, -0x1.2109380000000p-4, 0x1.608c000000000p-8, 0x1.bc90900000000p-5, -0x1.96885e0000000p-5, 0x1.1b32000000000p-9, 0x1.899c100000000p-5, 0x1.6e34780000000p-5, -0x1.55b39e0000000p-4, 0x1.d945d80000000p-5, -0x1.a964380000000p-5, 0x1.ef69280000000p-5, -0x1.1e10980000000p-6, -0x1.f3919c0000000p-5, -0x1.8e86600000000p-7, -0x1.97f1b80000000p-6, 0x1.6419d00000000p-6, 0x1.5e1ce00000000p-4, 0x1.0efc480000000p-5, -0x1.7d64d40000000p-4, -0x1.0998c00000000p-6, -0x1.18d0500000000p-4, -0x1.3ef40c0000000p-4, 0x1.b4aed00000000p-5, 0x1.1f1a3c0000000p-4, 0x1.0607fc0000000p-4, 0x1.cb1a180000000p-6, -0x1.2aeeea0000000p-4, 0x1.00fb580000000p-4, 0x1.dfaf400000000p-5, -0x1.e58e600000000p-5, 0x1.f45c580000000p-5, -0x1.c7a8540000000p-5, 0x1.135d480000000p-4, -0x1.4661100000000p-4, -0x1.b956800000000p-7, 0x1.0623300000000p-7, 0x1.3842b40000000p-4, 0x1.baa9e00000000p-5, -0x1.3c0e000000000p-11, 0x1.3139d00000000p-7, -0x1.9ea7d80000000p-5, 0x1.d8d1400000000p-6, 0x1.d25d100000000p-7, -0x1.2e90120000000p-5, -0x1.480fde0000000p-4, 0x1.169ee00000000p-8, 0x1.0981100000000p-4, 0x1.d098880000000p-5, -0x1.f089f80000000p-5, 0x1.c6af900000000p-5, 0x1.5deda00000000p-8, 0x1.779db80000000p-4, 0x1.a0e7480000000p-6, -0x1.11b04a0000000p-4, -0x1.654b280000000p-6, -0x1.c4e1f00000000p-6, -0x1.24a6840000000p-4, 0x1.a658580000000p-5, 0x1.16534c0000000p-4, 0x1.999e100000000p-7, 0x1.0cf6300000000p-4, 0x1.baa8000000000p-13, 0x1.20d97c0000000p-4, -0x1.5a436e0000000p-4, -0x1.da58e40000000p-5, 0x1.0b09e00000000p-8, 0x1.8ec1f80000000p-5, 0x1.c4d8800000000p-7, 0x1.1b34f00000000p-5, -0x1.54d7040000000p-5, -0x1.e047f00000000p-6, -0x1.082c9a0000000p-4, 0x1.759de00000000p-6, -0x1.9002560000000p-5, 0x1.5d97080000000p-5, 0x1.003ab80000000p-4, -0x1.2c0aa20000000p-4, -0x1.68638a0000000p-4, 0x1.c35a300000000p-6, 0x1.46ae000000000p-6, 0x1.1b82300000000p-6, 0x1.27bdd00000000p-5, -0x1.2386f60000000p-5, 0x1.54db980000000p-6, 0x1.5c47400000000p-6, 0x1.3422800000000p-9, -0x1.56cc4c0000000p-4, -0x1.2213c00000000p-4, -0x1.e1f6420000000p-5, -0x1.16310e0000000p-4, -0x1.6a0f9c0000000p-4, 0x1.c2cb180000000p-5, 0x1.bacb780000000p-5, 0x1.34b0240000000p-4, -0x1.ec28f20000000p-5, -0x1.a489860000000p-5, 0x1.847fe00000000p-6, 0x1.1cff400000000p-9, -0x1.7367c00000000p-4, 0x1.18717c0000000p-4, -0x1.8507a00000000p-6, -0x1.42294a0000000p-5, 0x1.09d05c0000000p-4, 0x1.0a98080000000p-4, -0x1.768f120000000p-5, -0x1.06ff440000000p-4, 0x1.5549800000000p-8, -0x1.709b100000000p-5, -0x1.8380300000000p-7, -0x1.513af20000000p-5, 0x1.4474500000000p-4, -0x1.0009540000000p-4, 0x1.9a89180000000p-5, 0x1.b3c9e00000000p-5, -0x1.bf5c000000000p-13, 0x1.e42c780000000p-5, -0x1.65722e0000000p-4, 0x1.b924200000000p-5, 0x1.2693d40000000p-4, 0x1.5778080000000p-5, 0x1.28b8ec0000000p-4, -0x1.d321460000000p-5, -0x1.1934020000000p-5, -0x1.ec8ab00000000p-7, -0x1.1b200c0000000p-4, 0x1.bba6300000000p-6, -0x1.e9fd320000000p-5, 0x1.7d64c00000000p-9, 0x1.d571100000000p-7, -0x1.f5bf260000000p-5, 0x1.53d50c0000000p-4, 0x1.2187300000000p-4, 0x1.3b20e00000000p-5, -0x1.781d8e0000000p-4, 0x1.f30fa80000000p-5, -0x1.64c1a60000000p-5, -0x1.edaa200000000p-6, -0x1.1646780000000p-4, -0x1.4e96ba0000000p-4, -0x1.ebe9c80000000p-6, -0x1.d318d80000000p-6, -0x1.4a26120000000p-4, -0x1.0de0240000000p-5, 0x1.ddda000000000p-11, 0x1.39d8f80000000p-5, 0x1.1102080000000p-5, -0x1.8c615e0000000p-5, 0x1.00dba00000000p-5, -0x1.3f35680000000p-4, -0x1.6ffe580000000p-4, 0x1.775c400000000p-6, -0x1.6b0ce60000000p-4, -0x1.ddedce0000000p-5, 0x1.20f1080000000p-4, 0x1.642fbc0000000p-4, 0x1.6906c40000000p-4, -0x1.03a8b80000000p-4, -0x1.98b9280000000p-5, 0x1.25a4e00000000p-6, -0x1.7c75a00000000p-4, 0x1.22b1280000000p-5, -0x1.9125880000000p-6, -0x1.7c30a40000000p-5, 0x1.0b01b00000000p-6, 0x1.8857d00000000p-6, 0x1.0153100000000p-5, 0x1.f859c00000000p-5, 0x1.496bbc0000000p-4, -0x1.2d43b20000000p-4, -0x1.4bd5e80000000p-4, 0x1.7f05600000000p-6, 0x1.451a700000000p-4, 0x1.7540e00000000p-7, 0x1.bac1100000000p-6, 0x1.0131700000000p-5, -0x1.60e2f80000000p-6, -0x1.2f29ae0000000p-4, 0x1.62db240000000p-4, -0x1.4610e00000000p-6, -0x1.7b429e0000000p-5, 0x1.0f84800000000p-5, 0x1.3f53500000000p-4, 0x1.4355b00000000p-5, 0x1.1ff0c80000000p-4, 0x1.25d2600000000p-4, 0x1.4fb9600000000p-5, 0x1.f379400000000p-8, 0x1.adb8800000000p-8, -0x1.6812060000000p-5, -0x1.3d24940000000p-5, -0x1.34ac8a0000000p-5, 0x1.4eefb80000000p-6, -0x1.d4ae700000000p-7, 0x1.ab61900000000p-6, -0x1.5ada200000000p-4, -0x1.4a56180000000p-5, -0x1.755d700000000p-6, -0x1.6e12e40000000p-5, -0x1.5b003c0000000p-4, 0x1.27bb480000000p-4, -0x1.1deba80000000p-5, 0x1.9160780000000p-5, 0x1.487ddc0000000p-4, -0x1.bbfb800000000p-7, 0x1.a7cdc80000000p-5, 0x1.d199e00000000p-5, -0x1.8538b80000000p-6, -0x1.7568300000000p-5, 0x1.6ec2200000000p-4, 0x1.080dd80000000p-4}
, {0x1.68e5a40000000p-4, -0x1.d4c9b00000000p-5, -0x1.3122640000000p-4, 0x1.70c7480000000p-5, 0x1.59d1200000000p-4, -0x1.3f969c0000000p-4, -0x1.2fcbea0000000p-5, 0x1.4d2b6c0000000p-4, 0x1.40f3d00000000p-5, -0x1.69bca80000000p-4, 0x1.8c95b00000000p-6, 0x1.468a340000000p-4, -0x1.1e0be00000000p-4, 0x1.6ce3280000000p-4, 0x1.5706680000000p-6, 0x1.6946d40000000p-4, -0x1.bb24300000000p-7, 0x1.4376a80000000p-4, 0x1.eb92d00000000p-5, 0x1.55d23c0000000p-4, 0x1.2023640000000p-4, 0x1.eb90780000000p-5, 0x1.6ec1c00000000p-5, -0x1.27128c0000000p-4, 0x1.48b3680000000p-5, -0x1.7b8e9e0000000p-4, 0x1.a2a4900000000p-5, -0x1.6248580000000p-4, -0x1.4ef2ea0000000p-4, -0x1.bf85460000000p-5, 0x1.1e55100000000p-6, -0x1.a64c540000000p-5, 0x1.7317200000000p-6, 0x1.d1e6b00000000p-5, 0x1.f83a300000000p-5, -0x1.7622a00000000p-7, 0x1.5cc8900000000p-5, -0x1.7d81540000000p-4, -0x1.d0c2680000000p-5, -0x1.bed4580000000p-5, -0x1.2fdc060000000p-4, 0x1.e471f00000000p-6, -0x1.b7c5800000000p-10, 0x1.274db40000000p-4, -0x1.53e6c00000000p-7, -0x1.9b21ae0000000p-5, -0x1.6ecfb60000000p-4, 0x1.c840a80000000p-5, 0x1.1389400000000p-5, -0x1.205fe60000000p-4, -0x1.48e8880000000p-4, -0x1.fd64860000000p-5, 0x1.37600c0000000p-4, 0x1.08f3500000000p-6, 0x1.3125600000000p-5, 0x1.6342680000000p-4, 0x1.904bd00000000p-6, -0x1.654ab00000000p-6, 0x1.f56ba00000000p-5, 0x1.3521380000000p-4, -0x1.6b3ee00000000p-8, -0x1.6d9d380000000p-4, -0x1.8134380000000p-4, -0x1.d0e0460000000p-5, -0x1.4787c00000000p-7, 0x1.082c400000000p-6, -0x1.67e4000000000p-13, -0x1.c7a7580000000p-6, 0x1.499d440000000p-4, 0x1.5c3e500000000p-7, -0x1.041f5c0000000p-4, -0x1.2bf9040000000p-4, 0x1.2a02f80000000p-5, 0x1.1e2ba00000000p-4, 0x1.79bf000000000p-10, 0x1.873e800000000p-9, 0x1.aab0f00000000p-5, -0x1.a8a4680000000p-5, -0x1.5887e80000000p-4, -0x1.5ec5c80000000p-5, 0x1.291ec00000000p-5, -0x1.4366800000000p-9, 0x1.9ace200000000p-5, 0x1.7375d40000000p-4, -0x1.353c200000000p-8, 0x1.45c7440000000p-4, 0x1.04866c0000000p-4, 0x1.f7e0f80000000p-5, 0x1.029ed00000000p-4, 0x1.03add40000000p-4, -0x1.67e7d00000000p-5, -0x1.48ee2e0000000p-4, 0x1.259ac00000000p-8, 0x1.5542900000000p-4, -0x1.0d8e400000000p-8, 0x1.4174580000000p-5, 0x1.2aec6c0000000p-4, 0x1.f888400000000p-6, 0x1.8effb80000000p-6, -0x1.21cc620000000p-4, 0x1.7ab7180000000p-4, -0x1.0eab0c0000000p-4, 0x1.06c9c80000000p-5, 0x1.40e9280000000p-4, -0x1.2fbd3e0000000p-4, 0x1.0dcb840000000p-4, 0x1.d891400000000p-8, -0x1.0429340000000p-5, -0x1.3685b80000000p-4, -0x1.2743c00000000p-4, -0x1.62285c0000000p-4, 0x1.c667800000000p-10, 0x1.5bbfe00000000p-4, -0x1.0abfa20000000p-4, -0x1.9ae3980000000p-6, -0x1.d7194a0000000p-5, -0x1.a155200000000p-7, -0x1.32447e0000000p-4, 0x1.df73f80000000p-5, 0x1.ffe0100000000p-5, -0x1.d60cca0000000p-5, 0x1.012f080000000p-4, -0x1.beda000000000p-6, 0x1.63a5300000000p-5, -0x1.b5c9000000000p-7, 0x1.3a97500000000p-4, -0x1.1dc4ca0000000p-5, 0x1.3b72500000000p-6, -0x1.006a600000000p-4, 0x1.a953380000000p-5, 0x1.a9c2900000000p-7, -0x1.f69a700000000p-7, -0x1.19eb100000000p-4, 0x1.8f4b580000000p-5, -0x1.3a01480000000p-5, -0x1.ff8b240000000p-5, 0x1.6ad4000000000p-5, 0x1.64e9f00000000p-6, 0x1.81f4900000000p-5, -0x1.1f3b400000000p-7, 0x1.5d70980000000p-4, 0x1.38bb500000000p-7, 0x1.6fedd80000000p-6, -0x1.8e26ce0000000p-5, 0x1.586c700000000p-5, 0x1.451cc00000000p-5, -0x1.90cca80000000p-5, -0x1.f6c9e00000000p-7, -0x1.34e1640000000p-5, -0x1.57b6000000000p-10, 0x1.ab2b980000000p-5, -0x1.354af00000000p-4, 0x1.80fed80000000p-5, -0x1.54261e0000000p-4, -0x1.9ff1500000000p-6, 0x1.2534d80000000p-5, -0x1.4bf35a0000000p-4, -0x1.08e3880000000p-4, 0x1.80c9680000000p-4, -0x1.0f301a0000000p-4, -0x1.1ddac80000000p-6, 0x1.15cc940000000p-4, -0x1.e0d9100000000p-7, 0x1.5f88180000000p-6, 0x1.9476300000000p-6, 0x1.03e64c0000000p-4, 0x1.66d3840000000p-4, 0x1.f69e000000000p-5, 0x1.38ac480000000p-5, -0x1.1adff60000000p-4, -0x1.10deb20000000p-5, -0x1.813eb40000000p-4, -0x1.320a9a0000000p-5, 0x1.a77e800000000p-9, -0x1.be59800000000p-7, -0x1.008f300000000p-4, -0x1.1543ec0000000p-4, 0x1.67f5300000000p-5, -0x1.5c6f1c0000000p-4, 0x1.2b08e40000000p-4, 0x1.170cb00000000p-4, -0x1.5b59fe0000000p-5, 0x1.50e8f00000000p-5, -0x1.955f6a0000000p-5, 0x1.2b7fd00000000p-5, 0x1.4a6ef80000000p-6, 0x1.fab7900000000p-5, -0x1.83bbd00000000p-6, 0x1.a6a5580000000p-5, 0x1.592c540000000p-4, -0x1.fa04e40000000p-5, -0x1.43406e0000000p-4, -0x1.b35ed00000000p-6, -0x1.daf6e00000000p-6, -0x1.42bc3c0000000p-4, -0x1.9263080000000p-5, 0x1.3830280000000p-4, -0x1.d034c00000000p-8, 0x1.bea1300000000p-5, -0x1.f880180000000p-6, -0x1.1f82e20000000p-5, 0x1.7968600000000p-7, -0x1.0809880000000p-4, -0x1.c6c3880000000p-6, -0x1.2bfd040000000p-4, 0x1.7d08740000000p-4, -0x1.edf6f00000000p-7, -0x1.376c7c0000000p-4, -0x1.d774040000000p-5, -0x1.87a8f80000000p-6, 0x1.e58b900000000p-7, -0x1.cfc2100000000p-6, -0x1.a151c00000000p-6, -0x1.bfed9e0000000p-5, 0x1.4ce3a00000000p-5, -0x1.2fe9100000000p-6, -0x1.5b10d60000000p-5, 0x1.b2ac900000000p-5, 0x1.0c86640000000p-4, -0x1.72b6660000000p-4, -0x1.f8be100000000p-6, 0x1.3c2aa40000000p-4, -0x1.4148c80000000p-6, -0x1.9671e60000000p-5, 0x1.1cfdc00000000p-9, -0x1.0486b60000000p-5, -0x1.08b8f40000000p-4, 0x1.aeab800000000p-8, -0x1.76bad40000000p-4, 0x1.3dbde80000000p-4, 0x1.68d1e80000000p-4, 0x1.da8c600000000p-5, -0x1.0aab9c0000000p-5, -0x1.5b33280000000p-4, 0x1.e494280000000p-5, -0x1.604a240000000p-4, -0x1.feca3e0000000p-5, 0x1.48007c0000000p-4, 0x1.be0db80000000p-5, -0x1.3e04000000000p-10, 0x1.b482300000000p-5, -0x1.c226be0000000p-5, -0x1.967eb80000000p-6, -0x1.71880c0000000p-4, -0x1.2c8c500000000p-4, -0x1.0126b00000000p-6, -0x1.098dba0000000p-5, -0x1.4f0f980000000p-4, -0x1.0bd3600000000p-6, -0x1.270b8c0000000p-4, -0x1.21180a0000000p-5, -0x1.b5bba00000000p-8, -0x1.40ab300000000p-4, -0x1.40e8f20000000p-4, -0x1.5563e40000000p-4, -0x1.7b68c00000000p-4, 0x1.d936680000000p-5, -0x1.1bae600000000p-4, 0x1.054e080000000p-4, -0x1.f1c5700000000p-6, 0x1.c20d800000000p-10, -0x1.75fbb80000000p-5, -0x1.5e63300000000p-7, 0x1.21f7500000000p-4, -0x1.0a6df40000000p-5, 0x1.dece000000000p-10, -0x1.1f7b520000000p-4, -0x1.6df3060000000p-4, -0x1.0c0a5c0000000p-5, 0x1.67e12c0000000p-4, 0x1.1e97000000000p-10, -0x1.a527ce0000000p-5, -0x1.772d100000000p-5, 0x1.4d85780000000p-4, -0x1.9af7540000000p-5, -0x1.3f16500000000p-7, 0x1.4f25bc0000000p-4, -0x1.cd8b600000000p-6, -0x1.dca0c40000000p-5, -0x1.c9b4900000000p-6, -0x1.e638da0000000p-5, 0x1.bd69200000000p-5, -0x1.7a3e3e0000000p-4, -0x1.59d50a0000000p-4, 0x1.d147e00000000p-7, -0x1.826a380000000p-5, 0x1.0364900000000p-4, 0x1.23dcf80000000p-5, -0x1.cc97600000000p-5, -0x1.babdb00000000p-7, -0x1.df5f7c0000000p-5, -0x1.ada0c60000000p-5, -0x1.23b3860000000p-4, 0x1.3630680000000p-6, 0x1.5968b00000000p-6, -0x1.1946800000000p-7, -0x1.510a5c0000000p-4, -0x1.4ea1960000000p-5, -0x1.3cf0920000000p-4, -0x1.1e2a120000000p-5, -0x1.0808fc0000000p-4, -0x1.f896b20000000p-5, 0x1.e18cf00000000p-5, 0x1.4442180000000p-5, 0x1.1447600000000p-8, -0x1.4e87a00000000p-7, -0x1.2e079c0000000p-5, -0x1.47816c0000000p-4, 0x1.59f2640000000p-4, -0x1.428fc80000000p-6, 0x1.0ff1d40000000p-4, 0x1.3468f00000000p-4, 0x1.5869180000000p-6, 0x1.1677200000000p-5, -0x1.806cba0000000p-5, -0x1.3d7dcc0000000p-4, -0x1.4e3ce80000000p-6, -0x1.c759b80000000p-6, 0x1.a45c580000000p-5, -0x1.b530000000000p-10, -0x1.1631800000000p-4, 0x1.508ad80000000p-4, -0x1.79af040000000p-4, 0x1.8779780000000p-6, 0x1.6dc1240000000p-4, -0x1.6891360000000p-4, 0x1.419a480000000p-5, 0x1.6441b80000000p-5, 0x1.3956700000000p-4, 0x1.a160100000000p-7, 0x1.2f87180000000p-6, -0x1.254d400000000p-5, -0x1.9dfef00000000p-6, 0x1.5260500000000p-5, 0x1.4542a00000000p-6, 0x1.6209480000000p-5, -0x1.7b82a20000000p-4, 0x1.80deb80000000p-4, 0x1.9ba7600000000p-5, 0x1.405e300000000p-4, 0x1.009a200000000p-6, 0x1.34b2800000000p-4, 0x1.39e1780000000p-4, -0x1.5a74e40000000p-4, 0x1.6fdc280000000p-6, -0x1.5f8e360000000p-4, 0x1.0c25c80000000p-5, -0x1.903f400000000p-9, -0x1.25f6800000000p-5, 0x1.96c9800000000p-6, 0x1.138d600000000p-4, -0x1.3416fc0000000p-5, 0x1.4eecc00000000p-5, 0x1.28da180000000p-5, 0x1.a156600000000p-6, 0x1.7e4dc00000000p-5, 0x1.a475400000000p-9, -0x1.767e080000000p-6, -0x1.30fe4a0000000p-5, 0x1.66f5a40000000p-4, 0x1.1adb340000000p-4, 0x1.c78e280000000p-5, -0x1.5e93b40000000p-4, 0x1.8a8ed00000000p-7, -0x1.15450e0000000p-4, 0x1.706d180000000p-4, 0x1.2f20300000000p-7, -0x1.6358a20000000p-4, -0x1.2385a40000000p-4, -0x1.b8d4d00000000p-6, -0x1.88d5c80000000p-6, 0x1.5f7fe80000000p-6, 0x1.5636a00000000p-8, -0x1.52e14c0000000p-5, -0x1.d7d8120000000p-5, -0x1.3750160000000p-5, -0x1.3b88f20000000p-4, -0x1.a4d3000000000p-6, -0x1.8f3fc00000000p-8, -0x1.620fc40000000p-4, -0x1.68b29c0000000p-5, -0x1.01161e0000000p-4, 0x1.70237c0000000p-4, 0x1.1d41ac0000000p-4, 0x1.1808780000000p-5, -0x1.9e76000000000p-9, -0x1.5a7ab60000000p-5, -0x1.6b3caa0000000p-5, 0x1.8111700000000p-4, 0x1.6290900000000p-5, -0x1.78b5f20000000p-4, -0x1.2d9f740000000p-4, -0x1.0a30c20000000p-4, -0x1.1cb0300000000p-4, -0x1.05d7100000000p-4, -0x1.a51d800000000p-8, 0x1.841a180000000p-5, -0x1.dfe5f80000000p-5, 0x1.bc93d00000000p-5, -0x1.64c2ec0000000p-5, 0x1.007c200000000p-5, 0x1.4162f80000000p-4, -0x1.a7f5d40000000p-5, -0x1.2264200000000p-7, -0x1.21527e0000000p-5, -0x1.8fcc420000000p-5, 0x1.68faf40000000p-4, 0x1.695f380000000p-4, 0x1.7f2d600000000p-4, 0x1.72440c0000000p-4, 0x1.c46a480000000p-6, -0x1.f6a9200000000p-8, -0x1.5ef0080000000p-4, -0x1.7349fa0000000p-4, 0x1.ca43080000000p-6, 0x1.41789c0000000p-4, 0x1.b4a7a00000000p-7, -0x1.25a3700000000p-6, 0x1.1939b40000000p-4, -0x1.d741540000000p-5, -0x1.fcdcf00000000p-7, -0x1.01790a0000000p-4, -0x1.f22bf00000000p-7, 0x1.e30d900000000p-7, -0x1.0ec2000000000p-10, 0x1.76ef300000000p-4, 0x1.48df040000000p-4, -0x1.7dd1c80000000p-4, 0x1.1c4e600000000p-4, 0x1.49f3200000000p-5, -0x1.7f45700000000p-6, 0x1.5a08340000000p-4, -0x1.0a89e80000000p-4, 0x1.175c1c0000000p-4, -0x1.1b30400000000p-8, 0x1.7898740000000p-4, 0x1.08c7a00000000p-4, 0x1.41fbbc0000000p-4, 0x1.b22e800000000p-6, -0x1.52c7600000000p-6, -0x1.6c0c480000000p-4, -0x1.1f013a0000000p-4, -0x1.548f3a0000000p-5, -0x1.8ffe180000000p-6, 0x1.59d31c0000000p-4, 0x1.75ffa00000000p-4, 0x1.fa00000000000p-6, -0x1.2e1e3e0000000p-4, -0x1.8038ae0000000p-5, -0x1.73d5ac0000000p-4, 0x1.ddb0200000000p-7, 0x1.ce00480000000p-6, -0x1.2e1f540000000p-4, 0x1.fb92680000000p-5, -0x1.72c0ce0000000p-4, -0x1.162fa00000000p-6, 0x1.0268980000000p-4, -0x1.5aa3000000000p-7, 0x1.007a600000000p-8, 0x1.f243e00000000p-6, 0x1.eb38400000000p-9, -0x1.d24ac00000000p-5, -0x1.36e51c0000000p-4, -0x1.6647120000000p-4, 0x1.c58be00000000p-6, -0x1.1746b20000000p-4, -0x1.2731a20000000p-4, 0x1.b1b9800000000p-5, -0x1.a15b000000000p-10, 0x1.7684380000000p-6, 0x1.5909400000000p-5, 0x1.8c49480000000p-6, 0x1.7518980000000p-5, -0x1.4043a00000000p-6, -0x1.1a43f00000000p-7, 0x1.6701080000000p-5, -0x1.1ffffe0000000p-5, 0x1.9899080000000p-6, -0x1.a89bd40000000p-5, -0x1.fdbda80000000p-6, 0x1.1a9f700000000p-6, -0x1.933e360000000p-5, -0x1.5393500000000p-5, 0x1.e501280000000p-5, -0x1.323c5e0000000p-4, 0x1.1ee4680000000p-5, -0x1.641b9a0000000p-4, -0x1.55a2000000000p-12, 0x1.3b6d100000000p-4, -0x1.28b4760000000p-5, 0x1.052f900000000p-7, 0x1.88b7c00000000p-7, -0x1.5854c00000000p-4, 0x1.aec1800000000p-6, 0x1.4ee1980000000p-4, -0x1.a05a280000000p-6, 0x1.57803c0000000p-4, -0x1.1b216a0000000p-4, 0x1.f14d080000000p-6, -0x1.ff87180000000p-5, 0x1.cef0400000000p-5, -0x1.2213000000000p-6, 0x1.2508780000000p-4, 0x1.3891a00000000p-4, -0x1.039fe00000000p-7, -0x1.31a8500000000p-4, 0x1.478f280000000p-4, 0x1.b43a100000000p-5, 0x1.6a34500000000p-7, 0x1.5777c80000000p-5, -0x1.89aa220000000p-5, -0x1.c52e9e0000000p-5, 0x1.6bc8200000000p-4, 0x1.f818c80000000p-5, 0x1.119fe00000000p-7, 0x1.9631300000000p-5, -0x1.6a07040000000p-4, -0x1.49efda0000000p-4, -0x1.eb37e00000000p-8, -0x1.298f780000000p-6, 0x1.cb32000000000p-8, 0x1.275dc80000000p-6, 0x1.1edff00000000p-6, -0x1.d817840000000p-5, -0x1.3b7dd40000000p-4, 0x1.1ec82c0000000p-4, -0x1.6bc8800000000p-8, -0x1.a078680000000p-6, -0x1.2e04c80000000p-4, 0x1.f31e300000000p-5, -0x1.3a66ae0000000p-4, 0x1.1aebc00000000p-6, 0x1.7ac68c0000000p-4, -0x1.20b4800000000p-4, 0x1.2a4d780000000p-5, 0x1.1afc380000000p-6, 0x1.6b09940000000p-4, 0x1.c85c480000000p-5, 0x1.170a540000000p-4, 0x1.f710700000000p-5, 0x1.7bec580000000p-5, -0x1.1e90b80000000p-6, 0x1.51f3c40000000p-4, -0x1.13d9480000000p-6, -0x1.5f4bf80000000p-6, 0x1.4658f00000000p-6, 0x1.610e680000000p-6, -0x1.17f3600000000p-6, -0x1.1a8b020000000p-4, -0x1.8447ec0000000p-5, 0x1.2a43200000000p-7, -0x1.791eb00000000p-7, -0x1.f418c00000000p-5, -0x1.11f6000000000p-7, -0x1.3e4b800000000p-6, -0x1.b80ff20000000p-5, -0x1.dff4300000000p-6, 0x1.8484280000000p-5, 0x1.4996780000000p-6, -0x1.8252260000000p-5, 0x1.bbd2600000000p-5, 0x1.dc33700000000p-6, -0x1.2847200000000p-6, 0x1.094bc80000000p-5, -0x1.c29ec00000000p-7, 0x1.02efb80000000p-5, 0x1.1534dc0000000p-4, 0x1.45e0c40000000p-4, -0x1.3ffbe20000000p-5, -0x1.156ed00000000p-4, 0x1.57d2000000000p-9, -0x1.3c7c920000000p-4, 0x1.ead9c00000000p-8, -0x1.9bdd7c0000000p-5, -0x1.5adcb00000000p-4, -0x1.1e84fc0000000p-5}
, {0x1.003ca00000000p-8, -0x1.ddf1b80000000p-6, -0x1.23b2700000000p-4, -0x1.0906400000000p-9, 0x1.5ca7280000000p-6, 0x1.f972900000000p-6, -0x1.46abc60000000p-4, -0x1.461e800000000p-8, -0x1.ebc9000000000p-6, -0x1.a93c460000000p-5, -0x1.743f000000000p-5, 0x1.4649d00000000p-5, 0x1.7af7500000000p-4, -0x1.e276a00000000p-7, -0x1.e39d800000000p-7, 0x1.7d7c000000000p-4, -0x1.2b9d400000000p-7, 0x1.260c380000000p-5, 0x1.1da6a80000000p-5, 0x1.45b7d80000000p-4, -0x1.5897780000000p-6, -0x1.1cd8460000000p-4, -0x1.1ea6000000000p-4, -0x1.11fc9a0000000p-4, 0x1.80ada80000000p-4, -0x1.7eff0c0000000p-4, 0x1.f139e80000000p-5, -0x1.bdb5000000000p-5, 0x1.0041e00000000p-8, 0x1.ff5fa00000000p-5, 0x1.923b900000000p-5, -0x1.3c37c00000000p-4, 0x1.033fc80000000p-5, -0x1.8f928e0000000p-5, -0x1.abc8800000000p-5, -0x1.992c000000000p-5, 0x1.56acf00000000p-5, 0x1.4a82000000000p-6, -0x1.fd78980000000p-6, 0x1.b9c2580000000p-5, 0x1.23f8e80000000p-5, 0x1.107bb00000000p-5, -0x1.2a70a00000000p-5, 0x1.3b20c40000000p-4, 0x1.4f4b680000000p-6, 0x1.cf1b080000000p-6, -0x1.2960580000000p-6, -0x1.239db00000000p-4, 0x1.78c7880000000p-6, -0x1.e1d2520000000p-5, 0x1.5b97000000000p-7, -0x1.f628aa0000000p-5, 0x1.530fc00000000p-4, -0x1.7adde80000000p-4, 0x1.a926f00000000p-7, -0x1.e129380000000p-6, 0x1.4ff1000000000p-4, -0x1.3fe8400000000p-6, -0x1.d9efc00000000p-5, -0x1.28b00a0000000p-5, 0x1.ed8ba80000000p-5, 0x1.76ff600000000p-5, -0x1.2592660000000p-4, 0x1.223b400000000p-4, 0x1.6ac8440000000p-4, 0x1.acff400000000p-5, 0x1.7c85b80000000p-5, 0x1.5ff3600000000p-8, 0x1.68eac00000000p-4, -0x1.3aca360000000p-4, -0x1.4759da0000000p-4, -0x1.66fe1a0000000p-4, -0x1.71f8580000000p-6, 0x1.0c28c80000000p-5, -0x1.621d700000000p-6, 0x1.e298f80000000p-5, 0x1.f3ff800000000p-6, -0x1.b692a00000000p-5, -0x1.311faa0000000p-4, 0x1.c70df80000000p-6, -0x1.81e0ee0000000p-4, -0x1.232c6c0000000p-4, 0x1.4c21180000000p-4, -0x1.f461480000000p-6, 0x1.3718e40000000p-4, 0x1.78c7400000000p-8, 0x1.064c900000000p-5, 0x1.2cd5900000000p-4, -0x1.1510c00000000p-6, 0x1.696b200000000p-5, -0x1.2b34500000000p-6, -0x1.7b29dc0000000p-4, 0x1.17e6200000000p-5, 0x1.5a5cb00000000p-4, 0x1.7991880000000p-5, -0x1.61ef800000000p-4, -0x1.1c3cb00000000p-4, 0x1.5b59840000000p-4, -0x1.111b640000000p-4, 0x1.8190d80000000p-6, 0x1.6c4c6c0000000p-4, -0x1.36393e0000000p-4, -0x1.4cb7d40000000p-4, -0x1.aeb20a0000000p-5, -0x1.92d5140000000p-5, 0x1.5b92a80000000p-6, -0x1.01385c0000000p-4, 0x1.0c7db40000000p-4, -0x1.2e2a220000000p-4, -0x1.e09a900000000p-6, 0x1.96e3080000000p-5, -0x1.cf70500000000p-7, 0x1.f993400000000p-7, 0x1.449d1c0000000p-4, -0x1.b9ff5a0000000p-5, -0x1.8fad580000000p-6, -0x1.2f28a60000000p-5, -0x1.2947400000000p-4, 0x1.0f9da40000000p-4, 0x1.6b7c900000000p-7, 0x1.1290080000000p-6, 0x1.3d8b180000000p-4, -0x1.1274820000000p-5, 0x1.1af9400000000p-8, 0x1.801a800000000p-4, -0x1.06200e0000000p-5, 0x1.2354c00000000p-5, -0x1.4246c00000000p-4, 0x1.e71cd80000000p-5, 0x1.f526180000000p-6, -0x1.1dcf300000000p-7, 0x1.9e52e00000000p-7, 0x1.be47800000000p-5, -0x1.6da2f80000000p-4, 0x1.41b8800000000p-6, 0x1.4c52ec0000000p-4, -0x1.1a83280000000p-6, -0x1.f058ee0000000p-5, 0x1.160e400000000p-4, -0x1.f509900000000p-6, 0x1.27f2680000000p-4, 0x1.47c6580000000p-5, 0x1.81f3a80000000p-6, 0x1.1269180000000p-6, -0x1.426ca60000000p-4, -0x1.6507500000000p-6, -0x1.936b940000000p-5, -0x1.becc320000000p-5, 0x1.d658700000000p-6, -0x1.819e500000000p-6, -0x1.6ef0620000000p-5, -0x1.1b5f740000000p-4, -0x1.679e180000000p-5, 0x1.0273d00000000p-4, 0x1.7677340000000p-4, -0x1.7d1ee00000000p-4, -0x1.284c700000000p-7, 0x1.45ef100000000p-4, 0x1.19e7200000000p-4, -0x1.005d000000000p-9, 0x1.263aa40000000p-4, 0x1.e49a200000000p-5, -0x1.60041e0000000p-5, -0x1.1fbd100000000p-7, 0x1.a93c480000000p-5, 0x1.4c26800000000p-4, 0x1.83d8600000000p-6, 0x1.0955740000000p-4, -0x1.b11b080000000p-6, 0x1.80f5900000000p-4, -0x1.bce00a0000000p-5, 0x1.1c32000000000p-4, -0x1.258bec0000000p-4, -0x1.04e0d20000000p-4, 0x1.4328f40000000p-4, -0x1.43a6280000000p-4, -0x1.23c1a80000000p-5, -0x1.1428600000000p-5, 0x1.a15c000000000p-13, -0x1.40e7ee0000000p-4, -0x1.eb67340000000p-5, -0x1.1f1fe40000000p-4, -0x1.1ba2800000000p-10, -0x1.e8e4e00000000p-7, 0x1.f902f00000000p-7, -0x1.af75500000000p-7, -0x1.5d043a0000000p-4, 0x1.2206780000000p-4, 0x1.49218c0000000p-4, 0x1.543b780000000p-5, 0x1.26196c0000000p-4, -0x1.398a600000000p-7, 0x1.81d1000000000p-6, 0x1.0904b40000000p-4, -0x1.4146780000000p-4, -0x1.064be80000000p-4, 0x1.7ae4a40000000p-4, -0x1.a06a380000000p-5, 0x1.59432c0000000p-4, -0x1.5a01820000000p-5, 0x1.a35bd00000000p-5, -0x1.6fcb960000000p-4, 0x1.e18a800000000p-8, -0x1.36c0000000000p-6, 0x1.c95bb00000000p-5, -0x1.f9d1140000000p-5, 0x1.4222f80000000p-5, -0x1.1ff8080000000p-5, -0x1.abdee00000000p-6, -0x1.0757840000000p-5, -0x1.b9cc200000000p-8, -0x1.a910500000000p-6, -0x1.3534600000000p-7, 0x1.a4f5580000000p-5, -0x1.7827300000000p-5, -0x1.327fd80000000p-6, -0x1.c720c20000000p-5, -0x1.60a3300000000p-6, -0x1.7805c00000000p-6, 0x1.6fdfc80000000p-5, 0x1.7ace500000000p-5, -0x1.6273a80000000p-5, 0x1.a7bee80000000p-5, -0x1.e9ad300000000p-7, -0x1.5c6e280000000p-6, -0x1.7c891a0000000p-5, 0x1.5550980000000p-6, -0x1.1886300000000p-5, -0x1.65d1680000000p-5, 0x1.33ae580000000p-6, -0x1.9bb3480000000p-5, -0x1.46b6b40000000p-4, 0x1.79be3c0000000p-4, -0x1.b8db040000000p-5, 0x1.b449a00000000p-8, -0x1.3d85840000000p-5, -0x1.6fa5980000000p-5, 0x1.8950080000000p-5, -0x1.60b9f20000000p-5, 0x1.fb93b00000000p-6, 0x1.5ad3e00000000p-4, 0x1.6f2a600000000p-6, -0x1.34083c0000000p-5, -0x1.4502620000000p-4, -0x1.4103800000000p-10, 0x1.17dfc00000000p-7, 0x1.73be800000000p-4, 0x1.7fb4c00000000p-4, -0x1.e3b1020000000p-5, 0x1.64718c0000000p-4, 0x1.b669500000000p-5, 0x1.4f69880000000p-6, -0x1.cf07560000000p-5, -0x1.48f33e0000000p-4, -0x1.2d65a80000000p-5, 0x1.f86c300000000p-7, 0x1.e26d600000000p-7, 0x1.70b5b00000000p-5, -0x1.e3c9500000000p-6, 0x1.5446c80000000p-5, -0x1.77dce80000000p-4, 0x1.75e0280000000p-5, -0x1.7aacba0000000p-5, -0x1.731b9a0000000p-4, 0x1.2ae9e00000000p-4, -0x1.733f500000000p-5, 0x1.1df9380000000p-4, 0x1.0eaa200000000p-5, -0x1.37cdf80000000p-4, -0x1.db81300000000p-6, -0x1.70c0000000000p-14, -0x1.052fea0000000p-5, 0x1.349fc80000000p-5, 0x1.20f0880000000p-4, -0x1.75faaa0000000p-4, -0x1.9276ea0000000p-5, 0x1.f61dc80000000p-5, 0x1.653da40000000p-4, 0x1.50788c0000000p-4, -0x1.7c4fba0000000p-5, -0x1.dbcc3a0000000p-5, 0x1.b10d980000000p-5, 0x1.f135500000000p-7, 0x1.e66fd00000000p-5, 0x1.e6cbd00000000p-5, -0x1.0be0e00000000p-7, -0x1.0bc5c00000000p-7, 0x1.c743100000000p-5, -0x1.4a21100000000p-7, 0x1.38d8e40000000p-4, 0x1.6387200000000p-7, -0x1.527a9c0000000p-4, 0x1.408dc00000000p-4, 0x1.e07b700000000p-5, -0x1.7b6a900000000p-6, 0x1.4ceb000000000p-10, -0x1.5a2e060000000p-4, -0x1.01fcb80000000p-4, 0x1.56fc800000000p-4, -0x1.04a3a20000000p-4, -0x1.f6cd4c0000000p-5, -0x1.3e5a300000000p-6, 0x1.6349600000000p-4, -0x1.c3a6b00000000p-7, 0x1.750eb80000000p-5, -0x1.e46f680000000p-6, 0x1.6cab580000000p-5, -0x1.93a2fa0000000p-5, -0x1.641ae60000000p-4, 0x1.7498200000000p-4, 0x1.09c8d80000000p-4, 0x1.d116400000000p-6, 0x1.d010000000000p-11, -0x1.e726d40000000p-5, -0x1.5058c60000000p-4, -0x1.7631ae0000000p-4, 0x1.0a02380000000p-4, -0x1.f353180000000p-5, -0x1.69337c0000000p-5, 0x1.eb5c680000000p-5, -0x1.5f9cee0000000p-4, 0x1.9dc4480000000p-5, 0x1.44bd840000000p-4, 0x1.94ba600000000p-7, -0x1.aac5700000000p-7, -0x1.3be9700000000p-5, -0x1.5db8b00000000p-7, 0x1.a9ad400000000p-7, -0x1.dc83700000000p-7, -0x1.70169a0000000p-4, 0x1.1543800000000p-4, 0x1.8a4e880000000p-6, 0x1.2c5dd00000000p-7, -0x1.2d78ce0000000p-4, -0x1.2239400000000p-6, -0x1.38a0520000000p-4, -0x1.07e0500000000p-4, 0x1.5c0ba00000000p-8, 0x1.48b8480000000p-5, -0x1.9f3c600000000p-8, -0x1.5e24ba0000000p-4, -0x1.d204000000000p-10, 0x1.65e7000000000p-8, 0x1.7a3ae00000000p-4, 0x1.543f780000000p-6, 0x1.3303680000000p-5, 0x1.474a6c0000000p-4, -0x1.792d600000000p-6, -0x1.df101e0000000p-5, 0x1.64ea280000000p-5, -0x1.2b75f80000000p-6, 0x1.d1ee600000000p-6, 0x1.79e9880000000p-5, -0x1.1715ea0000000p-5, 0x1.b52fc00000000p-9, -0x1.f663c80000000p-6, 0x1.6398480000000p-6, 0x1.578de00000000p-6, 0x1.a3a3200000000p-8, -0x1.6704100000000p-7, -0x1.fafbf60000000p-5, -0x1.41a1ee0000000p-4, -0x1.2643400000000p-8, -0x1.fe42980000000p-6, -0x1.ebfa380000000p-5, -0x1.12cdae0000000p-4, 0x1.103ce00000000p-7, 0x1.8345300000000p-7, 0x1.0cb4c80000000p-4, -0x1.a2b69e0000000p-5, -0x1.b872ba0000000p-5, 0x1.ffe2400000000p-5, -0x1.f417c40000000p-5, -0x1.f9d6000000000p-7, -0x1.1c76e80000000p-4, 0x1.d180900000000p-5, -0x1.0b4ba00000000p-5, -0x1.fe04c00000000p-7, -0x1.4f5b160000000p-4, 0x1.9d32e00000000p-6, 0x1.1ef7700000000p-5, -0x1.6569900000000p-4, 0x1.648d880000000p-4, 0x1.6e1b680000000p-5, 0x1.a6b8180000000p-6, -0x1.54f5bc0000000p-4, 0x1.78dee00000000p-4, -0x1.4e44740000000p-5, 0x1.afa4080000000p-5, -0x1.b935e20000000p-5, -0x1.e13a080000000p-5, -0x1.b257900000000p-6, -0x1.2344000000000p-11, 0x1.06ed300000000p-5, -0x1.2094b40000000p-5, 0x1.4bd8000000000p-4, -0x1.0f68ee0000000p-4, 0x1.7a83140000000p-4, 0x1.a51f800000000p-7, 0x1.3d38500000000p-7, -0x1.67001a0000000p-5, 0x1.6a91dc0000000p-4, -0x1.2c2d840000000p-4, -0x1.7c99000000000p-7, -0x1.fc103c0000000p-5, -0x1.8775b80000000p-5, -0x1.270f580000000p-4, 0x1.ff31b00000000p-5, -0x1.20303a0000000p-5, 0x1.7f66800000000p-7, -0x1.a5b3480000000p-5, 0x1.bd23f80000000p-5, 0x1.d670600000000p-5, 0x1.8283600000000p-5, 0x1.7db7900000000p-4, -0x1.bced220000000p-5, 0x1.16a10c0000000p-4, 0x1.3295600000000p-4, 0x1.a92e400000000p-9, 0x1.4b71f00000000p-6, 0x1.abff380000000p-5, 0x1.eebff80000000p-6, -0x1.50e88a0000000p-4, 0x1.4f7c2c0000000p-4, 0x1.cb47c80000000p-6, 0x1.6ea5bc0000000p-4, -0x1.1c39ac0000000p-5, 0x1.92fc680000000p-6, -0x1.e46dce0000000p-5, -0x1.3fc99a0000000p-4, 0x1.545f200000000p-5, -0x1.5c4ec00000000p-8, -0x1.963e9a0000000p-5, -0x1.668d7e0000000p-4, 0x1.5c60480000000p-5, 0x1.ba5c780000000p-5, 0x1.5f8b480000000p-5, -0x1.43b7900000000p-4, 0x1.7430e80000000p-4, 0x1.504ca80000000p-5, -0x1.fa8fd80000000p-6, 0x1.dd36680000000p-5, -0x1.58199c0000000p-4, -0x1.9dece00000000p-8, 0x1.5cad000000000p-10, 0x1.6421cc0000000p-4, -0x1.6901700000000p-4, 0x1.d284d00000000p-7, -0x1.fc49080000000p-6, 0x1.1e7e440000000p-4, 0x1.51e98c0000000p-4, -0x1.04b3600000000p-6, 0x1.b68da00000000p-6, -0x1.41ddd00000000p-7, -0x1.cb25d40000000p-5, -0x1.1fae000000000p-9, -0x1.5dd4600000000p-8, 0x1.6491780000000p-4, 0x1.4560a80000000p-5, -0x1.a467480000000p-5, 0x1.33c2200000000p-7, -0x1.9b4ddc0000000p-5, -0x1.6108c00000000p-6, 0x1.4fb1a00000000p-5, 0x1.44bd400000000p-5, -0x1.266e0e0000000p-5, 0x1.20ecf00000000p-5, 0x1.aa34880000000p-5, 0x1.ca98a80000000p-6, -0x1.cca6900000000p-7, 0x1.1c60100000000p-5, -0x1.4f62be0000000p-4, 0x1.ab13580000000p-5, -0x1.2e5e720000000p-4, 0x1.c7b0700000000p-5, -0x1.7a17060000000p-5, 0x1.39dc500000000p-5, -0x1.0068fc0000000p-4, -0x1.1b6fa20000000p-4, -0x1.3b5dc00000000p-9, -0x1.47c23c0000000p-4, 0x1.8092a80000000p-5, -0x1.7616900000000p-6, 0x1.6080c00000000p-9, -0x1.ad86c00000000p-8, -0x1.8e50e00000000p-7, -0x1.1921c80000000p-5, -0x1.4ecacc0000000p-4, 0x1.74ba140000000p-4, 0x1.30d4500000000p-5, 0x1.abb8000000000p-8, -0x1.6c94700000000p-5, -0x1.d508020000000p-5, -0x1.412a060000000p-5, 0x1.3556a80000000p-4, 0x1.f179e80000000p-5, -0x1.d9c9200000000p-7, 0x1.785eb00000000p-5, 0x1.2512c00000000p-7, 0x1.3c84400000000p-9, -0x1.7d26600000000p-6, -0x1.fcedb80000000p-6, -0x1.0350000000000p-4, -0x1.234df60000000p-5, -0x1.1ada200000000p-6, -0x1.cbfc000000000p-13, -0x1.b1f7920000000p-5, -0x1.df4d000000000p-8, 0x1.27e6180000000p-5, 0x1.585aa80000000p-5, 0x1.78bfa00000000p-4, 0x1.5396400000000p-9, 0x1.099f200000000p-7, 0x1.cb03d00000000p-5, 0x1.7d92a40000000p-4, 0x1.dce4480000000p-6, 0x1.2d02d40000000p-4, -0x1.c997460000000p-5, -0x1.aab4520000000p-5, 0x1.ed84400000000p-5, -0x1.f5609c0000000p-5, 0x1.2eb0440000000p-4, 0x1.3d72800000000p-8, 0x1.44c2640000000p-4, 0x1.38639c0000000p-4, 0x1.2449280000000p-4, 0x1.d52bc00000000p-5, 0x1.b354d00000000p-6, -0x1.249e400000000p-8, 0x1.6bd3200000000p-4, -0x1.7e16ea0000000p-5, -0x1.7131300000000p-6, 0x1.36c2b00000000p-7, 0x1.0063400000000p-5, 0x1.d69f480000000p-6, 0x1.ceb5900000000p-6, -0x1.a8ca220000000p-5, 0x1.be3b000000000p-7, 0x1.0039a40000000p-4, 0x1.2abd6c0000000p-4, -0x1.006ad80000000p-4, 0x1.d625800000000p-9, 0x1.37ab780000000p-4, -0x1.61bce80000000p-4, 0x1.4af1b00000000p-4, 0x1.65da980000000p-4, -0x1.52e00c0000000p-4, -0x1.7558e00000000p-8, 0x1.f656e00000000p-6, -0x1.ee15100000000p-6, -0x1.a800e60000000p-5, -0x1.ed69200000000p-5, 0x1.32b8500000000p-5, 0x1.3004280000000p-4, -0x1.3e47860000000p-4, 0x1.4585600000000p-5, 0x1.34da280000000p-4, -0x1.a2d8c00000000p-8, -0x1.de4d300000000p-6, -0x1.195f640000000p-5, -0x1.e6563e0000000p-5, -0x1.f96a320000000p-5, 0x1.bea0300000000p-5, -0x1.0767760000000p-4, 0x1.0a0e480000000p-5, -0x1.2122ae0000000p-5, -0x1.2bb3dc0000000p-5, 0x1.870d800000000p-10, -0x1.fe17000000000p-8, 0x1.12d0400000000p-4, 0x1.5eb58c0000000p-4, 0x1.0628a00000000p-7, 0x1.763af00000000p-4, -0x1.10f3d20000000p-4, -0x1.776a6a0000000p-4, 0x1.c973a80000000p-6}
