/**
  ******************************************************************************
  * @file    weights/fc.cc
  * @author  Pierre-Emmanuel Novac <penovac@unice.fr>, LEAT, CNRS, Université Côte d'Azur, France
  * @version 1.0.0
  * @date    24 march 2020
  * @brief   Template generating plain C code for the implementation of Convolutional Neural Networks on MCU
  */

#include <stdint.h>

#define INPUT_SAMPLES 100
#define FC_UNITS 10


const float dense_1_bias[FC_UNITS] = {0x1.e799280000000p-2, 0x1.46647c0000000p-3, -0x1.da674e0000000p-5, -0x1.edd61c0000000p-4, -0x1.29d7880000000p-2, -0x1.2812480000000p-1, -0x1.8790860000000p-3, -0x1.3e964a0000000p-2, 0x1.2370be0000000p-1, 0x1.29e1ae0000000p-2}
;

const float dense_1_kernel[FC_UNITS][INPUT_SAMPLES] = {{-0x1.7dbc0a0000000p-1, 0x1.3c314a0000000p-2, -0x1.264b540000000p-1, -0x1.c01a300000000p-3, -0x1.3ef5ec0000000p-1, -0x1.8e62560000000p-1, -0x1.4b402a0000000p-1, 0x1.a5fb760000000p-3, 0x1.3dbb280000000p-4, 0x1.8f4e480000000p-5, 0x1.fe45400000000p-3, 0x1.a261a80000000p-4, -0x1.ed85580000000p-3, -0x1.6e95da0000000p-2, -0x1.6f50120000000p-2, 0x1.05eeb00000000p-3, 0x1.39b8b00000000p-5, 0x1.d05b8c0000000p-3, -0x1.542ba60000000p-2, 0x1.b0d9e40000000p-3, 0x1.a8c4620000000p-4, 0x1.5fc4b20000000p-7, 0x1.530b760000000p-3, 0x1.b351920000000p-4, -0x1.e8707c0000000p-2, -0x1.6d20860000000p-1, 0x1.82742e0000000p-4, -0x1.e425d00000000p-3, -0x1.9c38d20000000p-2, -0x1.f6e5a60000000p-2, -0x1.6a9fd00000000p-1, 0x1.20b18e0000000p-3, -0x1.b1662c0000000p-2, -0x1.97bb9c0000000p-2, 0x1.92ac600000000p-4, -0x1.6977fe0000000p-2, 0x1.06dc620000000p-2, -0x1.301ace0000000p-3, 0x1.cbc3640000000p-3, -0x1.5f574a0000000p-2, -0x1.029e080000000p-1, -0x1.7b615e0000000p-3, -0x1.2a1eb00000000p-1, -0x1.7492ba0000000p-2, 0x1.07ccfe0000000p-3, 0x1.0ee9aa0000000p-2, -0x1.355f840000000p-1, 0x1.e82e740000000p-8, -0x1.74bca60000000p-3, -0x1.3497580000000p-1, 0x1.7794080000000p-3, -0x1.fc97d80000000p-2, -0x1.9698f80000000p-1, -0x1.3284920000000p-1, 0x1.de51f00000000p-3, -0x1.c45dce0000000p-1, -0x1.ae7eb00000000p-1, 0x1.5f59ac0000000p-2, 0x1.235ff00000000p-2, -0x1.5062e60000000p-5, 0x1.5dba420000000p-3, 0x1.40f97c0000000p-3, -0x1.9ac7f40000000p-1, -0x1.4016b60000000p-1, -0x1.87e1960000000p-2, -0x1.cd348a0000000p-2, 0x1.9bd7560000000p-3, 0x1.b651b40000000p-3, -0x1.1371fc0000000p-1, -0x1.72d6d80000000p-1, 0x1.2a5c7e0000000p-3, -0x1.10bf500000000p-1, 0x1.4f8c180000000p-5, -0x1.33b8420000000p-1, -0x1.677a560000000p-2, 0x1.421ec40000000p-3, -0x1.f095c40000000p-9, -0x1.337cde0000000p-1, -0x1.fe6c8c0000000p-5, -0x1.f7c3c40000000p-2, 0x1.1d45860000000p-2, 0x1.0e22840000000p-3, -0x1.093b9a0000000p+0, -0x1.d832de0000000p-1, -0x1.6cec9a0000000p-1, 0x1.7d58aa0000000p-2, 0x1.4956760000000p-3, 0x1.2f5e640000000p-3, -0x1.c025b20000000p-1, -0x1.fe07be0000000p-1, -0x1.1770200000000p-1, -0x1.caead00000000p-3, -0x1.68adb00000000p-1, 0x1.4e0fc20000000p-2, -0x1.75053c0000000p-2, -0x1.091eea0000000p+0, -0x1.d6a2420000000p-5, -0x1.f33e820000000p-3, -0x1.339cfa0000000p-2, -0x1.0876d00000000p-1}
, {0x1.2fa96c0000000p-3, 0x1.0933060000000p-3, -0x1.1586980000000p-1, 0x1.0e63a60000000p-2, 0x1.2d50200000000p-9, 0x1.7199ea0000000p-3, -0x1.6d000c0000000p-3, -0x1.008c1a0000000p-1, -0x1.762a140000000p-1, -0x1.2fe4b20000000p-1, -0x1.a3971a0000000p-1, -0x1.4326f20000000p-1, -0x1.e5ec940000000p-1, 0x1.0112220000000p-2, 0x1.ca442a0000000p-3, 0x1.2956540000000p-3, -0x1.ae06a00000000p-3, 0x1.d1cdfa0000000p-3, 0x1.374b820000000p-4, -0x1.8d37900000000p-1, -0x1.423a320000000p-2, -0x1.5120b40000000p-1, -0x1.311ab40000000p-1, -0x1.1503820000000p-2, -0x1.8bd7820000000p-3, 0x1.7cd7520000000p-4, -0x1.bb07800000000p-2, -0x1.166e1a0000000p-1, 0x1.37ece20000000p-3, 0x1.a3429e0000000p-3, 0x1.0a64180000000p-6, 0x1.04d17a0000000p-3, 0x1.5772c20000000p-3, -0x1.30391a0000000p-2, 0x1.25bbe60000000p-3, 0x1.f6c15e0000000p-3, -0x1.fbef6c0000000p-2, 0x1.02cafe0000000p-2, -0x1.a6e7100000000p-2, -0x1.f08aae0000000p-2, 0x1.1196700000000p-2, -0x1.7a9df60000000p-2, 0x1.c102780000000p-3, 0x1.7508460000000p-4, -0x1.b6ae9a0000000p-1, -0x1.0dbaaa0000000p+0, -0x1.fcd5b00000000p-2, 0x1.3dae0e0000000p-2, -0x1.7a9d200000000p-3, 0x1.0b99880000000p-3, 0x1.de5e300000000p-5, 0x1.924dd80000000p-3, 0x1.2a54180000000p-2, -0x1.9110700000000p-2, -0x1.c129840000000p-1, 0x1.7d38500000000p-2, -0x1.ec427e0000000p-1, -0x1.6712fc0000000p-1, -0x1.9e29260000000p-3, -0x1.672be20000000p-2, 0x1.cc6afa0000000p-4, 0x1.d9c9fc0000000p-9, -0x1.1f6b500000000p-1, -0x1.f7c4420000000p-2, 0x1.6d239c0000000p-4, -0x1.8e499a0000000p-2, 0x1.c115260000000p-4, -0x1.9833f40000000p-2, -0x1.473e4c0000000p-3, -0x1.c5ff380000000p-4, 0x1.a497760000000p-4, 0x1.fcbf3c0000000p-3, 0x1.8b373a0000000p-2, 0x1.401d140000000p-2, 0x1.727df80000000p-2, -0x1.904ed20000000p-1, -0x1.08428c0000000p+0, 0x1.daed000000000p-3, -0x1.d97dd20000000p-4, -0x1.082a960000000p-1, 0x1.ba9c500000000p-3, -0x1.4e97620000000p-1, -0x1.a5aa2a0000000p-3, -0x1.21ca4c0000000p-1, 0x1.8d2caa0000000p-3, 0x1.7edbf60000000p-3, -0x1.9778500000000p-1, -0x1.a946fa0000000p-1, -0x1.958bcc0000000p-5, 0x1.e95fd00000000p-4, -0x1.36cf6e0000000p-1, -0x1.d6a6440000000p-3, 0x1.102e280000000p-3, 0x1.1365dc0000000p-2, 0x1.8680f00000000p-3, 0x1.290cea0000000p-3, -0x1.8db79c0000000p-1, -0x1.fb818e0000000p-2, -0x1.3bfbf00000000p-1, -0x1.6c433e0000000p-3}
, {0x1.0d512e0000000p-3, 0x1.880fb00000000p-3, -0x1.d024080000000p-4, 0x1.4c49800000000p-3, 0x1.6b10020000000p-4, -0x1.ea8ae80000000p-1, 0x1.a86fe60000000p-3, -0x1.1d11420000000p-1, -0x1.43671e0000000p-1, -0x1.c7a2460000000p-3, -0x1.f27a100000000p-2, -0x1.a96cf20000000p-2, -0x1.ead4d80000000p-4, -0x1.d3c6580000000p-2, 0x1.5a6f6e0000000p-4, -0x1.2ea4a00000000p-4, -0x1.0a99f00000000p-2, 0x1.ba42780000000p-3, -0x1.6115e40000000p-2, -0x1.fa5b900000000p-2, 0x1.f2bc9c0000000p-3, -0x1.18b58e0000000p-1, -0x1.d294060000000p-1, -0x1.e790f40000000p-3, -0x1.be84d80000000p-4, 0x1.1f66d80000000p-3, 0x1.0b24f00000000p-3, 0x1.d54d5e0000000p-4, 0x1.9f1b6c0000000p-3, 0x1.1a2ff40000000p-3, -0x1.2b44b00000000p-1, 0x1.564bce0000000p-3, 0x1.ca12080000000p-3, 0x1.085a8e0000000p-2, -0x1.4e5ff40000000p-1, -0x1.6d81f20000000p-2, 0x1.eec46c0000000p-3, -0x1.c17c660000000p-2, 0x1.b68e000000000p-3, -0x1.30ed240000000p-2, -0x1.3eccd40000000p-1, 0x1.74f6d40000000p-3, -0x1.039ca60000000p-2, 0x1.4134020000000p-4, 0x1.4fe4de0000000p-3, 0x1.0b7fc80000000p-4, -0x1.55747c0000000p-3, -0x1.acffd60000000p-4, 0x1.fa1f4a0000000p-3, 0x1.0811a40000000p-2, 0x1.70e3e80000000p-3, 0x1.11a6600000000p-2, -0x1.3254500000000p-1, 0x1.326a800000000p-3, -0x1.2cdd140000000p-4, -0x1.f6f1080000000p-2, -0x1.ad8aa60000000p-2, -0x1.89d3500000000p-2, 0x1.702fce0000000p-3, 0x1.448da80000000p-3, -0x1.99445e0000000p-1, 0x1.89decc0000000p-3, -0x1.28f5620000000p-2, -0x1.df28800000000p-2, 0x1.4d14020000000p-4, -0x1.a094500000000p-2, -0x1.f54c440000000p-2, 0x1.d8283a0000000p-3, 0x1.0e82aa0000000p-3, -0x1.50f1b00000000p-2, -0x1.6617d60000000p-2, 0x1.ce31020000000p-3, -0x1.6e4c3e0000000p-2, 0x1.9228f40000000p-3, -0x1.98dc1e0000000p-2, 0x1.9805f40000000p-3, -0x1.963d140000000p-3, -0x1.7226b60000000p-3, 0x1.3bc1720000000p-2, 0x1.b7a0da0000000p-3, -0x1.3586d80000000p-2, 0x1.16d4620000000p-3, -0x1.49a9ae0000000p-4, -0x1.f5e6480000000p-2, -0x1.7299c80000000p-1, -0x1.9026ba0000000p-2, 0x1.90b1380000000p-4, -0x1.786ebe0000000p-1, -0x1.ebc3760000000p-2, -0x1.42b6c60000000p-1, 0x1.d251b20000000p-4, -0x1.63da4c0000000p-1, 0x1.5d074c0000000p-3, 0x1.7478100000000p-2, -0x1.7337600000000p-1, -0x1.338c180000000p-1, -0x1.33d74a0000000p-2, 0x1.78c27e0000000p-4, -0x1.b4bce00000000p-3, 0x1.a417c00000000p-3}
, {-0x1.9eea460000000p-2, -0x1.b4e6580000000p-3, 0x1.1dd2f60000000p-2, -0x1.0d24180000000p-3, 0x1.2932ee0000000p-3, -0x1.b4f44e0000000p-1, 0x1.dcf80e0000000p-3, 0x1.2b251c0000000p-3, -0x1.4d9b420000000p-1, 0x1.46b5640000000p-2, 0x1.162fa20000000p-2, 0x1.7438040000000p-6, -0x1.95645c0000000p-3, -0x1.3f1c980000000p-1, 0x1.71a1980000000p-4, -0x1.1c3a2e0000000p-2, 0x1.440eda0000000p-3, -0x1.d89a820000000p-2, -0x1.015ecc0000000p-2, -0x1.0cd33a0000000p-1, -0x1.08987a0000000p-2, 0x1.aeacdc0000000p-6, -0x1.2d9cee0000000p-1, -0x1.279e200000000p-3, -0x1.f4e5960000000p-4, 0x1.25063c0000000p-3, 0x1.0692c60000000p-5, -0x1.213b2e0000000p-1, -0x1.aa7f640000000p-4, 0x1.58fc060000000p-3, 0x1.41f8800000000p-4, 0x1.2be0720000000p-3, 0x1.8b53760000000p-4, -0x1.3eb7c60000000p-2, -0x1.25204e0000000p-4, 0x1.07a7b40000000p-2, -0x1.e5343a0000000p-2, -0x1.9a315c0000000p-2, -0x1.501ec20000000p-3, 0x1.96d76c0000000p-2, -0x1.536a7c0000000p-1, 0x1.58201e0000000p-3, 0x1.90af500000000p-3, -0x1.5cc2380000000p-2, 0x1.5d9ade0000000p-5, -0x1.4c14ca0000000p-1, 0x1.20b2820000000p-2, -0x1.8e73080000000p-1, 0x1.24e2da0000000p-3, 0x1.aaccf80000000p-3, -0x1.7801820000000p-3, -0x1.75445c0000000p-2, 0x1.7a31c00000000p-3, -0x1.b729800000000p-2, -0x1.c5d1f60000000p-2, 0x1.bf59dc0000000p-3, 0x1.d7af9a0000000p-4, -0x1.72445e0000000p-2, -0x1.e875a80000000p-2, -0x1.1a93e00000000p-1, -0x1.7328780000000p-2, -0x1.c2822e0000000p-2, 0x1.3e718a0000000p-4, 0x1.c2de8a0000000p-4, -0x1.4b4eea0000000p-1, -0x1.ba47440000000p-2, 0x1.b6d4e60000000p-4, 0x1.38953e0000000p-3, 0x1.abf0020000000p-4, -0x1.bdf83c0000000p-4, 0x1.19a2fc0000000p-3, -0x1.a2c6b40000000p-4, -0x1.099f340000000p-1, 0x1.d1dd400000000p-3, -0x1.29c3fa0000000p-1, -0x1.a8072a0000000p-3, -0x1.4e72a80000000p-2, -0x1.4e31c00000000p-1, 0x1.6ca1b80000000p-3, -0x1.3050740000000p-2, -0x1.08fe3a0000000p-1, 0x1.62e3f00000000p-4, 0x1.231fc80000000p-4, 0x1.13208c0000000p-2, -0x1.776a100000000p-2, -0x1.13c7880000000p-2, 0x1.da0bd20000000p-4, -0x1.230ac60000000p-2, 0x1.2fb87c0000000p-3, -0x1.51a2380000000p-2, -0x1.d8737e0000000p-2, -0x1.0a6f300000000p-1, 0x1.506ce80000000p-3, -0x1.3758720000000p-2, 0x1.26b4ac0000000p-2, 0x1.528d2c0000000p-3, -0x1.d095800000000p-2, -0x1.ef52540000000p-2, 0x1.1a41d40000000p-2, 0x1.49a4c20000000p-3}
, {0x1.62befa0000000p-3, -0x1.5e275c0000000p-1, -0x1.b743f20000000p-3, 0x1.1c919e0000000p-2, -0x1.710f460000000p-1, 0x1.d17db20000000p-3, 0x1.d926cc0000000p-4, -0x1.2f005a0000000p-1, 0x1.29efdc0000000p-7, -0x1.699c400000000p-1, -0x1.d0f42a0000000p-2, 0x1.09d9480000000p-3, 0x1.6a02c40000000p-3, 0x1.2dc5200000000p-3, -0x1.26e42a0000000p-2, 0x1.0153cc0000000p-2, 0x1.06f2f40000000p-2, -0x1.fc3b5c0000000p-3, 0x1.b92b380000000p-3, 0x1.2178020000000p-3, 0x1.5c41660000000p-3, -0x1.4d85fa0000000p-1, -0x1.00d1840000000p-1, 0x1.cbd2ac0000000p-3, -0x1.d7b6280000000p-2, -0x1.8b0d380000000p-1, -0x1.8daa120000000p-1, -0x1.716d7c0000000p-3, 0x1.0425b40000000p-3, -0x1.15a7cc0000000p-1, 0x1.3d49620000000p-4, 0x1.91f2ee0000000p-5, -0x1.82772e0000000p-1, 0x1.de0ac60000000p-3, -0x1.3f24700000000p-1, -0x1.770fda0000000p-4, -0x1.08771e0000000p-1, -0x1.4883940000000p-3, 0x1.0992140000000p-2, -0x1.16b5520000000p-1, -0x1.ce79160000000p-2, -0x1.6625e60000000p-2, -0x1.5cc6c00000000p-2, 0x1.b160240000000p-5, -0x1.9941c20000000p-2, -0x1.749f480000000p-2, -0x1.16b82e0000000p-1, 0x1.f9cd2c0000000p-3, -0x1.16b03c0000000p-1, -0x1.1dd8640000000p-1, -0x1.1ad4dc0000000p-2, -0x1.53b9480000000p-2, -0x1.4a135c0000000p-2, 0x1.37fe2e0000000p-3, -0x1.08ed8e0000000p-1, 0x1.0c1e9a0000000p-5, 0x1.06589c0000000p-3, -0x1.40ace20000000p-1, -0x1.8848b20000000p-4, 0x1.256f680000000p-3, -0x1.f8e2c00000000p-2, 0x1.dbe4880000000p-3, 0x1.39f5a80000000p-4, 0x1.2d009c0000000p-3, 0x1.db7f560000000p-3, 0x1.7a1ba60000000p-3, -0x1.cce4720000000p-2, -0x1.a9efea0000000p-2, 0x1.753c360000000p-4, -0x1.529b0e0000000p-2, -0x1.fe5bde0000000p-2, -0x1.f11e380000000p-2, 0x1.66c6b80000000p-2, -0x1.f769960000000p-2, 0x1.915e520000000p-3, 0x1.1f15920000000p-2, 0x1.1769cc0000000p-3, 0x1.20361e0000000p-2, -0x1.9df58e0000000p-1, -0x1.d6f5ae0000000p-3, 0x1.2701220000000p-3, -0x1.5ebcb00000000p-5, -0x1.b2243c0000000p-2, 0x1.61e5180000000p-3, 0x1.9a8cbe0000000p-3, -0x1.77d2dc0000000p-1, -0x1.1a83ba0000000p-2, -0x1.bae0a20000000p-2, -0x1.59beb40000000p-3, 0x1.2099ec0000000p-3, -0x1.38c2ec0000000p-2, -0x1.44ca0e0000000p-1, 0x1.5b35640000000p-4, -0x1.493c4e0000000p-1, 0x1.0058420000000p-4, 0x1.6f91540000000p-3, 0x1.51731e0000000p-3, 0x1.db34e80000000p-3, -0x1.68c9860000000p-3, -0x1.71993e0000000p-1}
, {-0x1.8389300000000p-1, -0x1.f700be0000000p-3, 0x1.31de300000000p-2, -0x1.48d60c0000000p-1, 0x1.dd085e0000000p-4, -0x1.4b92640000000p-1, 0x1.8140960000000p-3, 0x1.a515160000000p-3, 0x1.15336c0000000p-5, 0x1.d997b40000000p-3, 0x1.a2e8580000000p-3, -0x1.e9dbaa0000000p-3, 0x1.3baade0000000p-3, 0x1.25522e0000000p-2, 0x1.943c420000000p-4, -0x1.9298b60000000p-2, -0x1.0099fe0000000p-1, -0x1.5b187a0000000p-1, -0x1.1663260000000p-1, 0x1.8676640000000p-3, -0x1.71ce2a0000000p-2, 0x1.e7c9740000000p-5, 0x1.a349b00000000p-4, 0x1.6aa1de0000000p-3, -0x1.494bae0000000p-2, -0x1.a0e92c0000000p-2, -0x1.d892080000000p-2, 0x1.17d4de0000000p-5, -0x1.b8cabc0000000p-2, 0x1.24e91a0000000p-3, 0x1.fd65c60000000p-7, -0x1.1389740000000p-1, -0x1.25047e0000000p-1, -0x1.5ed83c0000000p-2, -0x1.aaa3c20000000p-3, -0x1.8b31aa0000000p-3, -0x1.1762e00000000p-3, 0x1.0c59de0000000p-2, -0x1.06592e0000000p-2, 0x1.4839e80000000p-2, 0x1.165a240000000p-2, -0x1.1934160000000p-1, 0x1.a2bf000000000p-3, -0x1.87b5600000000p-4, -0x1.20d3960000000p-1, -0x1.33342a0000000p-1, -0x1.0fda660000000p-2, -0x1.3fb11a0000000p-2, -0x1.37046e0000000p-5, 0x1.1bb8700000000p-3, 0x1.ad4dc80000000p-3, -0x1.20a6d60000000p-3, 0x1.4053740000000p-3, -0x1.54f3960000000p-2, 0x1.12e8800000000p-2, 0x1.02cb6a0000000p-2, 0x1.176d580000000p-3, 0x1.ada72a0000000p-3, -0x1.776d5e0000000p-3, -0x1.c90c7c0000000p-3, 0x1.003abe0000000p-3, -0x1.5313be0000000p-2, 0x1.9e72dc0000000p-4, 0x1.2acf840000000p-3, -0x1.84635c0000000p-4, -0x1.650ece0000000p-2, -0x1.17cf360000000p-2, -0x1.55cefa0000000p-2, 0x1.f4e13e0000000p-4, -0x1.1a3ef40000000p-1, 0x1.ebc2200000000p-4, -0x1.3db0120000000p-2, -0x1.d9e10a0000000p-2, -0x1.450fca0000000p-2, -0x1.2bedf20000000p-2, 0x1.0b14b20000000p-3, -0x1.abe0e60000000p-4, -0x1.75751e0000000p-2, 0x1.beab480000000p-3, 0x1.5158420000000p-3, -0x1.0d680a0000000p-1, -0x1.1631040000000p-1, -0x1.878a8c0000000p-2, 0x1.2f18500000000p-4, 0x1.5db55e0000000p-4, -0x1.5d78500000000p-3, -0x1.c3af980000000p-2, 0x1.ff1e0c0000000p-4, -0x1.a0f7da0000000p-2, -0x1.473dec0000000p-1, -0x1.bd506c0000000p-3, 0x1.27a6ce0000000p-2, -0x1.388e0c0000000p-1, -0x1.f44a080000000p-3, -0x1.a451c20000000p-2, 0x1.d913900000000p-3, -0x1.d4ae280000000p-3, 0x1.7699060000000p-3, 0x1.3973920000000p-2, 0x1.58cbe40000000p-5}
, {-0x1.8febea0000000p-1, 0x1.424a220000000p-3, -0x1.52440c0000000p-1, -0x1.db95160000000p-2, 0x1.49747c0000000p-3, -0x1.3cb8800000000p-1, 0x1.51a2a00000000p-3, 0x1.7071be0000000p-3, 0x1.74f5400000000p-6, -0x1.e9cff80000000p-2, 0x1.d196320000000p-3, 0x1.04c5260000000p-2, 0x1.ae28d80000000p-3, -0x1.115e180000000p-5, 0x1.2649e60000000p-3, 0x1.4de9060000000p-3, -0x1.614b440000000p-1, -0x1.d11f060000000p-3, 0x1.76a0ba0000000p-2, 0x1.73959c0000000p-3, -0x1.7da0a00000000p-2, 0x1.680bb40000000p-4, 0x1.eadbd40000000p-4, -0x1.0140ce0000000p-1, -0x1.44339c0000000p+0, -0x1.9d07820000000p-2, -0x1.ed51a20000000p-2, -0x1.77bb460000000p-1, 0x1.5416400000000p-4, -0x1.761cd20000000p-1, -0x1.9e6a320000000p-1, -0x1.c8c5940000000p-2, -0x1.57e1580000000p-1, -0x1.ea71320000000p-2, -0x1.095ed00000000p-2, -0x1.198b9a0000000p-1, 0x1.df81260000000p-3, 0x1.1d31a60000000p-2, -0x1.279e940000000p-2, 0x1.4a6e1e0000000p-2, 0x1.40da500000000p-2, -0x1.57739c0000000p-1, -0x1.ad81740000000p-1, 0x1.df8d4a0000000p-4, -0x1.906e220000000p-3, -0x1.6607300000000p-3, -0x1.a79ab40000000p-3, -0x1.e604520000000p-2, -0x1.3c1a860000000p-1, 0x1.a24f480000000p-3, 0x1.33ca300000000p-3, 0x1.de50c00000000p-3, -0x1.24d28a0000000p-1, 0x1.7063e40000000p-5, 0x1.e5644e0000000p-6, -0x1.3dd1140000000p-1, -0x1.5451620000000p-1, -0x1.e292360000000p-3, -0x1.77e5300000000p-2, 0x1.86a0460000000p-3, 0x1.1106ac0000000p-3, 0x1.1d7e060000000p-3, -0x1.8e91780000000p-1, 0x1.640b260000000p-4, 0x1.091e0e0000000p-2, -0x1.5a891c0000000p-1, -0x1.0022220000000p-1, -0x1.ebbc180000000p-3, -0x1.e15f2c0000000p-1, -0x1.f741b60000000p-1, 0x1.239cf20000000p-3, 0x1.07d0c00000000p-2, 0x1.dc31060000000p-3, -0x1.232f200000000p-1, 0x1.5d59a80000000p-2, -0x1.7b702e0000000p-3, 0x1.451c9e0000000p-4, -0x1.8b84080000000p-2, -0x1.4131fe0000000p-1, -0x1.276d900000000p-2, -0x1.99adc40000000p-3, -0x1.d2227c0000000p-2, -0x1.da6c780000000p-1, -0x1.4392340000000p-1, -0x1.4be2ee0000000p-1, -0x1.dd8f6c0000000p-3, 0x1.f0b0d60000000p-4, 0x1.3d5b9a0000000p-3, -0x1.be29460000000p-2, -0x1.f4673c0000000p-2, 0x1.08c3000000000p-1, 0x1.1cd3200000000p-2, -0x1.14741e0000000p-1, -0x1.cf83320000000p-4, -0x1.9914b00000000p-1, -0x1.9029c80000000p-3, 0x1.ada9ba0000000p-3, 0x1.9f1bba0000000p-3, -0x1.a7f61e0000000p-2, -0x1.90e51e0000000p-1}
, {0x1.5440800000000p-3, -0x1.dd29f80000000p-5, 0x1.27d1c80000000p-2, -0x1.abc8120000000p-2, -0x1.15c5ec0000000p-1, -0x1.5c00cc0000000p-2, 0x1.ea11ac0000000p-3, -0x1.391dfa0000000p-1, -0x1.3142e40000000p-2, -0x1.92edba0000000p-2, -0x1.3169400000000p-6, -0x1.a763bc0000000p-2, -0x1.c7020a0000000p-2, 0x1.38656c0000000p-4, -0x1.e8cf3a0000000p-2, -0x1.8fe2ec0000000p-1, 0x1.4750ca0000000p-3, -0x1.7b64b40000000p-2, 0x1.26e1740000000p-2, -0x1.f93ec80000000p-4, 0x1.e5de640000000p-3, -0x1.19e2160000000p-1, 0x1.5430760000000p-5, 0x1.8f8ae40000000p-3, 0x1.27fc260000000p-2, 0x1.8f9fee0000000p-3, 0x1.05cd720000000p-4, 0x1.cd24040000000p-2, 0x1.268a380000000p-3, 0x1.32244a0000000p-5, 0x1.5e1ae00000000p-4, 0x1.56df8a0000000p-3, 0x1.a750b00000000p-3, -0x1.8ef7580000000p-2, 0x1.e9f62c0000000p-4, -0x1.5df9240000000p-2, -0x1.8c46e20000000p-1, -0x1.f814920000000p-3, -0x1.59d4c80000000p-2, -0x1.537ff80000000p-1, -0x1.0855cc0000000p-1, 0x1.b1be7e0000000p-4, 0x1.b2124e0000000p-4, -0x1.db62fa0000000p-2, -0x1.ca927e0000000p-3, 0x1.000fe20000000p-3, -0x1.ffd3420000000p-2, -0x1.c469800000000p-2, 0x1.5b5cc20000000p-3, 0x1.aff70c0000000p-4, -0x1.5a43d00000000p-1, -0x1.101bdc0000000p-1, -0x1.279bc40000000p-1, 0x1.994cc80000000p-3, 0x1.155af60000000p-2, -0x1.46c7180000000p-2, -0x1.c280ae0000000p-2, -0x1.380f540000000p-1, 0x1.e7aa3c0000000p-3, -0x1.fcf7900000000p-2, 0x1.5357740000000p-4, -0x1.5518740000000p-2, 0x1.5351c80000000p-4, 0x1.473f040000000p-4, -0x1.5fc3c80000000p-1, 0x1.1a2bd00000000p-3, 0x1.9566360000000p-3, -0x1.3d46bc0000000p-2, 0x1.bdcc940000000p-5, 0x1.1ad20e0000000p-2, -0x1.90d3ee0000000p-1, 0x1.fea20e0000000p-3, -0x1.aecf8a0000000p-1, 0x1.d432480000000p-3, 0x1.14374e0000000p-2, -0x1.6706260000000p-3, -0x1.846f720000000p-1, 0x1.ceec3e0000000p-3, 0x1.bad27a0000000p-3, -0x1.62ecda0000000p-2, -0x1.727f980000000p-3, -0x1.05b64c0000000p-3, 0x1.eadb580000000p-2, -0x1.91c7200000000p-6, 0x1.087cb80000000p-2, 0x1.8712260000000p-6, -0x1.3875d80000000p-2, 0x1.1291bc0000000p-3, 0x1.cd56220000000p-3, 0x1.5c11f40000000p-3, -0x1.9f50ac0000000p-1, -0x1.8ff5800000000p-1, 0x1.1d1ee00000000p-3, 0x1.1e8bde0000000p-3, -0x1.d42d1c0000000p-3, -0x1.296bf40000000p-1, -0x1.248c6e0000000p-1, 0x1.22b82c0000000p-3, -0x1.b99fea0000000p-2, 0x1.7de7e40000000p-3}
, {0x1.7792620000000p-4, 0x1.4bbf160000000p-3, -0x1.114db40000000p-1, 0x1.95d96a0000000p-4, 0x1.87f7420000000p-3, -0x1.4cb4e20000000p-1, 0x1.a6e65c0000000p-3, 0x1.2c4cb00000000p-3, 0x1.ed3b1e0000000p-5, -0x1.21e0680000000p-1, -0x1.c0aa500000000p-3, -0x1.72d2280000000p-3, -0x1.280d120000000p-2, -0x1.79b4680000000p-5, -0x1.9e3a240000000p-4, -0x1.0c0eb80000000p-3, -0x1.81b2500000000p-2, -0x1.3604da0000000p-1, -0x1.ac16660000000p-3, 0x1.49a9940000000p-3, -0x1.0ad75e0000000p-1, 0x1.e3470a0000000p-6, -0x1.f0ffc60000000p-2, -0x1.25d1d40000000p-2, -0x1.5d6c320000000p-4, -0x1.cbe2060000000p-2, 0x1.dc52f60000000p-5, -0x1.ac91b20000000p-1, 0x1.7489c20000000p-4, -0x1.9ecfce0000000p-2, 0x1.15b0f80000000p-4, -0x1.7b3b140000000p-2, -0x1.7e580a0000000p-2, -0x1.6e1f820000000p-8, -0x1.798ca20000000p-2, 0x1.4ee8de0000000p-2, -0x1.74b12c0000000p-4, 0x1.bca6320000000p-3, -0x1.fbf6a80000000p-3, -0x1.2f52120000000p-2, 0x1.9c768e0000000p-3, 0x1.82ddba0000000p-4, -0x1.cb02b40000000p-2, 0x1.0bca760000000p-5, 0x1.d70d0e0000000p-4, -0x1.886ab60000000p-3, 0x1.82f7ae0000000p-2, -0x1.e1d1ea0000000p-4, 0x1.02ca880000000p-2, 0x1.6e10000000000p-3, 0x1.d01bca0000000p-3, 0x1.0ae99e0000000p-2, -0x1.149c6e0000000p-1, -0x1.13304c0000000p-1, -0x1.0ccda00000000p-1, -0x1.dc0f280000000p-2, 0x1.1935ca0000000p-3, 0x1.60128c0000000p-2, -0x1.0becba0000000p-1, -0x1.8858880000000p-1, 0x1.0860c80000000p-3, 0x1.1620940000000p-3, 0x1.17dfe00000000p-4, 0x1.8c7c5a0000000p-4, -0x1.b5136c0000000p-2, 0x1.a65a580000000p-3, -0x1.22dbe20000000p-3, 0x1.92ac160000000p-3, 0x1.58b3e20000000p-4, -0x1.d27b840000000p-3, -0x1.8144e40000000p-2, -0x1.7795ce0000000p-2, -0x1.4d4a100000000p-3, -0x1.fbfd000000000p-2, -0x1.d0c8da0000000p-3, -0x1.30586e0000000p-1, -0x1.28c3e40000000p-1, 0x1.ca18020000000p-3, 0x1.06cfea0000000p-2, 0x1.79e0900000000p-3, 0x1.54de2e0000000p-3, 0x1.a173260000000p-4, -0x1.42735c0000000p-1, -0x1.1d64380000000p-1, -0x1.2751420000000p-1, 0x1.4082a00000000p-3, 0x1.a1fe2e0000000p-4, -0x1.952a100000000p-2, -0x1.c629ae0000000p-2, -0x1.13db5a0000000p-1, -0x1.ce53180000000p-2, 0x1.e214f40000000p-6, -0x1.2255820000000p-2, -0x1.3d34f20000000p-2, -0x1.a272d40000000p-7, 0x1.383dfc0000000p-3, 0x1.8b85060000000p-3, -0x1.550cac0000000p-5, -0x1.bc31a80000000p-5, 0x1.83acd20000000p-3}
, {0x1.8cdc8e0000000p-4, -0x1.121d840000000p-1, 0x1.39591c0000000p-3, -0x1.6a0ada0000000p-4, -0x1.2956c60000000p-1, 0x1.750be40000000p-3, -0x1.8fb1000000000p-2, -0x1.94ecf20000000p-2, -0x1.9f0c660000000p-6, -0x1.4c25660000000p-5, -0x1.e822420000000p-2, -0x1.07fe4c0000000p-1, 0x1.0392760000000p-3, -0x1.dcbcd80000000p-2, -0x1.67908a0000000p-1, -0x1.f30fa20000000p-2, 0x1.73c94a0000000p-3, -0x1.9bcaba0000000p-3, -0x1.0268a00000000p-1, 0x1.0f0abc0000000p-3, -0x1.0c90420000000p-1, -0x1.129c4a0000000p-3, -0x1.f2df280000000p-3, 0x1.a1feb60000000p-3, 0x1.202ca40000000p-2, -0x1.c106b80000000p-1, 0x1.ffb5680000000p-4, -0x1.7bb57e0000000p-2, -0x1.4061ce0000000p-1, -0x1.1063a40000000p-1, 0x1.e979920000000p-5, 0x1.3633440000000p-3, -0x1.919f7c0000000p-1, 0x1.484a7a0000000p-3, -0x1.503b5e0000000p-2, 0x1.a472d40000000p-3, -0x1.eb61340000000p-3, 0x1.75cb5a0000000p-3, 0x1.205e860000000p-2, -0x1.ea698e0000000p-4, 0x1.4335060000000p-3, 0x1.ef6bc20000000p-4, 0x1.0be1de0000000p-3, -0x1.0d10bc0000000p-1, 0x1.0ae2ae0000000p-4, 0x1.599ed00000000p-3, -0x1.c3f1b60000000p-4, -0x1.3441940000000p-2, -0x1.0e70fa0000000p-1, -0x1.25c7680000000p-1, -0x1.d9e1e00000000p-2, -0x1.427a380000000p-1, 0x1.6da0bc0000000p-4, -0x1.75de3c0000000p-2, -0x1.c12a180000000p-7, 0x1.90725e0000000p-4, 0x1.5be33e0000000p-3, -0x1.93045a0000000p-3, -0x1.2a42e80000000p-1, 0x1.4470360000000p-6, -0x1.8c4dd20000000p-2, -0x1.f3188e0000000p-3, 0x1.3602960000000p-4, 0x1.d9f67e0000000p-4, 0x1.6af9380000000p-3, 0x1.5bf0620000000p-3, 0x1.b111140000000p-3, 0x1.72e1540000000p-7, 0x1.c5515a0000000p-4, 0x1.16244a0000000p-2, -0x1.8768440000000p-2, -0x1.1842200000000p-2, -0x1.4b5dc20000000p-4, -0x1.07b52e0000000p-1, -0x1.3f63060000000p-2, 0x1.01ce2a0000000p-4, 0x1.fc8ae60000000p-4, 0x1.80bf520000000p-3, -0x1.3f5d2e0000000p-2, 0x1.7726980000000p-3, -0x1.810bfc0000000p-2, 0x1.5976bc0000000p-3, -0x1.bdfd800000000p-2, 0x1.e924d80000000p-3, 0x1.871eaa0000000p-3, 0x1.67a9960000000p-3, -0x1.0335aa0000000p-1, -0x1.20405e0000000p-2, 0x1.0dab620000000p-2, 0x1.19c4f40000000p-3, -0x1.f04d2c0000000p-1, -0x1.1a74860000000p-2, -0x1.14ea1e0000000p-1, -0x1.0ba97a0000000p-1, 0x1.e36f540000000p-3, 0x1.8ddd480000000p-3, 0x1.6cd55e0000000p-3, 0x1.9f13b60000000p-3, 0x1.1071640000000p-2, -0x1.8822920000000p-2}
}
;

#undef INPUT_SAMPLES
#undef FC_UNITS