/**
  ******************************************************************************
  * @file    weights/fc.cc
  * @author  Pierre-Emmanuel Novac <penovac@unice.fr>, LEAT, CNRS, Université Côte d'Azur, France
  * @version 1.0.0
  * @date    24 march 2020
  * @brief   Template generating plain C code for the implementation of Convolutional Neural Networks on MCU
  */

#include <stdint.h>

#define INPUT_SAMPLES 100
#define FC_UNITS 10


const float dense_1_bias[FC_UNITS] = {0x1.83a4c80000000p-2, 0x1.6fbf060000000p-7, 0x1.b86b6e0000000p-4, 0x1.fb6e740000000p-5, 0x1.4c24ce0000000p-9, -0x1.24eab40000000p-1, -0x1.0f57fe0000000p-1, -0x1.d808d60000000p-3, 0x1.06542a0000000p-1, 0x1.f5deb40000000p-4}
;

const float dense_1_kernel[FC_UNITS][INPUT_SAMPLES] = {{0x1.3595a40000000p-2, 0x1.be85860000000p-3, -0x1.7f19ba0000000p-1, -0x1.7f71c20000000p-1, 0x1.10c07e0000000p-2, -0x1.cef6ee0000000p-2, 0x1.a1e3dc0000000p-3, -0x1.9298840000000p-2, -0x1.e5df7e0000000p-2, -0x1.94f7900000000p-2, -0x1.bc3dea0000000p-4, -0x1.76c3540000000p-2, 0x1.0751840000000p-6, -0x1.6eddb20000000p-2, -0x1.eb35080000000p-2, -0x1.7ae2000000000p-3, 0x1.c1780c0000000p-4, -0x1.53b6420000000p-1, 0x1.362cb60000000p-3, -0x1.4a17460000000p-1, 0x1.e4c6420000000p-3, -0x1.19fb540000000p-1, 0x1.2d72460000000p-3, 0x1.a433600000000p-3, 0x1.a5bd8a0000000p-3, -0x1.32b4ca0000000p-5, -0x1.5761400000000p-2, -0x1.0e077a0000000p+0, 0x1.793f060000000p-3, -0x1.9b0dce0000000p-1, -0x1.e810900000000p-2, 0x1.976e540000000p-3, -0x1.6db7400000000p-2, -0x1.d666f20000000p-2, -0x1.d41e8c0000000p-3, -0x1.befd500000000p-2, 0x1.18a98e0000000p-2, 0x1.282e900000000p-2, -0x1.46aab40000000p-1, -0x1.e589a80000000p-3, -0x1.3be7de0000000p-2, -0x1.2e74480000000p-3, -0x1.2729ce0000000p-1, -0x1.07d0c80000000p-1, -0x1.ed51e60000000p-2, -0x1.1603f00000000p-1, 0x1.e419d40000000p-4, 0x1.ca82ec0000000p-3, -0x1.76d4140000000p-1, -0x1.8cf0320000000p-2, -0x1.5d58be0000000p-2, -0x1.f2e9560000000p-3, 0x1.cdc3680000000p-2, 0x1.12341c0000000p-3, -0x1.73206a0000000p-1, -0x1.3484e20000000p-2, 0x1.96d6980000000p-3, 0x1.284cea0000000p-2, 0x1.e4b0d00000000p-4, 0x1.44dbd00000000p-5, -0x1.808e140000000p-1, 0x1.76959a0000000p-5, 0x1.2a83aa0000000p-2, -0x1.68fdf00000000p-3, -0x1.0d0a920000000p-1, 0x1.c28fd60000000p-3, -0x1.7a21360000000p-3, -0x1.676b340000000p-1, 0x1.e82eae0000000p-3, -0x1.0825fc0000000p-1, -0x1.f828c40000000p-3, -0x1.5447ee0000000p-2, 0x1.2614c40000000p-3, 0x1.554a4e0000000p-3, -0x1.d37bb40000000p-1, 0x1.59a50e0000000p-4, -0x1.c7d7dc0000000p-1, -0x1.10ca480000000p-1, 0x1.7fbb160000000p-2, -0x1.0006360000000p+0, 0x1.7edd960000000p-3, -0x1.03b9a60000000p-1, -0x1.c71f800000000p-3, 0x1.9c231a0000000p-3, 0x1.15aa3a0000000p-3, -0x1.9b0e140000000p-2, 0x1.3642780000000p-2, 0x1.7c35c20000000p-5, 0x1.3f8be00000000p-3, -0x1.aeaa7c0000000p-1, 0x1.7af57a0000000p-3, 0x1.4121ee0000000p-2, -0x1.26f4200000000p-1, 0x1.addd8e0000000p-4, -0x1.c3be500000000p-2, -0x1.4f15360000000p-1, 0x1.2fb46e0000000p-2, -0x1.144ab20000000p-1, -0x1.8d28d80000000p-2, 0x1.5c760c0000000p-3}
, {-0x1.d29d1a0000000p-2, -0x1.43256e0000000p-2, 0x1.723e1c0000000p-4, -0x1.54517e0000000p-1, 0x1.5a7dc60000000p-4, 0x1.0965d40000000p-3, -0x1.cf741a0000000p-1, 0x1.3ed4200000000p-4, 0x1.5445f60000000p-3, -0x1.745db20000000p-1, -0x1.64bd8a0000000p-2, -0x1.5df6bc0000000p-2, 0x1.243a0a0000000p-12, -0x1.0e2d8a0000000p-1, -0x1.c0b9220000000p-2, 0x1.e4fd880000000p-4, -0x1.ed0ba20000000p-2, 0x1.2b4d440000000p-2, -0x1.c7b0e00000000p-1, 0x1.59f7c40000000p-4, -0x1.bc72500000000p-1, 0x1.9c760e0000000p-3, 0x1.5eaeb40000000p-3, 0x1.04aab80000000p-2, 0x1.ff3f720000000p-4, -0x1.2cfda20000000p-2, 0x1.9b13500000000p-2, 0x1.44f9f60000000p-2, 0x1.7f5cd80000000p-3, 0x1.7f47040000000p-3, -0x1.cc9c7a0000000p-4, 0x1.3b17340000000p-2, 0x1.1f89f80000000p-3, 0x1.843d360000000p-3, 0x1.191cfa0000000p-2, -0x1.1cb0ea0000000p-1, -0x1.2ef9ec0000000p-2, -0x1.0019f00000000p-1, 0x1.dade020000000p-3, -0x1.81c2260000000p-2, 0x1.63c3b80000000p-3, -0x1.290f780000000p-2, -0x1.8a88f40000000p-2, 0x1.348cc40000000p-3, 0x1.d0a88a0000000p-3, -0x1.7c2aa40000000p-1, -0x1.ca68c20000000p-1, -0x1.e492320000000p-2, 0x1.3bf4ec0000000p-3, -0x1.74f3000000000p-2, 0x1.17c5560000000p-2, 0x1.346d940000000p-2, 0x1.a247940000000p-3, -0x1.8cbce80000000p-3, -0x1.246b7a0000000p-2, 0x1.482da20000000p-3, -0x1.9cc67c0000000p-2, 0x1.8afdd20000000p-2, -0x1.d731c40000000p-3, 0x1.35e6b60000000p-3, 0x1.8c26c40000000p-3, -0x1.b0a0b80000000p-2, 0x1.1238560000000p-2, 0x1.207ca40000000p-2, 0x1.3513580000000p-3, -0x1.cf40040000000p-2, -0x1.5590d80000000p-2, -0x1.6c7cf00000000p-3, -0x1.b7e7780000000p-1, 0x1.09cc160000000p-2, 0x1.7e42a20000000p-3, -0x1.a193ae0000000p-2, -0x1.e00a3e0000000p-3, -0x1.024a4a0000000p+0, 0x1.20f65c0000000p-2, -0x1.2eab680000000p-1, -0x1.44fb100000000p-1, -0x1.45e64c0000000p-4, 0x1.6e8d740000000p-10, -0x1.6afa8a0000000p-2, -0x1.0ee41a0000000p-1, -0x1.3bce740000000p-6, -0x1.67a6880000000p-1, -0x1.73f0500000000p-2, -0x1.350d140000000p-1, -0x1.d231ca0000000p-3, 0x1.a434680000000p-2, 0x1.0edb6e0000000p-2, -0x1.dcc0420000000p-3, 0x1.0152d80000000p-4, -0x1.48ad340000000p-1, 0x1.43ceec0000000p-2, 0x1.2290ac0000000p-3, -0x1.ca01000000000p-2, 0x1.8a39240000000p-2, -0x1.14386c0000000p-5, -0x1.6b62060000000p-1, 0x1.13d0de0000000p-3, 0x1.01715c0000000p-6, -0x1.c3adfe0000000p-2}
, {-0x1.0b89500000000p-4, 0x1.7a80780000000p-3, -0x1.5403e00000000p-2, -0x1.3fdad40000000p-1, 0x1.0459300000000p-3, 0x1.2dff6c0000000p-3, 0x1.01edf40000000p-3, 0x1.2b10240000000p-3, 0x1.409a0a0000000p-3, -0x1.e24a820000000p-4, 0x1.1403200000000p-4, -0x1.bd140c0000000p-3, 0x1.86046c0000000p-3, -0x1.2851460000000p-2, -0x1.548c3a0000000p-1, -0x1.f8a36e0000000p-2, -0x1.26c4de0000000p-1, 0x1.3aa33c0000000p-2, -0x1.48fc580000000p-1, -0x1.45c28a0000000p-2, -0x1.450d100000000p-2, 0x1.35f5e00000000p-3, 0x1.723e2c0000000p-3, -0x1.fe3e480000000p-2, -0x1.f476820000000p-4, -0x1.9958660000000p-3, -0x1.3bc91c0000000p-1, -0x1.1ff08e0000000p-1, 0x1.03b86e0000000p-2, -0x1.f9ce740000000p-2, 0x1.23a4960000000p-2, -0x1.4a0ea40000000p-2, 0x1.eb585e0000000p-3, -0x1.b1dade0000000p-1, -0x1.33164e0000000p-6, -0x1.2275680000000p-3, 0x1.3554e80000000p-3, -0x1.bccf960000000p-2, 0x1.d955860000000p-3, 0x1.99a1a20000000p-2, -0x1.463dd00000000p-3, 0x1.b39fe40000000p-2, -0x1.94ad760000000p-3, 0x1.0f04720000000p-2, 0x1.56e98e0000000p-4, -0x1.7ca8640000000p-2, 0x1.88e6660000000p-5, 0x1.17a8a80000000p-3, -0x1.2fa4120000000p-2, 0x1.40e7fa0000000p-3, -0x1.e353a20000000p-3, -0x1.8188bc0000000p-1, -0x1.5ad3960000000p-1, 0x1.9f85360000000p-3, -0x1.1028960000000p-2, 0x1.ab3dfc0000000p-3, -0x1.ee5ce00000000p-2, -0x1.4f55aa0000000p-1, -0x1.07f7460000000p-3, -0x1.392de40000000p-2, -0x1.b54f560000000p-2, 0x1.01e0fe0000000p-3, 0x1.4574b60000000p-3, -0x1.64bc4e0000000p-1, 0x1.1199f40000000p-3, -0x1.fd532c0000000p-2, 0x1.7007de0000000p-3, -0x1.67a25c0000000p-2, -0x1.43743a0000000p-1, 0x1.142b300000000p-2, -0x1.7215e60000000p-2, -0x1.5d71c80000000p-3, 0x1.31f7320000000p-3, 0x1.2ee1b80000000p-3, -0x1.21fa9c0000000p-1, 0x1.dd06060000000p-7, -0x1.0e99c00000000p-1, -0x1.5513140000000p-2, 0x1.4a90820000000p-2, -0x1.88ae1e0000000p-7, 0x1.5055b20000000p-3, 0x1.243ed40000000p-2, 0x1.6a050e0000000p-4, -0x1.46485e0000000p-2, -0x1.9d31ea0000000p-2, -0x1.032ac80000000p-2, -0x1.bfb0780000000p-1, -0x1.a170f40000000p-3, -0x1.caf5fa0000000p-4, -0x1.c21b000000000p-2, 0x1.4fc6fa0000000p-3, -0x1.01a3f40000000p-1, -0x1.a816060000000p-2, 0x1.49b22a0000000p-3, -0x1.1314160000000p-1, -0x1.1c599a0000000p-4, -0x1.090ed60000000p-3, 0x1.5142d20000000p-3, 0x1.ba61620000000p-3, 0x1.05ba220000000p-2}
, {-0x1.4dfb8e0000000p-2, -0x1.b113540000000p-2, -0x1.e840320000000p-2, 0x1.8e7d3c0000000p-4, 0x1.bff70a0000000p-4, 0x1.a5b6b40000000p-3, -0x1.ef66f20000000p-3, 0x1.189b080000000p-3, -0x1.8184da0000000p-2, -0x1.b230be0000000p-3, 0x1.5d16640000000p-3, 0x1.755d0a0000000p-3, 0x1.9ecd9a0000000p-3, 0x1.a3045a0000000p-4, -0x1.97ece80000000p-2, 0x1.ec28960000000p-3, -0x1.474a320000000p-1, -0x1.cdec3e0000000p-2, -0x1.0625320000000p-1, 0x1.9abbf60000000p-3, 0x1.d194c20000000p-3, -0x1.674c400000000p-2, -0x1.d2922e0000000p-2, -0x1.1176d80000000p-1, -0x1.ee981c0000000p-3, 0x1.16b1960000000p-2, -0x1.376a960000000p-2, 0x1.34bd0e0000000p-3, -0x1.91e6240000000p-4, 0x1.52ad6a0000000p-3, -0x1.37175a0000000p-3, -0x1.1d84800000000p-3, 0x1.abc7700000000p-3, -0x1.93627e0000000p-2, -0x1.3b41820000000p-1, 0x1.23932c0000000p-3, -0x1.3a33820000000p-1, -0x1.1194720000000p-2, -0x1.2917780000000p-2, -0x1.f180aa0000000p-4, 0x1.f5eeca0000000p-3, -0x1.32418a0000000p-3, -0x1.968d0c0000000p-2, 0x1.4f3ae20000000p-3, 0x1.29b4480000000p-3, 0x1.37c9180000000p-2, -0x1.5becb20000000p-3, -0x1.fef3bc0000000p-5, 0x1.42720a0000000p-3, -0x1.eb57d40000000p-3, -0x1.666d200000000p-1, -0x1.5309e40000000p-2, -0x1.b806dc0000000p-4, 0x1.9cfce60000000p-3, 0x1.a249d60000000p-3, 0x1.a14db20000000p-3, 0x1.eb0cc00000000p-4, -0x1.3025f00000000p-2, 0x1.044c780000000p-5, -0x1.625b940000000p-1, -0x1.202aa80000000p-1, -0x1.7ebe1e0000000p-2, -0x1.6501080000000p-2, -0x1.cd9dae0000000p-2, 0x1.9fd31a0000000p-3, -0x1.0dcd940000000p-1, 0x1.4457c60000000p-3, -0x1.a77a120000000p-5, -0x1.abbff00000000p-2, 0x1.b47ac40000000p-3, 0x1.fcb9540000000p-3, -0x1.0a4f6e0000000p-1, -0x1.b508ce0000000p-3, -0x1.00df980000000p-2, -0x1.c13cde0000000p-4, 0x1.0084f60000000p-3, 0x1.b6a1000000000p-4, 0x1.4afd200000000p-2, -0x1.3e04300000000p-1, 0x1.62437e0000000p-3, 0x1.1902be0000000p-2, 0x1.2c50c20000000p-5, -0x1.f59dde0000000p-2, -0x1.b18b5c0000000p-3, 0x1.6631160000000p-4, -0x1.20e16a0000000p-2, -0x1.4005300000000p-1, -0x1.1a5d5a0000000p-2, -0x1.a303a40000000p-2, 0x1.3344360000000p-3, -0x1.b062000000000p-5, -0x1.0a3bb80000000p-1, -0x1.56508c0000000p-2, 0x1.4aa08c0000000p-3, -0x1.5530700000000p-1, 0x1.2541dc0000000p-2, -0x1.469baa0000000p-2, -0x1.b0d6b00000000p-3, 0x1.e857e20000000p-3, -0x1.a5bf5c0000000p-4}
, {-0x1.506a300000000p-1, 0x1.9ce4a40000000p-3, 0x1.5c1f620000000p-3, 0x1.126e980000000p-3, 0x1.357a4c0000000p-3, -0x1.9cc6720000000p-2, -0x1.19ee280000000p-1, -0x1.3ce2e20000000p-2, 0x1.d1fc2e0000000p-3, 0x1.5106340000000p-2, 0x1.089cf20000000p-5, 0x1.9d7afa0000000p-11, 0x1.a37fdc0000000p-3, -0x1.31201c0000000p-1, 0x1.f16f400000000p-3, -0x1.a8cca00000000p-7, 0x1.9e79200000000p-3, -0x1.0aa07c0000000p-2, -0x1.5cb9b40000000p-2, -0x1.6596620000000p-2, -0x1.a660200000000p-2, 0x1.61cb9a0000000p-5, 0x1.725a060000000p-3, 0x1.0c5b800000000p-3, 0x1.2884240000000p-3, -0x1.77c8600000000p-2, -0x1.85306c0000000p-2, -0x1.3a2e1e0000000p-3, -0x1.ea27e60000000p-2, 0x1.cdc6460000000p-5, 0x1.1c87740000000p-2, 0x1.219dba0000000p-2, -0x1.1bdfde0000000p-1, -0x1.e53e300000000p-4, 0x1.3f04a20000000p-2, -0x1.e913a40000000p-2, -0x1.34db700000000p-1, -0x1.f854280000000p-3, 0x1.4009b60000000p-2, -0x1.31f48a0000000p-2, -0x1.109ba80000000p-1, -0x1.27ef920000000p-1, 0x1.a678be0000000p-3, -0x1.56a9ea0000000p-1, 0x1.c9fb1c0000000p-3, -0x1.c75d780000000p-1, -0x1.6347ea0000000p-4, 0x1.a8e19e0000000p-3, -0x1.25075c0000000p-2, -0x1.96af680000000p-2, 0x1.4424ba0000000p-2, -0x1.2aa72c0000000p-1, -0x1.335d8e0000000p-1, -0x1.54a5fc0000000p-1, 0x1.4d715a0000000p-3, -0x1.50aed00000000p-1, -0x1.767bd00000000p-2, -0x1.d3b7520000000p-2, -0x1.38efa40000000p-6, 0x1.11f4320000000p-3, 0x1.2b050c0000000p-2, 0x1.365f520000000p-2, -0x1.5533d00000000p-1, -0x1.879f1e0000000p-3, -0x1.1222ac0000000p-1, 0x1.2ddfe00000000p-2, -0x1.981eca0000000p-1, -0x1.de9f8c0000000p-3, -0x1.ea1f860000000p-3, -0x1.f57bb40000000p-2, -0x1.86d78c0000000p-3, 0x1.0deeba0000000p-4, -0x1.90634a0000000p-2, 0x1.30d2ae0000000p-2, 0x1.06b0200000000p-2, -0x1.5994600000000p-1, 0x1.51bf3a0000000p-3, -0x1.f3cf7a0000000p-3, -0x1.b6fb4e0000000p-3, 0x1.a58adc0000000p-3, -0x1.076a960000000p-1, -0x1.5c8f9e0000000p-4, 0x1.473ffc0000000p-3, -0x1.ad3c5c0000000p-2, -0x1.1687260000000p-1, 0x1.0ea2420000000p-2, -0x1.455cc00000000p-1, -0x1.21a0040000000p-1, -0x1.1f2c580000000p-2, 0x1.00412e0000000p-3, -0x1.23fcfe0000000p-2, -0x1.23cf540000000p-1, 0x1.30c4180000000p-3, -0x1.4af7e00000000p-1, 0x1.6aec480000000p-2, 0x1.12178e0000000p-2, -0x1.0c9b520000000p-1, -0x1.13a9820000000p-3, -0x1.02e9ba0000000p-4, -0x1.b6eade0000000p-4}
, {0x1.4a4f7a0000000p-3, -0x1.c15fc80000000p-3, -0x1.8b48640000000p-2, 0x1.c04d400000000p-4, -0x1.c3a0160000000p-2, -0x1.56da800000000p-2, 0x1.b1c2e00000000p-4, 0x1.0a7ea80000000p-3, -0x1.69dd880000000p-1, 0x1.7df07c0000000p-3, -0x1.afe5d80000000p-2, -0x1.81bb7a0000000p-4, -0x1.31b87a0000000p-1, 0x1.478dd20000000p-3, 0x1.d6f2420000000p-3, -0x1.8758920000000p-2, 0x1.be24020000000p-3, -0x1.54e9560000000p-2, 0x1.ad03980000000p-3, 0x1.eb42be0000000p-3, 0x1.3e50f40000000p-2, -0x1.f5de640000000p-2, -0x1.9f4a2a0000000p-3, 0x1.880ad20000000p-4, -0x1.29fb840000000p-3, 0x1.157f8e0000000p-7, 0x1.928d3e0000000p-2, 0x1.6c2ae00000000p-3, -0x1.62c2700000000p-1, 0x1.809c640000000p-3, -0x1.b87c1a0000000p-3, -0x1.6313680000000p-1, -0x1.2b04ec0000000p-1, 0x1.65bb220000000p-3, -0x1.7ea5fa0000000p-5, 0x1.c084ea0000000p-3, -0x1.002f6e0000000p-2, 0x1.2be3560000000p-5, -0x1.33de540000000p+0, -0x1.f897400000000p-3, -0x1.7928b60000000p-2, -0x1.442b6c0000000p-5, 0x1.3996a60000000p-4, -0x1.2dda4e0000000p-4, 0x1.986fb40000000p-3, 0x1.704c280000000p-2, 0x1.d3a0820000000p-3, 0x1.037ac60000000p-3, -0x1.69e6320000000p-1, 0x1.23d3d80000000p-2, -0x1.b7cdbc0000000p-2, -0x1.f5ba8e0000000p-4, -0x1.b1540e0000000p-2, -0x1.7112640000000p-2, 0x1.ea63b00000000p-3, 0x1.7913d60000000p-3, 0x1.b68bc40000000p-3, 0x1.f267220000000p-3, 0x1.558f980000000p-5, -0x1.46da880000000p-1, -0x1.b5c18c0000000p-1, -0x1.bdd1400000000p-3, -0x1.ed90200000000p-2, 0x1.8bb4500000000p-3, 0x1.3cde500000000p-3, -0x1.5e2e460000000p-2, -0x1.0438620000000p-1, -0x1.45e2d80000000p-3, 0x1.b9ab4a0000000p-3, -0x1.791d2a0000000p-2, 0x1.0010ba0000000p-2, -0x1.e749000000000p-6, -0x1.aae5980000000p-2, -0x1.0796c60000000p-2, 0x1.2ef7600000000p-2, 0x1.1b715c0000000p-3, 0x1.dc09000000000p-4, -0x1.844fdc0000000p-2, -0x1.471b560000000p-2, -0x1.62b2de0000000p-5, -0x1.2e4bdc0000000p-2, -0x1.62cec00000000p-2, 0x1.92888e0000000p-7, -0x1.8b675e0000000p-2, 0x1.93d7dc0000000p-4, 0x1.fba9a00000000p-3, 0x1.abd4d40000000p-3, -0x1.bed28c0000000p-5, 0x1.8af38a0000000p-3, 0x1.38d5c40000000p-3, -0x1.97af440000000p-7, 0x1.9e48540000000p-5, -0x1.dadda40000000p-3, 0x1.6bc0960000000p-3, -0x1.fd90340000000p-2, -0x1.f679a60000000p-4, -0x1.205ffa0000000p-2, 0x1.c47e6e0000000p-4, -0x1.78c7980000000p-2, -0x1.766a5c0000000p-2}
, {0x1.0375de0000000p-2, 0x1.f7b4020000000p-3, -0x1.b24b140000000p-1, -0x1.414e680000000p-1, -0x1.039cd80000000p-1, 0x1.2830140000000p-3, -0x1.c3efa60000000p-2, -0x1.821d800000000p-1, -0x1.1d48120000000p-1, -0x1.7a58140000000p-3, 0x1.f4b5080000000p-3, 0x1.5ff4aa0000000p-3, -0x1.94a3d00000000p-2, -0x1.67bee80000000p-1, 0x1.37bcb00000000p-2, -0x1.5926fe0000000p-1, 0x1.0a1e540000000p-2, -0x1.18599a0000000p-4, 0x1.5e12640000000p-3, -0x1.8c8f740000000p-1, 0x1.d44d800000000p-4, 0x1.1e150c0000000p-3, 0x1.ea254c0000000p-3, 0x1.13a1d20000000p-2, -0x1.d3c13e0000000p-4, -0x1.3157ca0000000p-1, -0x1.71d1f60000000p-2, -0x1.2234e40000000p-1, -0x1.1e2ac20000000p-1, 0x1.9d39de0000000p-4, -0x1.0cbaf20000000p-1, -0x1.46a29a0000000p-2, -0x1.2ea2d00000000p-1, 0x1.9c22160000000p-3, 0x1.4631e60000000p-2, -0x1.8f2b860000000p-1, -0x1.6d84400000000p-3, 0x1.2fe9e20000000p-2, -0x1.59727a0000000p-3, -0x1.2a3a0a0000000p-2, 0x1.32fd740000000p-3, 0x1.5d60b40000000p-2, -0x1.b80c640000000p-2, -0x1.e029660000000p-2, -0x1.3ddeca0000000p-3, 0x1.fdfef00000000p-3, -0x1.deb4160000000p-2, 0x1.abb00c0000000p-3, -0x1.9537a20000000p-1, 0x1.d973740000000p-3, 0x1.5cd11a0000000p-2, -0x1.4e14980000000p-2, -0x1.4b5ad20000000p-2, -0x1.74e55e0000000p-2, -0x1.c187680000000p-1, -0x1.d80c1e0000000p-2, 0x1.02d0780000000p-3, 0x1.9a5e220000000p-3, 0x1.cdf66c0000000p-3, 0x1.557ab20000000p-3, -0x1.138b6a0000000p-6, -0x1.419db00000000p-2, -0x1.a849600000000p-3, -0x1.0b13ee0000000p-1, 0x1.9af2c40000000p-3, 0x1.3e9a9e0000000p-2, -0x1.354d800000000p+0, -0x1.31932e0000000p+0, 0x1.e946ea0000000p-3, -0x1.6cffb60000000p-2, 0x1.f81c920000000p-3, 0x1.d69bc80000000p-4, 0x1.fafba40000000p-3, -0x1.39b6260000000p-1, -0x1.96966c0000000p-3, -0x1.6f675a0000000p-2, -0x1.d65bac0000000p-1, -0x1.023a920000000p+0, -0x1.659a980000000p-2, -0x1.828e0e0000000p-1, -0x1.5e4c080000000p-1, -0x1.b8eaa40000000p-1, 0x1.5b5ec20000000p-3, 0x1.1a50d80000000p-3, 0x1.ae72160000000p-4, -0x1.3ebf500000000p-2, 0x1.ecc7ba0000000p-5, 0x1.867ec40000000p-3, 0x1.f4153c0000000p-3, -0x1.7b91360000000p-2, -0x1.2a07e00000000p-1, 0x1.bebbc20000000p-3, -0x1.8f77b40000000p-1, 0x1.87a6be0000000p-3, -0x1.535a880000000p-2, -0x1.8d6d1c0000000p-1, -0x1.0077b20000000p-2, 0x1.37ab500000000p-3, -0x1.a2bccc0000000p-2, -0x1.3243900000000p-1}
, {-0x1.d71fce0000000p-2, -0x1.4998a80000000p-3, 0x1.712ee20000000p-3, -0x1.5855d60000000p-3, -0x1.7be5f60000000p-3, 0x1.5019100000000p-4, 0x1.50979e0000000p-4, -0x1.17389c0000000p-1, 0x1.3f908e0000000p-5, -0x1.9890400000000p-2, -0x1.333ee60000000p-1, 0x1.5bb6000000000p-3, -0x1.2d5ee00000000p-2, 0x1.42016e0000000p-3, -0x1.1619820000000p-2, -0x1.7910c60000000p-4, -0x1.e67e560000000p-5, -0x1.1c0e2c0000000p-2, -0x1.2ba20e0000000p-4, -0x1.562a6e0000000p-3, -0x1.0c680e0000000p-5, 0x1.9c4bd20000000p-3, -0x1.f26e7a0000000p-2, -0x1.fa8dc20000000p-2, -0x1.f069dc0000000p-5, 0x1.7d59120000000p-3, 0x1.6b1c7c0000000p-2, -0x1.1a1e8c0000000p-3, -0x1.32c6a60000000p-5, -0x1.93afd40000000p-2, 0x1.53838e0000000p-4, 0x1.db4ab00000000p-3, 0x1.99c6840000000p-3, -0x1.ea2a9e0000000p-2, -0x1.c7fb1e0000000p-1, 0x1.081d300000000p-3, 0x1.a4380c0000000p-3, 0x1.4dbb260000000p-3, 0x1.ec09de0000000p-3, 0x1.ac82fc0000000p-5, -0x1.e289460000000p-7, -0x1.4a7fe60000000p-2, 0x1.b7a9ba0000000p-3, 0x1.ce084e0000000p-3, -0x1.3f517a0000000p-2, -0x1.5486420000000p-1, 0x1.2730500000000p-2, -0x1.d1096e0000000p-2, 0x1.b130a00000000p-3, -0x1.d987f80000000p-2, -0x1.980b500000000p-2, -0x1.77f4c40000000p-2, -0x1.9d9dee0000000p-7, 0x1.bcae100000000p-4, 0x1.b2df8c0000000p-3, 0x1.afb6880000000p-3, 0x1.9b9e900000000p-3, 0x1.e1de200000000p-6, -0x1.0d01e40000000p-4, -0x1.8606660000000p-1, 0x1.02f89a0000000p-2, -0x1.14abee0000000p-2, 0x1.ade2980000000p-4, -0x1.f963900000000p-2, 0x1.6bb32a0000000p-4, -0x1.8e68c00000000p-3, 0x1.0067720000000p-3, 0x1.4e0f1a0000000p-2, 0x1.2a8aa00000000p-2, 0x1.fe3b3a0000000p-3, -0x1.3bcab80000000p-1, 0x1.adab460000000p-4, -0x1.ec218c0000000p-1, -0x1.829a300000000p-3, -0x1.e50d880000000p-4, -0x1.f0319a0000000p-2, -0x1.03baf80000000p-2, 0x1.2148300000000p-2, -0x1.3f9e720000000p-2, 0x1.bd40720000000p-3, 0x1.e8cbfe0000000p-3, 0x1.1d25f20000000p-2, -0x1.ccec100000000p-2, 0x1.1d9c8e0000000p-2, -0x1.39f2e40000000p-1, 0x1.4e64800000000p-2, -0x1.0845b00000000p-3, -0x1.483bb80000000p-1, -0x1.2b349c0000000p-1, -0x1.2d7c6c0000000p-2, 0x1.2551300000000p-4, 0x1.e106560000000p-3, 0x1.9e28b20000000p-3, -0x1.3135820000000p-1, -0x1.f7b8340000000p-2, 0x1.28562a0000000p-2, -0x1.8c06b60000000p-1, -0x1.c56d3a0000000p-2, 0x1.5a8a8e0000000p-2, 0x1.f1d3ac0000000p-3}
, {0x1.9ee89a0000000p-3, -0x1.4341080000000p-2, 0x1.199b200000000p-3, 0x1.a6f6ae0000000p-4, -0x1.c9de120000000p-3, -0x1.1166400000000p-2, -0x1.5e1d880000000p-2, -0x1.f893d60000000p-6, 0x1.4506de0000000p-3, -0x1.252fc00000000p-2, 0x1.ec36740000000p-4, -0x1.b444d80000000p-15, 0x1.319abe0000000p-3, 0x1.3702660000000p-3, 0x1.3a6da00000000p-3, -0x1.7607a80000000p-2, 0x1.3b7ad20000000p-3, -0x1.c0a2da0000000p-2, -0x1.c5710a0000000p-3, -0x1.0894ac0000000p-1, -0x1.0109f60000000p-2, 0x1.f007080000000p-5, 0x1.3fc0840000000p-3, 0x1.6eb9ce0000000p-3, -0x1.5d9d100000000p-5, -0x1.d404e00000000p-2, -0x1.33bca80000000p-2, -0x1.0e262c0000000p-1, 0x1.3f93300000000p-3, -0x1.57951c0000000p-2, -0x1.097e440000000p-2, 0x1.ae64f20000000p-6, 0x1.82b4700000000p-3, 0x1.ab6fee0000000p-3, -0x1.e710ba0000000p-3, 0x1.7bef580000000p-4, -0x1.0c55800000000p-1, 0x1.1d2e060000000p-2, -0x1.9703360000000p-2, 0x1.81b9a20000000p-2, 0x1.53a7220000000p-2, 0x1.bbe0e60000000p-7, 0x1.bf80ce0000000p-3, -0x1.23b6cc0000000p-1, -0x1.27a1860000000p-2, -0x1.f2cdf80000000p-5, -0x1.4e0d2a0000000p-2, 0x1.239dd20000000p-4, -0x1.2c188a0000000p-2, -0x1.3367f60000000p-3, -0x1.7404be0000000p-2, 0x1.720c460000000p-2, 0x1.f6cfb40000000p-4, -0x1.7645880000000p-2, -0x1.f85e200000000p-3, -0x1.cbe3740000000p-2, -0x1.6ba2ee0000000p-2, -0x1.f42ed00000000p-3, 0x1.797fd20000000p-5, -0x1.6e23140000000p-2, -0x1.6ce1cc0000000p-2, 0x1.2175960000000p-2, -0x1.d4bdd60000000p-2, -0x1.89d4400000000p-2, 0x1.791c240000000p-3, -0x1.b10a500000000p-2, 0x1.eac60c0000000p-5, -0x1.8062f60000000p-2, -0x1.a9105c0000000p-3, -0x1.cf57e20000000p-2, 0x1.7a52fc0000000p-3, -0x1.1a90580000000p-1, -0x1.8245500000000p-2, -0x1.64eb960000000p-2, -0x1.66105e0000000p-2, 0x1.f0692a0000000p-4, 0x1.ae05fa0000000p-4, -0x1.6e3e520000000p-3, -0x1.7eb6ba0000000p-2, 0x1.9b949e0000000p-3, 0x1.684afa0000000p-3, 0x1.dc7fe20000000p-3, -0x1.26338c0000000p-1, -0x1.53db860000000p-2, 0x1.0b80c80000000p-3, 0x1.46d5280000000p-6, -0x1.8238fa0000000p-3, 0x1.2ef3220000000p-2, 0x1.9f89860000000p-3, 0x1.1e898c0000000p-3, 0x1.1e31d80000000p-3, 0x1.51b9ac0000000p-3, -0x1.97aa2a0000000p-3, 0x1.4dc7380000000p-3, -0x1.0d1ae20000000p-2, -0x1.fe71f20000000p-2, 0x1.1b21240000000p-2, 0x1.3e3e9e0000000p-3, -0x1.3116580000000p-2, 0x1.e721460000000p-9}
, {0x1.a4856c0000000p-4, -0x1.e556c80000000p-2, 0x1.3327640000000p-3, 0x1.29cc340000000p-3, 0x1.a0eda60000000p-5, -0x1.89a7ce0000000p-1, -0x1.bc601e0000000p-2, 0x1.6087900000000p-3, 0x1.ed40fc0000000p-3, 0x1.f063d40000000p-3, 0x1.5976520000000p-4, -0x1.5fe3cc0000000p-1, -0x1.e25e500000000p-10, -0x1.9166280000000p-3, 0x1.d0d9280000000p-3, 0x1.6d8afa0000000p-3, 0x1.66b3260000000p-3, -0x1.96341c0000000p-3, -0x1.24c6340000000p-2, 0x1.46abea0000000p-3, -0x1.4bd41a0000000p-2, -0x1.fb069a0000000p-2, -0x1.df21200000000p-2, -0x1.0ca5260000000p-1, -0x1.6c557e0000000p-3, 0x1.db0aae0000000p-3, -0x1.4fa63a0000000p-2, 0x1.f60f400000000p-4, 0x1.9d65480000000p-3, 0x1.62b0e20000000p-5, -0x1.0eb1d60000000p-1, -0x1.a78e2e0000000p-3, -0x1.8eb86a0000000p-7, -0x1.23c5420000000p-7, -0x1.1b63c20000000p-2, 0x1.d7cde20000000p-4, -0x1.16f9260000000p-1, -0x1.ea9ad80000000p-2, -0x1.3435a80000000p-2, -0x1.29f7be0000000p-1, -0x1.f55d7c0000000p-2, -0x1.cdb12a0000000p-1, 0x1.a23a520000000p-3, -0x1.85baf80000000p-1, -0x1.5f66160000000p-2, -0x1.dc718a0000000p-3, 0x1.1139000000000p-2, 0x1.73e19a0000000p-4, 0x1.b0c2280000000p-3, -0x1.1d69940000000p-3, -0x1.d1a1f00000000p-3, -0x1.9e14ca0000000p-3, 0x1.1b663e0000000p-2, -0x1.b9d9b60000000p-2, 0x1.7b022a0000000p-3, -0x1.abe9200000000p-3, -0x1.abd9620000000p-5, -0x1.9e083a0000000p-4, -0x1.a6de640000000p-3, -0x1.53e0b60000000p-2, 0x1.c51db80000000p-3, 0x1.1c35980000000p-2, -0x1.2e56b00000000p-1, -0x1.78d4120000000p-2, -0x1.f742ea0000000p-2, 0x1.45a2fe0000000p-2, 0x1.5165c60000000p-4, 0x1.2eb2540000000p-2, -0x1.d337660000000p-3, -0x1.70c9ac0000000p-1, 0x1.3aaf0a0000000p-3, 0x1.25bb180000000p-6, -0x1.62426c0000000p-2, 0x1.f831ae0000000p-3, 0x1.d640c00000000p-3, 0x1.6b3f380000000p-4, 0x1.869e640000000p-3, 0x1.3645220000000p-2, -0x1.8676f40000000p-5, -0x1.37428e0000000p-3, -0x1.7dc0b00000000p-3, -0x1.acae000000000p-2, 0x1.545d440000000p-3, 0x1.1272fe0000000p-2, -0x1.59cbce0000000p-3, -0x1.c3377e0000000p-3, -0x1.b670dc0000000p-3, -0x1.441df20000000p-1, -0x1.7a0c780000000p-2, 0x1.01fa680000000p-3, -0x1.c814400000000p-4, -0x1.ac18bc0000000p-2, 0x1.967cce0000000p-3, 0x1.f50e580000000p-4, 0x1.fd2a080000000p-3, 0x1.b88b0c0000000p-3, -0x1.e787f60000000p-3, -0x1.c282340000000p-2, -0x1.4dbf9a0000000p-1, 0x1.11e9fe0000000p-2}
}
;

#undef INPUT_SAMPLES
#undef FC_UNITS