/**
  ******************************************************************************
  * @file    weights/fc.cc
  * @author  Pierre-Emmanuel Novac <penovac@unice.fr>, LEAT, CNRS, Université Côte d'Azur, France
  * @version 1.0.0
  * @date    24 march 2020
  * @brief   Template generating plain C code for the implementation of Convolutional Neural Networks on MCU
  */

#include <stdint.h>

#define INPUT_SAMPLES 100
#define FC_UNITS 10


const float dense_13_bias[FC_UNITS] = {0x0.0p+0, 0x0.0p+0, 0x0.0p+0, 0x0.0p+0, 0x0.0p+0, 0x0.0p+0, 0x0.0p+0, 0x0.0p+0, 0x0.0p+0, 0x0.0p+0}
;

const float dense_13_kernel[FC_UNITS][INPUT_SAMPLES] = {{0x1.fb1ee80000000p-4, 0x1.3be8e00000000p-5, -0x1.d4bb800000000p-6, 0x1.8262e00000000p-6, -0x1.57f5600000000p-5, 0x1.bbed7c0000000p-3, -0x1.0f8f500000000p-6, -0x1.b855800000000p-7, 0x1.7df1b40000000p-3, -0x1.7951ac0000000p-3, 0x1.ad42c00000000p-6, 0x1.ecb1480000000p-4, -0x1.26331a0000000p-3, 0x1.b3071c0000000p-3, -0x1.c153120000000p-4, -0x1.aaea380000000p-4, 0x1.e64b300000000p-5, 0x1.aaa8200000000p-7, 0x1.dcc06c0000000p-3, -0x1.c3e10a0000000p-3, -0x1.4a6b800000000p-7, -0x1.554bee0000000p-3, -0x1.a0f7000000000p-7, 0x1.91f7740000000p-3, -0x1.6ad0fc0000000p-3, 0x1.ba7d780000000p-3, -0x1.1391060000000p-3, -0x1.327a000000000p-10, 0x1.6861700000000p-3, -0x1.d423280000000p-4, 0x1.6b44f80000000p-4, -0x1.2636c80000000p-4, 0x1.2c46080000000p-4, -0x1.574fd00000000p-6, 0x1.c991700000000p-5, 0x1.4fe0780000000p-3, -0x1.8c8e4c0000000p-3, 0x1.9e2d740000000p-3, 0x1.3e91400000000p-7, -0x1.3966bc0000000p-3, 0x1.c019b40000000p-3, -0x1.c2f2700000000p-4, 0x1.90da280000000p-4, -0x1.ba5ade0000000p-3, -0x1.24d3160000000p-3, 0x1.0cd9a80000000p-3, -0x1.d84f200000000p-4, -0x1.69f3860000000p-3, -0x1.91a2bc0000000p-4, -0x1.4356b40000000p-3, -0x1.2c54540000000p-4, -0x1.57f2e40000000p-3, 0x1.a82b000000000p-3, 0x1.63e18c0000000p-3, 0x1.3c7b800000000p-3, 0x1.e93dc00000000p-7, -0x1.11c33c0000000p-4, -0x1.5e49e80000000p-4, -0x1.d17fc40000000p-3, -0x1.6032620000000p-3, -0x1.0ee7300000000p-5, -0x1.6bbe600000000p-6, -0x1.d6392c0000000p-4, 0x1.6d0f840000000p-3, -0x1.ca91400000000p-8, -0x1.493d920000000p-3, -0x1.894d840000000p-3, -0x1.ddc0400000000p-8, -0x1.3fe0f00000000p-5, 0x1.dcea080000000p-4, 0x1.5d45b40000000p-3, 0x1.7f79fc0000000p-3, 0x1.251cc00000000p-8, 0x1.5a45a00000000p-7, -0x1.11fa880000000p-3, 0x1.72c0e80000000p-3, 0x1.1725880000000p-4, 0x1.1bc7c80000000p-4, 0x1.b270f00000000p-3, -0x1.7aabb40000000p-3, 0x1.5c8cdc0000000p-3, 0x1.5776fc0000000p-3, -0x1.5329c60000000p-3, -0x1.82f03e0000000p-3, -0x1.23454c0000000p-4, -0x1.8c9a400000000p-5, 0x1.5abf500000000p-5, 0x1.0150d00000000p-4, -0x1.c2aeb60000000p-3, 0x1.7dae000000000p-11, -0x1.07f84a0000000p-3, 0x1.6e4d440000000p-3, -0x1.0fa60c0000000p-3, 0x1.3cb1180000000p-3, 0x1.1554c00000000p-5, -0x1.aa00080000000p-4, 0x1.f3e4500000000p-4, 0x1.a495900000000p-4, 0x1.9da3300000000p-4, 0x1.1920600000000p-7}
, {-0x1.480a640000000p-3, -0x1.5b4e9c0000000p-4, -0x1.ee474a0000000p-4, -0x1.086f400000000p-3, 0x1.423a740000000p-3, 0x1.8477d00000000p-5, 0x1.5c1cc00000000p-3, 0x1.ad7b940000000p-3, -0x1.1a50180000000p-3, -0x1.1790800000000p-7, 0x1.6642400000000p-4, -0x1.0b01b00000000p-3, -0x1.0343e00000000p-3, -0x1.9a07480000000p-5, -0x1.ae16980000000p-3, 0x1.39bbe00000000p-7, -0x1.1ca9fc0000000p-4, 0x1.75063c0000000p-3, 0x1.69e0d00000000p-4, -0x1.dea4a80000000p-5, -0x1.865c200000000p-7, -0x1.8a2bb00000000p-6, -0x1.6b55080000000p-5, 0x1.4208980000000p-4, -0x1.0470d40000000p-4, 0x1.e794200000000p-7, -0x1.9333640000000p-4, -0x1.0751ae0000000p-3, -0x1.85d46c0000000p-3, -0x1.6915360000000p-3, 0x1.3af2000000000p-5, 0x1.42c5180000000p-3, 0x1.ed0b200000000p-6, -0x1.8f35240000000p-3, -0x1.7fb9900000000p-6, -0x1.3a2bdc0000000p-3, 0x1.29eea00000000p-4, -0x1.91b3320000000p-3, 0x1.ca8cd80000000p-4, -0x1.3ec3e40000000p-4, 0x1.286a400000000p-5, 0x1.574a480000000p-4, -0x1.ab0fc20000000p-3, 0x1.a905e40000000p-3, 0x1.1043280000000p-4, -0x1.759e6c0000000p-3, 0x1.f9e3400000000p-5, 0x1.4481200000000p-7, 0x1.4cb3740000000p-3, 0x1.9529040000000p-3, -0x1.d62c5a0000000p-3, -0x1.3af8360000000p-3, 0x1.6025400000000p-8, 0x1.0a98100000000p-4, 0x1.5d73d40000000p-3, -0x1.2ec9800000000p-5, 0x1.d2bf3c0000000p-3, 0x1.8be2a80000000p-4, -0x1.6117420000000p-3, 0x1.9471900000000p-3, -0x1.527c460000000p-3, 0x1.ae62400000000p-6, -0x1.2bc1600000000p-7, -0x1.15b0940000000p-3, -0x1.54b8280000000p-5, -0x1.41f8900000000p-6, -0x1.1bf5800000000p-6, -0x1.71e0580000000p-3, -0x1.73c3b80000000p-5, -0x1.2062d60000000p-3, 0x1.5e79240000000p-3, 0x1.98bdb80000000p-4, 0x1.dbeee00000000p-6, -0x1.fd3bc20000000p-4, -0x1.a6f5e60000000p-3, 0x1.970f400000000p-6, 0x1.03f5d00000000p-4, 0x1.77c4380000000p-3, 0x1.078e7c0000000p-3, 0x1.756a800000000p-9, 0x1.2bdd900000000p-3, -0x1.5b3b0c0000000p-4, -0x1.2d03080000000p-5, -0x1.0f44980000000p-5, 0x1.4411880000000p-4, 0x1.7854bc0000000p-3, -0x1.d6a8800000000p-6, 0x1.777b800000000p-3, -0x1.bbf0500000000p-4, 0x1.5832f00000000p-5, -0x1.88d3040000000p-3, -0x1.96136c0000000p-4, 0x1.1efd500000000p-4, -0x1.9753ac0000000p-3, -0x1.25f7600000000p-3, 0x1.22d9740000000p-3, 0x1.11b5840000000p-3, 0x1.33313c0000000p-3, 0x1.2f20200000000p-6, 0x1.3ad7040000000p-3}
, {0x1.b3b5a00000000p-4, -0x1.0b877c0000000p-3, -0x1.8e4aa00000000p-3, -0x1.5fad340000000p-4, -0x1.26bec00000000p-5, 0x1.648a000000000p-6, 0x1.9d64040000000p-3, -0x1.5924480000000p-5, -0x1.b82f700000000p-4, 0x1.64fe800000000p-3, 0x1.9c928c0000000p-3, -0x1.fd9fe40000000p-4, 0x1.23c4940000000p-3, -0x1.0e7ca00000000p-3, -0x1.cfea780000000p-3, -0x1.837c0e0000000p-3, -0x1.c25af80000000p-5, -0x1.16f1380000000p-3, 0x1.e0d7680000000p-4, 0x1.65b2ec0000000p-3, -0x1.5952500000000p-6, 0x1.5b1b100000000p-3, 0x1.3f13680000000p-4, 0x1.b5aff80000000p-3, 0x1.4587a40000000p-3, 0x1.d695a80000000p-4, 0x1.3100980000000p-3, 0x1.8560500000000p-5, 0x1.46fe900000000p-4, -0x1.d3df980000000p-5, -0x1.b609640000000p-3, -0x1.4187700000000p-4, 0x1.2cc6600000000p-3, -0x1.dfc0700000000p-5, 0x1.d768500000000p-3, 0x1.a47f000000000p-5, -0x1.d023d00000000p-5, 0x1.dbee600000000p-4, 0x1.d904b00000000p-5, -0x1.0001c00000000p-7, -0x1.05d43c0000000p-4, -0x1.4d57240000000p-3, 0x1.59c1c00000000p-3, 0x1.9bcac00000000p-3, -0x1.c160620000000p-3, 0x1.6817900000000p-5, 0x1.3cbb140000000p-3, 0x1.c9fbb80000000p-3, -0x1.3d9df80000000p-5, -0x1.3c930e0000000p-3, -0x1.0730740000000p-4, 0x1.489d080000000p-3, 0x1.860fec0000000p-3, 0x1.13f7a40000000p-3, -0x1.7d98900000000p-5, 0x1.0b5a600000000p-4, -0x1.569b780000000p-5, -0x1.14722c0000000p-3, 0x1.0e7fc40000000p-3, -0x1.8d461a0000000p-3, 0x1.84b2d00000000p-4, 0x1.0a4e700000000p-3, 0x1.7640c80000000p-4, -0x1.c5c0b20000000p-3, 0x1.59b35c0000000p-3, 0x1.6ea2300000000p-3, 0x1.7d77500000000p-5, -0x1.30a2e80000000p-4, -0x1.d905d20000000p-4, -0x1.30be000000000p-7, 0x1.32affc0000000p-3, -0x1.10d3800000000p-6, 0x1.0a13600000000p-3, 0x1.1d32240000000p-3, -0x1.a227d80000000p-4, -0x1.bb40c60000000p-3, -0x1.095a600000000p-4, 0x1.f332e00000000p-6, -0x1.5d53f00000000p-5, -0x1.0fcb3c0000000p-3, 0x1.68e8340000000p-3, -0x1.1a2d340000000p-4, 0x1.c698100000000p-5, 0x1.c22e100000000p-3, 0x1.c0e0000000000p-14, -0x1.ad60c60000000p-3, 0x1.ff94e00000000p-6, -0x1.1cc2180000000p-3, -0x1.776d7c0000000p-4, 0x1.58aab80000000p-3, -0x1.a409de0000000p-3, -0x1.d65f980000000p-3, -0x1.43433c0000000p-3, 0x1.1c17580000000p-3, 0x1.d9c0000000000p-13, 0x1.78cc400000000p-3, -0x1.2832fc0000000p-4, -0x1.325dec0000000p-3, 0x1.af00840000000p-3, 0x1.af4d200000000p-3}
, {0x1.cb4ea00000000p-3, -0x1.18f0660000000p-3, 0x1.85d6600000000p-3, -0x1.8ee3220000000p-3, -0x1.8941d00000000p-3, 0x1.9594800000000p-9, -0x1.4e3e000000000p-11, -0x1.aa3f800000000p-7, -0x1.4a23080000000p-4, -0x1.47b4440000000p-4, 0x1.ad98280000000p-4, -0x1.1deb480000000p-5, -0x1.5c051a0000000p-3, 0x1.2fcf8c0000000p-3, 0x1.27ec980000000p-3, 0x1.1258040000000p-3, 0x1.314f540000000p-3, 0x1.5e58b80000000p-3, 0x1.2e22800000000p-7, -0x1.10a4260000000p-3, 0x1.5823200000000p-6, 0x1.2bbc380000000p-4, -0x1.ec32be0000000p-4, 0x1.5593c00000000p-4, -0x1.2dc96c0000000p-3, 0x1.4cd5400000000p-5, -0x1.79d2080000000p-4, -0x1.9da3920000000p-3, 0x1.5200380000000p-4, 0x1.cc9d080000000p-4, -0x1.4826500000000p-5, 0x1.71a3100000000p-5, 0x1.649b200000000p-3, -0x1.86e2a40000000p-3, -0x1.11c0a80000000p-5, -0x1.516c980000000p-3, 0x1.353c580000000p-4, 0x1.248eb80000000p-3, 0x1.4c28700000000p-3, 0x1.9949e00000000p-7, -0x1.1ced880000000p-5, 0x1.bb74f80000000p-3, -0x1.7258620000000p-3, 0x1.7847040000000p-3, -0x1.88652a0000000p-3, 0x1.6632e80000000p-3, 0x1.ef65080000000p-4, -0x1.da59000000000p-5, -0x1.9d14000000000p-10, -0x1.1ffb840000000p-3, -0x1.25d2f80000000p-3, -0x1.9748500000000p-6, -0x1.b51aac0000000p-3, -0x1.cce73a0000000p-4, -0x1.25dc660000000p-3, -0x1.c2bd8a0000000p-4, -0x1.c3fa080000000p-3, 0x1.2374600000000p-5, -0x1.50a8880000000p-3, 0x1.f44e700000000p-5, 0x1.8791a00000000p-4, 0x1.cd1b240000000p-3, -0x1.fb38400000000p-6, -0x1.07f1ce0000000p-3, 0x1.6ac6740000000p-3, 0x1.8658100000000p-3, 0x1.2586dc0000000p-3, 0x1.89c0800000000p-6, -0x1.1bda5c0000000p-4, -0x1.3d85900000000p-5, 0x1.c76b540000000p-3, 0x1.de94400000000p-6, 0x1.6321b00000000p-3, 0x1.cde3700000000p-3, 0x1.fd12600000000p-5, 0x1.9c06b80000000p-3, -0x1.c0ddf00000000p-5, 0x1.1869200000000p-4, -0x1.0fbab80000000p-3, -0x1.30c29c0000000p-3, 0x1.1e16700000000p-4, -0x1.94f5240000000p-4, 0x1.395a400000000p-3, -0x1.0dd0340000000p-3, 0x1.dbd8000000000p-9, 0x1.c7c4fc0000000p-3, -0x1.4984e00000000p-5, -0x1.2591980000000p-5, -0x1.1b74620000000p-3, 0x1.beb8080000000p-3, -0x1.3daca00000000p-4, -0x1.c8de300000000p-5, 0x1.092f500000000p-3, 0x1.80d8580000000p-3, 0x1.b589f00000000p-3, 0x1.7916000000000p-3, -0x1.0a0a400000000p-5, -0x1.a0baa40000000p-4, -0x1.2155000000000p-4, -0x1.d26bb00000000p-6}
, {0x1.91e7200000000p-3, 0x1.ba54580000000p-4, -0x1.9938600000000p-6, 0x1.2483bc0000000p-3, -0x1.6ba8680000000p-3, 0x1.4fa6d00000000p-5, 0x1.1cc9480000000p-3, -0x1.28c2900000000p-4, 0x1.2ad8b80000000p-3, -0x1.9a01240000000p-3, 0x1.70c3c00000000p-4, -0x1.0847aa0000000p-3, 0x1.36be680000000p-4, 0x1.952dc80000000p-3, -0x1.2a529a0000000p-3, 0x1.6e14900000000p-3, 0x1.d2ec600000000p-5, 0x1.3999000000000p-10, -0x1.8b9b700000000p-5, 0x1.0dcda80000000p-3, 0x1.baf0200000000p-7, -0x1.aca7a80000000p-4, 0x1.5d21200000000p-7, 0x1.71af700000000p-3, -0x1.db45380000000p-5, 0x1.adbd200000000p-5, -0x1.dabf240000000p-3, 0x1.9d63080000000p-3, 0x1.234e900000000p-4, -0x1.1c0d180000000p-3, 0x1.5890000000000p-7, 0x1.a1c4a00000000p-3, 0x1.6b6ed80000000p-3, -0x1.97e7c00000000p-8, -0x1.18f94e0000000p-3, 0x1.6e01d40000000p-3, 0x1.efd4f80000000p-4, -0x1.b565e80000000p-3, -0x1.799dc80000000p-4, -0x1.20d0b00000000p-4, 0x1.82dd3c0000000p-3, 0x1.9280640000000p-3, -0x1.f34e500000000p-5, 0x1.58ca200000000p-6, -0x1.9e2a300000000p-6, -0x1.c2efd80000000p-3, 0x1.8eec000000000p-3, 0x1.c8ce500000000p-4, -0x1.a8edd60000000p-3, 0x1.3dc7d80000000p-4, 0x1.8663e00000000p-6, -0x1.c9e46c0000000p-3, 0x1.8de3a00000000p-3, -0x1.8cf2740000000p-4, 0x1.26b0280000000p-4, -0x1.5251b00000000p-3, 0x1.9752600000000p-6, 0x1.3c9b600000000p-6, -0x1.dff7000000000p-7, 0x1.be2c980000000p-3, 0x1.d9a0500000000p-4, -0x1.f69e000000000p-7, 0x1.0fcfa00000000p-4, 0x1.f3c9f00000000p-4, 0x1.8374500000000p-5, -0x1.180d3e0000000p-3, -0x1.3cd1d80000000p-5, -0x1.2fd0c00000000p-7, -0x1.1999040000000p-4, 0x1.9a0b280000000p-3, 0x1.069e600000000p-4, 0x1.29f3840000000p-3, 0x1.808f340000000p-3, 0x1.d8ddf00000000p-3, -0x1.7cfd800000000p-3, 0x1.bdf8600000000p-6, -0x1.16b5b80000000p-3, -0x1.e33a6c0000000p-4, -0x1.1abc440000000p-4, -0x1.cf35860000000p-4, -0x1.8357000000000p-4, 0x1.3e30000000000p-4, -0x1.ad8c3e0000000p-3, 0x1.7b6b000000000p-3, -0x1.8222d80000000p-5, -0x1.50b8720000000p-3, 0x1.b2f3600000000p-5, -0x1.9381a00000000p-3, 0x1.9812280000000p-3, 0x1.7256140000000p-3, -0x1.9a14d00000000p-3, 0x1.4246180000000p-3, 0x1.68f1b00000000p-3, 0x1.f361d00000000p-4, 0x1.7efba00000000p-4, -0x1.7577540000000p-3, -0x1.ca70340000000p-3, 0x1.669b540000000p-3, 0x1.13ca5c0000000p-3, -0x1.ff80c00000000p-8}
, {-0x1.77ef480000000p-5, -0x1.f412300000000p-6, -0x1.41bfe40000000p-4, 0x1.94ea9c0000000p-3, 0x1.4faf900000000p-5, -0x1.1b1df00000000p-5, -0x1.41688c0000000p-3, 0x1.5cd2500000000p-4, -0x1.5c94c00000000p-6, -0x1.cec29e0000000p-4, 0x1.4a59480000000p-4, -0x1.a24f600000000p-4, 0x1.b78ca00000000p-3, -0x1.76cd580000000p-5, 0x1.66c0440000000p-3, -0x1.ec45100000000p-6, -0x1.7eb2d20000000p-3, -0x1.c135000000000p-3, -0x1.eece940000000p-4, -0x1.ef83d00000000p-6, -0x1.733eaa0000000p-3, 0x1.9d2b800000000p-4, 0x1.53cf600000000p-4, -0x1.d8f64a0000000p-3, 0x1.92cdd80000000p-3, 0x1.81e6f00000000p-5, 0x1.535e800000000p-8, 0x1.1509a00000000p-4, 0x1.fe4cc80000000p-4, -0x1.1dd0b80000000p-3, 0x1.3ce2d80000000p-4, -0x1.5707f80000000p-5, 0x1.c926480000000p-3, -0x1.52d8260000000p-3, 0x1.d249d00000000p-3, -0x1.4a47680000000p-3, -0x1.34bd3c0000000p-4, -0x1.1452f40000000p-3, 0x1.bf72c80000000p-3, 0x1.7c2b480000000p-3, -0x1.47eab00000000p-4, -0x1.6f89d80000000p-3, -0x1.c40cdc0000000p-4, 0x1.d239b00000000p-4, -0x1.660d200000000p-3, 0x1.ac55bc0000000p-3, -0x1.dba4280000000p-5, -0x1.6c84200000000p-7, -0x1.35ca340000000p-3, -0x1.eafcf00000000p-4, 0x1.1a0db00000000p-4, -0x1.276fc80000000p-5, -0x1.95940c0000000p-3, 0x1.87df940000000p-3, -0x1.5896240000000p-3, -0x1.2dce240000000p-4, 0x1.2e50bc0000000p-3, -0x1.7e9e080000000p-5, -0x1.ed9cc00000000p-5, 0x1.78e0800000000p-6, 0x1.d639140000000p-3, 0x1.21a9b80000000p-4, -0x1.17e64c0000000p-3, 0x1.8b92500000000p-4, 0x1.b0c6540000000p-3, 0x1.cd6ed40000000p-3, 0x1.ab52c00000000p-8, -0x1.3536800000000p-8, 0x1.fee9880000000p-4, -0x1.d679d60000000p-3, 0x1.df46480000000p-4, 0x1.7de7c00000000p-3, -0x1.b43a620000000p-3, 0x1.9f17900000000p-3, -0x1.d288100000000p-5, -0x1.9174e40000000p-4, -0x1.138dd80000000p-3, 0x1.92e9e00000000p-6, 0x1.c089d80000000p-3, -0x1.becc680000000p-3, -0x1.2be2a40000000p-4, 0x1.ccdc640000000p-3, 0x1.fb81900000000p-5, 0x1.d2cfe80000000p-3, -0x1.ac63060000000p-3, 0x1.23f2800000000p-3, -0x1.7b70a40000000p-3, 0x1.9399e00000000p-7, -0x1.caaa5c0000000p-3, -0x1.dc08180000000p-3, 0x1.1c8c080000000p-3, -0x1.8b77000000000p-5, 0x1.0b0d480000000p-3, 0x1.8856280000000p-3, 0x1.7b10b00000000p-5, 0x1.a29a000000000p-9, -0x1.5ab5800000000p-6, -0x1.852ece0000000p-3, 0x1.c8f4e00000000p-6, 0x1.d7130c0000000p-3}
, {-0x1.2e4d9c0000000p-3, 0x1.5247f00000000p-4, 0x1.4e69180000000p-3, 0x1.49a0b80000000p-3, 0x1.4063400000000p-5, 0x1.4990280000000p-3, -0x1.d37f400000000p-6, -0x1.c46c620000000p-4, 0x1.4943d00000000p-3, 0x1.5577a00000000p-3, -0x1.4983380000000p-5, -0x1.fecc980000000p-5, -0x1.2da4b80000000p-3, -0x1.834f540000000p-3, 0x1.7f0f940000000p-3, 0x1.40d1c00000000p-5, -0x1.8716500000000p-4, 0x1.22b33c0000000p-3, -0x1.4780800000000p-9, -0x1.d3a19a0000000p-3, 0x1.4d11680000000p-3, -0x1.65429c0000000p-3, 0x1.887c200000000p-4, 0x1.8935c00000000p-3, -0x1.d41fa80000000p-3, -0x1.5096840000000p-3, 0x1.96b5d40000000p-3, 0x1.9ce37c0000000p-3, -0x1.891d9c0000000p-4, -0x1.873a380000000p-3, 0x1.9d17cc0000000p-3, 0x1.a50b900000000p-4, -0x1.a2f2dc0000000p-4, -0x1.7e22ee0000000p-3, -0x1.ffcd240000000p-4, 0x1.42ea7c0000000p-3, 0x1.c40f000000000p-5, 0x1.5b97e00000000p-4, 0x1.a782600000000p-4, -0x1.b1a7740000000p-4, 0x1.a234d00000000p-4, -0x1.13a8180000000p-4, -0x1.48b9f00000000p-3, 0x1.17ab3c0000000p-3, -0x1.c8a83a0000000p-3, 0x1.cf90840000000p-3, 0x1.a427d00000000p-3, 0x1.abc7700000000p-5, -0x1.c65dd00000000p-3, -0x1.5fba000000000p-10, 0x1.7079d80000000p-3, -0x1.52aca00000000p-7, 0x1.8519000000000p-4, 0x1.2d7d580000000p-3, -0x1.35d0f40000000p-3, -0x1.82253c0000000p-3, -0x1.762ca80000000p-3, 0x1.237f000000000p-5, -0x1.a76ad80000000p-4, -0x1.377f300000000p-6, 0x1.bc07700000000p-3, -0x1.0fa77a0000000p-3, -0x1.1cf85e0000000p-3, 0x1.5b0e580000000p-4, 0x1.ceda700000000p-3, 0x1.94cf200000000p-7, 0x1.1886e80000000p-4, 0x1.7d33b80000000p-3, 0x1.a6d9e80000000p-3, -0x1.8c77c20000000p-3, -0x1.d0bf160000000p-3, 0x1.c0d3400000000p-4, -0x1.efca000000000p-9, 0x1.0dd7800000000p-4, -0x1.b1f0a40000000p-3, 0x1.9425700000000p-3, 0x1.240f2c0000000p-3, 0x1.f7beb00000000p-5, 0x1.f571000000000p-4, 0x1.1cadc80000000p-4, 0x1.8375400000000p-6, -0x1.2792600000000p-6, -0x1.2dc9e40000000p-3, -0x1.0bdf080000000p-3, 0x1.3104d00000000p-4, 0x1.e83e980000000p-4, 0x1.db42c00000000p-7, -0x1.8034980000000p-4, 0x1.4eb7040000000p-3, -0x1.8db0840000000p-3, -0x1.2d42e40000000p-4, 0x1.25e9800000000p-6, -0x1.106f6c0000000p-3, 0x1.c05af00000000p-4, -0x1.f4590a0000000p-4, 0x1.3e8fc00000000p-8, -0x1.3c9b000000000p-10, -0x1.d9c4660000000p-3, 0x1.1c9b080000000p-3, 0x1.842a940000000p-3}
, {0x1.ac46280000000p-4, -0x1.ca092e0000000p-4, 0x1.ac93080000000p-4, 0x1.0877400000000p-7, -0x1.7074100000000p-5, 0x1.a3e7d80000000p-4, 0x1.e39ad00000000p-4, -0x1.4b88000000000p-7, -0x1.9146cc0000000p-3, -0x1.7d83f80000000p-3, -0x1.bd62500000000p-4, 0x1.c879d00000000p-4, -0x1.6952000000000p-4, -0x1.dac4700000000p-5, -0x1.4dec9c0000000p-4, -0x1.e54a6c0000000p-4, 0x1.16b4f80000000p-4, 0x1.a078900000000p-3, 0x1.479b580000000p-3, -0x1.5697c00000000p-5, 0x1.1598b80000000p-4, 0x1.a3dbd40000000p-3, -0x1.18ef8c0000000p-3, 0x1.6c826c0000000p-3, -0x1.9bf3300000000p-3, -0x1.f249a00000000p-7, -0x1.7ba25c0000000p-3, -0x1.1ff94c0000000p-4, -0x1.a03ab80000000p-5, -0x1.a543e80000000p-3, 0x1.4c09e40000000p-3, 0x1.8f32600000000p-7, -0x1.591b700000000p-3, -0x1.4911f40000000p-3, 0x1.dc28780000000p-3, 0x1.6f13040000000p-3, -0x1.45a8200000000p-3, 0x1.f613280000000p-4, 0x1.c43a580000000p-3, -0x1.42772c0000000p-4, -0x1.f751200000000p-5, 0x1.6c84680000000p-3, -0x1.ce5b0a0000000p-4, 0x1.d0bcd80000000p-4, 0x1.0d07000000000p-4, 0x1.4a5a300000000p-5, 0x1.6a5b8c0000000p-3, -0x1.24d0d00000000p-3, 0x1.2cd2e80000000p-3, 0x1.7f7e200000000p-3, 0x1.fc22800000000p-4, 0x1.2f8c600000000p-5, -0x1.92a1700000000p-6, 0x1.2308c40000000p-3, -0x1.c3f7300000000p-5, -0x1.a371c00000000p-5, -0x1.9bbd520000000p-3, 0x1.62bf600000000p-6, 0x1.7119100000000p-4, -0x1.2197080000000p-3, -0x1.bb24ec0000000p-3, -0x1.35cc840000000p-4, 0x1.c266800000000p-9, 0x1.06bed40000000p-3, -0x1.2924800000000p-7, -0x1.8c12500000000p-3, 0x1.5761400000000p-6, 0x1.dc0c640000000p-3, -0x1.791c700000000p-5, 0x1.64d9000000000p-6, 0x1.fe99180000000p-4, -0x1.82d7f80000000p-5, -0x1.c958180000000p-4, -0x1.cd63460000000p-3, -0x1.a930380000000p-4, -0x1.8c37980000000p-3, 0x1.b4a9f40000000p-3, -0x1.d0516e0000000p-3, 0x1.f714a00000000p-6, 0x1.cb97a40000000p-3, -0x1.b48b980000000p-3, 0x1.8d361c0000000p-3, -0x1.65050c0000000p-4, 0x1.8a48000000000p-6, -0x1.43d4cc0000000p-4, 0x1.7af4f40000000p-3, 0x1.d02f400000000p-4, -0x1.a5e9840000000p-3, -0x1.c8f1ae0000000p-4, 0x1.b6d4900000000p-4, 0x1.3a76c80000000p-4, 0x1.89c8000000000p-4, -0x1.27575c0000000p-3, -0x1.d228a60000000p-3, -0x1.954a280000000p-3, 0x1.9ada480000000p-3, -0x1.b789b20000000p-3, -0x1.8daa080000000p-3, 0x1.dbb45c0000000p-3, -0x1.d7c2000000000p-3}
, {0x1.87d4880000000p-3, 0x1.88ca9c0000000p-3, 0x1.229ea00000000p-6, 0x1.1e9b400000000p-6, 0x1.5436600000000p-7, 0x1.32d0a80000000p-3, 0x1.78d3d00000000p-5, -0x1.3adfe40000000p-3, 0x1.886e100000000p-3, -0x1.c311460000000p-4, 0x1.6e34f80000000p-3, 0x1.c50f200000000p-5, -0x1.6932680000000p-3, -0x1.159e500000000p-3, -0x1.29d3ba0000000p-3, 0x1.51a1a40000000p-3, -0x1.3460580000000p-5, 0x1.1000c00000000p-3, 0x1.73f7e00000000p-3, -0x1.b961d80000000p-4, -0x1.a2fd9c0000000p-4, -0x1.8a5c3c0000000p-4, 0x1.ff44380000000p-4, 0x1.0a64c40000000p-3, -0x1.016b900000000p-6, -0x1.ce8fe00000000p-5, 0x1.3c6db80000000p-3, 0x1.a0fc1c0000000p-3, -0x1.788ebe0000000p-3, -0x1.2e319c0000000p-3, -0x1.4865000000000p-7, 0x1.2b05100000000p-4, 0x1.9ee1b40000000p-3, -0x1.4c9d880000000p-4, 0x1.c344640000000p-3, -0x1.93778e0000000p-3, 0x1.1546000000000p-6, 0x1.e015100000000p-5, 0x1.05e3300000000p-3, 0x1.559bf40000000p-3, -0x1.bb3c000000000p-10, 0x1.9b84c00000000p-5, -0x1.23a1800000000p-9, 0x1.80eca00000000p-7, -0x1.2369a00000000p-6, -0x1.96f2940000000p-3, 0x1.4373e00000000p-3, 0x1.d059500000000p-3, -0x1.9c65b60000000p-3, -0x1.80634c0000000p-4, 0x1.7e0bb80000000p-4, -0x1.b2497a0000000p-3, 0x1.1a40800000000p-7, 0x1.9c73840000000p-3, -0x1.2413380000000p-3, -0x1.8afd600000000p-3, -0x1.de8aa00000000p-5, -0x1.28f3c00000000p-6, -0x1.c0c6640000000p-3, -0x1.448e340000000p-3, -0x1.ee87c00000000p-8, -0x1.9bf0cc0000000p-4, -0x1.4bdccc0000000p-4, 0x1.d595480000000p-3, 0x1.e79c700000000p-5, -0x1.0e58380000000p-3, 0x1.52ef100000000p-3, -0x1.b1ee800000000p-6, 0x1.41afb00000000p-3, -0x1.ed0d000000000p-6, 0x1.6924d00000000p-4, -0x1.4cb3d40000000p-3, -0x1.67a0400000000p-8, -0x1.58e5e40000000p-3, 0x1.704d2c0000000p-3, 0x1.61b4600000000p-6, 0x1.5d1f800000000p-3, 0x1.2d84880000000p-4, -0x1.7758e00000000p-4, -0x1.16db520000000p-3, -0x1.1cb2380000000p-4, 0x1.dc91b00000000p-4, 0x1.8639a00000000p-5, 0x1.51b0200000000p-3, -0x1.12e97c0000000p-3, -0x1.3e30240000000p-3, 0x1.dc779c0000000p-3, 0x1.b099000000000p-4, 0x1.047e000000000p-5, 0x1.0971680000000p-3, 0x1.89f3400000000p-3, 0x1.74f0800000000p-6, 0x1.ba09dc0000000p-3, 0x1.4c5e000000000p-5, 0x1.e4f6a00000000p-4, 0x1.03af000000000p-7, 0x1.4c67400000000p-6, -0x1.378dd40000000p-3, 0x1.ba7a680000000p-3, 0x1.5b7b480000000p-3}
, {0x1.1336680000000p-3, -0x1.1659880000000p-4, -0x1.8831140000000p-3, 0x1.3a99400000000p-7, -0x1.d4d2e00000000p-6, 0x1.0081980000000p-4, -0x1.6d928a0000000p-3, 0x1.968a440000000p-3, 0x1.ba76e00000000p-6, -0x1.11fbd80000000p-3, 0x1.6512600000000p-6, 0x1.4374200000000p-6, 0x1.9c464c0000000p-3, -0x1.064a400000000p-6, 0x1.e0f7380000000p-4, -0x1.4971f00000000p-4, -0x1.7575de0000000p-3, 0x1.fb58c00000000p-8, -0x1.c45b460000000p-3, 0x1.4dcf180000000p-3, -0x1.cfac320000000p-3, 0x1.c432600000000p-3, 0x1.6359200000000p-5, 0x1.8a797c0000000p-3, 0x1.7f93380000000p-4, 0x1.152db40000000p-3, -0x1.3addca0000000p-3, 0x1.bb32080000000p-4, 0x1.7400f00000000p-5, -0x1.20e0000000000p-11, -0x1.c534000000000p-8, 0x1.40fac80000000p-3, -0x1.8c69480000000p-3, -0x1.2f12600000000p-6, 0x1.39d3940000000p-3, -0x1.8647480000000p-5, 0x1.4a66640000000p-3, 0x1.1ca9000000000p-4, 0x1.4a4ba80000000p-4, -0x1.cc6ed60000000p-4, -0x1.77ae280000000p-3, 0x1.7a41c00000000p-3, 0x1.a694cc0000000p-3, 0x1.272b640000000p-3, 0x1.3b9d000000000p-5, -0x1.fc44a00000000p-7, -0x1.e6dca60000000p-4, 0x1.71cc700000000p-4, 0x1.ceef9c0000000p-3, -0x1.67dc7c0000000p-4, -0x1.c8e6f00000000p-3, -0x1.613baa0000000p-3, 0x1.3697600000000p-5, -0x1.7b87d20000000p-3, 0x1.ac81d00000000p-5, -0x1.be52de0000000p-3, -0x1.2849800000000p-8, -0x1.7399480000000p-3, -0x1.5cd44a0000000p-3, 0x1.4d03000000000p-3, 0x1.0353a40000000p-3, 0x1.d874a80000000p-4, 0x1.d8f3c00000000p-3, 0x1.affd580000000p-3, -0x1.5d49300000000p-3, -0x1.8caea40000000p-3, -0x1.84ca000000000p-6, 0x1.4423080000000p-3, 0x1.91f8c00000000p-6, 0x1.58437c0000000p-3, -0x1.3c0e940000000p-3, -0x1.dcc9f00000000p-3, 0x1.9210c00000000p-5, -0x1.0ce0780000000p-5, -0x1.7074680000000p-4, 0x1.9fbf080000000p-4, 0x1.86e8740000000p-3, 0x1.b7a3180000000p-3, -0x1.b047100000000p-6, -0x1.34af0c0000000p-4, 0x1.5750200000000p-5, -0x1.5ee4940000000p-3, -0x1.4dd17e0000000p-3, 0x1.ac80200000000p-6, 0x1.10a4d80000000p-3, -0x1.94f8a60000000p-3, 0x1.a036bc0000000p-3, 0x1.ad9d400000000p-8, 0x1.07de980000000p-3, 0x1.b9c7f80000000p-3, 0x1.194e000000000p-5, 0x1.4efa200000000p-3, -0x1.1ee6000000000p-4, -0x1.2f8abc0000000p-3, 0x1.c03e780000000p-3, 0x1.86e5800000000p-3, 0x1.ae8ffc0000000p-3, -0x1.68f0d00000000p-3, 0x1.b809a80000000p-4, 0x1.b689700000000p-5}
}
;

#undef INPUT_SAMPLES
#undef FC_UNITS