/**
  ******************************************************************************
  * @file    weights/fc.cc
  * @author  Pierre-Emmanuel Novac <penovac@unice.fr>, LEAT, CNRS, Université Côte d'Azur, France
  * @version 1.0.0
  * @date    24 march 2020
  * @brief   Template generating plain C code for the implementation of Convolutional Neural Networks on MCU
  */

#include <stdint.h>

#define INPUT_SAMPLES 3872
#define FC_UNITS 16


const float dense_10_bias[FC_UNITS] = {0x1.fe1ee80000000p-7, 0x1.871e9a0000000p-7, -0x1.898cee0000000p-8, 0x1.b3de4e0000000p-6, 0x1.a31d4e0000000p-6, 0x1.5de91e0000000p-6, 0x1.f629660000000p-6, 0x1.7841360000000p-6, 0x1.4167b80000000p-5, 0x1.e752680000000p-7, -0x1.8990940000000p-8, 0x1.1ee05c0000000p-7, 0x1.6edcc00000000p-6, 0x1.04c6ca0000000p-6, -0x1.6350160000000p-8, 0x1.6e44f00000000p-7}
;

const float dense_10_kernel[FC_UNITS][INPUT_SAMPLES] = {{0x1.56748c0000000p-5, -0x1.3806c80000000p-9, 0x1.2d5a360000000p-5, 0x1.41ea180000000p-5, 0x1.2c1f420000000p-6, 0x1.8ecf5e0000000p-6, -0x1.6ead480000000p-7, 0x1.d558d60000000p-5, -0x1.1a7c9c0000000p-5, -0x1.19d5480000000p-5, -0x1.2a50200000000p-10, 0x1.6345fc0000000p-7, 0x1.59f4fa0000000p-5, -0x1.de41000000000p-7, 0x1.2cf0e60000000p-8, -0x1.46fb760000000p-6, -0x1.002f680000000p-5, 0x1.bc3cea0000000p-5, -0x1.e126260000000p-7, 0x1.c8a3f20000000p-6, 0x1.30d26a0000000p-5, 0x1.6e194a0000000p-5, 0x1.31b86e0000000p-5, -0x1.16aa2a0000000p-7, -0x1.b16f4a0000000p-5, -0x1.343cf40000000p-6, 0x1.be275a0000000p-7, -0x1.c69d060000000p-9, 0x1.27c6d40000000p-6, 0x1.35bece0000000p-13, 0x1.78c1320000000p-6, 0x1.889cb80000000p-8, 0x1.3397ae0000000p-8, 0x1.eeaa600000000p-5, 0x1.5cc1040000000p-8, 0x1.3f00a20000000p-6, -0x1.e0c5dc0000000p-9, -0x1.dee8240000000p-7, 0x1.3ee5300000000p-6, 0x1.b0269a0000000p-5, -0x1.91fed20000000p-6, 0x1.69b7880000000p-5, 0x1.ea01440000000p-7, -0x1.fd32a00000000p-6, 0x1.a9c02c0000000p-7, 0x1.8f5e640000000p-10, -0x1.16d04c0000000p-8, 0x1.0c3d140000000p-6, -0x1.b388680000000p-7, 0x1.f4ede80000000p-6, -0x1.17913c0000000p-9, 0x1.439d400000000p-5, 0x1.3b1a0e0000000p-5, 0x1.827e3a0000000p-6, 0x1.30d8d60000000p-7, 0x1.b2df7a0000000p-10, 0x1.31db9e0000000p-5, 0x1.8c63c40000000p-6, 0x1.4bce500000000p-5, 0x1.eb07320000000p-6, -0x1.9880860000000p-9, 0x1.80c76c0000000p-5, 0x1.d255980000000p-6, 0x1.f3c1240000000p-7, 0x1.a718500000000p-5, -0x1.1db1dc0000000p-8, -0x1.b0a0200000000p-6, 0x1.de618e0000000p-8, -0x1.11e53c0000000p-9, -0x1.7327500000000p-5, 0x1.7a871a0000000p-6, -0x1.5a6d6c0000000p-5, 0x1.988af60000000p-6, 0x1.0549ae0000000p-5, 0x1.f0fc920000000p-7, -0x1.3095020000000p-5, -0x1.87ee740000000p-6, -0x1.91169c0000000p-8, -0x1.8d56ac0000000p-5, 0x1.3de2f60000000p-5, -0x1.70f7d00000000p-5, 0x1.a52cd40000000p-5, 0x1.4e30520000000p-7, 0x1.19b1c80000000p-6, 0x1.4c33600000000p-8, 0x1.dff3980000000p-6, -0x1.8a53e20000000p-5, -0x1.3a37fc0000000p-7, -0x1.55725c0000000p-6, 0x1.307a580000000p-5, 0x1.8bcc920000000p-6, -0x1.af35fc0000000p-7, 0x1.aba4f40000000p-5, 0x1.2a52c20000000p-9, 0x1.09be2e0000000p-6, -0x1.40d3ea0000000p-7, -0x1.5b9b820000000p-7, 0x1.2438100000000p-6, -0x1.764f100000000p-5, 0x1.273df00000000p-5, -0x1.83451e0000000p-8, 0x1.1af1660000000p-9, 0x1.a67da80000000p-6, 0x1.91ffe60000000p-6, 0x1.0294320000000p-8, -0x1.1e63de0000000p-6, -0x1.23c4680000000p-5, 0x1.146be00000000p-6, 0x1.89549e0000000p-5, 0x1.35bb500000000p-6, -0x1.0430c20000000p-6, 0x1.1ca7960000000p-6, -0x1.535a640000000p-5, 0x1.ded9e00000000p-5, -0x1.df8f8c0000000p-7, 0x1.fbaa6c0000000p-6, 0x1.1c371a0000000p-6, -0x1.b18a120000000p-9, 0x1.0cfb7a0000000p-7, -0x1.4e8f860000000p-5, 0x1.47ad1e0000000p-6, -0x1.4782480000000p-8, 0x1.063d460000000p-4, 0x1.a058be0000000p-5, 0x1.133caa0000000p-5, -0x1.6073a80000000p-9, 0x1.786ee00000000p-5, 0x1.ef3e7a0000000p-9, -0x1.79932a0000000p-8, -0x1.63536e0000000p-8, -0x1.91d42c0000000p-5, 0x1.00415e0000000p-6, 0x1.8400980000000p-6, -0x1.f68f220000000p-8, 0x1.ed76b60000000p-6, 0x1.d686c20000000p-7, -0x1.f7ecb60000000p-7, -0x1.4a14220000000p-12, -0x1.572d2c0000000p-6, 0x1.10bf160000000p-6, 0x1.b5ba300000000p-5, 0x1.2a53b40000000p-5, 0x1.9a6f4e0000000p-6, 0x1.3d504a0000000p-5, -0x1.fdad300000000p-5, 0x1.3ca52e0000000p-5, 0x1.4874f00000000p-7, 0x1.51711c0000000p-5, -0x1.ac98b60000000p-8, -0x1.0b7b3e0000000p-7, -0x1.13444a0000000p-5, -0x1.22441c0000000p-5, -0x1.4fcdaa0000000p-6, -0x1.ff634c0000000p-6, 0x1.11ca3c0000000p-5, -0x1.24ab060000000p-5, -0x1.1796840000000p-7, 0x1.7c5e320000000p-5, 0x1.8891ee0000000p-5, 0x1.22d6c40000000p-5, 0x1.fc08c60000000p-7, 0x1.00602c0000000p-7, -0x1.e7e0300000000p-5, -0x1.91dedc0000000p-7, 0x1.fcb53e0000000p-5, -0x1.3b025e0000000p-8, 0x1.b361040000000p-6, -0x1.a6912c0000000p-5, 0x1.dc98fe0000000p-5, -0x1.0654ee0000000p-4, 0x1.0297fc0000000p-8, -0x1.86c1d20000000p-12, 0x1.f481ea0000000p-6, 0x1.5ce41c0000000p-4, -0x1.39e2b80000000p-7, 0x1.c58b120000000p-7, 0x1.e381ec0000000p-6, 0x1.0b5b9c0000000p-4, -0x1.3698220000000p-7, 0x1.54a8fc0000000p-5, -0x1.6a2e260000000p-6, -0x1.0679cc0000000p-9, -0x1.b0337c0000000p-11, -0x1.e4fe260000000p-8, -0x1.0e67f40000000p-5, 0x1.2204ac0000000p-5, -0x1.b00ca00000000p-9, -0x1.c921120000000p-8, -0x1.9c64aa0000000p-6, 0x1.05747e0000000p-7, 0x1.06efe00000000p-6, 0x1.fd9c2e0000000p-5, 0x1.593bf60000000p-5, 0x1.a1487e0000000p-6, -0x1.0ca4ba0000000p-5, 0x1.2812fc0000000p-7, 0x1.752d760000000p-4, 0x1.cf86b60000000p-6, 0x1.4bcafc0000000p-5, -0x1.ada6680000000p-4, 0x1.57c57c0000000p-4, -0x1.092b480000000p-6, 0x1.e6e73c0000000p-7, -0x1.021a3a0000000p-6, -0x1.076ed60000000p-7, 0x1.9760580000000p-5, 0x1.4cc53c0000000p-8, 0x1.2cf0080000000p-4, -0x1.6610860000000p-5, 0x1.290f400000000p-3, 0x1.a29c020000000p-6, 0x1.1672940000000p-4, 0x1.8b89e80000000p-6, -0x1.7d208e0000000p-6, 0x1.12f1a60000000p-5, 0x1.3ba1da0000000p-9, 0x1.a6433e0000000p-5, 0x1.185aa20000000p-7, 0x1.eba6c60000000p-6, -0x1.13db920000000p-6, 0x1.8266660000000p-6, -0x1.68f5cc0000000p-10, 0x1.22590e0000000p-5, -0x1.ce68e40000000p-8, 0x1.3352640000000p-5, 0x1.33f3e60000000p-5, -0x1.366e020000000p-7, -0x1.0109320000000p-6, 0x1.cd3b080000000p-5, -0x1.9e36120000000p-5, 0x1.f71b960000000p-6, -0x1.66d9320000000p-7, 0x1.684b2c0000000p-4, 0x1.ac288e0000000p-6, 0x1.1e672a0000000p-5, 0x1.25ea540000000p-5, 0x1.a3a9b20000000p-5, 0x1.b9332c0000000p-7, 0x1.37a4ca0000000p-8, 0x1.c948560000000p-6, -0x1.fb24080000000p-7, 0x1.5b41320000000p-7, 0x1.f4eb1e0000000p-5, 0x1.716f700000000p-7, 0x1.34efb80000000p-4, 0x1.5e09b80000000p-9, 0x1.9a16600000000p-7, 0x1.81612c0000000p-5, 0x1.17d3f60000000p-7, 0x1.cea2c80000000p-12, 0x1.49674a0000000p-6, -0x1.b8ce600000000p-7, 0x1.8099620000000p-5, 0x1.f169ae0000000p-8, 0x1.ae58ca0000000p-5, 0x1.82d4c60000000p-8, 0x1.5076480000000p-6, 0x1.2db8a00000000p-6, -0x1.cdc8c80000000p-6, -0x1.5b27f00000000p-6, 0x1.b776f00000000p-9, 0x1.e0e6e00000000p-8, 0x1.70951e0000000p-6, -0x1.1e4e9e0000000p-5, 0x1.379fd20000000p-4, -0x1.2c7e700000000p-6, -0x1.9842a00000000p-6, 0x1.9f67d00000000p-6, -0x1.81ae9e0000000p-7, 0x1.5c46000000000p-6, -0x1.124fb80000000p-6, -0x1.9c37ca0000000p-6, 0x1.5de3880000000p-5, -0x1.f126dc0000000p-6, 0x1.4bb84c0000000p-6, -0x1.5cfa200000000p-9, 0x1.57f85c0000000p-4, 0x1.0b115e0000000p-5, 0x1.1b49a80000000p-7, 0x1.04cf500000000p-6, -0x1.383aee0000000p-5, 0x1.e114780000000p-6, 0x1.d85e9c0000000p-7, -0x1.8443e60000000p-5, -0x1.0ecada0000000p-6, 0x1.50f1080000000p-5, 0x1.09dd5c0000000p-10, -0x1.5864780000000p-6, -0x1.a8c5d20000000p-6, -0x1.5805d80000000p-6, -0x1.3de13a0000000p-10, -0x1.1c19ee0000000p-5, 0x1.305a580000000p-6, -0x1.489bac0000000p-6, 0x1.4ad1060000000p-10, -0x1.bc39b80000000p-5, 0x1.a00a2c0000000p-8, 0x1.2f8b0e0000000p-8, 0x1.b0a0840000000p-9, 0x1.a9551c0000000p-5, -0x1.41b39c0000000p-6, 0x1.7c7f5e0000000p-5, -0x1.d48fce0000000p-8, -0x1.d3116e0000000p-8, -0x1.33d9860000000p-5, 0x1.a2630c0000000p-6, -0x1.73a30a0000000p-8, 0x1.010ee40000000p-7, 0x1.098f6e0000000p-5, -0x1.5dbc560000000p-8, 0x1.2b161a0000000p-5, 0x1.1814600000000p-7, -0x1.4e1d300000000p-5, -0x1.4eaf6a0000000p-6, 0x1.3779c40000000p-5, -0x1.7d26e40000000p-5, -0x1.309d900000000p-7, 0x1.71aef80000000p-6, 0x1.9989520000000p-9, 0x1.37deae0000000p-4, -0x1.0b80e40000000p-7, -0x1.62eb220000000p-7, -0x1.3a71cc0000000p-5, -0x1.94c2620000000p-11, 0x1.1587fe0000000p-6, 0x1.ee78220000000p-6, 0x1.93ffe80000000p-7, -0x1.48e1500000000p-8, -0x1.974fe40000000p-5, 0x1.c4e2da0000000p-12, -0x1.c542360000000p-7, 0x1.e6add00000000p-6, -0x1.121b2c0000000p-7, 0x1.b654ec0000000p-5, -0x1.85ab3a0000000p-7, -0x1.13281e0000000p-5, -0x1.7b21340000000p-10, -0x1.52d29c0000000p-6, -0x1.0a54f20000000p-5, 0x1.34efdc0000000p-6, 0x1.4e466e0000000p-6, 0x1.18d56a0000000p-5, 0x1.e73e100000000p-6, 0x1.abc0b80000000p-9, -0x1.18fe1c0000000p-7, 0x1.0b86680000000p-6, -0x1.1549f20000000p-6, -0x1.0084860000000p-8, 0x1.c879de0000000p-7, -0x1.41ed280000000p-6, -0x1.5b900a0000000p-5, 0x1.b230fe0000000p-5, 0x1.74e7c40000000p-5, 0x1.88f3f40000000p-5, 0x1.228d420000000p-9, 0x1.82b4ee0000000p-6, -0x1.500e6a0000000p-6, -0x1.7c6b420000000p-6, 0x1.5a5edc0000000p-5, 0x1.4c093c0000000p-5, -0x1.36d96e0000000p-5, -0x1.611d3c0000000p-6, 0x1.48b5c60000000p-7, 0x1.a9dd000000000p-6, 0x1.7ec9e80000000p-7, 0x1.1c6bbe0000000p-5, -0x1.3740a40000000p-9, 0x1.5782600000000p-5, 0x1.d852800000000p-6, 0x1.603b7a0000000p-5, -0x1.1f901a0000000p-7, 0x1.424e340000000p-6, -0x1.74219e0000000p-6, -0x1.19149a0000000p-7, -0x1.7796c60000000p-10, 0x1.4e2fd80000000p-5, -0x1.d912da0000000p-6, 0x1.46a5a80000000p-5, 0x1.1f09520000000p-7, -0x1.40269a0000000p-5, 0x1.0cccb60000000p-5, -0x1.9779200000000p-7, -0x1.8c454c0000000p-7, 0x1.9a32100000000p-8, -0x1.4095ae0000000p-8, 0x1.e577120000000p-6, -0x1.62a11c0000000p-6, 0x1.66fed60000000p-6, 0x1.5c595e0000000p-6, -0x1.03ffb20000000p-5, -0x1.5d324c0000000p-7, 0x1.092aae0000000p-5, -0x1.09f2880000000p-7, 0x1.ff20c00000000p-5, -0x1.f3a0380000000p-7, -0x1.24f8160000000p-6, 0x1.adf8620000000p-5, 0x1.6e03000000000p-5, -0x1.0640d60000000p-5, -0x1.cf2b380000000p-7, 0x1.641fac0000000p-5, -0x1.c669800000000p-7, 0x1.5c869c0000000p-6, 0x1.ac13c40000000p-6, -0x1.8b7dea0000000p-8, 0x1.523ea80000000p-14, 0x1.f5f1ec0000000p-9, 0x1.6970080000000p-7, 0x1.a0f6880000000p-6, -0x1.c38f480000000p-7, 0x1.6e72860000000p-6, -0x1.4ab8fa0000000p-7, 0x1.4ff3620000000p-5, 0x1.869a100000000p-6, -0x1.eda8fa0000000p-9, -0x1.33fe8c0000000p-5, 0x1.b83d720000000p-9, 0x1.2b27360000000p-7, -0x1.eca2460000000p-9, -0x1.a407aa0000000p-8, 0x1.4ec4520000000p-4, 0x1.3850d60000000p-7, -0x1.3805dc0000000p-6, -0x1.388e880000000p-6, 0x1.4e5f7e0000000p-5, -0x1.bf82020000000p-8, -0x1.2a78c80000000p-5, 0x1.ad52ea0000000p-7, 0x1.f103f80000000p-6, 0x1.bbdbd60000000p-6, 0x1.01e5d20000000p-8, 0x1.4a90e20000000p-5, 0x1.d073400000000p-6, 0x1.6c8bce0000000p-5, 0x1.36d62c0000000p-4, 0x1.c6e5e40000000p-5, 0x1.427ed40000000p-6, 0x1.5b77b40000000p-6, -0x1.30aa820000000p-7, 0x1.103d1e0000000p-5, -0x1.90e9820000000p-9, 0x1.d23d680000000p-7, 0x1.47e3920000000p-8, 0x1.ef28420000000p-6, 0x1.7be28e0000000p-5, 0x1.1a52740000000p-5, 0x1.6955380000000p-6, -0x1.13b1e00000000p-4, -0x1.d82d880000000p-6, -0x1.ffbd0e0000000p-10, 0x1.32288e0000000p-6, -0x1.05b2ae0000000p-7, 0x1.5966e80000000p-7, 0x1.7f5e5e0000000p-6, -0x1.5289120000000p-9, -0x1.051b5a0000000p-8, 0x1.6c72e80000000p-6, -0x1.2e65fe0000000p-9, -0x1.9d839e0000000p-7, 0x1.5582800000000p-6, -0x1.4b25aa0000000p-6, 0x1.8c4ca60000000p-5, 0x1.0e63480000000p-5, 0x1.853e1c0000000p-7, -0x1.8e6cce0000000p-6, 0x1.65b68c0000000p-5, 0x1.b214fc0000000p-6, -0x1.fbcf9c0000000p-7, 0x1.2de44c0000000p-5, 0x1.e847180000000p-7, 0x1.05814a0000000p-6, -0x1.00aaba0000000p-5, 0x1.efa6f60000000p-7, 0x1.9facfa0000000p-7, 0x1.8bfb6e0000000p-12, -0x1.aec0c40000000p-7, 0x1.9cf4a00000000p-8, 0x1.30471a0000000p-5, 0x1.d739660000000p-8, 0x1.eadc3a0000000p-7, -0x1.5ac8d00000000p-7, -0x1.318cb40000000p-7, -0x1.b2dae80000000p-6, -0x1.c60f740000000p-6, 0x1.a117580000000p-5, 0x1.55dbc80000000p-5, -0x1.2b00d40000000p-7, 0x1.24e8bc0000000p-5, -0x1.30768e0000000p-6, -0x1.6d5da20000000p-6, 0x1.778b700000000p-6, 0x1.15c17a0000000p-5, -0x1.1c60f20000000p-9, 0x1.1b77840000000p-6, 0x1.6de8e80000000p-6, 0x1.4ccdbc0000000p-5, -0x1.a0c21c0000000p-6, 0x1.2f63120000000p-6, -0x1.2d1cee0000000p-6, 0x1.fa3dfe0000000p-8, -0x1.ddb1cc0000000p-8, -0x1.0161540000000p-5, -0x1.51eb500000000p-6, -0x1.0b3d9c0000000p-6, 0x1.b2961e0000000p-6, -0x1.9a9e9c0000000p-8, -0x1.5549680000000p-7, 0x1.a733920000000p-5, 0x1.cdc5060000000p-6, -0x1.30e7160000000p-6, 0x1.1cc5fa0000000p-5, -0x1.840bca0000000p-6, -0x1.a20fda0000000p-7, -0x1.81f84e0000000p-5, -0x1.a0dbc40000000p-6, -0x1.24c4c40000000p-5, 0x1.6089420000000p-6, 0x1.acf3280000000p-6, 0x1.3f499c0000000p-6, -0x1.480af80000000p-5, 0x1.e019680000000p-5, -0x1.f66c7c0000000p-6, -0x1.c06cc40000000p-7, 0x1.d8ec500000000p-10, 0x1.623a720000000p-7, -0x1.6cfb620000000p-8, -0x1.1913800000000p-4, -0x1.f95c920000000p-9, -0x1.2b5c740000000p-6, 0x1.8883920000000p-4, -0x1.2c24ac0000000p-6, -0x1.bb9b840000000p-7, 0x1.4719640000000p-6, -0x1.d982de0000000p-6, 0x1.640d840000000p-8, -0x1.82a7c20000000p-7, -0x1.76d9c60000000p-7, -0x1.51d0860000000p-6, 0x1.440fd40000000p-5, 0x1.4a53c00000000p-8, -0x1.84d89c0000000p-5, 0x1.9a28fc0000000p-5, -0x1.64f4960000000p-6, -0x1.7a43fe0000000p-6, -0x1.5f53700000000p-6, -0x1.9522ae0000000p-6, -0x1.4c99340000000p-4, 0x1.581e8c0000000p-5, -0x1.a13e8c0000000p-7, -0x1.928fd00000000p-5, 0x1.62e08a0000000p-6, -0x1.93ecce0000000p-4, 0x1.e133160000000p-5, 0x1.a2de740000000p-6, 0x1.461d1e0000000p-6, 0x1.8308e00000000p-5, 0x1.ae98200000000p-5, 0x1.929d7e0000000p-5, -0x1.6653be0000000p-6, -0x1.56e1d40000000p-8, -0x1.42c0100000000p-5, 0x1.3513ae0000000p-7, 0x1.b5dd0c0000000p-8, 0x1.9a781c0000000p-7, 0x1.7780500000000p-5, 0x1.f7302c0000000p-6, 0x1.d0d5c40000000p-6, -0x1.ea55fa0000000p-8, 0x1.de02a20000000p-6, 0x1.ce980c0000000p-6, -0x1.b3ec900000000p-9, -0x1.f4f8be0000000p-7, 0x1.1c7ea00000000p-5, 0x1.54fbc20000000p-5, 0x1.f349e20000000p-5, -0x1.87661e0000000p-4, -0x1.ce1b160000000p-7, 0x1.23e28e0000000p-8, 0x1.10fbf60000000p-6, -0x1.badfa40000000p-10, -0x1.c2e9080000000p-6, 0x1.a495ba0000000p-13, 0x1.d0c71c0000000p-6, -0x1.84fa4c0000000p-5, 0x1.a21c040000000p-5, 0x1.5dee420000000p-9, 0x1.9f80980000000p-6, 0x1.0ec21c0000000p-5, 0x1.ae593a0000000p-7, -0x1.077dba0000000p-7, -0x1.42a33a0000000p-6, -0x1.7cdcc00000000p-6, 0x1.8028a00000000p-5, -0x1.24cdea0000000p-7, 0x1.180fea0000000p-4, 0x1.bb14d20000000p-6, 0x1.42795a0000000p-6, 0x1.9cb3b40000000p-9, 0x1.7172740000000p-7, -0x1.e552ac0000000p-6, 0x1.b0f65c0000000p-5, 0x1.a2dc200000000p-5, 0x1.5997a00000000p-6, -0x1.8739220000000p-4, 0x1.99355e0000000p-7, 0x1.cece860000000p-6, 0x1.1257900000000p-8, -0x1.e434d60000000p-7, -0x1.ce11b40000000p-6, 0x1.2e1d400000000p-5, -0x1.77845e0000000p-8, -0x1.f7b7da0000000p-6, 0x1.6300740000000p-3, -0x1.6a98e00000000p-7, 0x1.277d940000000p-7, -0x1.7e35820000000p-4, 0x1.22de100000000p-4, 0x1.09f0340000000p-6, -0x1.2667100000000p-6, -0x1.bd0a4c0000000p-6, -0x1.54904e0000000p-6, -0x1.8b8ed40000000p-6, -0x1.661b380000000p-7, -0x1.05f5b60000000p-5, 0x1.a11bc40000000p-6, 0x1.3a98320000000p-7, 0x1.89b44e0000000p-6, -0x1.4e79240000000p-8, 0x1.2fa6de0000000p-5, -0x1.4aad0e0000000p-8, -0x1.09b7820000000p-6, 0x1.632bf00000000p-7, -0x1.a042c80000000p-6, -0x1.987e000000000p-7, 0x1.2bd9880000000p-5, -0x1.9964260000000p-5, 0x1.2295280000000p-5, 0x1.7254720000000p-7, 0x1.b1f5620000000p-5, -0x1.7028660000000p-5, 0x1.3d3e260000000p-7, -0x1.fb08620000000p-5, -0x1.afe1e80000000p-6, -0x1.27f00c0000000p-5, 0x1.fbb4f60000000p-4, 0x1.7619780000000p-6, 0x1.4c65ce0000000p-8, -0x1.1741060000000p-5, -0x1.7d4d3e0000000p-5, -0x1.25ac320000000p-9, 0x1.e2d63e0000000p-9, -0x1.d52e460000000p-7, 0x1.fd25aa0000000p-7, 0x1.4fc91c0000000p-5, 0x1.27b5bc0000000p-8, -0x1.d0367e0000000p-6, -0x1.4b65040000000p-6, -0x1.088cae0000000p-6, -0x1.38473e0000000p-7, 0x1.ea518c0000000p-7, 0x1.4b135c0000000p-6, -0x1.353da80000000p-7, -0x1.aa142a0000000p-6, -0x1.b8c5320000000p-6, 0x1.d566be0000000p-10, -0x1.801bcc0000000p-5, -0x1.47984e0000000p-7, -0x1.e5f5800000000p-12, 0x1.515dea0000000p-8, -0x1.36ac540000000p-5, 0x1.2d5d100000000p-5, -0x1.dc87da0000000p-6, -0x1.836fb00000000p-6, 0x1.8d9b660000000p-7, -0x1.ebecd20000000p-5, -0x1.46e7360000000p-6, 0x1.0b79de0000000p-10, 0x1.02d4f40000000p-5, 0x1.497f540000000p-7, -0x1.83dba80000000p-6, -0x1.3cfa080000000p-6, -0x1.88784a0000000p-5, 0x1.a8ecf20000000p-6, -0x1.f98f560000000p-6, 0x1.dea4b80000000p-6, 0x1.8e349a0000000p-6, 0x1.e4fbca0000000p-6, -0x1.d1c90e0000000p-5, -0x1.d7f77e0000000p-5, 0x1.aa437a0000000p-7, -0x1.f8052c0000000p-7, -0x1.a6a4520000000p-6, 0x1.0eadc20000000p-5, 0x1.25aef60000000p-6, -0x1.3b00ca0000000p-7, -0x1.a189f60000000p-6, -0x1.dd3bc20000000p-5, -0x1.52927a0000000p-7, -0x1.97fa360000000p-8, -0x1.bd1a6c0000000p-6, -0x1.9e97c00000000p-5, 0x1.9a97c40000000p-6, 0x1.0738c00000000p-6, -0x1.10bbc80000000p-8, 0x1.0c36860000000p-5, 0x1.2fff660000000p-6, -0x1.5860fc0000000p-5, -0x1.a3745e0000000p-9, -0x1.e3eb5a0000000p-8, -0x1.ae5b220000000p-7, -0x1.5515880000000p-6, -0x1.40197a0000000p-6, -0x1.4e4ffc0000000p-5, 0x1.5149260000000p-6, 0x1.03552c0000000p-6, 0x1.8396120000000p-6, -0x1.afccee0000000p-7, 0x1.83623a0000000p-9, -0x1.94e9600000000p-5, 0x1.20b7460000000p-8, 0x1.3185d00000000p-5, 0x1.5b909c0000000p-5, -0x1.2a05580000000p-6, 0x1.92f53e0000000p-5, 0x1.cc65640000000p-6, -0x1.a776b60000000p-7, 0x1.84df900000000p-6, 0x1.54dfe00000000p-5, -0x1.e8fce40000000p-7, -0x1.d1afe40000000p-7, 0x1.a93b640000000p-6, 0x1.43f4740000000p-7, 0x1.33cca80000000p-5, 0x1.aba2e40000000p-7, -0x1.3aa0760000000p-6, 0x1.0137220000000p-5, 0x1.2ebede0000000p-5, 0x1.dd03cc0000000p-7, -0x1.223ce40000000p-9, 0x1.45b0d40000000p-5, 0x1.86a3a80000000p-6, -0x1.eba2420000000p-10, 0x1.8c44c60000000p-6, -0x1.8578c80000000p-5, 0x1.850ed20000000p-5, 0x1.0766800000000p-4, -0x1.acb4020000000p-9, -0x1.165ece0000000p-5, -0x1.ed6f4a0000000p-8, 0x1.33b2fa0000000p-4, -0x1.d13f360000000p-6, 0x1.f8e01c0000000p-6, 0x1.b202420000000p-6, -0x1.a454ae0000000p-6, 0x1.d350140000000p-6, 0x1.f330260000000p-11, -0x1.38e44c0000000p-6, 0x1.82d1a60000000p-5, -0x1.9c26760000000p-8, 0x1.da5e7c0000000p-8, 0x1.2325ce0000000p-5, 0x1.7d3a760000000p-6, 0x1.4c91380000000p-6, 0x1.0c70520000000p-6, 0x1.52da6e0000000p-6, 0x1.cfc0940000000p-9, 0x1.d18b6c0000000p-6, -0x1.8d2a040000000p-4, 0x1.9211f00000000p-9, 0x1.5adbe60000000p-5, -0x1.0166280000000p-5, -0x1.e517100000000p-6, 0x1.0a47c00000000p-5, -0x1.21905a0000000p-6, -0x1.8249700000000p-11, 0x1.69c9cc0000000p-7, -0x1.e00cfe0000000p-12, 0x1.901afa0000000p-7, -0x1.3363860000000p-5, -0x1.fd952e0000000p-6, 0x1.6798f80000000p-5, 0x1.1201a40000000p-4, 0x1.b199240000000p-5, -0x1.082dc00000000p-6, 0x1.6deaba0000000p-9, 0x1.c8781e0000000p-7, 0x1.81fd3e0000000p-5, 0x1.c028520000000p-5, -0x1.a4e0aa0000000p-5, 0x1.227fa60000000p-7, 0x1.e937100000000p-6, 0x1.66e7c00000000p-6, 0x1.a7d1520000000p-7, -0x1.31e1960000000p-7, 0x1.5cd9e60000000p-8, 0x1.6250800000000p-7, 0x1.541a180000000p-5, 0x1.5b6d5a0000000p-6, 0x1.b0582c0000000p-8, -0x1.739e280000000p-5, -0x1.3e56940000000p-6, 0x1.4dfeb60000000p-7, -0x1.4075540000000p-8, 0x1.6a3f260000000p-8, 0x1.09a3860000000p-4, 0x1.083c6a0000000p-5, 0x1.3b9d400000000p-7, -0x1.6e68f60000000p-5, -0x1.91a0b20000000p-11, -0x1.e4e8a80000000p-6, -0x1.2495740000000p-5, 0x1.2fcf500000000p-8, -0x1.4b819a0000000p-6, 0x1.24b7240000000p-4, -0x1.d27ffa0000000p-8, 0x1.5ceccc0000000p-6, 0x1.763a580000000p-5, -0x1.a0786e0000000p-6, 0x1.c7d9d40000000p-8, 0x1.a180ac0000000p-12, 0x1.f2fc980000000p-6, 0x1.5d58180000000p-6, 0x1.b5c54e0000000p-10, 0x1.0901dc0000000p-6, -0x1.1b21fa0000000p-5, -0x1.878d160000000p-7, -0x1.a7f9820000000p-7, -0x1.508d4c0000000p-7, 0x1.5dce4c0000000p-7, 0x1.3499880000000p-7, -0x1.6879000000000p-5, 0x1.2ac0240000000p-5, 0x1.6895700000000p-6, -0x1.257fee0000000p-7, -0x1.7cbf220000000p-5, 0x1.6a88500000000p-5, -0x1.4f85dc0000000p-6, 0x1.49cdce0000000p-5, 0x1.f87f000000000p-7, -0x1.cb00980000000p-8, -0x1.63e6c80000000p-6, -0x1.0014be0000000p-5, -0x1.a248000000000p-8, 0x1.1df9940000000p-7, -0x1.93ed7a0000000p-6, -0x1.12a0520000000p-5, 0x1.4495580000000p-6, 0x1.c1eff60000000p-5, -0x1.b6fada0000000p-6, 0x1.c245400000000p-7, -0x1.0327e20000000p-6, 0x1.2403d60000000p-6, -0x1.fcda280000000p-7, 0x1.2546480000000p-6, 0x1.a4dafe0000000p-6, -0x1.aa22780000000p-8, 0x1.3f0e6e0000000p-5, 0x1.1b5f780000000p-8, 0x1.80948a0000000p-6, -0x1.3c68740000000p-7, 0x1.0dde200000000p-7, 0x1.801d000000000p-7, 0x1.0843940000000p-6, -0x1.3ae9360000000p-6, 0x1.5cb1540000000p-8, -0x1.7595720000000p-6, 0x1.63ce240000000p-9, 0x1.2036c40000000p-6, 0x1.9bb2020000000p-7, 0x1.6a6b340000000p-6, -0x1.1b94000000000p-5, -0x1.f129ca0000000p-5, 0x1.ee07d20000000p-6, -0x1.f5507c0000000p-7, 0x1.df461c0000000p-6, 0x1.af60100000000p-5, 0x1.5ed5f80000000p-5, 0x1.380ce20000000p-6, 0x1.2d6c6a0000000p-5, 0x1.c583b00000000p-6, -0x1.dcb28c0000000p-7, 0x1.c7c2d80000000p-7, -0x1.d263320000000p-6, 0x1.9efb7c0000000p-9, -0x1.24df460000000p-9, -0x1.3e42540000000p-8, -0x1.8292640000000p-7, -0x1.0962140000000p-6, -0x1.f4d3400000000p-7, 0x1.1d87e20000000p-5, -0x1.cc88d60000000p-11, -0x1.18efca0000000p-5, -0x1.73a2e20000000p-5, 0x1.54e6a40000000p-5, 0x1.c976080000000p-8, -0x1.87d9000000000p-5, 0x1.8980a80000000p-7, -0x1.ef04760000000p-7, -0x1.bc65600000000p-5, -0x1.6c0ec80000000p-10, -0x1.1b32b60000000p-4, -0x1.c3ba420000000p-7, -0x1.049b580000000p-7, 0x1.02de840000000p-9, 0x1.5f30880000000p-4, 0x1.10cd660000000p-5, -0x1.6775780000000p-8, 0x1.07e78c0000000p-6, 0x1.0627cc0000000p-6, 0x1.7c0b620000000p-6, 0x1.41e59e0000000p-6, -0x1.c3bf5c0000000p-14, 0x1.014bf40000000p-4, 0x1.ec296c0000000p-6, 0x1.e576d40000000p-5, 0x1.7d1c620000000p-5, -0x1.b45e4e0000000p-6, 0x1.1944e40000000p-6, 0x1.5087040000000p-5, -0x1.314b460000000p-6, 0x1.a854e80000000p-5, 0x1.bd847e0000000p-5, -0x1.3d9da80000000p-9, -0x1.b2c7040000000p-7, -0x1.b502180000000p-8, 0x1.1d7e140000000p-5, 0x1.4420c80000000p-6, -0x1.25be060000000p-6, -0x1.2097580000000p-5, -0x1.6af3260000000p-7, 0x1.819f760000000p-7, -0x1.bae7d40000000p-9, -0x1.1304d40000000p-7, -0x1.23cdb80000000p-7, 0x1.caf77e0000000p-10, -0x1.2c1e720000000p-8, 0x1.376f8a0000000p-5, 0x1.4329980000000p-5, -0x1.d43be20000000p-6, 0x1.2578720000000p-5, -0x1.7f74500000000p-6, 0x1.0f57260000000p-4, 0x1.f76e6c0000000p-8, 0x1.817eba0000000p-8, 0x1.b5dc200000000p-5, -0x1.36ff780000000p-7, 0x1.2fb03e0000000p-4, -0x1.c524e40000000p-6, -0x1.cb5dc20000000p-7, 0x1.a44e0c0000000p-6, -0x1.de39a20000000p-6, -0x1.1391760000000p-5, -0x1.629ff00000000p-6, 0x1.84049a0000000p-9, 0x1.9f8e880000000p-6, 0x1.69521e0000000p-6, -0x1.3246a80000000p-10, -0x1.114e1e0000000p-7, 0x1.600a5c0000000p-9, -0x1.7aa8460000000p-8, 0x1.565d740000000p-6, 0x1.eb685e0000000p-9, -0x1.8c52880000000p-5, -0x1.71cc4a0000000p-6, 0x1.3242360000000p-4, -0x1.657f8e0000000p-10, -0x1.4e16b40000000p-5, -0x1.e4f60a0000000p-5, 0x1.ac66500000000p-9, -0x1.27b5480000000p-5, -0x1.5ec69e0000000p-6, -0x1.443cb60000000p-7, 0x1.ffaa6e0000000p-5, 0x1.408cca0000000p-5, 0x1.79877c0000000p-11, 0x1.877b7a0000000p-5, -0x1.723f4c0000000p-5, 0x1.45bdf60000000p-6, 0x1.5fbeb20000000p-7, -0x1.e112100000000p-7, 0x1.64dc120000000p-6, 0x1.ff0e940000000p-6, -0x1.b86dd60000000p-6, -0x1.54cf9a0000000p-5, 0x1.e3c7140000000p-6, 0x1.cf26ac0000000p-7, 0x1.bde4200000000p-6, -0x1.1c19fc0000000p-5, 0x1.4295f80000000p-5, -0x1.efe3fc0000000p-6, 0x1.89b50c0000000p-5, -0x1.fbfcb40000000p-5, -0x1.f775fc0000000p-6, -0x1.11ae6c0000000p-4, -0x1.a184320000000p-5, 0x1.d203b60000000p-8, 0x1.f354b00000000p-4, 0x1.a63ff20000000p-5, -0x1.082e900000000p-7, -0x1.7e743e0000000p-6, 0x1.5047fe0000000p-6, -0x1.0936800000000p-5, 0x1.c1722e0000000p-7, -0x1.44e65c0000000p-6, -0x1.70a6040000000p-5, 0x1.0f170c0000000p-4, -0x1.6461b80000000p-5, 0x1.a8ea1e0000000p-6, -0x1.d05ba80000000p-5, -0x1.b0165c0000000p-7, -0x1.9ccb0e0000000p-5, 0x1.bfd6320000000p-7, 0x1.e800e00000000p-7, -0x1.7225640000000p-5, 0x1.9cc8f40000000p-8, -0x1.c2fb7a0000000p-5, -0x1.44ec260000000p-6, -0x1.a229f60000000p-6, -0x1.e3d4800000000p-6, 0x1.5240d00000000p-8, -0x1.33b8e40000000p-5, -0x1.9f111e0000000p-14, -0x1.f5322e0000000p-9, -0x1.224d4e0000000p-4, -0x1.3b8cf80000000p-6, -0x1.3ec2be0000000p-4, -0x1.36bd300000000p-4, -0x1.10d53a0000000p-5, 0x1.443d4c0000000p-10, 0x1.3258ae0000000p-10, 0x1.5c557a0000000p-7, -0x1.b31f180000000p-5, 0x1.8917480000000p-6, -0x1.fbb60a0000000p-8, -0x1.a70d960000000p-5, 0x1.15e4d20000000p-6, -0x1.d59fbe0000000p-5, 0x1.c85f400000000p-6, -0x1.affe260000000p-10, -0x1.c027b60000000p-8, -0x1.2690d00000000p-4, 0x1.a3b2e00000000p-6, -0x1.40b81e0000000p-5, 0x1.c85f680000000p-6, 0x1.0b82ec0000000p-6, -0x1.4f3ad60000000p-5, 0x1.a753c40000000p-6, -0x1.0631220000000p-6, -0x1.a3c5aa0000000p-5, 0x1.2caeb60000000p-6, -0x1.6738b20000000p-5, 0x1.ea16260000000p-6, 0x1.4995e40000000p-8, 0x1.10a7400000000p-6, -0x1.8d72620000000p-8, -0x1.5425940000000p-6, 0x1.c10dc20000000p-8, 0x1.0748ae0000000p-5, -0x1.c1ad6c0000000p-9, 0x1.415efe0000000p-5, 0x1.023f620000000p-6, -0x1.0b5ee20000000p-5, -0x1.f78b4a0000000p-6, -0x1.96f8540000000p-11, -0x1.3f40440000000p-6, 0x1.3c6f140000000p-12, -0x1.5200c40000000p-8, 0x1.0c977e0000000p-9, 0x1.3748260000000p-5, 0x1.25d9300000000p-8, -0x1.e089be0000000p-8, 0x1.c3ec100000000p-6, 0x1.ac7a8a0000000p-8, 0x1.332f460000000p-6, -0x1.30d36a0000000p-5, -0x1.1f3ff20000000p-10, 0x1.4890da0000000p-5, 0x1.6789ae0000000p-11, -0x1.00c1520000000p-5, 0x1.3d21720000000p-6, -0x1.162fce0000000p-6, -0x1.e327300000000p-7, -0x1.0731320000000p-6, 0x1.9eb0c80000000p-6, 0x1.000cc60000000p-12, 0x1.6c8c1c0000000p-6, -0x1.16f75e0000000p-9, -0x1.8ac0320000000p-4, 0x1.a5deb80000000p-7, 0x1.0f76800000000p-7, -0x1.2cd1640000000p-5, -0x1.07c84a0000000p-9, -0x1.cc85960000000p-7, -0x1.afe2600000000p-5, -0x1.f43ed40000000p-6, -0x1.cb2b700000000p-5, 0x1.85abc80000000p-8, 0x1.c32a680000000p-7, -0x1.2ed5fc0000000p-5, 0x1.41a8d20000000p-6, 0x1.06c0420000000p-5, -0x1.f2d27c0000000p-11, -0x1.6976fa0000000p-6, 0x1.3b3d720000000p-6, 0x1.e6df720000000p-6, 0x1.a368600000000p-6, -0x1.ee72180000000p-7, 0x1.48889a0000000p-8, -0x1.ee54960000000p-5, 0x1.51b8420000000p-7, -0x1.6ea7540000000p-8, 0x1.bfff6c0000000p-7, -0x1.1161620000000p-5, 0x1.8267c40000000p-6, 0x1.72e0d20000000p-8, -0x1.84f62a0000000p-5, 0x1.61be700000000p-5, 0x1.4c8edc0000000p-7, 0x1.96b7a80000000p-5, -0x1.f798600000000p-5, -0x1.83304a0000000p-5, 0x1.29c84e0000000p-5, 0x1.f4a7a40000000p-5, 0x1.435ba80000000p-6, 0x1.cc2b540000000p-5, -0x1.a6d8dc0000000p-6, -0x1.e785e20000000p-6, -0x1.763e720000000p-7, 0x1.840a600000000p-5, -0x1.33d27e0000000p-6, 0x1.334db20000000p-6, -0x1.94c7cc0000000p-10, 0x1.6d84900000000p-8, 0x1.b52e880000000p-4, -0x1.563c680000000p-7, 0x1.d868b20000000p-9, 0x1.5e60ba0000000p-6, -0x1.81a2860000000p-6, 0x1.3de0300000000p-5, -0x1.3b2dd60000000p-9, 0x1.08f96a0000000p-7, 0x1.2b636a0000000p-6, 0x1.d9c7020000000p-10, 0x1.39bc780000000p-6, -0x1.89ca7c0000000p-5, 0x1.43b5400000000p-7, -0x1.67dd8c0000000p-5, 0x1.733b620000000p-6, 0x1.d33dd40000000p-5, 0x1.4a198e0000000p-8, -0x1.46f67e0000000p-5, 0x1.cf8f800000000p-7, 0x1.90128e0000000p-8, -0x1.c5fa4c0000000p-7, 0x1.213da60000000p-6, 0x1.fdb3e60000000p-9, 0x1.9ee46e0000000p-4, -0x1.7a22ba0000000p-5, -0x1.fd75940000000p-7, -0x1.897cde0000000p-7, -0x1.2398d80000000p-6, -0x1.498e6e0000000p-5, -0x1.4ad6bc0000000p-5, -0x1.ef69600000000p-14, 0x1.4ce6bc0000000p-5, 0x1.63e0600000000p-4, 0x1.ec2cba0000000p-7, -0x1.015e220000000p-5, -0x1.0401ae0000000p-6, 0x1.e504d00000000p-8, -0x1.fb1cea0000000p-6, 0x1.a593a80000000p-8, -0x1.c05a100000000p-7, -0x1.4f69de0000000p-5, 0x1.2d54be0000000p-7, 0x1.7e634a0000000p-7, -0x1.94294c0000000p-6, -0x1.2879b80000000p-5, 0x1.e8eee60000000p-6, -0x1.a4f6e00000000p-9, 0x1.9124140000000p-6, 0x1.e2deea0000000p-6, -0x1.38955a0000000p-6, -0x1.3083800000000p-7, -0x1.5d1b3a0000000p-8, 0x1.084d3c0000000p-6, -0x1.ddb18a0000000p-7, -0x1.3357880000000p-6, 0x1.baf7800000000p-7, -0x1.3ee2460000000p-9, 0x1.8ca9c40000000p-6, 0x1.d6de5a0000000p-8, -0x1.6265760000000p-5, -0x1.4622080000000p-5, -0x1.c14d7a0000000p-8, 0x1.4b79fc0000000p-13, 0x1.5385520000000p-11, -0x1.715c7e0000000p-5, 0x1.b965520000000p-5, -0x1.163ff60000000p-7, -0x1.0b14880000000p-6, -0x1.901a3c0000000p-7, -0x1.4ab7620000000p-5, 0x1.e4dd7a0000000p-9, 0x1.c2dec60000000p-5, -0x1.2227fa0000000p-6, 0x1.c3b9660000000p-6, 0x1.2ffae60000000p-6, 0x1.6c9caa0000000p-7, -0x1.56cafa0000000p-7, 0x1.3150d40000000p-5, 0x1.d8335a0000000p-6, 0x1.4d9fdc0000000p-6, 0x1.9467be0000000p-7, 0x1.8b8b1c0000000p-6, -0x1.2137840000000p-4, -0x1.29bb400000000p-9, -0x1.4fabfe0000000p-4, 0x1.f5deac0000000p-8, 0x1.a68cc80000000p-6, -0x1.5d31ac0000000p-6, -0x1.01b81c0000000p-5, -0x1.225f700000000p-5, 0x1.09a77a0000000p-5, 0x1.c941660000000p-8, -0x1.27421e0000000p-6, 0x1.8d74ac0000000p-6, 0x1.c964ea0000000p-8, 0x1.3548320000000p-6, -0x1.402d3c0000000p-5, 0x1.3fc9f80000000p-7, -0x1.d534320000000p-5, -0x1.d584f20000000p-6, -0x1.1bee000000000p-5, -0x1.836e4e0000000p-6, -0x1.79cf6a0000000p-8, -0x1.2675880000000p-8, 0x1.3162840000000p-6, 0x1.90f77a0000000p-5, 0x1.6a5f440000000p-5, -0x1.951aea0000000p-5, 0x1.7d258c0000000p-6, -0x1.dc1cbc0000000p-6, -0x1.a246380000000p-6, -0x1.e49dca0000000p-7, 0x1.886d680000000p-6, 0x1.0d82380000000p-5, -0x1.2d6e740000000p-5, -0x1.49e2100000000p-7, 0x1.449ab20000000p-7, -0x1.6942aa0000000p-6, -0x1.93dda80000000p-8, -0x1.3681fe0000000p-3, 0x1.f30a4e0000000p-5, 0x1.390dcc0000000p-7, -0x1.b11ac80000000p-7, 0x1.899d800000000p-7, 0x1.d3c6b20000000p-6, 0x1.aa7afa0000000p-5, 0x1.5de7100000000p-5, 0x1.2dfb880000000p-6, 0x1.e605300000000p-8, 0x1.45aca20000000p-7, 0x1.32143a0000000p-10, 0x1.104cfc0000000p-5, -0x1.b79f680000000p-5, 0x1.9c5bce0000000p-7, 0x1.d457de0000000p-8, -0x1.e299580000000p-5, 0x1.d1c3620000000p-5, 0x1.a639780000000p-5, 0x1.05dfb60000000p-5, -0x1.d9a4660000000p-8, 0x1.a323a40000000p-5, 0x1.3777900000000p-5, 0x1.9d88d40000000p-8, 0x1.6d58020000000p-5, -0x1.acac920000000p-7, 0x1.1b00120000000p-4, -0x1.b2fa660000000p-5, 0x1.c79f400000000p-7, -0x1.0a43760000000p-6, 0x1.6a4c4c0000000p-10, 0x1.3b4a8e0000000p-5, -0x1.d35f980000000p-5, -0x1.5869e00000000p-4, -0x1.5d259c0000000p-8, -0x1.d21a1a0000000p-6, 0x1.67b2ec0000000p-4, 0x1.651eb20000000p-6, 0x1.964d060000000p-5, -0x1.5a55640000000p-6, 0x1.b62c9a0000000p-5, 0x1.a658220000000p-5, 0x1.8603040000000p-7, 0x1.b8a65c0000000p-5, 0x1.4dfda20000000p-5, -0x1.f999c60000000p-6, 0x1.a802120000000p-6, -0x1.9eb2e40000000p-7, -0x1.b8ffa00000000p-12, 0x1.2796440000000p-6, -0x1.c269c00000000p-5, 0x1.0303640000000p-7, 0x1.51c64e0000000p-6, 0x1.74b42a0000000p-7, 0x1.04ed000000000p-5, 0x1.4c34980000000p-5, 0x1.1c2c620000000p-5, 0x1.1205540000000p-7, 0x1.65861c0000000p-4, -0x1.df0a180000000p-5, -0x1.bbadb20000000p-6, -0x1.5834b20000000p-5, -0x1.aeeed00000000p-7, 0x1.41f2340000000p-6, -0x1.0e63320000000p-5, 0x1.80c1680000000p-9, 0x1.2715280000000p-8, 0x1.83ba7a0000000p-8, 0x1.94a8b60000000p-6, 0x1.aff28e0000000p-6, -0x1.aff7860000000p-6, 0x1.39100e0000000p-6, 0x1.81f1540000000p-6, 0x1.6cc01a0000000p-8, 0x1.bda5680000000p-6, 0x1.68ee120000000p-5, -0x1.09bc380000000p-5, -0x1.582c600000000p-5, 0x1.25abd80000000p-6, -0x1.7b19aa0000000p-6, -0x1.72d0820000000p-6, 0x1.4d91760000000p-6, -0x1.2c8bee0000000p-7, -0x1.385ccc0000000p-5, 0x1.327e300000000p-5, -0x1.89ad9c0000000p-6, 0x1.05a9900000000p-7, 0x1.0f8ade0000000p-13, -0x1.852f640000000p-6, 0x1.8b08bc0000000p-6, -0x1.c06fa00000000p-5, 0x1.39965e0000000p-9, -0x1.a4351e0000000p-5, -0x1.eb4e440000000p-5, -0x1.5818640000000p-4, -0x1.7757560000000p-5, 0x1.3fbace0000000p-5, 0x1.f5a1500000000p-7, -0x1.790b7c0000000p-6, -0x1.abe20e0000000p-5, -0x1.53fbda0000000p-6, -0x1.3449880000000p-4, -0x1.bd16c40000000p-7, -0x1.880a240000000p-10, -0x1.4eef460000000p-5, 0x1.71608c0000000p-4, -0x1.21c7560000000p-5, 0x1.36b5280000000p-9, -0x1.af0b780000000p-6, 0x1.7de7700000000p-8, -0x1.3ec1ee0000000p-6, -0x1.41d6a20000000p-5, 0x1.f02d960000000p-5, -0x1.213a5e0000000p-6, -0x1.bf5cf60000000p-8, -0x1.5a2e180000000p-5, -0x1.6cbb6a0000000p-4, -0x1.be950c0000000p-5, -0x1.ad03620000000p-7, 0x1.2157160000000p-6, -0x1.83b1160000000p-5, -0x1.4d88580000000p-5, -0x1.330b880000000p-4, -0x1.1900860000000p-8, -0x1.3285360000000p-5, -0x1.a72ca80000000p-5, -0x1.605eca0000000p-5, -0x1.130f760000000p-5, 0x1.e52fec0000000p-5, 0x1.d2d88c0000000p-6, -0x1.09ac5a0000000p-5, 0x1.ee00460000000p-5, -0x1.3926bc0000000p-6, -0x1.152bba0000000p-6, -0x1.8f3f820000000p-5, -0x1.847f520000000p-9, -0x1.cc46820000000p-6, -0x1.9e2a960000000p-8, 0x1.4ec75e0000000p-8, 0x1.024e660000000p-6, -0x1.c004300000000p-6, 0x1.320e100000000p-8, -0x1.2044aa0000000p-4, -0x1.f8e05e0000000p-6, 0x1.3941420000000p-6, -0x1.2934d60000000p-6, 0x1.dd194a0000000p-7, -0x1.60ef920000000p-7, -0x1.f07f2e0000000p-7, -0x1.fdfd220000000p-6, -0x1.f3cb0e0000000p-6, 0x1.56cf820000000p-7, -0x1.359c3a0000000p-5, 0x1.9154d40000000p-6, -0x1.e2dc4c0000000p-7, 0x1.e938440000000p-8, 0x1.6aff560000000p-6, 0x1.45119c0000000p-5, 0x1.ec030e0000000p-6, -0x1.f418be0000000p-6, 0x1.4475440000000p-6, -0x1.c7ed7a0000000p-6, -0x1.035f3a0000000p-5, -0x1.415eaa0000000p-6, 0x1.19a18c0000000p-5, 0x1.ee93500000000p-9, -0x1.8eefb20000000p-5, -0x1.5c2f860000000p-6, 0x1.bc9a780000000p-7, 0x1.aae75e0000000p-8, -0x1.e6756c0000000p-7, -0x1.d4e1880000000p-6, 0x1.15a4b20000000p-10, 0x1.f4ecd00000000p-10, 0x1.453ab40000000p-6, 0x1.f9f39e0000000p-9, 0x1.31c8180000000p-8, -0x1.07b93c0000000p-5, 0x1.2a93540000000p-6, -0x1.9f024c0000000p-7, -0x1.e013b40000000p-8, 0x1.0942680000000p-6, -0x1.a985440000000p-7, -0x1.ae7d4a0000000p-7, -0x1.df9c040000000p-8, -0x1.42fdec0000000p-5, -0x1.769c880000000p-8, -0x1.2d39e60000000p-4, -0x1.1204ae0000000p-5, 0x1.2cdab40000000p-4, -0x1.771adc0000000p-5, -0x1.5e00b20000000p-5, 0x1.15a8200000000p-4, -0x1.45a19e0000000p-6, 0x1.6e790e0000000p-6, -0x1.7602200000000p-6, 0x1.2d81c80000000p-5, 0x1.147b8e0000000p-5, -0x1.043de80000000p-5, 0x1.aa87660000000p-10, -0x1.10322a0000000p-5, -0x1.ed97ee0000000p-7, 0x1.97bade0000000p-7, 0x1.52b7d00000000p-6, -0x1.686d940000000p-7, -0x1.981e640000000p-6, 0x1.68709a0000000p-4, -0x1.c8d2980000000p-6, -0x1.49431e0000000p-6, -0x1.353f280000000p-6, -0x1.2bb7380000000p-6, 0x1.213ba20000000p-9, -0x1.0e75100000000p-6, 0x1.05c45a0000000p-8, -0x1.f296940000000p-11, -0x1.1596020000000p-5, 0x1.6264b60000000p-6, -0x1.c35c140000000p-6, 0x1.103f840000000p-7, -0x1.70095e0000000p-4, -0x1.becae60000000p-6, -0x1.110d500000000p-4, -0x1.c40dfc0000000p-6, 0x1.c640420000000p-6, 0x1.ddada20000000p-4, -0x1.fcac320000000p-5, -0x1.5401220000000p-5, -0x1.fe52260000000p-6, -0x1.5306660000000p-5, 0x1.0a38040000000p-7, 0x1.260ef60000000p-7, 0x1.c574d60000000p-9, 0x1.00184e0000000p-4, 0x1.d3d3380000000p-4, -0x1.7304fa0000000p-7, 0x1.fe479e0000000p-7, -0x1.e08d280000000p-7, 0x1.2aeb7e0000000p-6, -0x1.97275a0000000p-5, -0x1.4221a80000000p-6, -0x1.5612380000000p-5, 0x1.911cea0000000p-9, -0x1.396fc20000000p-6, 0x1.6863040000000p-6, 0x1.54086a0000000p-7, 0x1.dd3d4c0000000p-8, -0x1.56a7e60000000p-5, 0x1.8bfd240000000p-6, 0x1.8f50b20000000p-8, 0x1.9bee440000000p-6, -0x1.5ef2260000000p-5, 0x1.e414ce0000000p-7, -0x1.5f05d60000000p-6, -0x1.eb55ca0000000p-5, 0x1.219c620000000p-5, -0x1.2d6c8e0000000p-8, 0x1.ca466a0000000p-4, -0x1.27d6400000000p-10, -0x1.3f92060000000p-5, 0x1.af16960000000p-6, 0x1.092bdc0000000p-7, -0x1.68e8660000000p-6, -0x1.9239960000000p-6, -0x1.6e6d6e0000000p-6, 0x1.e4fe840000000p-6, 0x1.a4df2a0000000p-5, -0x1.8517de0000000p-6, 0x1.5adfa00000000p-5, -0x1.fe41780000000p-5, 0x1.8cfb460000000p-6, -0x1.997fb80000000p-5, -0x1.f2006a0000000p-8, 0x1.ad86d20000000p-6, -0x1.2746d80000000p-6, -0x1.adc6300000000p-6, -0x1.acd10c0000000p-6, 0x1.00308c0000000p-5, -0x1.43be420000000p-6, 0x1.0d2b920000000p-6, -0x1.e5e2e40000000p-5, -0x1.afb0400000000p-6, -0x1.26c51a0000000p-7, -0x1.3140540000000p-5, -0x1.822afe0000000p-11, 0x1.9de6080000000p-7, -0x1.0d52540000000p-4, 0x1.3ce3600000000p-4, -0x1.5c605c0000000p-6, -0x1.2b297c0000000p-6, -0x1.d164580000000p-8, -0x1.2fdb200000000p-5, 0x1.30fc220000000p-5, -0x1.c4183a0000000p-6, -0x1.63ebcc0000000p-7, -0x1.b992f60000000p-6, 0x1.8265c40000000p-8, -0x1.1583de0000000p-5, 0x1.7369040000000p-7, -0x1.7fe6ce0000000p-5, 0x1.93b1b00000000p-7, 0x1.ff94ba0000000p-11, -0x1.1c4bdc0000000p-10, -0x1.e529ee0000000p-5, -0x1.3279460000000p-5, 0x1.60e45c0000000p-4, 0x1.c69e840000000p-9, 0x1.481f700000000p-7, -0x1.baa4900000000p-6, -0x1.2771fa0000000p-5, 0x1.047d880000000p-8, 0x1.372d060000000p-5, -0x1.5e07800000000p-5, -0x1.68820a0000000p-6, 0x1.2976f60000000p-5, -0x1.ef966c0000000p-7, -0x1.731cc60000000p-6, 0x1.01e8ee0000000p-5, -0x1.f063980000000p-5, -0x1.cd204e0000000p-5, -0x1.7527040000000p-6, -0x1.cd66a00000000p-5, 0x1.20b1be0000000p-6, 0x1.2042e20000000p-9, 0x1.2a26760000000p-9, 0x1.de67880000000p-9, -0x1.f9139a0000000p-6, 0x1.207d0a0000000p-9, 0x1.560b7a0000000p-5, -0x1.0c92ec0000000p-6, 0x1.1412360000000p-8, -0x1.8ea4960000000p-5, -0x1.c6d61a0000000p-6, -0x1.c1c3ce0000000p-6, 0x1.c5c4200000000p-8, -0x1.4febd00000000p-7, 0x1.450d0e0000000p-7, -0x1.2cef280000000p-6, -0x1.87894e0000000p-7, 0x1.f4c8ce0000000p-5, 0x1.e862fa0000000p-6, 0x1.37e6ca0000000p-9, 0x1.602fc20000000p-5, 0x1.dfeb320000000p-5, 0x1.4211440000000p-7, -0x1.1b06720000000p-4, 0x1.28d9780000000p-5, -0x1.a5258a0000000p-5, 0x1.42f21a0000000p-4, 0x1.86c4600000000p-5, 0x1.b45e2c0000000p-5, 0x1.aafe7e0000000p-7, 0x1.f7548e0000000p-5, -0x1.31d0c20000000p-6, -0x1.cad9580000000p-5, 0x1.6ee0de0000000p-5, -0x1.38bc460000000p-6, 0x1.728aae0000000p-5, 0x1.25fbb80000000p-5, 0x1.ab44140000000p-5, 0x1.94bfd60000000p-7, 0x1.9d79ca0000000p-6, 0x1.2914e40000000p-4, 0x1.7db46a0000000p-5, 0x1.79e4a00000000p-7, 0x1.4191080000000p-4, 0x1.57db280000000p-7, 0x1.20bb440000000p-5, 0x1.4400c60000000p-5, -0x1.ffe9500000000p-4, 0x1.29154a0000000p-4, 0x1.f981860000000p-6, 0x1.434f940000000p-5, 0x1.638e660000000p-13, 0x1.7907ca0000000p-8, -0x1.02a1000000000p-6, -0x1.52fb080000000p-9, 0x1.8060d80000000p-6, 0x1.1422720000000p-8, 0x1.ed38040000000p-5, -0x1.7c13200000000p-5, -0x1.8615580000000p-8, 0x1.5754720000000p-5, 0x1.9a74b60000000p-6, -0x1.be73f60000000p-7, 0x1.e635800000000p-7, -0x1.6562de0000000p-4, -0x1.6ce2d60000000p-6, 0x1.0a8c9a0000000p-4, 0x1.3022140000000p-4, -0x1.c898080000000p-8, 0x1.27bfc80000000p-10, 0x1.9ea43e0000000p-7, 0x1.6d71b00000000p-5, 0x1.34fa0e0000000p-6, 0x1.bb711a0000000p-8, 0x1.49a67e0000000p-6, 0x1.2974d60000000p-4, -0x1.593bfc0000000p-6, 0x1.4a518e0000000p-4, -0x1.5b44d20000000p-6, -0x1.46648e0000000p-7, -0x1.ed116c0000000p-7, -0x1.c61b1a0000000p-5, 0x1.15a00a0000000p-9, 0x1.a742820000000p-5, -0x1.1304780000000p-7, -0x1.6d1fb60000000p-5, -0x1.4b95dc0000000p-6, 0x1.345df40000000p-4, 0x1.bf70740000000p-6, 0x1.8637ae0000000p-5, -0x1.532bb40000000p-4, -0x1.99b5920000000p-6, -0x1.d569f60000000p-6, -0x1.3dfc080000000p-7, -0x1.cc8ec60000000p-6, 0x1.1c13680000000p-5, -0x1.5b93f20000000p-6, 0x1.3062c40000000p-6, -0x1.b2bc760000000p-6, -0x1.d7cf800000000p-8, -0x1.6a9ea60000000p-5, -0x1.54f0380000000p-5, 0x1.9dd0980000000p-7, 0x1.80e0ee0000000p-6, 0x1.89a7b80000000p-7, -0x1.6adb600000000p-6, -0x1.9864b20000000p-5, -0x1.87b4e60000000p-5, -0x1.522bc80000000p-5, 0x1.6968460000000p-6, -0x1.b42c040000000p-5, -0x1.2630ec0000000p-7, -0x1.17e8e00000000p-7, 0x1.9eb4860000000p-9, -0x1.0e37700000000p-4, -0x1.6a70040000000p-5, -0x1.bace8e0000000p-5, -0x1.0da3440000000p-5, -0x1.d67c8c0000000p-5, -0x1.8486f40000000p-6, -0x1.8f5d0c0000000p-5, -0x1.36dc5e0000000p-4, 0x1.c641940000000p-6, -0x1.283dd00000000p-5, -0x1.a0ae060000000p-4, -0x1.170fd40000000p-3, 0x1.0d52e80000000p-6, 0x1.6095d20000000p-4, -0x1.b3b8900000000p-4, -0x1.1e95f40000000p-5, -0x1.3015680000000p-5, -0x1.7b34ba0000000p-7, -0x1.672ab20000000p-4, -0x1.0b38520000000p-5, -0x1.7a28560000000p-7, -0x1.03a2900000000p-6, 0x1.990ee40000000p-4, -0x1.f71c280000000p-6, 0x1.14a8500000000p-6, -0x1.b4ae800000000p-4, 0x1.43f5920000000p-8, -0x1.d471c60000000p-5, -0x1.5fe6940000000p-5, 0x1.bc083c0000000p-10, -0x1.cf35e60000000p-8, -0x1.5389e80000000p-5, -0x1.4be96a0000000p-5, -0x1.f6f16a0000000p-5, 0x1.bbb1b80000000p-8, -0x1.7231bc0000000p-6, -0x1.528b880000000p-6, -0x1.39f3080000000p-5, 0x1.305ace0000000p-7, -0x1.17133c0000000p-4, -0x1.4773640000000p-5, 0x1.d122ca0000000p-9, -0x1.e0c5aa0000000p-6, -0x1.a0a0820000000p-4, 0x1.9294f40000000p-9, 0x1.97772e0000000p-5, 0x1.9764240000000p-6, 0x1.fcb0620000000p-8, 0x1.b65a800000000p-8, -0x1.39bf360000000p-6, -0x1.df8d0a0000000p-7, 0x1.27ab4a0000000p-9, -0x1.49897c0000000p-5, -0x1.47effe0000000p-5, 0x1.2893180000000p-8, -0x1.1e1a500000000p-5, -0x1.4c93220000000p-5, -0x1.7223e00000000p-5, -0x1.39d0020000000p-6, -0x1.2e48540000000p-6, -0x1.23a7de0000000p-7, -0x1.d7982e0000000p-6, -0x1.787e400000000p-6, -0x1.0059d20000000p-5, -0x1.02cb160000000p-7, -0x1.c527ac0000000p-8, -0x1.8bb0800000000p-8, -0x1.d07b640000000p-6, -0x1.3a05a20000000p-5, -0x1.1334960000000p-4, 0x1.66b4e00000000p-8, -0x1.ea88d80000000p-5, 0x1.57e81c0000000p-7, -0x1.f9bd9a0000000p-7, 0x1.727fb60000000p-5, -0x1.9780b20000000p-7, -0x1.afa7d80000000p-8, 0x1.cdd6de0000000p-5, -0x1.33be100000000p-6, -0x1.e1c6a60000000p-7, -0x1.7b0aec0000000p-5, -0x1.3863260000000p-5, -0x1.ee42760000000p-6, -0x1.1677e00000000p-5, -0x1.78af200000000p-9, -0x1.f94a820000000p-6, 0x1.b6abe00000000p-12, 0x1.0e03620000000p-5, -0x1.55e18e0000000p-5, -0x1.02729e0000000p-5, -0x1.e19dd20000000p-6, 0x1.dac1200000000p-8, 0x1.4cc9c80000000p-7, -0x1.01595e0000000p-4, -0x1.d6d9160000000p-7, -0x1.f68c2c0000000p-5, -0x1.468a000000000p-7, 0x1.3379d00000000p-7, -0x1.356c3e0000000p-5, -0x1.6fb3660000000p-5, -0x1.0417620000000p-5, -0x1.46d3620000000p-7, 0x1.cfb1a60000000p-6, 0x1.9019ec0000000p-5, -0x1.e0a6240000000p-4, -0x1.3c6ce20000000p-5, 0x1.3122860000000p-4, -0x1.a3a7000000000p-7, -0x1.57851c0000000p-6, 0x1.c696040000000p-4, -0x1.fcb4480000000p-7, -0x1.cd31680000000p-6, -0x1.e744f20000000p-5, 0x1.07450a0000000p-5, -0x1.08c5e00000000p-6, 0x1.83185a0000000p-8, -0x1.24bc980000000p-6, 0x1.9587260000000p-6, 0x1.0c52440000000p-4, 0x1.9717400000000p-6, 0x1.a4d2600000000p-6, 0x1.adad9e0000000p-7, -0x1.b5b4bc0000000p-5, 0x1.190c360000000p-4, -0x1.497a960000000p-6, -0x1.19dd760000000p-7, 0x1.b0ba940000000p-8, 0x1.9c5aec0000000p-7, -0x1.1eea2a0000000p-7, 0x1.3261e80000000p-5, -0x1.68dc360000000p-5, -0x1.b87dba0000000p-5, -0x1.58b9d80000000p-7, 0x1.d671b20000000p-5, -0x1.9398b20000000p-6, -0x1.eee03a0000000p-6, -0x1.cda6e80000000p-9, -0x1.a6a4b40000000p-5, -0x1.a338580000000p-4, 0x1.618d0a0000000p-6, 0x1.39c0ee0000000p-6, 0x1.4494360000000p-3, -0x1.6d51840000000p-6, -0x1.c2ab0a0000000p-8, -0x1.94956e0000000p-8, -0x1.c1fc8a0000000p-5, -0x1.02b47c0000000p-6, -0x1.09002c0000000p-5, 0x1.a6b7600000000p-7, 0x1.8750580000000p-5, 0x1.07d4b20000000p-3, -0x1.26f59c0000000p-5, -0x1.7bc9080000000p-6, -0x1.4e2d720000000p-4, 0x1.4b2f080000000p-5, -0x1.24a9cc0000000p-5, -0x1.68f6700000000p-12, -0x1.7e0f7e0000000p-5, -0x1.b3b40c0000000p-6, -0x1.2e08460000000p-5, -0x1.2b99380000000p-5, 0x1.3ec1e20000000p-5, -0x1.e1f9d20000000p-5, -0x1.ee407c0000000p-6, 0x1.45ec5e0000000p-7, -0x1.d711f40000000p-5, 0x1.69330e0000000p-8, -0x1.f7a2020000000p-5, -0x1.36b1ec0000000p-5, 0x1.6475ea0000000p-6, -0x1.176b780000000p-4, 0x1.1241c00000000p-4, 0x1.f955500000000p-8, 0x1.5beb3e0000000p-3, -0x1.0c274a0000000p-8, -0x1.31187a0000000p-7, 0x1.3b4b980000000p-5, -0x1.ba4a940000000p-7, 0x1.8cdb700000000p-6, -0x1.5d0b640000000p-8, -0x1.797bc40000000p-7, 0x1.522f1a0000000p-9, 0x1.f627d20000000p-5, -0x1.8e7dd20000000p-7, 0x1.07cb0c0000000p-7, -0x1.cf27be0000000p-5, 0x1.016f960000000p-7, -0x1.8725140000000p-4, -0x1.e350a80000000p-9, 0x1.9299600000000p-8, 0x1.7ec84e0000000p-7, -0x1.0fb61e0000000p-4, -0x1.b013c60000000p-5, -0x1.3aceca0000000p-7, -0x1.422ae40000000p-5, -0x1.c64be40000000p-5, -0x1.78fa180000000p-5, -0x1.74caf20000000p-6, 0x1.0664fe0000000p-8, -0x1.94bab60000000p-10, -0x1.04b5820000000p-4, -0x1.0655b20000000p-5, -0x1.30f84e0000000p-4, -0x1.abf4ea0000000p-5, 0x1.11c5a60000000p-6, 0x1.ea78180000000p-6, 0x1.35a57e0000000p-5, -0x1.7e72ac0000000p-7, 0x1.cde5ea0000000p-5, 0x1.6354de0000000p-5, -0x1.6c76260000000p-5, 0x1.3ba1d80000000p-5, 0x1.1117c00000000p-4, -0x1.49c27c0000000p-6, -0x1.4090e60000000p-8, -0x1.0913180000000p-7, 0x1.1ad1e20000000p-6, -0x1.37e4380000000p-9, -0x1.ae410a0000000p-8, -0x1.d3a68e0000000p-9, -0x1.5c247c0000000p-8, 0x1.7b9af40000000p-5, -0x1.0c583a0000000p-4, -0x1.fcd6d60000000p-6, -0x1.2840840000000p-5, -0x1.8a8de00000000p-8, -0x1.b6d8500000000p-6, 0x1.2f06ec0000000p-5, -0x1.69e3740000000p-6, -0x1.7e9e380000000p-5, -0x1.16f73a0000000p-5, 0x1.d96d520000000p-7, 0x1.21efe40000000p-3, 0x1.382de40000000p-7, -0x1.337ef00000000p-4, -0x1.b224e80000000p-4, -0x1.5319660000000p-6, 0x1.d8dba20000000p-6, 0x1.29d5f40000000p-4, 0x1.21059c0000000p-6, 0x1.b7c0e40000000p-7, 0x1.b599080000000p-6, -0x1.53bc060000000p-5, 0x1.0e7ede0000000p-9, 0x1.d0bfd40000000p-5, 0x1.d053f80000000p-6, 0x1.24fbd80000000p-4, -0x1.88fcba0000000p-5, 0x1.3311520000000p-7, -0x1.9b602e0000000p-5, 0x1.7bbb060000000p-6, -0x1.2722a60000000p-4, 0x1.5d917e0000000p-7, -0x1.2b9b600000000p-5, 0x1.3255c80000000p-4, 0x1.db6c7c0000000p-5, 0x1.0e1e7e0000000p-6, 0x1.b4e5fe0000000p-8, 0x1.6711580000000p-5, 0x1.79c9980000000p-7, 0x1.c8d0c40000000p-5, -0x1.83b3920000000p-5, 0x1.be62b40000000p-5, 0x1.6468420000000p-6, 0x1.9db3aa0000000p-4, -0x1.b7b0020000000p-8, 0x1.5058ee0000000p-4, 0x1.5aa8040000000p-6, 0x1.c72d580000000p-5, 0x1.fbc4e20000000p-10, -0x1.ca1be00000000p-5, -0x1.38a8c00000000p-7, -0x1.f5317c0000000p-5, 0x1.d801da0000000p-5, 0x1.8f23640000000p-5, 0x1.0895640000000p-4, -0x1.ccfe440000000p-6, 0x1.8ab1ae0000000p-7, 0x1.f690ae0000000p-6, 0x1.4539dc0000000p-4, 0x1.76f77c0000000p-5, 0x1.fca5600000000p-6, -0x1.0899240000000p-5, 0x1.b9bb260000000p-4, 0x1.1c198a0000000p-4, -0x1.78c11e0000000p-5, 0x1.3296b60000000p-5, 0x1.9a30040000000p-7, -0x1.7a66f20000000p-8, 0x1.4b833e0000000p-4, 0x1.84592c0000000p-7, 0x1.47fcea0000000p-5, 0x1.fdff120000000p-9, 0x1.07725a0000000p-4, 0x1.7569e40000000p-5, 0x1.441b600000000p-5, -0x1.a3bd5a0000000p-4, -0x1.52418c0000000p-5, 0x1.8a88ea0000000p-5, 0x1.0352500000000p-5, -0x1.151f380000000p-5, 0x1.91ad140000000p-6, 0x1.2a04ce0000000p-6, -0x1.05ae620000000p-7, 0x1.aa8c3e0000000p-6, 0x1.b559f00000000p-4, 0x1.4d653c0000000p-5, -0x1.0662e00000000p-5, -0x1.9cb1ac0000000p-7, -0x1.4460920000000p-6, -0x1.82af540000000p-5, 0x1.f866060000000p-6, -0x1.5fc4ce0000000p-4, 0x1.8cb7260000000p-6, -0x1.35e6600000000p-5, 0x1.9512380000000p-5, -0x1.8f6f160000000p-6, 0x1.0ab2420000000p-6, 0x1.7f72b40000000p-8, -0x1.0cb3820000000p-4, 0x1.1e802e0000000p-5, 0x1.36c52a0000000p-5, -0x1.55a2460000000p-8, 0x1.1ddacc0000000p-6, -0x1.a47e140000000p-5, 0x1.8d599c0000000p-5, -0x1.4ccf8c0000000p-5, 0x1.2530b00000000p-5, -0x1.8de2d00000000p-4, -0x1.feac340000000p-6, -0x1.641eee0000000p-5, -0x1.8afd580000000p-5, -0x1.ea118e0000000p-9, 0x1.c878c20000000p-4, -0x1.a248220000000p-4, -0x1.a570cc0000000p-5, 0x1.fa558a0000000p-5, -0x1.b819620000000p-12, -0x1.b05f220000000p-6, -0x1.716ff40000000p-8, 0x1.a0d2360000000p-5, -0x1.bcb3800000000p-6, 0x1.da9ade0000000p-4, -0x1.4b61820000000p-7, -0x1.11bf300000000p-5, -0x1.acfca60000000p-12, -0x1.ca23080000000p-5, -0x1.ddefba0000000p-5, -0x1.6ba25e0000000p-8, -0x1.4aa35c0000000p-6, -0x1.ee24c60000000p-6, -0x1.5a97200000000p-7, -0x1.c6ce9e0000000p-5, -0x1.5b975e0000000p-6, -0x1.c900680000000p-7, 0x1.e147d60000000p-8, -0x1.2caaa60000000p-7, 0x1.f3d4000000000p-9, -0x1.db32bc0000000p-6, -0x1.89ca3c0000000p-7, -0x1.e97fee0000000p-5, -0x1.b900580000000p-6, -0x1.62aa7c0000000p-4, -0x1.fc966e0000000p-5, 0x1.edef3e0000000p-7, 0x1.1bc0da0000000p-4, -0x1.658e220000000p-4, -0x1.13fda80000000p-4, -0x1.6747040000000p-8, -0x1.ebfe4e0000000p-5, -0x1.76ef6c0000000p-4, -0x1.7c73c00000000p-6, -0x1.e766d60000000p-8, -0x1.41a2780000000p-7, 0x1.e261e20000000p-4, -0x1.67d8800000000p-4, -0x1.a706480000000p-5, -0x1.4fa3f80000000p-5, -0x1.1803c60000000p-6, -0x1.d0cac40000000p-5, -0x1.ed43260000000p-5, -0x1.a016700000000p-7, -0x1.dddbf00000000p-6, -0x1.b40c260000000p-8, -0x1.b27f060000000p-5, -0x1.01f8060000000p-5, -0x1.021f360000000p-4, 0x1.fde4340000000p-8, -0x1.f8e2420000000p-6, -0x1.1661ae0000000p-5, -0x1.470c6e0000000p-13, -0x1.462aca0000000p-7, -0x1.a1357a0000000p-4, -0x1.13bbfe0000000p-7, -0x1.4679e60000000p-4, -0x1.13ef640000000p-5, -0x1.dce0fa0000000p-8, -0x1.0f35660000000p-6, 0x1.47ecd60000000p-4, 0x1.106f780000000p-6, 0x1.d253280000000p-5, -0x1.960f280000000p-6, -0x1.54d3d20000000p-5, -0x1.3c616e0000000p-5, -0x1.a5b8900000000p-6, -0x1.4bfbbc0000000p-6, -0x1.1aba960000000p-6, -0x1.f406840000000p-7, 0x1.6aa40e0000000p-6, -0x1.270f5a0000000p-7, 0x1.fb83480000000p-7, -0x1.0788a20000000p-4, -0x1.9653560000000p-5, -0x1.3133a20000000p-5, 0x1.6438d20000000p-10, -0x1.83c0420000000p-5, -0x1.b546160000000p-7, -0x1.007f680000000p-4, -0x1.02d7680000000p-4, 0x1.a6d9040000000p-6, 0x1.119b1c0000000p-4, -0x1.5e00c60000000p-6, -0x1.f23aae0000000p-5, -0x1.3551060000000p-5, 0x1.f513aa0000000p-7, -0x1.c51b880000000p-9, -0x1.25dfa80000000p-7, 0x1.c7a3160000000p-5, 0x1.3c6aba0000000p-5, -0x1.83f09c0000000p-9, -0x1.3b783e0000000p-8, -0x1.4528120000000p-8, -0x1.53ae240000000p-5, -0x1.8b74ae0000000p-5, -0x1.60788c0000000p-6, -0x1.acad460000000p-6, -0x1.d3f8060000000p-6, -0x1.ce92bc0000000p-5, 0x1.34b4360000000p-8, 0x1.e24fbc0000000p-5, -0x1.585c1e0000000p-6, -0x1.87510a0000000p-6, -0x1.1429ce0000000p-4, -0x1.efbfaa0000000p-7, 0x1.38e5dc0000000p-5, -0x1.44ac720000000p-7, -0x1.9459f80000000p-6, -0x1.6f4c700000000p-5, -0x1.f2efd60000000p-7, 0x1.0bc2760000000p-5, -0x1.4bc52e0000000p-7, 0x1.aa3d360000000p-12, -0x1.8f79680000000p-12, -0x1.8fcff60000000p-7, -0x1.d4bd9e0000000p-6, -0x1.a49dd00000000p-8, -0x1.04e3f00000000p-3, 0x1.bca3860000000p-7, -0x1.99d5260000000p-7, 0x1.36957c0000000p-4, 0x1.9b19800000000p-7, 0x1.6ff6de0000000p-5, -0x1.8eb0560000000p-5, -0x1.67402e0000000p-6, -0x1.ead9840000000p-6, 0x1.104c760000000p-5, -0x1.7ff4b20000000p-7, -0x1.78601e0000000p-6, -0x1.a7aee80000000p-6, 0x1.fbf9640000000p-6, 0x1.bd2b060000000p-5, 0x1.559c600000000p-4, -0x1.241c060000000p-4, 0x1.1d2d720000000p-5, -0x1.2b47da0000000p-8, -0x1.47f3140000000p-4, -0x1.e6421a0000000p-7, -0x1.26aae60000000p-4, 0x1.455d660000000p-8, -0x1.93364e0000000p-5, 0x1.bd51a20000000p-8, 0x1.f0a6300000000p-5, 0x1.5cde300000000p-7, -0x1.4bee920000000p-6, -0x1.2bd5f20000000p-6, 0x1.866e220000000p-5, -0x1.bcd19c0000000p-7, -0x1.50a94a0000000p-5, -0x1.50a14a0000000p-5, -0x1.d597d60000000p-6, -0x1.030c220000000p-3, 0x1.6ef8f00000000p-5, 0x1.bf45a20000000p-6, 0x1.7126900000000p-3, -0x1.16e69e0000000p-4, 0x1.45f79a0000000p-14, -0x1.5c28600000000p-6, -0x1.c3e5a80000000p-5, -0x1.7b7cf20000000p-5, -0x1.44544a0000000p-6, -0x1.c30a7e0000000p-5, 0x1.1dbfc80000000p-8, 0x1.fac9ac0000000p-5, 0x1.53f6a20000000p-8, -0x1.ef93200000000p-5, 0x1.05f5d20000000p-8, 0x1.78b43c0000000p-9, -0x1.0b9d4e0000000p-4, -0x1.2a2f840000000p-5, -0x1.591fa40000000p-6, -0x1.8d65a20000000p-5, 0x1.94e1100000000p-6, 0x1.3ec5f60000000p-6, 0x1.3fd75a0000000p-4, 0x1.3e76a00000000p-7, -0x1.f586fa0000000p-5, 0x1.ecd7dc0000000p-6, -0x1.a61d8c0000000p-6, -0x1.996dd40000000p-7, 0x1.47ac380000000p-5, -0x1.2169f00000000p-4, -0x1.fe76b00000000p-5, -0x1.cc2d560000000p-6, 0x1.c59d360000000p-5, -0x1.b68a4a0000000p-7, 0x1.e376580000000p-4, 0x1.2ef6b60000000p-8, -0x1.75f9460000000p-6, 0x1.4ff5d20000000p-6, 0x1.cf73100000000p-6, 0x1.ac2fde0000000p-6, 0x1.760fe40000000p-11, -0x1.2d16120000000p-6, 0x1.54707a0000000p-6, -0x1.baa40e0000000p-6, -0x1.62f6800000000p-8, -0x1.0f8f3e0000000p-5, -0x1.e38e5c0000000p-13, -0x1.cc26960000000p-6, -0x1.cf60520000000p-4, -0x1.a88c5a0000000p-5, 0x1.4902d60000000p-6, -0x1.030b160000000p-5, -0x1.000f220000000p-4, -0x1.2d13a40000000p-7, 0x1.c2ff0e0000000p-5, -0x1.b4d5ac0000000p-8, -0x1.8788540000000p-6, -0x1.7769480000000p-5, -0x1.37e54e0000000p-8, -0x1.bcc2c20000000p-6, -0x1.c0e16a0000000p-7, 0x1.3c5f3c0000000p-8, 0x1.0592740000000p-6, -0x1.0ea1580000000p-5, -0x1.bfc5580000000p-5, -0x1.0ccf900000000p-8, 0x1.00d62a0000000p-5, 0x1.621a4c0000000p-4, 0x1.613ed40000000p-9, 0x1.3135a20000000p-5, 0x1.c9a6960000000p-5, -0x1.80372e0000000p-5, -0x1.3a10400000000p-7, 0x1.0ce1880000000p-4, 0x1.ab900a0000000p-5, 0x1.58ba280000000p-5, 0x1.d1d7ce0000000p-8, -0x1.188dbc0000000p-7, -0x1.590b600000000p-6, -0x1.aba8640000000p-7, -0x1.80af320000000p-5, -0x1.b0de2a0000000p-6, 0x1.e957ca0000000p-6, -0x1.cdad5e0000000p-5, 0x1.1a184c0000000p-7, 0x1.13185a0000000p-8, -0x1.5546900000000p-6, -0x1.0d3f900000000p-5, 0x1.7aa6460000000p-5, 0x1.702b560000000p-5, -0x1.ddb7740000000p-5, 0x1.dc64c60000000p-6, -0x1.e508860000000p-7, 0x1.a459ae0000000p-5, 0x1.7042020000000p-9, -0x1.a58ddc0000000p-7, -0x1.51ac660000000p-3, -0x1.6afd540000000p-6, -0x1.7d281e0000000p-8, 0x1.6344da0000000p-4, -0x1.022c040000000p-5, 0x1.285c900000000p-7, 0x1.186ee20000000p-4, 0x1.5403440000000p-10, -0x1.c0a6720000000p-7, -0x1.9a447c0000000p-6, 0x1.11ef520000000p-4, 0x1.1b3b640000000p-5, -0x1.98d7100000000p-5, 0x1.3756e00000000p-8, -0x1.c462c80000000p-4, 0x1.99432c0000000p-8, -0x1.3777800000000p-4, 0x1.2714b80000000p-5, -0x1.a99ee80000000p-5, 0x1.8eccae0000000p-10, 0x1.d3d7b60000000p-5, -0x1.88de3c0000000p-8, 0x1.1d28160000000p-5, 0x1.d6b1e60000000p-14, 0x1.895ac00000000p-5, 0x1.1c5d2a0000000p-4, -0x1.f69b0c0000000p-5, 0x1.1bfaae0000000p-6, -0x1.2c3b5e0000000p-10, -0x1.d8d1680000000p-7, -0x1.c7ffcc0000000p-6, 0x1.55f2b60000000p-4, -0x1.a9caea0000000p-6, 0x1.1a667a0000000p-6, 0x1.4f29280000000p-7, 0x1.b2c6940000000p-11, 0x1.10aeea0000000p-6, -0x1.b028fe0000000p-5, 0x1.c1e1bc0000000p-4, 0x1.327fd00000000p-4, -0x1.dc7ad40000000p-6, -0x1.5964be0000000p-6, -0x1.0ad5440000000p-5, -0x1.2987680000000p-8, 0x1.7be6980000000p-6, -0x1.3578c00000000p-6, 0x1.7f581e0000000p-6, 0x1.650af40000000p-7, 0x1.68c6780000000p-4, 0x1.f37f4c0000000p-5, -0x1.c2a08e0000000p-5, 0x1.29bbe80000000p-5, 0x1.6d2c020000000p-5, 0x1.efe2c20000000p-6, 0x1.8f2a5e0000000p-6, 0x1.6431220000000p-7, -0x1.9549820000000p-7, -0x1.75af4a0000000p-5, 0x1.f106a60000000p-6, -0x1.e159980000000p-8, 0x1.3d322c0000000p-6, -0x1.1386e40000000p-4, -0x1.0eda480000000p-4, -0x1.aa9d680000000p-6, 0x1.e9662c0000000p-5, -0x1.11af8c0000000p-5, 0x1.1985400000000p-4, -0x1.bf225a0000000p-5, -0x1.7dfc100000000p-6, -0x1.5fe9300000000p-6, -0x1.cb06ae0000000p-8, -0x1.0760080000000p-6, -0x1.071ed80000000p-5, 0x1.9b775c0000000p-11, -0x1.43e2f80000000p-4, -0x1.92b5f40000000p-6, 0x1.8b73e00000000p-5, -0x1.2e76f00000000p-4, 0x1.456afa0000000p-6, -0x1.6fa4760000000p-4, 0x1.20c4020000000p-7, -0x1.164b960000000p-7, -0x1.d50bac0000000p-5, -0x1.2766fe0000000p-5, -0x1.354f1e0000000p-5, -0x1.d3aeba0000000p-6, -0x1.addea80000000p-5, 0x1.63e6700000000p-7, -0x1.e249f80000000p-6, -0x1.0036ca0000000p-4, 0x1.6dfd2e0000000p-6, -0x1.bba9960000000p-6, 0x1.d887480000000p-6, -0x1.da37e80000000p-5, -0x1.38d1800000000p-5, -0x1.486d860000000p-4, 0x1.97fef40000000p-7, 0x1.9790be0000000p-10, 0x1.2956080000000p-4, -0x1.ded3820000000p-4, -0x1.45e13c0000000p-5, 0x1.81fdec0000000p-4, -0x1.d057220000000p-5, -0x1.6564260000000p-4, -0x1.5ffbb20000000p-5, -0x1.8aff320000000p-7, -0x1.34c4d00000000p-6, 0x1.cbfb5a0000000p-5, -0x1.778c000000000p-5, -0x1.49d9460000000p-5, -0x1.a1094e0000000p-6, -0x1.e336e20000000p-11, -0x1.58ea800000000p-6, -0x1.052a460000000p-5, -0x1.75ed4c0000000p-5, -0x1.8194500000000p-9, -0x1.0eb4380000000p-6, -0x1.15d1500000000p-4, -0x1.b560200000000p-5, -0x1.fc72c60000000p-5, -0x1.749e360000000p-6, -0x1.175e360000000p-6, -0x1.c9af7e0000000p-5, -0x1.07874c0000000p-6, -0x1.d356120000000p-6, -0x1.cd8ffa0000000p-6, -0x1.1cb8de0000000p-5, -0x1.39c2b20000000p-5, 0x1.17d0960000000p-4, -0x1.7d20460000000p-6, -0x1.5bca080000000p-6, -0x1.2a06740000000p-5, -0x1.7dc9820000000p-6, 0x1.3e66ae0000000p-4, -0x1.6b67e80000000p-4, -0x1.26c6080000000p-4, -0x1.954a360000000p-6, 0x1.14cdf40000000p-7, -0x1.1523a80000000p-5, 0x1.34647a0000000p-5, -0x1.58e4080000000p-4, -0x1.ca4a4c0000000p-5, -0x1.8464aa0000000p-6, -0x1.f0b8de0000000p-5, -0x1.68f47a0000000p-5, -0x1.0d8e840000000p-4, -0x1.7132d60000000p-7, -0x1.c6b5cc0000000p-6, -0x1.23ce120000000p-5, -0x1.2599720000000p-4, -0x1.13413a0000000p-6, 0x1.d199e60000000p-7, -0x1.67629c0000000p-10, -0x1.26135c0000000p-5, -0x1.a2ddac0000000p-5, -0x1.c34a960000000p-5, -0x1.ef888c0000000p-6, -0x1.14542a0000000p-7, -0x1.c4bab20000000p-5, -0x1.f0bc140000000p-5, 0x1.96cda20000000p-5, -0x1.7d0ff20000000p-8, -0x1.65bf460000000p-6, 0x1.1995d00000000p-4, -0x1.4242a60000000p-6, 0x1.a39d4e0000000p-4, -0x1.ae4c680000000p-7, -0x1.62e2780000000p-6, 0x1.787dfe0000000p-7, -0x1.3232060000000p-7, 0x1.55050a0000000p-6, -0x1.7fb8480000000p-7, 0x1.ff05520000000p-9, -0x1.f1ef320000000p-6, -0x1.e6ce7c0000000p-8, 0x1.4bdf500000000p-6, 0x1.490dee0000000p-8, -0x1.b5a9820000000p-9, -0x1.04d55a0000000p-10, -0x1.7f073e0000000p-10, 0x1.1633fc0000000p-5, -0x1.6c20e80000000p-6, -0x1.2c8cd80000000p-4, -0x1.a4a20e0000000p-5, 0x1.ac459e0000000p-6, -0x1.3a51420000000p-8, -0x1.f8ba180000000p-5, -0x1.1a781c0000000p-9, -0x1.52516c0000000p-8, 0x1.f1eab60000000p-5, -0x1.47679a0000000p-5, -0x1.0726040000000p-5, 0x1.8408280000000p-6, 0x1.407a860000000p-9, -0x1.4840b40000000p-6, -0x1.0b52640000000p-5, 0x1.b871620000000p-6, -0x1.1677740000000p-7, -0x1.b49c180000000p-5, -0x1.e174ac0000000p-8, 0x1.4af2d00000000p-7, 0x1.36513e0000000p-6, -0x1.8216b00000000p-6, -0x1.ef53940000000p-5, 0x1.49fe700000000p-5, -0x1.53c21c0000000p-5, 0x1.c305c00000000p-5, -0x1.2667920000000p-3, 0x1.3194340000000p-7, -0x1.5532f40000000p-5, 0x1.9b64600000000p-8, -0x1.84b90c0000000p-5, 0x1.35bfc20000000p-7, -0x1.ccfb9a0000000p-7, -0x1.1e93fa0000000p-4, -0x1.c4d74c0000000p-8, -0x1.a377ae0000000p-7, -0x1.fe87780000000p-6, -0x1.10ba8a0000000p-5, -0x1.be72e20000000p-8, 0x1.ba4ed60000000p-6, 0x1.4469940000000p-6, -0x1.c571020000000p-6, -0x1.4c9c900000000p-6, 0x1.fc587e0000000p-4, 0x1.4f07620000000p-7, -0x1.a00f8e0000000p-8, 0x1.1d7fda0000000p-7, 0x1.1b0b3c0000000p-5, -0x1.56bb880000000p-6, -0x1.2aa1ec0000000p-6, -0x1.07a4e60000000p-8, 0x1.c52a5e0000000p-7, -0x1.4ead2c0000000p-6, 0x1.2724c80000000p-6, -0x1.04f25a0000000p-6, 0x1.9364780000000p-6, -0x1.b6ad440000000p-5, 0x1.728a040000000p-5, -0x1.48a8720000000p-7, -0x1.5590300000000p-5, 0x1.116e5e0000000p-7, -0x1.0f09d40000000p-6, -0x1.03bbd40000000p-5, 0x1.2c619c0000000p-5, 0x1.1457e60000000p-5, -0x1.6d02040000000p-7, -0x1.183c640000000p-6, 0x1.4316680000000p-6, 0x1.3d23760000000p-5, -0x1.d4d3e60000000p-9, -0x1.24e09c0000000p-5, 0x1.11724e0000000p-5, 0x1.de51e00000000p-9, -0x1.9e2a0e0000000p-7, -0x1.0edd640000000p-4, 0x1.6384aa0000000p-4, 0x1.ec14640000000p-7, 0x1.7618620000000p-4, -0x1.9c0bae0000000p-8, -0x1.da12840000000p-7, 0x1.43a4ac0000000p-8, -0x1.0bba460000000p-4, -0x1.f8dfd40000000p-6, -0x1.40ba9c0000000p-6, 0x1.088cda0000000p-8, -0x1.74f26e0000000p-8, 0x1.57f4bc0000000p-4, -0x1.33b5080000000p-5, 0x1.07cede0000000p-7, 0x1.7beae80000000p-7, -0x1.6788c00000000p-6, -0x1.16aff00000000p-3, -0x1.d3337c0000000p-12, -0x1.ec079e0000000p-5, 0x1.6d00f80000000p-8, -0x1.b0615e0000000p-6, 0x1.7e13680000000p-6, 0x1.f43e2c0000000p-5, -0x1.0ee6180000000p-6, -0x1.da11700000000p-6, -0x1.bcea5c0000000p-9, 0x1.d885ce0000000p-6, -0x1.a3e8380000000p-6, 0x1.4f12f60000000p-7, 0x1.8cb9a00000000p-7, -0x1.e601580000000p-6, -0x1.44e0920000000p-6, 0x1.a3e7fc0000000p-5, 0x1.3e57da0000000p-6, 0x1.117e520000000p-5, -0x1.47710c0000000p-7, -0x1.5b9c720000000p-10, 0x1.7e7e2c0000000p-5, 0x1.26242e0000000p-5, -0x1.c3f7840000000p-10, -0x1.26f3420000000p-9, -0x1.92398e0000000p-6, 0x1.2e1ac60000000p-6, 0x1.e584560000000p-7, -0x1.4060e00000000p-5, 0x1.1a9ec40000000p-9, 0x1.8153d60000000p-8, -0x1.b48d560000000p-5, -0x1.223c9e0000000p-5, -0x1.cddb400000000p-5, 0x1.6cc7900000000p-6, 0x1.f3e90a0000000p-6, -0x1.e9b8d60000000p-6, -0x1.71167a0000000p-7, 0x1.34c0e00000000p-5, -0x1.79358a0000000p-7, -0x1.0dccfa0000000p-7, -0x1.0d74900000000p-4, -0x1.4cdd920000000p-6, -0x1.ab46bc0000000p-6, 0x1.87d6b20000000p-8, -0x1.6c30e20000000p-7, 0x1.c749f80000000p-6, -0x1.55d36c0000000p-5, -0x1.dbde100000000p-5, 0x1.345baa0000000p-8, 0x1.c05be80000000p-6, 0x1.1e02440000000p-5, -0x1.c9a25e0000000p-5, 0x1.dab8140000000p-5, 0x1.5217980000000p-4, -0x1.5ad2300000000p-4, -0x1.1922040000000p-5, -0x1.c954a40000000p-8, 0x1.fd9d880000000p-5, 0x1.82b56a0000000p-4, 0x1.0e85200000000p-8, 0x1.0ff3be0000000p-4, -0x1.afd2860000000p-8, -0x1.e5cb380000000p-10, -0x1.2ed9b00000000p-4, -0x1.f94eb40000000p-6, 0x1.1660300000000p-5, 0x1.cb96fe0000000p-7, 0x1.5605980000000p-7, -0x1.1916920000000p-4, 0x1.c7db3e0000000p-5, -0x1.c3c7fe0000000p-6, 0x1.a5e8000000000p-5, 0x1.403c540000000p-4, -0x1.0220820000000p-5, 0x1.f35f520000000p-6, -0x1.539abc0000000p-7, 0x1.8c53a00000000p-6, -0x1.9939160000000p-9, -0x1.e8c6500000000p-6, -0x1.646e640000000p-4, 0x1.4c94f60000000p-8, -0x1.63c02e0000000p-4, 0x1.c6fd120000000p-4, -0x1.7188d80000000p-6, -0x1.1e293e0000000p-6, 0x1.8ce74a0000000p-4, 0x1.f616de0000000p-6, 0x1.6db9160000000p-5, 0x1.0b991e0000000p-5, 0x1.c1d6a60000000p-6, -0x1.894fa40000000p-9, 0x1.5b6b660000000p-6, 0x1.6ae1b40000000p-5, -0x1.189ad00000000p-6, 0x1.54288a0000000p-5, 0x1.d00e1e0000000p-8, -0x1.60e2740000000p-6, 0x1.8a34c40000000p-6, 0x1.4948c20000000p-7, -0x1.d446fc0000000p-7, 0x1.aefad40000000p-7, 0x1.4f6e220000000p-7, 0x1.6be2fa0000000p-5, -0x1.27b67e0000000p-7, 0x1.a260ea0000000p-6, -0x1.ec8f940000000p-5, 0x1.52a42a0000000p-9, 0x1.5905bc0000000p-13, -0x1.1622260000000p-5, -0x1.c220d40000000p-6, 0x1.1b23880000000p-6, -0x1.648e580000000p-10, -0x1.2de7420000000p-8, -0x1.5da7600000000p-6, -0x1.0ba8640000000p-5, 0x1.c0d5900000000p-5, 0x1.2db4fe0000000p-6, 0x1.b8fa2a0000000p-5, 0x1.455d780000000p-5, -0x1.2119360000000p-5, 0x1.158f780000000p-5, -0x1.f16af20000000p-6, -0x1.245b360000000p-4, 0x1.21571c0000000p-4, -0x1.d15d060000000p-4, 0x1.45866a0000000p-6, 0x1.f189b60000000p-6, 0x1.06bf6e0000000p-5, 0x1.1f54540000000p-6, -0x1.382f720000000p-6, -0x1.b96a380000000p-8, 0x1.4c484c0000000p-7, 0x1.3908d80000000p-6, -0x1.958e100000000p-5, -0x1.e37c5c0000000p-7, 0x1.3d65a40000000p-7, -0x1.c9f4ba0000000p-6, 0x1.cf5fcc0000000p-7, -0x1.83ee120000000p-7, 0x1.16f1cc0000000p-9, 0x1.2336900000000p-9, -0x1.7716ac0000000p-7, 0x1.21a8540000000p-6, 0x1.3a70b80000000p-4, -0x1.18ec060000000p-6, 0x1.b466540000000p-5, -0x1.22b7fe0000000p-4, -0x1.fea9b00000000p-6, 0x1.03c5980000000p-5, -0x1.344c200000000p-4, -0x1.03b89c0000000p-5, 0x1.358fdc0000000p-6, -0x1.98f7660000000p-6, -0x1.2126100000000p-5, 0x1.1c4ac60000000p-6, -0x1.a116d40000000p-7, -0x1.8779e60000000p-4, 0x1.c00c180000000p-5, -0x1.8461060000000p-7, 0x1.5716a40000000p-8, 0x1.4663fe0000000p-7, -0x1.0940140000000p-4, -0x1.9491240000000p-6, 0x1.5deb500000000p-6, -0x1.22c1200000000p-6, -0x1.492ca60000000p-6, -0x1.ee53a60000000p-9, -0x1.42f5e80000000p-5, -0x1.d605be0000000p-5, 0x1.d574340000000p-7, -0x1.70abc40000000p-8, 0x1.76678c0000000p-6, -0x1.93c74a0000000p-6, 0x1.36caec0000000p-6, -0x1.5ef13e0000000p-5, 0x1.47e38a0000000p-4, 0x1.0edfa60000000p-5, -0x1.8e11240000000p-7, -0x1.72351c0000000p-8, -0x1.b30f680000000p-7, 0x1.9574f20000000p-4, -0x1.8bf43e0000000p-4, -0x1.615c600000000p-5, -0x1.b473580000000p-12, -0x1.54f1dc0000000p-5, -0x1.62000c0000000p-6, 0x1.1aa4bc0000000p-3, -0x1.d4c78e0000000p-6, -0x1.de193c0000000p-6, 0x1.4b41fa0000000p-5, 0x1.c91e340000000p-11, -0x1.18bf020000000p-4, 0x1.a23f1a0000000p-7, -0x1.9219820000000p-5, -0x1.b470540000000p-11, -0x1.34410c0000000p-5, -0x1.7cf9840000000p-5, -0x1.a6c4520000000p-5, 0x1.d674f20000000p-13, 0x1.a6491c0000000p-7, -0x1.83ccda0000000p-5, 0x1.6608de0000000p-7, -0x1.b22f780000000p-7, 0x1.219b7c0000000p-6, -0x1.1ba4b40000000p-6, 0x1.1b2d180000000p-6, 0x1.5de0020000000p-6, 0x1.d614380000000p-5, -0x1.f6c8ee0000000p-10, -0x1.b3dea40000000p-4, 0x1.6bc0440000000p-5, 0x1.b799ea0000000p-10, 0x1.e15bac0000000p-5, -0x1.84fed80000000p-4, -0x1.a285380000000p-5, 0x1.03d5d80000000p-4, -0x1.68a3100000000p-7, -0x1.3223f20000000p-7, 0x1.4514e20000000p-5, 0x1.112d480000000p-13, 0x1.3a4edc0000000p-5, -0x1.acae920000000p-7, -0x1.2659420000000p-6, -0x1.0a1e2c0000000p-6, -0x1.7e9e400000000p-7, 0x1.4368380000000p-5, -0x1.857f320000000p-6, 0x1.2bd41c0000000p-8, 0x1.04c1fa0000000p-6, -0x1.2cf6740000000p-5, -0x1.fb8e880000000p-6, -0x1.9516580000000p-6, 0x1.aaf4f60000000p-5, 0x1.ed11960000000p-10, -0x1.3c4a340000000p-9, -0x1.b894320000000p-5, 0x1.23e9f40000000p-4, -0x1.826d980000000p-7, 0x1.7921f00000000p-6, 0x1.42d4ba0000000p-4, -0x1.6264020000000p-5, -0x1.04e29e0000000p-4, 0x1.6ac4760000000p-4, -0x1.07c8de0000000p-8, 0x1.b124920000000p-4, -0x1.7919020000000p-5, -0x1.7f320a0000000p-8, 0x1.43fffa0000000p-5, -0x1.46e55c0000000p-5, 0x1.05a7420000000p-6, 0x1.dddf080000000p-10, -0x1.20befe0000000p-6, 0x1.96751e0000000p-5, 0x1.98a32a0000000p-6, 0x1.4873c80000000p-6, -0x1.acb0f20000000p-5, -0x1.30dc080000000p-10, -0x1.ac74e40000000p-6, -0x1.a80d700000000p-6, 0x1.bfea7e0000000p-5, 0x1.a13a6a0000000p-5, 0x1.4d8b180000000p-5, -0x1.df411c0000000p-6, 0x1.211eb00000000p-4, 0x1.318edc0000000p-4, -0x1.15ead40000000p-5, -0x1.d989d40000000p-6, 0x1.946a900000000p-7, 0x1.20d5180000000p-3, 0x1.078b300000000p-5, 0x1.652e920000000p-10, 0x1.754f1c0000000p-6, 0x1.60bba40000000p-6, -0x1.5296b00000000p-7, -0x1.28b28a0000000p-6, 0x1.16dbe40000000p-5, 0x1.fa79200000000p-6, -0x1.2abe440000000p-5, 0x1.12c6000000000p-12, 0x1.8a81ea0000000p-7, 0x1.424b3c0000000p-8, -0x1.f91a800000000p-6, -0x1.7f017c0000000p-6, 0x1.773baa0000000p-5, -0x1.6859dc0000000p-7, 0x1.44e6860000000p-5, 0x1.ac98f40000000p-8, -0x1.cdd9220000000p-8, -0x1.461fa40000000p-5, 0x1.2fcce00000000p-7, 0x1.5f90520000000p-6, -0x1.180c340000000p-7, 0x1.32205c0000000p-6, -0x1.2c375c0000000p-6, -0x1.d5dfee0000000p-6, 0x1.8473440000000p-6, -0x1.7ed94a0000000p-6, 0x1.36b00e0000000p-6, 0x1.9841380000000p-9, -0x1.5c6f020000000p-6, 0x1.8c23c40000000p-4, -0x1.0cb0e20000000p-10, 0x1.3163820000000p-5, 0x1.9381400000000p-4, -0x1.246bb40000000p-5, 0x1.01f9e00000000p-4, -0x1.017ca80000000p-6, -0x1.48956a0000000p-6, -0x1.bae34a0000000p-8, 0x1.82fbbe0000000p-5, 0x1.7ae9860000000p-7, -0x1.7beb480000000p-6, 0x1.dd39140000000p-8, 0x1.142a120000000p-6, 0x1.50a80e0000000p-6, 0x1.4132280000000p-9, -0x1.4374cc0000000p-5, 0x1.49685c0000000p-5, -0x1.ad9d600000000p-8, 0x1.06e6c80000000p-5, -0x1.6704bc0000000p-7, -0x1.8c00140000000p-7, 0x1.6675de0000000p-8, 0x1.b2db100000000p-5, -0x1.eabd800000000p-8, -0x1.ad1f160000000p-8, 0x1.5240580000000p-11, -0x1.99e1620000000p-10, -0x1.004ed60000000p-7, 0x1.2721bc0000000p-5, 0x1.443d9e0000000p-6, 0x1.e1bd0c0000000p-6, 0x1.fbe7ec0000000p-6, -0x1.3f595e0000000p-7, -0x1.85de460000000p-11, 0x1.c1e3d00000000p-4, -0x1.5706fe0000000p-6, 0x1.2139440000000p-4, -0x1.51339a0000000p-6, -0x1.5b907a0000000p-8, -0x1.2bd5c00000000p-4, 0x1.c9c35a0000000p-6, 0x1.b9ba140000000p-5, 0x1.1ded420000000p-7, 0x1.38b93e0000000p-6, -0x1.05559a0000000p-6, 0x1.d4a8e20000000p-4, -0x1.5755c20000000p-6, -0x1.f673ca0000000p-6, 0x1.b18afc0000000p-7, -0x1.ac150a0000000p-7, 0x1.a30de60000000p-6, -0x1.5b0d4e0000000p-8, -0x1.107a120000000p-4, 0x1.f382b20000000p-7, -0x1.de26260000000p-6, 0x1.dac3b20000000p-6, 0x1.0e6a7e0000000p-4, 0x1.6594720000000p-7, -0x1.76618c0000000p-6, -0x1.186d8e0000000p-5, 0x1.c40c2c0000000p-5, 0x1.392a4c0000000p-6, 0x1.8236f40000000p-5, 0x1.079fa20000000p-4, -0x1.743a960000000p-6, 0x1.0b3f340000000p-4, 0x1.3083980000000p-7, -0x1.dada760000000p-11, 0x1.5830820000000p-5, 0x1.a8e4960000000p-7, 0x1.3b867c0000000p-6, 0x1.2d9a5e0000000p-5, 0x1.b8a7ae0000000p-4, 0x1.c666400000000p-6, -0x1.8796820000000p-7, 0x1.98fccc0000000p-7, 0x1.c9aede0000000p-5, 0x1.9f14420000000p-5, -0x1.a992140000000p-9, -0x1.8a83be0000000p-10, 0x1.b21f660000000p-6, -0x1.4ea33c0000000p-7, -0x1.f697cc0000000p-8, 0x1.4b03da0000000p-7, 0x1.36a8cc0000000p-7, -0x1.af679a0000000p-7, -0x1.f101260000000p-5, -0x1.5954480000000p-6, 0x1.49c3940000000p-4, -0x1.3e05ee0000000p-5, 0x1.974c880000000p-6, 0x1.2ef67a0000000p-6, 0x1.1de7a60000000p-6, -0x1.b192b20000000p-7, 0x1.d0a0660000000p-4, 0x1.7515e60000000p-6, -0x1.2efc580000000p-8, -0x1.2bb8540000000p-5, -0x1.3f32800000000p-4, 0x1.0b61340000000p-5, 0x1.16b05a0000000p-7, 0x1.a14e700000000p-6, -0x1.5fa16e0000000p-5, 0x1.8a84a80000000p-4, 0x1.3e19e20000000p-4, 0x1.a94e620000000p-7, -0x1.5aee0c0000000p-5, 0x1.2cb6620000000p-8, 0x1.0daf5e0000000p-4, -0x1.3160900000000p-8, 0x1.bc08f20000000p-8, 0x1.a0b42e0000000p-7, -0x1.e31da00000000p-5, -0x1.9525140000000p-6, -0x1.8dac180000000p-5, 0x1.46f6f00000000p-6, 0x1.7075320000000p-5, 0x1.76bc4e0000000p-9, -0x1.e66ff60000000p-5, -0x1.8f72bc0000000p-5, -0x1.37174c0000000p-7, 0x1.e22c800000000p-7, -0x1.83fe740000000p-6, 0x1.9146620000000p-5, 0x1.fafa620000000p-9, 0x1.7e3bfa0000000p-8, 0x1.fcd0360000000p-8, -0x1.d1a9920000000p-6, 0x1.09d6680000000p-5, -0x1.68041a0000000p-5, -0x1.595b5c0000000p-4, -0x1.3399380000000p-5, -0x1.9763940000000p-4, 0x1.30be0a0000000p-5, -0x1.088dd20000000p-6, -0x1.a1af560000000p-6, 0x1.6921d00000000p-4, -0x1.338f7c0000000p-5, -0x1.213e180000000p-6, 0x1.9358100000000p-6, -0x1.84d1de0000000p-5, -0x1.a2f5360000000p-6, 0x1.a2e8bc0000000p-5, -0x1.2ebef40000000p-6, -0x1.0746dc0000000p-6, -0x1.332bca0000000p-7, 0x1.afa8ae0000000p-6, -0x1.aff9260000000p-7, 0x1.17d14e0000000p-7, 0x1.494d700000000p-6, -0x1.aec3a40000000p-9, 0x1.4675640000000p-7, -0x1.8aa0be0000000p-6, -0x1.8fb3bc0000000p-7, 0x1.ee8b640000000p-6, -0x1.2179fc0000000p-5, -0x1.e3ca0a0000000p-5, -0x1.ee033c0000000p-10, -0x1.87894c0000000p-5, -0x1.a2dfc60000000p-6, -0x1.db6c800000000p-6, -0x1.65e4a00000000p-7, 0x1.5f4bbc0000000p-6, -0x1.5eceb60000000p-6, 0x1.c026a60000000p-6, -0x1.220f4a0000000p-4, 0x1.b3a03a0000000p-6, -0x1.a3122e0000000p-5, 0x1.b858320000000p-7, -0x1.0cd70a0000000p-5, -0x1.2d8fb40000000p-7, -0x1.bc712c0000000p-8, 0x1.a4c1740000000p-10, -0x1.bfb2a60000000p-5, 0x1.06c3ba0000000p-5, -0x1.a7e3040000000p-5, 0x1.5488b00000000p-7, 0x1.7af7220000000p-5, -0x1.053da20000000p-5, 0x1.13f84a0000000p-6, -0x1.812c520000000p-5, 0x1.883a040000000p-6, 0x1.9e83480000000p-8, 0x1.550ec20000000p-5, -0x1.3b9a840000000p-4, -0x1.3594120000000p-5, -0x1.776bee0000000p-6, -0x1.c5457a0000000p-5, -0x1.5072820000000p-5, 0x1.ae0d740000000p-6, -0x1.ad3fac0000000p-6, -0x1.bbf7d60000000p-8, -0x1.1a7c000000000p-5, -0x1.2cb4940000000p-5, 0x1.9f4c460000000p-6, -0x1.79f2b80000000p-6, 0x1.023cdc0000000p-6, -0x1.43302e0000000p-7, -0x1.ff1e040000000p-6, 0x1.1ec0820000000p-5, -0x1.16e0c40000000p-4, -0x1.60b6120000000p-7, -0x1.87ea3a0000000p-7, 0x1.48b22a0000000p-6, -0x1.87dfbe0000000p-5, 0x1.b34f480000000p-5, 0x1.54b4da0000000p-8, -0x1.0304a80000000p-4, -0x1.d082c60000000p-7, -0x1.a8c0980000000p-8, -0x1.bc50320000000p-10, 0x1.79f4e00000000p-7, -0x1.c0e8a20000000p-5, -0x1.7b9b660000000p-7, 0x1.f06e120000000p-7, 0x1.b1957c0000000p-7, -0x1.acaace0000000p-5, -0x1.0246a60000000p-9, 0x1.6312640000000p-6, -0x1.a07fb60000000p-4, 0x1.11c6440000000p-5, -0x1.2f8a6e0000000p-6, -0x1.bba0380000000p-8, 0x1.19cfe20000000p-5, -0x1.53679e0000000p-6, -0x1.794c860000000p-8, 0x1.f22d5a0000000p-7, 0x1.29ba5c0000000p-6, -0x1.2e731e0000000p-5, 0x1.017c620000000p-6, -0x1.0a4d400000000p-8, 0x1.f5279a0000000p-5, -0x1.ecd63a0000000p-5, -0x1.329fb00000000p-5, 0x1.c237440000000p-5, -0x1.4483d00000000p-9, 0x1.293d940000000p-5, 0x1.8fce740000000p-4, -0x1.1364280000000p-7, -0x1.730cde0000000p-5, 0x1.2d99b80000000p-5, 0x1.9d49cc0000000p-6, -0x1.3d46820000000p-6, 0x1.2d0daa0000000p-5, 0x1.b766de0000000p-6, -0x1.e8ad300000000p-6, 0x1.604b660000000p-5, 0x1.f638d20000000p-7, 0x1.8e5df80000000p-6, 0x1.bfad940000000p-6, -0x1.42e4700000000p-6, -0x1.bf27a40000000p-6, -0x1.feb37e0000000p-6, -0x1.082eb40000000p-10, -0x1.854e280000000p-5, 0x1.099f060000000p-4, -0x1.e9c32a0000000p-8, 0x1.0a28460000000p-4, 0x1.114c940000000p-4, 0x1.66e4980000000p-5, -0x1.1982b40000000p-4, 0x1.59b89e0000000p-5, 0x1.d87b800000000p-6, 0x1.02e2ba0000000p-4, -0x1.05e50a0000000p-4, -0x1.f8ae780000000p-6, -0x1.d2ad080000000p-9, -0x1.80c90a0000000p-5, 0x1.39bef60000000p-5, 0x1.caca8a0000000p-7, -0x1.8ae44a0000000p-5, 0x1.74246e0000000p-9, 0x1.a76e740000000p-6, 0x1.07abe40000000p-7, 0x1.6d1d500000000p-8, 0x1.b1f8ca0000000p-9, 0x1.4a08180000000p-4, 0x1.653a660000000p-5, 0x1.4251840000000p-5, 0x1.aac1c40000000p-6, 0x1.6d56e00000000p-5, 0x1.74c0c80000000p-7, 0x1.6769640000000p-5, 0x1.887e8a0000000p-5, -0x1.14366a0000000p-8, 0x1.ad8dc60000000p-7, -0x1.d8cb980000000p-6, 0x1.9b0b0a0000000p-4, 0x1.b50a3e0000000p-6, 0x1.1f2ebc0000000p-7, 0x1.4dacda0000000p-4, 0x1.6072de0000000p-5, 0x1.722f2c0000000p-5, 0x1.1f3d2c0000000p-5, -0x1.8fd8f60000000p-7, 0x1.85d3d60000000p-4, -0x1.46e77a0000000p-7, -0x1.bee0700000000p-6, 0x1.e580f80000000p-6, -0x1.b56ef00000000p-5, 0x1.942baa0000000p-6, 0x1.351c4e0000000p-7, 0x1.e2c9620000000p-6, 0x1.11f32a0000000p-4, 0x1.d352780000000p-5, 0x1.4ced0c0000000p-6, 0x1.e69cb00000000p-5, 0x1.ee4d5e0000000p-6, -0x1.bbd9e80000000p-8, -0x1.2bc2d60000000p-11, 0x1.f1b6f00000000p-7, -0x1.e24cee0000000p-8, 0x1.2f21ce0000000p-4, 0x1.0992140000000p-12, 0x1.3a46aa0000000p-4, 0x1.ad2ca40000000p-4, 0x1.df2f340000000p-6, 0x1.2c84d20000000p-5, 0x1.3f2ad20000000p-10, 0x1.79b07c0000000p-4, -0x1.e171d40000000p-8, 0x1.973d660000000p-9, -0x1.3165d40000000p-6, 0x1.0ce7de0000000p-6, 0x1.8e71500000000p-5, 0x1.d31b160000000p-5, -0x1.6e28860000000p-9, 0x1.a6e79e0000000p-6, -0x1.1cfffe0000000p-6, 0x1.c731000000000p-7, 0x1.b9d4200000000p-6, 0x1.4df3900000000p-5, 0x1.c0fb200000000p-7, -0x1.60cecc0000000p-5, -0x1.2fa47a0000000p-6, 0x1.417e960000000p-5, -0x1.2c55e40000000p-6, 0x1.1065980000000p-5, 0x1.39663e0000000p-5, -0x1.4f74000000000p-6, 0x1.4ca4ee0000000p-7, 0x1.01c3d40000000p-5, 0x1.9179100000000p-5, 0x1.4c5f6e0000000p-5, -0x1.1d02000000000p-6, -0x1.7046220000000p-9, 0x1.9b41ce0000000p-7, 0x1.28495a0000000p-6, -0x1.2bdf240000000p-10, -0x1.d6de120000000p-6, 0x1.101d1c0000000p-7, 0x1.c519260000000p-5, -0x1.5619d00000000p-7, 0x1.2eeeca0000000p-5, 0x1.d9c11c0000000p-8, -0x1.7024e40000000p-6, 0x1.413fd00000000p-4, 0x1.637eaa0000000p-6, 0x1.896baa0000000p-5, -0x1.6d8e5a0000000p-7, 0x1.71e7980000000p-7, 0x1.3045b60000000p-6, 0x1.9aa5ae0000000p-5, 0x1.7837c40000000p-5, 0x1.17516c0000000p-5, 0x1.efbe7c0000000p-6, 0x1.1eeb380000000p-5, 0x1.8bd4520000000p-6, -0x1.be5f260000000p-8, 0x1.51c7020000000p-7, 0x1.184eb40000000p-5, 0x1.0f2ab00000000p-7, -0x1.295ce40000000p-6, 0x1.5615a00000000p-5, -0x1.0b8bc40000000p-7, 0x1.7a22500000000p-5, 0x1.1f7d180000000p-6, -0x1.02aaa40000000p-6, 0x1.344b480000000p-6, -0x1.0c396c0000000p-8, -0x1.67e4920000000p-6, -0x1.eae1600000000p-6, 0x1.8483880000000p-6, -0x1.5972900000000p-5, 0x1.fbda8e0000000p-7, 0x1.2c088e0000000p-4, 0x1.34acca0000000p-4, 0x1.1bd5be0000000p-6, 0x1.6880140000000p-5, -0x1.ab2fae0000000p-6, 0x1.523f8e0000000p-6, -0x1.32bed40000000p-4, 0x1.94ca880000000p-7, 0x1.099e4e0000000p-4, 0x1.5fa3c60000000p-11, -0x1.27b5060000000p-7, 0x1.ecbb1a0000000p-7, 0x1.30668a0000000p-4, -0x1.c1c9d00000000p-7, -0x1.211bc20000000p-4, 0x1.f74eb80000000p-6, -0x1.04cc760000000p-5, 0x1.b203760000000p-5, 0x1.19b4fc0000000p-5, -0x1.7ce2740000000p-8, 0x1.2f82540000000p-9, 0x1.9097320000000p-5, 0x1.fa24ce0000000p-5, 0x1.44ad960000000p-9, 0x1.665c440000000p-6, -0x1.7b01d80000000p-5, 0x1.11d17a0000000p-6, -0x1.b2468c0000000p-7, -0x1.32eec80000000p-8, 0x1.0ed85c0000000p-5, -0x1.6543d00000000p-5, 0x1.1125de0000000p-8, 0x1.80f33a0000000p-6, 0x1.f70d220000000p-7, 0x1.3fcabc0000000p-12, 0x1.7cdad00000000p-6, -0x1.f527e00000000p-6, -0x1.69a32e0000000p-5, 0x1.c10b8e0000000p-7, 0x1.8d3bb60000000p-5, 0x1.8c47f20000000p-5, 0x1.1979ae0000000p-5, 0x1.bc7a560000000p-6, -0x1.72c46c0000000p-6, 0x1.7788200000000p-4, 0x1.08f5c80000000p-8, -0x1.48d9aa0000000p-4, 0x1.7b3c2a0000000p-6, -0x1.4235d80000000p-5, 0x1.245a040000000p-4, -0x1.73aeae0000000p-6, -0x1.4e06fc0000000p-5, 0x1.f834b20000000p-7, -0x1.66f30c0000000p-5, 0x1.9be5760000000p-10, 0x1.1b94ea0000000p-5, 0x1.30986c0000000p-6, -0x1.651a0e0000000p-5, -0x1.c5628c0000000p-6, 0x1.511e0c0000000p-6, 0x1.3059520000000p-7, 0x1.3acd6a0000000p-7, -0x1.ad2bf00000000p-5, -0x1.a6771e0000000p-5, -0x1.099ab20000000p-5, -0x1.3dddfe0000000p-7, -0x1.b4a0ac0000000p-10, 0x1.0fee060000000p-7, -0x1.d1158e0000000p-6, -0x1.fd53bc0000000p-6, 0x1.d2bbc60000000p-4, 0x1.d1e32c0000000p-5, -0x1.26ad5e0000000p-6, -0x1.563ec60000000p-8, -0x1.c8c2fe0000000p-6, -0x1.38423e0000000p-6, 0x1.c4b33e0000000p-6, -0x1.8dea7c0000000p-8, 0x1.93629c0000000p-5, -0x1.7c89b20000000p-7, -0x1.8992f60000000p-6, 0x1.47ad420000000p-5, 0x1.731eb60000000p-7, 0x1.fcc6360000000p-13, -0x1.31e3a80000000p-5, -0x1.2690280000000p-4, -0x1.e6a8620000000p-5, 0x1.a8b6e80000000p-6, -0x1.a5b48c0000000p-6, -0x1.7a4ba40000000p-8, -0x1.00032c0000000p-6, 0x1.e30e7c0000000p-7, 0x1.7c43d60000000p-8, -0x1.b718740000000p-6, -0x1.7c77a40000000p-4, -0x1.9da92c0000000p-7, -0x1.53db1e0000000p-5, -0x1.9da52a0000000p-11, 0x1.64f21a0000000p-6, -0x1.144aa20000000p-6, 0x1.ece10c0000000p-6, -0x1.60065a0000000p-6, 0x1.4aed9a0000000p-4, -0x1.ac92220000000p-7, -0x1.279e1a0000000p-4, -0x1.01ec8e0000000p-5, -0x1.f4af560000000p-7, -0x1.37af340000000p-6, 0x1.a1bc740000000p-6, -0x1.f474540000000p-7, 0x1.bec83c0000000p-9, 0x1.ef78fc0000000p-6, 0x1.3d61640000000p-5, -0x1.25ded00000000p-5, -0x1.3dc3400000000p-5, -0x1.6b27320000000p-5, 0x1.70d50c0000000p-7, -0x1.3bb5940000000p-5, -0x1.e381a00000000p-5, -0x1.deca360000000p-5, -0x1.85d6560000000p-10, 0x1.92286e0000000p-6, 0x1.2ceac20000000p-6, -0x1.5e5b620000000p-5, -0x1.5cc0ec0000000p-6, -0x1.64f1560000000p-6, -0x1.ed1a000000000p-5, 0x1.075dac0000000p-5, -0x1.c55ffc0000000p-9, 0x1.b5e01a0000000p-5, 0x1.6267240000000p-7, 0x1.7d0ba60000000p-4, 0x1.fba7f60000000p-5, -0x1.b5d06e0000000p-6, 0x1.38971c0000000p-4, -0x1.cd417c0000000p-5, -0x1.0615100000000p-7, -0x1.26c58a0000000p-8, -0x1.c1a1c20000000p-8, -0x1.51d7be0000000p-9, 0x1.e73fd00000000p-6, 0x1.ac1e7e0000000p-6, -0x1.b032180000000p-5, 0x1.a3424e0000000p-6, 0x1.15be440000000p-5, 0x1.8c4e4c0000000p-7, 0x1.596c660000000p-6, -0x1.aa9bda0000000p-10, 0x1.bd08080000000p-6, -0x1.df94e40000000p-7, -0x1.5e6e4c0000000p-6, -0x1.82218a0000000p-5, -0x1.03ec640000000p-11, -0x1.91f7680000000p-6, -0x1.322d240000000p-5, 0x1.eed7220000000p-7, -0x1.3bec380000000p-8, -0x1.71a7c40000000p-7, -0x1.433ba40000000p-4, 0x1.9935d00000000p-6, 0x1.79276c0000000p-6, 0x1.6a59100000000p-8, 0x1.1345700000000p-5, -0x1.41a7fa0000000p-6, 0x1.a3e3660000000p-4, -0x1.c100b40000000p-11, -0x1.8656e00000000p-8, -0x1.fd410a0000000p-6, -0x1.687f260000000p-6, 0x1.f85c8e0000000p-7, 0x1.712d0a0000000p-7, 0x1.9d18500000000p-10, 0x1.f7e88e0000000p-4, 0x1.b6971c0000000p-7, -0x1.daede80000000p-5, 0x1.57a2200000000p-8, 0x1.3412cc0000000p-5, -0x1.e0e82e0000000p-6, 0x1.f90a300000000p-6, -0x1.e6a7e40000000p-8, 0x1.5710420000000p-7, 0x1.187bbc0000000p-5, 0x1.69a7340000000p-7, -0x1.b0e8560000000p-6, -0x1.c773920000000p-6, 0x1.d913200000000p-6, -0x1.8d5e800000000p-6, -0x1.6e74060000000p-5, 0x1.db88a40000000p-6, -0x1.736d120000000p-6, 0x1.859d0a0000000p-6, 0x1.558d6a0000000p-7, -0x1.cd66c60000000p-8, 0x1.8516e20000000p-5, -0x1.f1a2ba0000000p-8, -0x1.27a0ec0000000p-5, 0x1.7762700000000p-4, -0x1.096d3c0000000p-10, 0x1.f950940000000p-5, 0x1.663c440000000p-8, 0x1.5bcede0000000p-8, 0x1.34b3900000000p-5, -0x1.241c760000000p-6, 0x1.db69b00000000p-6, 0x1.7e3be80000000p-7, 0x1.eb35e80000000p-7, 0x1.a16dfa0000000p-7, -0x1.7306220000000p-7, -0x1.d52e900000000p-6, 0x1.9f58840000000p-5, 0x1.b359c20000000p-5, 0x1.13f25e0000000p-5, 0x1.94d6ea0000000p-6, 0x1.c73b580000000p-5, -0x1.9de0820000000p-7, -0x1.d31e620000000p-6, -0x1.73be640000000p-6, 0x1.8c443a0000000p-6, 0x1.7815d80000000p-6, 0x1.2c646a0000000p-5, 0x1.2ae12e0000000p-5, -0x1.8504740000000p-10, 0x1.b796160000000p-5, 0x1.391b180000000p-5, 0x1.0b6ad00000000p-4, 0x1.0b7d500000000p-4, 0x1.b9ab160000000p-6, 0x1.f52ad40000000p-8, 0x1.b10b960000000p-5, 0x1.5965b40000000p-5, 0x1.553c0a0000000p-4, -0x1.3ffe620000000p-5, 0x1.3a4a380000000p-6, 0x1.032c980000000p-4, 0x1.39bbb00000000p-8, 0x1.3ff2760000000p-5, -0x1.aed0ac0000000p-6, 0x1.b756680000000p-6, 0x1.d37ec40000000p-5, 0x1.73dc380000000p-5, -0x1.4d42fa0000000p-6, 0x1.9632860000000p-6, 0x1.68c76e0000000p-5, 0x1.5fdf5e0000000p-4, 0x1.0ad67e0000000p-4, -0x1.cd07ce0000000p-8, 0x1.a9d70e0000000p-9, 0x1.0dcda40000000p-4, 0x1.eed2780000000p-6, 0x1.9c42a80000000p-8, 0x1.483da00000000p-4, 0x1.b465ba0000000p-5, 0x1.f7ed2a0000000p-5, 0x1.5e0c3e0000000p-5, 0x1.48a62e0000000p-6, 0x1.8c7a5e0000000p-4, 0x1.6683700000000p-4, 0x1.0094140000000p-4, 0x1.42fabe0000000p-5, 0x1.49c86a0000000p-5, 0x1.87c6e00000000p-7, 0x1.db555a0000000p-5, 0x1.f43bd40000000p-9, -0x1.5650fa0000000p-6, -0x1.8a31da0000000p-7, -0x1.e8e8d20000000p-7, -0x1.1f205c0000000p-5, 0x1.54145c0000000p-5, 0x1.0a33940000000p-8, 0x1.b25d8a0000000p-6, 0x1.c9b2e60000000p-5, 0x1.89718e0000000p-5, 0x1.6e2d1a0000000p-5, 0x1.2ef8240000000p-4, 0x1.d969420000000p-6, 0x1.95b8b20000000p-4, -0x1.a079d60000000p-9, 0x1.a72d760000000p-5, 0x1.2565040000000p-5, 0x1.8008dc0000000p-4, 0x1.0e84560000000p-5, 0x1.5ca0800000000p-6, 0x1.6c37440000000p-5, 0x1.eb1db20000000p-6, 0x1.5b44540000000p-5, 0x1.5ec8e00000000p-5, 0x1.7e02c40000000p-5, -0x1.841ec80000000p-7, -0x1.3d40500000000p-9, -0x1.07cc760000000p-5, 0x1.2174960000000p-6, 0x1.a765bc0000000p-7, 0x1.105cec0000000p-6, 0x1.5483ea0000000p-5, 0x1.c397340000000p-6, 0x1.2357cc0000000p-8, -0x1.6cf2ba0000000p-8, 0x1.0ab8aa0000000p-6, 0x1.a310660000000p-5, -0x1.12f0000000000p-8, 0x1.f6272e0000000p-7, 0x1.4f12c40000000p-7, 0x1.6121f20000000p-9, -0x1.70846a0000000p-7, 0x1.eb9bac0000000p-6, -0x1.3b0e560000000p-5, -0x1.544f160000000p-7, -0x1.00e2d20000000p-9, -0x1.9210a80000000p-7, -0x1.9cb3b00000000p-6, 0x1.fc518c0000000p-6, 0x1.2040f00000000p-7, 0x1.8664580000000p-6, -0x1.a41d6e0000000p-6, 0x1.634ee00000000p-5, -0x1.d5b9560000000p-6, -0x1.25e84c0000000p-5, 0x1.cd8ee60000000p-6, 0x1.30e44c0000000p-6, -0x1.3d6e420000000p-7, 0x1.9e16ee0000000p-6, -0x1.9f50fc0000000p-6, 0x1.3a10340000000p-6, 0x1.195ac40000000p-4, -0x1.0532020000000p-6, 0x1.0554cc0000000p-5, 0x1.a64f0a0000000p-6, 0x1.bb467a0000000p-5, 0x1.c5cc2a0000000p-9, 0x1.0927c60000000p-7, 0x1.9eae840000000p-6, 0x1.b8c9560000000p-7, 0x1.1661620000000p-11, 0x1.0038a20000000p-5, 0x1.be9bc80000000p-8, 0x1.83a37e0000000p-6, -0x1.5c50a20000000p-7, 0x1.973f8e0000000p-7, 0x1.e18bf60000000p-6, 0x1.29219e0000000p-6, -0x1.80c5ac0000000p-8, 0x1.efa8de0000000p-5, 0x1.5f03620000000p-5, -0x1.045b420000000p-5, 0x1.553a380000000p-5, 0x1.2f8e720000000p-5, 0x1.53fe0c0000000p-7, 0x1.3e03e00000000p-5, 0x1.bc6d420000000p-9, 0x1.ecbe6e0000000p-7, -0x1.4d95dc0000000p-8, 0x1.fbb9660000000p-7, 0x1.b074540000000p-7, 0x1.759a120000000p-3, -0x1.034f7c0000000p-7, -0x1.4d21840000000p-5, -0x1.26bdaa0000000p-4, -0x1.7156a80000000p-6, -0x1.0384f00000000p-4, 0x1.6796680000000p-5, 0x1.4617d60000000p-7, -0x1.4639700000000p-6, 0x1.9748ea0000000p-6, -0x1.eb984c0000000p-10, 0x1.1bde160000000p-8, 0x1.e27c9e0000000p-5, -0x1.670ab80000000p-6, -0x1.30404c0000000p-8, -0x1.6f4edc0000000p-5, -0x1.65772a0000000p-7, 0x1.4c7ae40000000p-5, -0x1.02987c0000000p-4, 0x1.2a9e840000000p-4, 0x1.cd79360000000p-6, 0x1.56a1ee0000000p-5, -0x1.f3ff760000000p-5, -0x1.85e8640000000p-11, 0x1.9c1ca00000000p-7, 0x1.e8f7a40000000p-7, -0x1.e28f3c0000000p-7, -0x1.3dd7580000000p-6, 0x1.65dcac0000000p-8, -0x1.23fad60000000p-10, -0x1.76a8d80000000p-5, 0x1.cdafae0000000p-4, 0x1.daa1120000000p-6, 0x1.4361740000000p-7, -0x1.6f49460000000p-4, -0x1.647c320000000p-6, 0x1.f54b320000000p-8, -0x1.f31dea0000000p-7, -0x1.567aee0000000p-11, 0x1.2b6d1c0000000p-5, 0x1.ec9e6e0000000p-6, 0x1.95c9c20000000p-5, 0x1.104f300000000p-6, -0x1.7e40580000000p-5, 0x1.48d53a0000000p-4, -0x1.2c86240000000p-4, 0x1.59cdd20000000p-5, -0x1.2fe3aa0000000p-5, 0x1.57286c0000000p-4, -0x1.732f200000000p-5, -0x1.36010a0000000p-5, 0x1.33a1a20000000p-4, 0x1.37cbb20000000p-9, 0x1.bb2dd60000000p-8, -0x1.db0a480000000p-6, 0x1.f630d40000000p-5, -0x1.08e7b20000000p-8, -0x1.a799f00000000p-5, 0x1.13c00c0000000p-4, 0x1.71b7a40000000p-6, -0x1.41e8000000000p-5, 0x1.d0c3ec0000000p-9, -0x1.a268ee0000000p-5, 0x1.abe0660000000p-5, 0x1.e198a20000000p-4, -0x1.29e7ca0000000p-5, -0x1.cc030c0000000p-4, -0x1.8215f60000000p-7, 0x1.09945c0000000p-7, 0x1.08b26e0000000p-3, -0x1.53f9a80000000p-5, -0x1.b13c660000000p-5, 0x1.4c6c140000000p-6, 0x1.ff5f5a0000000p-7, 0x1.381fca0000000p-10, 0x1.8abf1a0000000p-5, 0x1.0f6c980000000p-6, 0x1.9355a00000000p-6, 0x1.a0fa240000000p-4, -0x1.8649d00000000p-8, 0x1.748d1e0000000p-5, -0x1.f81fb20000000p-9, -0x1.a1f28c0000000p-6, -0x1.eac7200000000p-7, -0x1.5a19480000000p-6, -0x1.df89fe0000000p-5, -0x1.44a83c0000000p-5, 0x1.0159ca0000000p-7, -0x1.b1fe8a0000000p-7, 0x1.e621f20000000p-6, 0x1.6e7e800000000p-6, 0x1.d6a8ea0000000p-10, -0x1.48a8a60000000p-7, -0x1.96358c0000000p-8, 0x1.ef07080000000p-6, -0x1.a196aa0000000p-6, 0x1.60da5e0000000p-3, -0x1.d67b380000000p-6, 0x1.56ced00000000p-5, 0x1.6cab300000000p-5, -0x1.60b1c00000000p-5, 0x1.64925e0000000p-5, -0x1.586daa0000000p-4, -0x1.daa84a0000000p-5, -0x1.03fc300000000p-5, -0x1.d274380000000p-9, 0x1.9f6b000000000p-5, 0x1.c5bc380000000p-4, -0x1.5497960000000p-7, 0x1.8b73f80000000p-6, -0x1.59b9140000000p-5, 0x1.1a618a0000000p-6, -0x1.2adaba0000000p-7, -0x1.e8f4dc0000000p-8, -0x1.c424000000000p-6, -0x1.b9510a0000000p-12, -0x1.a057fc0000000p-6, -0x1.036c140000000p-4, -0x1.28f7480000000p-6, -0x1.9471f80000000p-5, 0x1.8befb40000000p-6, 0x1.fac72a0000000p-6, -0x1.71a9f40000000p-5, 0x1.575cdc0000000p-5, 0x1.d984800000000p-6, 0x1.5147240000000p-5, 0x1.3dcea20000000p-7, -0x1.fb14480000000p-9, 0x1.1b614c0000000p-5, 0x1.8423340000000p-7, 0x1.6ba8da0000000p-6, 0x1.34be060000000p-3, 0x1.e21f640000000p-7, 0x1.154af20000000p-4, -0x1.6851140000000p-7, -0x1.1f01dc0000000p-5, -0x1.34baf60000000p-5, -0x1.05b7260000000p-5, 0x1.3fab0c0000000p-5, 0x1.44fbec0000000p-3, -0x1.0728800000000p-5, 0x1.80a26c0000000p-6, -0x1.f8f14c0000000p-7, -0x1.64a8f80000000p-7, 0x1.dde3000000000p-9, 0x1.7621ae0000000p-17, -0x1.5903760000000p-5, -0x1.b699fc0000000p-6, 0x1.0c1ee80000000p-7, -0x1.39d2ae0000000p-6, -0x1.c97cf20000000p-6, 0x1.81af4a0000000p-7, 0x1.6519400000000p-7, 0x1.a304780000000p-8, -0x1.7b3b940000000p-5, 0x1.e017a40000000p-10, -0x1.1bcf820000000p-9, -0x1.3774880000000p-6, 0x1.f070a20000000p-7, -0x1.e7ad2a0000000p-8, 0x1.1ab2920000000p-6, 0x1.6d9b420000000p-5, 0x1.0aec240000000p-7, 0x1.c672660000000p-4, 0x1.32b77e0000000p-5, 0x1.a2190e0000000p-6, -0x1.9026100000000p-7, 0x1.f689a80000000p-7, 0x1.69f9000000000p-6, -0x1.258c3e0000000p-6, 0x1.ab4ede0000000p-6, 0x1.d5f8c40000000p-4, 0x1.206d080000000p-7, 0x1.0fd3c40000000p-4, 0x1.7ce3380000000p-13, 0x1.9e8d140000000p-5, 0x1.7f8dac0000000p-8, 0x1.2071ae0000000p-5, -0x1.623d0c0000000p-7, -0x1.2e549e0000000p-5, -0x1.c972c20000000p-8, 0x1.03f6840000000p-6, 0x1.9af9ea0000000p-6, 0x1.3541a40000000p-5, 0x1.0295660000000p-7, 0x1.a4753e0000000p-4, -0x1.61b1f20000000p-5, -0x1.e056cc0000000p-7, 0x1.f612540000000p-6, 0x1.7e34740000000p-4, 0x1.69b38a0000000p-8, 0x1.66ceb20000000p-8, -0x1.b21a8c0000000p-7, 0x1.39c4940000000p-6, 0x1.027e820000000p-5, 0x1.3f147a0000000p-4, 0x1.6a4ce00000000p-8, -0x1.152db20000000p-7, -0x1.2c63c40000000p-6, 0x1.27ede40000000p-6, 0x1.5aa69a0000000p-7, 0x1.03ecba0000000p-6, 0x1.4f20260000000p-5, 0x1.63b9de0000000p-9, -0x1.78ba180000000p-6, 0x1.654c580000000p-5, -0x1.acc88a0000000p-8, 0x1.fa45ee0000000p-6, -0x1.b8b4420000000p-7, 0x1.e6bd280000000p-5, 0x1.382f980000000p-5, 0x1.556d940000000p-7, 0x1.284e5e0000000p-6, 0x1.f253840000000p-8, 0x1.a57d9e0000000p-8, 0x1.cef6400000000p-10, 0x1.8dc86e0000000p-5, 0x1.7d82a20000000p-4, 0x1.56f6c40000000p-5, 0x1.b2dc200000000p-5, 0x1.4e4af20000000p-5, 0x1.0cf2380000000p-4, 0x1.a792a40000000p-5, 0x1.b7dd720000000p-5, 0x1.4951080000000p-8, -0x1.28c4760000000p-11, 0x1.a8ea280000000p-6, 0x1.2598a60000000p-4, 0x1.4e7a500000000p-8, -0x1.09c2f20000000p-8, 0x1.4934dc0000000p-5, 0x1.5199ee0000000p-4, 0x1.285cd80000000p-5, -0x1.07b6360000000p-6, -0x1.12cdc00000000p-7, 0x1.f6d3ba0000000p-8, -0x1.aab8720000000p-13, 0x1.85fb620000000p-6, 0x1.0fb4960000000p-4, 0x1.1224360000000p-4, 0x1.28c2be0000000p-5, 0x1.1817840000000p-5, 0x1.ead9140000000p-5, 0x1.105fee0000000p-4, 0x1.c7a9100000000p-8, 0x1.072e740000000p-6, 0x1.5576b20000000p-6, 0x1.3b9d1a0000000p-4, -0x1.08ed440000000p-7, 0x1.0abd4e0000000p-5, 0x1.30731a0000000p-6, -0x1.2554de0000000p-7, 0x1.356dd00000000p-7, -0x1.f99c680000000p-9, 0x1.4ca4200000000p-6, 0x1.509d220000000p-6, 0x1.a50bb20000000p-5, 0x1.0558cc0000000p-5, 0x1.fa3cda0000000p-8, 0x1.414be00000000p-6, -0x1.8ceafa0000000p-12, -0x1.3373d60000000p-8, 0x1.6e3bb80000000p-5, 0x1.5b5b6e0000000p-5, 0x1.745e8e0000000p-6, 0x1.751ad60000000p-7, 0x1.b672680000000p-7, -0x1.85b2ee0000000p-8, 0x1.18ac9a0000000p-7, 0x1.7951c20000000p-4, 0x1.a777ea0000000p-5, 0x1.c686900000000p-5, 0x1.52c4e00000000p-5, 0x1.5cea620000000p-4, 0x1.8ec0cc0000000p-6, 0x1.35c2ac0000000p-10, 0x1.4d7a280000000p-5, 0x1.3c5fc40000000p-5, 0x1.8e56f00000000p-7, 0x1.9dbda80000000p-5, 0x1.90423e0000000p-6, 0x1.d833300000000p-6, -0x1.6be0f00000000p-10, 0x1.d20ffe0000000p-5, 0x1.9f647e0000000p-6, 0x1.d0ec000000000p-6}
