/**
  ******************************************************************************
  * @file    weights/fc.cc
  * @author  Pierre-Emmanuel Novac <penovac@unice.fr>, LEAT, CNRS, Université Côte d'Azur, France
  * @version 1.0.0
  * @date    24 march 2020
  * @brief   Template generating plain C code for the implementation of Convolutional Neural Networks on MCU
  */

#include <stdint.h>

#define INPUT_SAMPLES 576
#define FC_UNITS 100


const float dense_8_bias[FC_UNITS] = {0x0.0p+0, 0x0.0p+0, 0x0.0p+0, 0x0.0p+0, 0x0.0p+0, 0x0.0p+0, 0x0.0p+0, 0x0.0p+0, 0x0.0p+0, 0x0.0p+0, 0x0.0p+0, 0x0.0p+0, 0x0.0p+0, 0x0.0p+0, 0x0.0p+0, 0x0.0p+0, 0x0.0p+0, 0x0.0p+0, 0x0.0p+0, 0x0.0p+0, 0x0.0p+0, 0x0.0p+0, 0x0.0p+0, 0x0.0p+0, 0x0.0p+0, 0x0.0p+0, 0x0.0p+0, 0x0.0p+0, 0x0.0p+0, 0x0.0p+0, 0x0.0p+0, 0x0.0p+0, 0x0.0p+0, 0x0.0p+0, 0x0.0p+0, 0x0.0p+0, 0x0.0p+0, 0x0.0p+0, 0x0.0p+0, 0x0.0p+0, 0x0.0p+0, 0x0.0p+0, 0x0.0p+0, 0x0.0p+0, 0x0.0p+0, 0x0.0p+0, 0x0.0p+0, 0x0.0p+0, 0x0.0p+0, 0x0.0p+0, 0x0.0p+0, 0x0.0p+0, 0x0.0p+0, 0x0.0p+0, 0x0.0p+0, 0x0.0p+0, 0x0.0p+0, 0x0.0p+0, 0x0.0p+0, 0x0.0p+0, 0x0.0p+0, 0x0.0p+0, 0x0.0p+0, 0x0.0p+0, 0x0.0p+0, 0x0.0p+0, 0x0.0p+0, 0x0.0p+0, 0x0.0p+0, 0x0.0p+0, 0x0.0p+0, 0x0.0p+0, 0x0.0p+0, 0x0.0p+0, 0x0.0p+0, 0x0.0p+0, 0x0.0p+0, 0x0.0p+0, 0x0.0p+0, 0x0.0p+0, 0x0.0p+0, 0x0.0p+0, 0x0.0p+0, 0x0.0p+0, 0x0.0p+0, 0x0.0p+0, 0x0.0p+0, 0x0.0p+0, 0x0.0p+0, 0x0.0p+0, 0x0.0p+0, 0x0.0p+0, 0x0.0p+0, 0x0.0p+0, 0x0.0p+0, 0x0.0p+0, 0x0.0p+0, 0x0.0p+0, 0x0.0p+0, 0x0.0p+0}
;

const float dense_8_kernel[FC_UNITS][INPUT_SAMPLES] = {{-0x1.4b5b6e0000000p-5, -0x1.1676220000000p-4, 0x1.21c8e00000000p-6, 0x1.4e84980000000p-4, -0x1.2d9a5e0000000p-5, -0x1.4965f20000000p-4, -0x1.5dafc00000000p-8, -0x1.5d4a400000000p-5, 0x1.071f200000000p-5, 0x1.50bbe80000000p-5, -0x1.b7dff00000000p-6, -0x1.ae63780000000p-6, -0x1.eb5a400000000p-8, -0x1.81079c0000000p-4, -0x1.e64e180000000p-5, 0x1.8d52200000000p-8, 0x1.81bb800000000p-6, -0x1.c880f80000000p-5, 0x1.3465380000000p-4, 0x1.a58bb80000000p-5, -0x1.a4fd600000000p-7, 0x1.ae91400000000p-5, 0x1.76277c0000000p-4, 0x1.b5c2000000000p-10, -0x1.4f53e00000000p-5, 0x1.c4e8d00000000p-6, -0x1.88648a0000000p-5, 0x1.de8de00000000p-5, -0x1.0fd36a0000000p-5, 0x1.5b33380000000p-4, 0x1.aa5e080000000p-6, 0x1.d91a780000000p-5, 0x1.7610900000000p-7, 0x1.7432a00000000p-5, -0x1.1627d00000000p-7, -0x1.12458a0000000p-5, 0x1.10f9140000000p-4, -0x1.075aa60000000p-4, 0x1.750ad00000000p-6, 0x1.74bbd80000000p-5, 0x1.0e56100000000p-5, 0x1.694d500000000p-7, 0x1.bff8900000000p-7, 0x1.518a600000000p-5, 0x1.1a85800000000p-4, -0x1.76230e0000000p-4, -0x1.2ecae20000000p-4, -0x1.32a4800000000p-7, 0x1.1b47f80000000p-6, -0x1.2b06720000000p-4, -0x1.acdf800000000p-5, -0x1.be5b000000000p-6, 0x1.a02fd80000000p-6, -0x1.2d7ce00000000p-6, 0x1.fac7f00000000p-6, 0x1.0707e80000000p-6, -0x1.c12c0c0000000p-5, -0x1.e14ac00000000p-9, -0x1.97c2000000000p-8, 0x1.e9a4800000000p-7, 0x1.215e100000000p-7, -0x1.5d55220000000p-4, -0x1.33051c0000000p-4, -0x1.49f5c20000000p-4, 0x1.cbfe080000000p-5, 0x1.7f35bc0000000p-4, -0x1.4e99280000000p-6, 0x1.cf25d80000000p-5, 0x1.6ef4a00000000p-5, -0x1.01cfe00000000p-4, -0x1.a3ae800000000p-10, 0x1.e808300000000p-5, 0x1.3930b40000000p-4, 0x1.0449e40000000p-4, -0x1.db657c0000000p-5, -0x1.036b160000000p-4, 0x1.73fbf80000000p-5, -0x1.89337a0000000p-5, 0x1.aa9b800000000p-5, 0x1.2617d00000000p-5, 0x1.3d5c100000000p-5, 0x1.d67f580000000p-5, 0x1.df21680000000p-5, 0x1.c496000000000p-5, -0x1.1e6e800000000p-6, 0x1.b585600000000p-8, -0x1.1b6e5c0000000p-4, 0x1.2056080000000p-4, -0x1.83b1c00000000p-7, -0x1.80b9580000000p-4, 0x1.0bce540000000p-4, -0x1.ef71380000000p-5, 0x1.806f200000000p-4, 0x1.0bb6cc0000000p-4, -0x1.29ed000000000p-7, -0x1.5126400000000p-7, 0x1.ebc7100000000p-5, 0x1.57c4880000000p-5, -0x1.2293b60000000p-5, -0x1.70d1000000000p-6, 0x1.1bb8b00000000p-5, 0x1.90b5700000000p-5, -0x1.3a9c700000000p-6, -0x1.988d420000000p-5, 0x1.3519d00000000p-6, 0x1.41afa40000000p-4, 0x1.0cc3c00000000p-7, -0x1.5547160000000p-4, 0x1.72ab0c0000000p-4, 0x1.e4c1600000000p-7, -0x1.aaea900000000p-7, 0x1.3c43e80000000p-4, -0x1.f9f3820000000p-5, -0x1.197a200000000p-7, -0x1.24a09a0000000p-5, -0x1.65e51e0000000p-4, 0x1.ce65a80000000p-6, 0x1.39f49c0000000p-4, -0x1.756a900000000p-4, -0x1.f7b26c0000000p-5, -0x1.224eac0000000p-4, 0x1.4b581c0000000p-4, 0x1.6836580000000p-5, -0x1.588ae00000000p-4, 0x1.cd46800000000p-5, -0x1.ccb5f20000000p-5, -0x1.86c3000000000p-6, 0x1.2a6fd80000000p-4, -0x1.7bbb7e0000000p-5, -0x1.7714840000000p-5, 0x1.072b100000000p-5, -0x1.4095000000000p-10, -0x1.adc8200000000p-6, 0x1.4a5dfc0000000p-4, 0x1.6427300000000p-6, -0x1.38d52c0000000p-4, -0x1.a8a7c00000000p-7, -0x1.00e3ac0000000p-5, 0x1.278d7c0000000p-4, 0x1.4575500000000p-5, 0x1.821b780000000p-5, 0x1.1e01200000000p-7, -0x1.c90d280000000p-5, 0x1.0626800000000p-5, -0x1.81365c0000000p-4, -0x1.5295a80000000p-6, 0x1.9aac780000000p-6, 0x1.d893000000000p-11, 0x1.f75e100000000p-5, 0x1.26e22c0000000p-4, -0x1.2e3e1c0000000p-4, -0x1.aaa7820000000p-5, 0x1.54457c0000000p-4, 0x1.16d24c0000000p-4, 0x1.4251700000000p-4, 0x1.589e000000000p-5, -0x1.562eea0000000p-4, -0x1.c14ec40000000p-5, 0x1.6502e40000000p-4, 0x1.8bc8000000000p-9, 0x1.76c8c00000000p-4, 0x1.ed22780000000p-6, -0x1.bd2b800000000p-8, 0x1.5541d00000000p-4, 0x1.fdf8900000000p-5, 0x1.9f43000000000p-9, 0x1.4723000000000p-11, 0x1.f922200000000p-5, -0x1.a142400000000p-5, -0x1.5a1d500000000p-6, 0x1.b0e5c00000000p-9, 0x1.0d38700000000p-5, 0x1.58e8b80000000p-4, -0x1.e063160000000p-5, 0x1.4e3c840000000p-4, -0x1.7d35f00000000p-4, 0x1.52436c0000000p-4, 0x1.682ac00000000p-7, 0x1.9453480000000p-5, -0x1.66e8500000000p-5, 0x1.b497f80000000p-5, 0x1.49b3700000000p-5, -0x1.4773200000000p-4, -0x1.6b8aca0000000p-4, -0x1.2ecbcc0000000p-5, 0x1.b817700000000p-5, 0x1.4fed580000000p-6, 0x1.37b7e00000000p-8, 0x1.db89000000000p-6, 0x1.1190b80000000p-5, -0x1.9755cc0000000p-5, 0x1.39aa680000000p-5, -0x1.85b4c00000000p-8, 0x1.d9ac880000000p-5, 0x1.6d75700000000p-4, 0x1.6ceda80000000p-4, -0x1.14e6960000000p-4, -0x1.2d65100000000p-7, -0x1.ffc2660000000p-5, 0x1.4dc7100000000p-4, 0x1.0caf040000000p-4, -0x1.6202be0000000p-5, 0x1.43e2d00000000p-5, 0x1.a8db300000000p-5, -0x1.e931460000000p-5, 0x1.c5d6200000000p-7, -0x1.3664040000000p-4, -0x1.da2b000000000p-6, 0x1.bd44a00000000p-6, -0x1.3dd9160000000p-4, 0x1.2ff6500000000p-5, 0x1.aa2ac00000000p-9, 0x1.5bba500000000p-5, -0x1.381fe00000000p-6, 0x1.969de80000000p-6, -0x1.3650900000000p-4, 0x1.6b7de80000000p-5, -0x1.1be3b40000000p-4, -0x1.668c9a0000000p-4, 0x1.76db880000000p-5, 0x1.e7a0800000000p-6, -0x1.2066e80000000p-6, -0x1.1f870c0000000p-4, -0x1.a637200000000p-7, -0x1.3666760000000p-4, 0x1.5165880000000p-4, -0x1.e7e3e00000000p-7, -0x1.761eca0000000p-4, 0x1.29cb000000000p-4, -0x1.2191d80000000p-6, -0x1.dfe1a40000000p-5, 0x1.ba47880000000p-6, 0x1.9855000000000p-5, 0x1.036c880000000p-5, 0x1.0948880000000p-5, -0x1.4e55000000000p-9, -0x1.32f47c0000000p-4, -0x1.3b18d00000000p-6, 0x1.d5ddf00000000p-7, 0x1.80fe500000000p-4, 0x1.1fc3300000000p-6, -0x1.82d44e0000000p-5, -0x1.ee5b700000000p-6, -0x1.3b7b900000000p-4, 0x1.2580240000000p-4, -0x1.1986de0000000p-4, 0x1.38c7c40000000p-4, 0x1.1d50980000000p-6, -0x1.4d89060000000p-4, -0x1.11d5aa0000000p-4, -0x1.25f7640000000p-5, 0x1.4b27000000000p-11, 0x1.1209a00000000p-4, 0x1.fb48a00000000p-7, -0x1.18de480000000p-4, -0x1.f704680000000p-6, -0x1.42ed080000000p-4, -0x1.d8bc880000000p-5, -0x1.00e66c0000000p-4, -0x1.02e4fa0000000p-4, 0x1.1a85200000000p-4, -0x1.db2d100000000p-7, 0x1.4463680000000p-4, -0x1.7f39d00000000p-4, -0x1.35dee00000000p-8, -0x1.912d200000000p-8, 0x1.82e7780000000p-5, -0x1.114e440000000p-4, -0x1.3896920000000p-5, -0x1.12c9d00000000p-5, -0x1.2b38420000000p-5, 0x1.0030280000000p-6, -0x1.336e800000000p-8, 0x1.dac6f80000000p-5, 0x1.d076780000000p-6, -0x1.14865a0000000p-4, -0x1.26aae00000000p-8, 0x1.107b7c0000000p-4, 0x1.5b2bd80000000p-4, -0x1.ff62420000000p-5, 0x1.9d04f80000000p-5, 0x1.580a200000000p-5, 0x1.6dcf200000000p-4, 0x1.ad59080000000p-6, 0x1.67cfb40000000p-4, 0x1.e019980000000p-6, -0x1.002ad40000000p-5, -0x1.06efd60000000p-4, -0x1.33fce00000000p-8, -0x1.7a17960000000p-4, 0x1.394ad80000000p-5, 0x1.0eb7000000000p-10, 0x1.ccd7b80000000p-5, 0x1.13c4d80000000p-4, -0x1.26b2680000000p-6, 0x1.5341f80000000p-6, 0x1.6824a00000000p-6, -0x1.4190200000000p-4, 0x1.3c85dc0000000p-4, -0x1.6f0b3a0000000p-4, 0x1.335ed00000000p-5, -0x1.7b7c3a0000000p-4, 0x1.c077500000000p-6, 0x1.ae6b480000000p-5, -0x1.b059380000000p-6, 0x1.5c73e80000000p-5, 0x1.aabfa00000000p-8, -0x1.ff81dc0000000p-5, 0x1.8088bc0000000p-4, -0x1.c3ae880000000p-6, -0x1.15632e0000000p-4, 0x1.9d4c800000000p-6, 0x1.1231e80000000p-6, -0x1.bc84680000000p-6, -0x1.cae4120000000p-5, -0x1.4d78f60000000p-4, 0x1.298b0c0000000p-4, -0x1.3e770e0000000p-4, -0x1.7cda5c0000000p-4, 0x1.0a27700000000p-4, -0x1.940f380000000p-5, -0x1.2b76400000000p-8, 0x1.7d4c240000000p-4, 0x1.80c7980000000p-5, -0x1.6052000000000p-8, -0x1.51f0c80000000p-6, 0x1.11c3580000000p-4, 0x1.c437a80000000p-5, 0x1.4f37a40000000p-4, 0x1.04f1400000000p-5, -0x1.38e7740000000p-5, -0x1.54fe960000000p-5, 0x1.557c8c0000000p-4, 0x1.5399400000000p-8, -0x1.95cea00000000p-6, -0x1.56a39e0000000p-5, -0x1.2521580000000p-6, -0x1.3f58a00000000p-8, -0x1.baa1a20000000p-5, -0x1.1c5bd20000000p-5, -0x1.65fee20000000p-4, 0x1.e776e80000000p-5, 0x1.3a1d240000000p-4, -0x1.69d5760000000p-4, 0x1.7ff2500000000p-7, 0x1.88a4480000000p-5, -0x1.b44e9e0000000p-5, -0x1.df9db80000000p-6, 0x1.fd1b400000000p-6, 0x1.070abc0000000p-4, 0x1.15b5280000000p-5, 0x1.6ecabc0000000p-4, -0x1.34fce80000000p-5, -0x1.2015180000000p-5, 0x1.d923780000000p-5, -0x1.44d11c0000000p-4, -0x1.b690300000000p-6, 0x1.05bef00000000p-6, -0x1.1189420000000p-5, 0x1.5b59a80000000p-5, 0x1.557f700000000p-7, 0x1.66e4500000000p-6, -0x1.04efce0000000p-5, -0x1.efd4b40000000p-5, 0x1.3b17b00000000p-5, 0x1.309cb00000000p-5, 0x1.3f12c80000000p-4, -0x1.dce7f20000000p-5, -0x1.3ec0980000000p-6, -0x1.46f49e0000000p-5, -0x1.31c6800000000p-8, 0x1.2123900000000p-5, -0x1.4d021c0000000p-5, 0x1.27fda80000000p-5, 0x1.ad29300000000p-6, -0x1.5671d40000000p-5, -0x1.5622740000000p-5, -0x1.2972c60000000p-4, -0x1.1c9e080000000p-4, -0x1.4ac7d40000000p-4, 0x1.2f19f00000000p-5, -0x1.374bc00000000p-5, 0x1.8140d80000000p-6, 0x1.5fb9700000000p-4, 0x1.c5fc000000000p-6, 0x1.34e8e00000000p-5, -0x1.6a2a160000000p-4, -0x1.0ec1f80000000p-5, -0x1.7279100000000p-4, 0x1.6760b80000000p-5, -0x1.80164a0000000p-4, -0x1.2534e00000000p-7, -0x1.9707460000000p-5, 0x1.7433680000000p-4, -0x1.fc18100000000p-6, -0x1.46ef500000000p-7, 0x1.f013680000000p-5, 0x1.9520700000000p-5, 0x1.407f480000000p-4, -0x1.8870000000000p-11, -0x1.f032f60000000p-5, -0x1.740a900000000p-6, 0x1.5a973c0000000p-4, -0x1.1013b80000000p-6, 0x1.338bb80000000p-4, -0x1.33e3060000000p-5, -0x1.27c1300000000p-4, -0x1.4ab3080000000p-4, 0x1.5669700000000p-7, -0x1.17375c0000000p-5, -0x1.a28dc00000000p-8, -0x1.7744400000000p-8, -0x1.fff0480000000p-5, 0x1.3ccd480000000p-4, 0x1.3ddcd00000000p-4, -0x1.aded2e0000000p-5, -0x1.fc6ec60000000p-5, -0x1.e88b300000000p-7, 0x1.033ec80000000p-4, -0x1.7dadc00000000p-4, -0x1.c0930c0000000p-5, -0x1.46713e0000000p-4, 0x1.9d61880000000p-5, 0x1.48ae880000000p-6, -0x1.97d6b00000000p-7, -0x1.493ea00000000p-8, 0x1.7b40540000000p-4, 0x1.6b5dec0000000p-4, -0x1.5538560000000p-4, 0x1.b1ddf00000000p-5, 0x1.74a36c0000000p-4, -0x1.0fb6960000000p-5, -0x1.1b19800000000p-4, -0x1.4b6ca60000000p-4, 0x1.1eb7ac0000000p-4, -0x1.fa1f2e0000000p-5, 0x1.32aee00000000p-4, 0x1.0943880000000p-4, 0x1.7d61140000000p-4, -0x1.5a3ae20000000p-4, -0x1.0ebd700000000p-7, -0x1.5ce8500000000p-4, -0x1.9646540000000p-5, -0x1.1ff27a0000000p-4, -0x1.82e89c0000000p-5, -0x1.84aa520000000p-5, -0x1.5b94480000000p-4, -0x1.dbf2620000000p-5, 0x1.3746a00000000p-7, -0x1.5113920000000p-4, -0x1.be51ae0000000p-5, -0x1.4214280000000p-4, -0x1.2a91940000000p-4, 0x1.e6d7200000000p-5, -0x1.7bc9b00000000p-7, -0x1.4aff700000000p-4, -0x1.b679d80000000p-6, 0x1.4710440000000p-4, 0x1.ddaa500000000p-6, -0x1.089f720000000p-4, 0x1.8cbbd80000000p-5, 0x1.ee36c00000000p-9, -0x1.48a91a0000000p-4, -0x1.50a7400000000p-7, 0x1.f8d6900000000p-6, -0x1.30ad440000000p-4, 0x1.4100580000000p-5, -0x1.9387780000000p-6, -0x1.e1a5560000000p-5, -0x1.e59a280000000p-6, -0x1.4b72420000000p-4, 0x1.418d180000000p-5, -0x1.4a21aa0000000p-4, 0x1.f1e6200000000p-5, -0x1.76e0c00000000p-6, 0x1.212c300000000p-6, -0x1.fb54800000000p-9, -0x1.4ae30e0000000p-4, -0x1.2cf8b40000000p-4, -0x1.5ab6200000000p-6, -0x1.dea7ba0000000p-5, -0x1.b663fe0000000p-5, 0x1.a74c400000000p-8, 0x1.7139e80000000p-4, -0x1.5d1ec00000000p-7, 0x1.901e080000000p-6, 0x1.9f04100000000p-6, 0x1.b723500000000p-7, 0x1.6dace00000000p-7, -0x1.4576560000000p-4, 0x1.5d69d00000000p-4, 0x1.7c28200000000p-6, -0x1.4a5c500000000p-6, -0x1.55a23c0000000p-4, 0x1.752f780000000p-5, 0x1.f0e8b00000000p-5, 0x1.6ead280000000p-4, -0x1.17e6a80000000p-6, 0x1.016a000000000p-8, 0x1.c283e00000000p-5, 0x1.2d8ee40000000p-4, 0x1.622f700000000p-7, -0x1.7f006a0000000p-4, -0x1.6bdfc40000000p-4, -0x1.a3bbe00000000p-6, -0x1.9109d80000000p-6, 0x1.717be40000000p-4, 0x1.8d0e200000000p-7, 0x1.7876780000000p-5, -0x1.7d87440000000p-4, -0x1.6434aa0000000p-4, 0x1.bb70d80000000p-5, 0x1.a32ff80000000p-6, -0x1.cc6fe00000000p-7, -0x1.a163400000000p-8, 0x1.47e1780000000p-5, 0x1.46c4280000000p-4, -0x1.a93e680000000p-6, 0x1.f4b0e00000000p-8, 0x1.2f2c180000000p-5, -0x1.6365600000000p-4, -0x1.358d540000000p-4, 0x1.807d880000000p-6, -0x1.67280c0000000p-4, -0x1.ddf1e00000000p-8, 0x1.56e5c00000000p-4, -0x1.1a2e6c0000000p-4, 0x1.c881880000000p-5, 0x1.3318f00000000p-4, -0x1.c2e4e80000000p-6, 0x1.eda5800000000p-5, -0x1.5316140000000p-4, 0x1.bff2980000000p-5, 0x1.2790400000000p-4, -0x1.3fc7300000000p-6, 0x1.c637700000000p-5, -0x1.12fa780000000p-6, -0x1.77aed60000000p-4, 0x1.e4c7b80000000p-5, 0x1.7b53500000000p-4, 0x1.0782780000000p-5, -0x1.2279000000000p-4, -0x1.2119ec0000000p-5, 0x1.6250d00000000p-7, -0x1.2e9bc00000000p-5, -0x1.715b400000000p-4, -0x1.6d5ad80000000p-6, 0x1.3740580000000p-5, -0x1.19fb740000000p-5, -0x1.d031d00000000p-7, 0x1.7537d00000000p-5, 0x1.4d5df00000000p-7, -0x1.1bf6a40000000p-4, -0x1.ef28a00000000p-6, -0x1.6596380000000p-4, 0x1.5054fc0000000p-4, -0x1.528a880000000p-4, -0x1.3a58020000000p-4, 0x1.e41ce00000000p-6, -0x1.6843100000000p-7, -0x1.2682240000000p-4, 0x1.72f3180000000p-5, 0x1.80936c0000000p-4, -0x1.79b3ea0000000p-5, 0x1.111db00000000p-4, -0x1.6d0c520000000p-5, 0x1.9840800000000p-9, -0x1.0aca900000000p-5, 0x1.4997980000000p-4, -0x1.260bd60000000p-5, 0x1.2333240000000p-4, 0x1.3724140000000p-4, 0x1.48e9ec0000000p-4, -0x1.e323740000000p-5, 0x1.3121480000000p-4, 0x1.dea0000000000p-9}
, {-0x1.cf7e000000000p-9, 0x1.5489fc0000000p-4, -0x1.a657de0000000p-5, 0x1.7993980000000p-4, -0x1.35adb00000000p-5, -0x1.2eedca0000000p-4, 0x1.44eb3c0000000p-4, 0x1.ab9db80000000p-5, 0x1.1cee780000000p-5, -0x1.aac5520000000p-5, 0x1.3630680000000p-4, -0x1.5e46860000000p-4, -0x1.3a9f000000000p-6, 0x1.2f22780000000p-5, -0x1.951b700000000p-5, 0x1.e6da180000000p-5, 0x1.8460000000000p-5, 0x1.5c05d00000000p-4, -0x1.0b365c0000000p-4, -0x1.4aee400000000p-7, 0x1.6c4d500000000p-6, -0x1.7de0d60000000p-5, 0x1.5e34180000000p-6, -0x1.300a900000000p-4, 0x1.18342c0000000p-4, 0x1.26e2080000000p-5, 0x1.7e78240000000p-4, -0x1.1a695a0000000p-4, -0x1.4697de0000000p-4, 0x1.2b90ac0000000p-4, 0x1.7fdbdc0000000p-4, -0x1.07fb3c0000000p-4, -0x1.09b9640000000p-4, -0x1.72ce000000000p-11, -0x1.d4cf640000000p-5, -0x1.32aa500000000p-4, -0x1.4629480000000p-6, 0x1.120ec00000000p-5, 0x1.601d680000000p-4, -0x1.e3d5240000000p-5, -0x1.e442e40000000p-5, 0x1.7844280000000p-4, 0x1.12e2080000000p-5, -0x1.22c6b00000000p-7, -0x1.f4206e0000000p-5, 0x1.889b200000000p-5, -0x1.f080f00000000p-7, -0x1.0e4c1c0000000p-5, -0x1.2672740000000p-4, -0x1.f068540000000p-5, -0x1.d724380000000p-6, -0x1.9f4a280000000p-6, -0x1.5f12220000000p-5, -0x1.4203200000000p-8, -0x1.8302cc0000000p-5, 0x1.359fa00000000p-7, 0x1.842bc00000000p-6, 0x1.30e6f00000000p-5, -0x1.cd782a0000000p-5, 0x1.9fdc000000000p-10, -0x1.d92e800000000p-10, -0x1.d2b3840000000p-5, -0x1.c323d80000000p-6, -0x1.cf06600000000p-7, -0x1.b9b4600000000p-8, -0x1.6c68100000000p-5, 0x1.5d25800000000p-8, 0x1.cc7a400000000p-9, -0x1.abc66c0000000p-5, -0x1.7e34080000000p-6, -0x1.40b0c60000000p-5, -0x1.45df8c0000000p-5, 0x1.e21e500000000p-5, 0x1.c4e0700000000p-6, 0x1.ce17100000000p-5, -0x1.635b5e0000000p-5, -0x1.5da8040000000p-4, 0x1.ab10180000000p-6, 0x1.7df4d00000000p-6, -0x1.efc92a0000000p-5, -0x1.e50a200000000p-7, 0x1.6339180000000p-4, 0x1.ec92700000000p-7, -0x1.3bfbdc0000000p-4, 0x1.7662f80000000p-5, 0x1.e802180000000p-6, -0x1.3566540000000p-5, 0x1.2d092c0000000p-4, -0x1.a61e400000000p-6, -0x1.7a65200000000p-6, -0x1.8aeebe0000000p-5, 0x1.bfee680000000p-5, 0x1.25aa9c0000000p-4, -0x1.d1cdc00000000p-9, -0x1.4cd5800000000p-4, 0x1.0d34580000000p-4, 0x1.5c97100000000p-5, 0x1.bae3880000000p-6, 0x1.4b97580000000p-6, 0x1.3986100000000p-4, 0x1.8e0f580000000p-5, -0x1.457bf00000000p-7, 0x1.ec2f100000000p-5, -0x1.6f86ee0000000p-4, -0x1.3b44ec0000000p-4, -0x1.9144100000000p-5, -0x1.045f6c0000000p-4, 0x1.28dc100000000p-4, 0x1.6e1ac00000000p-5, 0x1.1937a00000000p-6, -0x1.060ea60000000p-4, 0x1.0477400000000p-6, -0x1.b685d00000000p-5, 0x1.a497380000000p-5, 0x1.0343980000000p-4, -0x1.6780ae0000000p-4, 0x1.283cf80000000p-6, -0x1.b69e060000000p-5, 0x1.cd57a00000000p-5, -0x1.29a89c0000000p-5, 0x1.57db040000000p-4, 0x1.2056280000000p-6, 0x1.a050080000000p-5, 0x1.8473980000000p-5, -0x1.7072e20000000p-4, -0x1.27ca000000000p-7, 0x1.7c9bd40000000p-4, -0x1.0426000000000p-5, -0x1.36cb940000000p-4, -0x1.ef5df40000000p-5, -0x1.f487d00000000p-6, 0x1.088b300000000p-4, 0x1.0c91a40000000p-4, -0x1.34f4240000000p-4, 0x1.2e26100000000p-4, 0x1.f72e880000000p-5, -0x1.6cf0400000000p-4, 0x1.74eaf00000000p-4, -0x1.f882700000000p-6, -0x1.76f0460000000p-4, -0x1.e499240000000p-5, 0x1.cab0b80000000p-5, 0x1.b4fe000000000p-10, 0x1.abe0c00000000p-9, -0x1.7a6dc00000000p-9, 0x1.6808680000000p-4, 0x1.80e3c00000000p-6, 0x1.a378c00000000p-5, -0x1.4109180000000p-5, 0x1.27eac40000000p-4, 0x1.4d07000000000p-9, -0x1.467a800000000p-7, 0x1.752d400000000p-5, 0x1.58d7680000000p-4, 0x1.6518080000000p-5, -0x1.5be04a0000000p-4, 0x1.2312100000000p-7, 0x1.fd7dc00000000p-9, 0x1.b299e00000000p-7, 0x1.e873280000000p-5, 0x1.42d1c80000000p-4, 0x1.c5b1300000000p-7, -0x1.35ab0e0000000p-5, 0x1.6411100000000p-5, 0x1.5231840000000p-4, -0x1.2d6f9e0000000p-4, -0x1.4daffa0000000p-5, 0x1.1d7c440000000p-4, 0x1.18c6000000000p-11, 0x1.3a06340000000p-4, 0x1.c150480000000p-6, -0x1.5dba380000000p-5, 0x1.2235980000000p-4, -0x1.6ab3800000000p-10, -0x1.9517800000000p-7, 0x1.6c8b280000000p-4, -0x1.547f060000000p-4, -0x1.811e940000000p-4, -0x1.2e06080000000p-4, 0x1.2516100000000p-4, 0x1.c612880000000p-6, -0x1.492b1c0000000p-5, 0x1.0b6fc80000000p-4, 0x1.7378bc0000000p-4, -0x1.5dea5c0000000p-5, -0x1.4d3bc00000000p-9, 0x1.bc63f80000000p-5, 0x1.ca95e00000000p-5, 0x1.fa82700000000p-5, 0x1.9d98c00000000p-5, -0x1.fe164e0000000p-5, -0x1.2a48000000000p-9, -0x1.6491d00000000p-4, -0x1.6cc7800000000p-9, 0x1.1fa0380000000p-5, 0x1.272f7c0000000p-4, -0x1.6c79240000000p-4, 0x1.c124000000000p-5, -0x1.1619d40000000p-4, 0x1.63e4400000000p-9, -0x1.7269800000000p-9, -0x1.fd80be0000000p-5, -0x1.07be840000000p-4, 0x1.5926e40000000p-4, -0x1.cab4e00000000p-8, 0x1.15a1640000000p-4, 0x1.158c240000000p-4, -0x1.e96f480000000p-6, 0x1.6368400000000p-4, -0x1.39d96e0000000p-5, 0x1.77c5f00000000p-4, -0x1.627d560000000p-4, -0x1.67c1480000000p-5, -0x1.e9eb580000000p-5, -0x1.0de4000000000p-10, 0x1.56d9600000000p-5, 0x1.848f200000000p-7, -0x1.551d9c0000000p-4, 0x1.0f84f80000000p-5, -0x1.e008000000000p-12, 0x1.a64ee00000000p-5, -0x1.d49bc00000000p-6, 0x1.5e52880000000p-4, 0x1.3f68280000000p-5, 0x1.68bb200000000p-5, 0x1.0a53600000000p-5, -0x1.08f6800000000p-8, 0x1.a946380000000p-5, -0x1.e5b6680000000p-6, -0x1.49c3400000000p-9, 0x1.1677780000000p-5, 0x1.9947080000000p-5, -0x1.56a5000000000p-7, 0x1.dd7ad00000000p-5, -0x1.8e3c500000000p-7, -0x1.65c7580000000p-4, -0x1.982c8c0000000p-5, 0x1.d86a800000000p-7, -0x1.e974ec0000000p-5, -0x1.e477500000000p-7, 0x1.7b2ee80000000p-4, -0x1.0717140000000p-5, -0x1.96aec00000000p-9, 0x1.3829240000000p-4, -0x1.cefbfc0000000p-5, -0x1.0768d40000000p-4, -0x1.cec0880000000p-5, 0x1.53c0f40000000p-4, 0x1.398c640000000p-4, 0x1.04ba140000000p-4, 0x1.0654a00000000p-5, 0x1.5259580000000p-5, -0x1.e4bba00000000p-5, 0x1.8172780000000p-4, 0x1.695a780000000p-4, 0x1.398c9c0000000p-4, 0x1.665f0c0000000p-4, 0x1.7431440000000p-4, 0x1.01c1500000000p-6, -0x1.617b3e0000000p-4, -0x1.f2fa060000000p-5, -0x1.8728460000000p-5, -0x1.1e58fc0000000p-5, 0x1.7ebec80000000p-5, 0x1.57932c0000000p-4, 0x1.164eb00000000p-4, 0x1.e1e9b00000000p-6, 0x1.866f280000000p-6, -0x1.7cba780000000p-4, -0x1.3f2da20000000p-4, 0x1.9eb4900000000p-5, -0x1.be66e00000000p-6, -0x1.55fd480000000p-6, -0x1.cdc2de0000000p-5, 0x1.7aec500000000p-7, -0x1.08f1fe0000000p-5, -0x1.a122e80000000p-6, 0x1.08ce500000000p-4, -0x1.14fc660000000p-4, 0x1.17067c0000000p-4, 0x1.6c1be00000000p-4, -0x1.1794600000000p-4, -0x1.aa3a440000000p-5, 0x1.4f67000000000p-5, -0x1.70edc80000000p-4, 0x1.42aef00000000p-5, -0x1.0b30060000000p-5, 0x1.6f2de80000000p-5, 0x1.153f440000000p-4, -0x1.20afa60000000p-4, 0x1.83d1400000000p-5, -0x1.105b080000000p-4, -0x1.5b08400000000p-9, 0x1.45c4200000000p-4, -0x1.d693d60000000p-5, -0x1.7a3a840000000p-4, 0x1.3f98000000000p-9, -0x1.3eaf280000000p-4, 0x1.5ac5f80000000p-4, 0x1.5730000000000p-8, -0x1.3e31680000000p-5, -0x1.e7a9680000000p-5, -0x1.48b5ba0000000p-4, 0x1.001d280000000p-4, -0x1.60ef000000000p-10, -0x1.37f1d20000000p-4, 0x1.3587200000000p-7, 0x1.fac0900000000p-5, -0x1.61ae0c0000000p-5, 0x1.6b20b40000000p-4, 0x1.15f6ac0000000p-4, 0x1.2c31e80000000p-6, 0x1.e333000000000p-5, -0x1.40b5200000000p-4, 0x1.54e0600000000p-4, 0x1.a747500000000p-5, -0x1.5dedc00000000p-5, 0x1.9fac100000000p-6, -0x1.e44ae00000000p-7, -0x1.5ae4340000000p-4, -0x1.7a35c20000000p-4, 0x1.cc60400000000p-6, 0x1.d46be80000000p-5, -0x1.2533ca0000000p-4, 0x1.1378e80000000p-4, 0x1.a93e100000000p-5, 0x1.74f1140000000p-4, 0x1.1133b80000000p-4, -0x1.d2d0180000000p-6, 0x1.7f69c00000000p-5, -0x1.234af00000000p-7, -0x1.60f8e60000000p-4, -0x1.4402520000000p-5, 0x1.6c75c00000000p-4, -0x1.0b0d180000000p-4, 0x1.8488000000000p-14, -0x1.9df7a00000000p-5, -0x1.dc70c00000000p-7, 0x1.685ed00000000p-5, 0x1.f1c7800000000p-6, -0x1.063f5c0000000p-4, 0x1.2979a80000000p-4, 0x1.3be2980000000p-5, 0x1.7578e40000000p-4, -0x1.732c600000000p-5, -0x1.3d6ebe0000000p-4, -0x1.6533400000000p-7, -0x1.ea00ea0000000p-5, -0x1.479bf60000000p-4, 0x1.05d17c0000000p-4, -0x1.d2c84a0000000p-5, -0x1.8488c00000000p-8, -0x1.ee73e20000000p-5, -0x1.946b500000000p-5, -0x1.3586680000000p-5, -0x1.64b3f20000000p-4, -0x1.f0a4800000000p-6, 0x1.2ef3300000000p-7, -0x1.568b440000000p-5, 0x1.787b800000000p-7, -0x1.118da40000000p-4, 0x1.6eb1e00000000p-6, -0x1.4def920000000p-4, 0x1.18cf100000000p-6, -0x1.27f6500000000p-6, -0x1.18753c0000000p-5, 0x1.9acf580000000p-5, 0x1.6c6db80000000p-6, -0x1.41685e0000000p-4, -0x1.f30d800000000p-7, -0x1.2d6bda0000000p-4, 0x1.6b08f00000000p-6, -0x1.3afbca0000000p-5, 0x1.424d380000000p-5, 0x1.7e8ccc0000000p-4, -0x1.7724300000000p-7, -0x1.2a42340000000p-4, -0x1.eceff80000000p-6, -0x1.09cc840000000p-4, 0x1.2f46900000000p-5, -0x1.5488300000000p-4, 0x1.fdc3580000000p-5, -0x1.7ea17e0000000p-4, 0x1.0a08580000000p-4, 0x1.5418c40000000p-4, 0x1.35f2480000000p-5, 0x1.48f6200000000p-4, 0x1.53da580000000p-4, 0x1.f859f00000000p-7, -0x1.5dbb1c0000000p-4, -0x1.34b50c0000000p-4, 0x1.820e300000000p-5, -0x1.3a63200000000p-4, -0x1.4893480000000p-6, 0x1.4eff300000000p-6, -0x1.973dc60000000p-5, 0x1.838b400000000p-5, 0x1.5f5c800000000p-4, 0x1.2d1e700000000p-5, -0x1.fd6cb80000000p-5, 0x1.061b480000000p-4, 0x1.3b51a00000000p-5, 0x1.a159500000000p-5, 0x1.70b3700000000p-4, 0x1.443c980000000p-4, -0x1.9ca4380000000p-6, 0x1.7852400000000p-5, -0x1.78c5600000000p-4, 0x1.052f900000000p-7, -0x1.49f0040000000p-4, -0x1.4d52800000000p-9, 0x1.bd47000000000p-10, 0x1.9f79c00000000p-7, 0x1.8ae1e00000000p-6, -0x1.5cf08a0000000p-4, -0x1.d93f340000000p-5, -0x1.70a72c0000000p-4, -0x1.3faf560000000p-4, 0x1.45a2280000000p-5, 0x1.1d13300000000p-4, 0x1.34afa80000000p-5, 0x1.5fa6180000000p-4, -0x1.2c7de60000000p-5, 0x1.4b0ae40000000p-4, 0x1.dc80380000000p-5, 0x1.1ca7a00000000p-8, -0x1.7822080000000p-4, -0x1.5c5f0c0000000p-4, -0x1.051a740000000p-4, 0x1.969e300000000p-5, 0x1.6f8fc80000000p-4, -0x1.5e98e20000000p-5, -0x1.73f0920000000p-4, -0x1.2def700000000p-4, -0x1.37fec00000000p-4, -0x1.111e400000000p-8, 0x1.072ec00000000p-4, 0x1.3748380000000p-5, -0x1.13a2440000000p-4, 0x1.6f9eb00000000p-7, -0x1.6291000000000p-5, 0x1.a461000000000p-6, 0x1.fe84700000000p-5, 0x1.7b2c900000000p-6, 0x1.ec41980000000p-6, 0x1.9870900000000p-5, 0x1.e600300000000p-6, -0x1.d180000000000p-14, -0x1.34d4f40000000p-4, 0x1.6ea9c00000000p-4, -0x1.a965a00000000p-8, -0x1.29c4a40000000p-4, -0x1.4d09a60000000p-4, -0x1.46d8aa0000000p-4, -0x1.b4fd880000000p-6, 0x1.52141c0000000p-4, -0x1.6a8fee0000000p-5, 0x1.17f6f00000000p-5, -0x1.c99c680000000p-5, -0x1.51f8aa0000000p-4, -0x1.1154a00000000p-4, -0x1.43dafc0000000p-5, -0x1.b6e0d00000000p-7, 0x1.0241f80000000p-4, 0x1.f61c000000000p-10, 0x1.7ac16c0000000p-4, 0x1.7ac8300000000p-4, -0x1.8f3e300000000p-6, -0x1.eae5da0000000p-5, 0x1.fdad300000000p-6, 0x1.f01d300000000p-6, -0x1.fefce20000000p-5, -0x1.4f92800000000p-4, -0x1.6c1cd00000000p-4, -0x1.a5d4800000000p-6, -0x1.70621c0000000p-5, -0x1.b1dd500000000p-7, -0x1.58bb000000000p-7, 0x1.2730f00000000p-6, 0x1.9586f80000000p-5, -0x1.cb9e480000000p-6, 0x1.ea5b680000000p-5, -0x1.f7bce00000000p-6, 0x1.24acd40000000p-4, 0x1.aae2000000000p-10, 0x1.1f8cfc0000000p-4, -0x1.0977f80000000p-4, 0x1.d966380000000p-6, 0x1.c792d00000000p-6, -0x1.7979b00000000p-7, 0x1.5078180000000p-4, -0x1.63ba180000000p-5, 0x1.0a4c440000000p-4, -0x1.43cf6c0000000p-4, 0x1.5ebea00000000p-5, 0x1.aebf500000000p-5, 0x1.b38da00000000p-5, 0x1.a584180000000p-5, 0x1.2d54d80000000p-6, -0x1.3b1b100000000p-6, 0x1.7c7a400000000p-7, 0x1.e265d80000000p-5, -0x1.4c0ea00000000p-4, 0x1.0a6ae80000000p-4, -0x1.78611c0000000p-4, 0x1.63456c0000000p-4, 0x1.41db880000000p-4, -0x1.7f01a40000000p-4, 0x1.163b840000000p-4, -0x1.757a480000000p-6, 0x1.0f28b40000000p-4, -0x1.0c33d00000000p-4, 0x1.e225f00000000p-5, -0x1.5750c80000000p-5, 0x1.edca880000000p-6, 0x1.3056980000000p-4, 0x1.50a7e00000000p-5, -0x1.eaefb20000000p-5, -0x1.f8b0fa0000000p-5, -0x1.a868ac0000000p-5, 0x1.000d000000000p-5, -0x1.365e500000000p-4, -0x1.4def260000000p-5, 0x1.52db740000000p-4, -0x1.38e3f80000000p-5, -0x1.5c5ac00000000p-6, 0x1.73c3040000000p-4, 0x1.ec6e100000000p-7, 0x1.8f78200000000p-7, -0x1.2656bc0000000p-5, 0x1.30dc880000000p-4, 0x1.62e26c0000000p-4, 0x1.f481d80000000p-5, -0x1.0b03cc0000000p-4, -0x1.03c0880000000p-4, 0x1.7ba8dc0000000p-4, -0x1.5e91ba0000000p-5, 0x1.ae5fc00000000p-5, -0x1.248a900000000p-4, -0x1.6f81200000000p-6, -0x1.e180120000000p-5, -0x1.499bb80000000p-4, 0x1.4835200000000p-4, -0x1.1a65580000000p-5, 0x1.9327200000000p-5, -0x1.30da280000000p-5, 0x1.d5e3c00000000p-8, -0x1.69d9e00000000p-6, -0x1.a71a460000000p-5, 0x1.d6fe380000000p-5, -0x1.e84a760000000p-5, 0x1.0ff0100000000p-5, 0x1.cfb0f00000000p-7, 0x1.1585180000000p-6, 0x1.7884b40000000p-4, 0x1.194a000000000p-5, -0x1.13dd000000000p-8, -0x1.33165a0000000p-5, -0x1.fa5ef00000000p-7, -0x1.717c900000000p-6, 0x1.a812700000000p-6, -0x1.ad70000000000p-11, 0x1.19ec280000000p-5, -0x1.0119be0000000p-4, -0x1.1fe3800000000p-6, -0x1.c9b4000000000p-12, -0x1.6309c00000000p-9, -0x1.6a65280000000p-4, -0x1.853e600000000p-5, 0x1.6116fc0000000p-4, 0x1.80a2000000000p-6, -0x1.0b28400000000p-4, 0x1.221f680000000p-4, -0x1.4796d00000000p-7, 0x1.5079700000000p-4, 0x1.7d9ce00000000p-8}
, {0x1.814d900000000p-4, 0x1.1a16680000000p-5, 0x1.694f300000000p-7, -0x1.0de57c0000000p-4, -0x1.cf01a00000000p-8, 0x1.2320880000000p-4, 0x1.2dffe80000000p-4, -0x1.80a3ea0000000p-4, -0x1.150f800000000p-9, -0x1.5920e80000000p-5, -0x1.88ec4c0000000p-5, 0x1.5f47100000000p-4, 0x1.3b13280000000p-4, -0x1.cb463e0000000p-5, -0x1.7452560000000p-4, -0x1.40dc100000000p-5, -0x1.4394d80000000p-6, 0x1.7fffe00000000p-5, 0x1.276bf00000000p-5, 0x1.d43d000000000p-5, 0x1.7a21280000000p-5, 0x1.490c280000000p-6, -0x1.60d6d20000000p-5, -0x1.ab0de80000000p-6, -0x1.52af300000000p-6, 0x1.2ff1900000000p-5, -0x1.53e8ec0000000p-4, 0x1.18a6780000000p-5, 0x1.1d08980000000p-6, 0x1.277c800000000p-6, -0x1.55e7980000000p-4, 0x1.6c25a40000000p-4, -0x1.6ab9700000000p-6, 0x1.fd64500000000p-6, 0x1.860bc00000000p-9, 0x1.599c200000000p-5, 0x1.f242500000000p-5, -0x1.27e3b20000000p-4, -0x1.c297400000000p-9, -0x1.8b81480000000p-6, 0x1.d17f080000000p-5, 0x1.bfdcd80000000p-5, 0x1.2b40f00000000p-7, -0x1.30c5680000000p-4, -0x1.fc45400000000p-7, 0x1.07fc200000000p-4, -0x1.9c1dc80000000p-6, 0x1.2579b00000000p-4, 0x1.14ea300000000p-4, -0x1.117fe40000000p-4, 0x1.25f2100000000p-4, 0x1.df65780000000p-5, 0x1.7339100000000p-7, 0x1.f2dc400000000p-5, 0x1.4c2a140000000p-4, -0x1.99c8700000000p-5, -0x1.1e00920000000p-5, -0x1.c340ac0000000p-5, 0x1.6b39d00000000p-4, -0x1.cd7d340000000p-5, 0x1.ad33280000000p-5, 0x1.727eb00000000p-4, -0x1.79c80e0000000p-4, 0x1.23488c0000000p-4, -0x1.51168a0000000p-5, -0x1.4ce3a00000000p-8, 0x1.ede5180000000p-6, 0x1.ffa6e00000000p-5, -0x1.80959e0000000p-4, -0x1.a9dd480000000p-5, 0x1.41a8a00000000p-5, -0x1.5ababa0000000p-5, -0x1.33f17c0000000p-5, -0x1.84dd700000000p-6, 0x1.d195400000000p-5, -0x1.2ffbd00000000p-6, 0x1.ce51000000000p-5, -0x1.f6a8fa0000000p-5, 0x1.aecfe80000000p-6, 0x1.b5a4a80000000p-6, -0x1.e74fa80000000p-6, 0x1.52cff80000000p-5, 0x1.3e0af80000000p-4, 0x1.8105280000000p-4, 0x1.b286200000000p-7, -0x1.648a840000000p-4, 0x1.871a880000000p-6, -0x1.bb9ac00000000p-9, 0x1.39742c0000000p-4, 0x1.5cd2c00000000p-5, 0x1.3d19780000000p-5, -0x1.12bf3c0000000p-4, 0x1.56a2a00000000p-6, 0x1.5672f80000000p-5, 0x1.2083000000000p-6, -0x1.d7971c0000000p-5, 0x1.0f82cc0000000p-4, 0x1.2bb2540000000p-4, 0x1.2475b00000000p-6, 0x1.0ab7f80000000p-4, -0x1.15e6400000000p-8, 0x1.233dd00000000p-4, -0x1.5f81d80000000p-4, 0x1.700c000000000p-7, 0x1.ce6ad80000000p-6, -0x1.b797380000000p-6, 0x1.d806e00000000p-5, 0x1.6ce8600000000p-4, 0x1.50f08c0000000p-4, 0x1.e584180000000p-5, 0x1.4250200000000p-4, 0x1.3f798c0000000p-4, 0x1.7173980000000p-5, 0x1.64baa00000000p-5, 0x1.bdc4b00000000p-5, -0x1.64b9560000000p-4, 0x1.2a31180000000p-4, 0x1.5602900000000p-6, -0x1.0c62f60000000p-5, 0x1.668a8c0000000p-4, 0x1.5706600000000p-7, -0x1.444da40000000p-5, 0x1.8f12c00000000p-6, 0x1.5598d80000000p-6, -0x1.f6f4f60000000p-5, 0x1.079bd80000000p-4, -0x1.33d2ae0000000p-4, -0x1.1cba000000000p-8, 0x1.726a580000000p-5, -0x1.40abe40000000p-4, -0x1.22960a0000000p-4, 0x1.c8f5f00000000p-5, -0x1.62cafc0000000p-4, -0x1.284a260000000p-5, -0x1.8a2c560000000p-5, -0x1.7e4be80000000p-4, -0x1.635c000000000p-13, 0x1.ce12900000000p-7, -0x1.2229be0000000p-4, 0x1.dfa2880000000p-5, 0x1.963f400000000p-5, 0x1.6932000000000p-11, -0x1.f885d80000000p-6, 0x1.6959700000000p-4, 0x1.41ac700000000p-4, 0x1.a058080000000p-5, 0x1.182f100000000p-7, -0x1.15642c0000000p-5, -0x1.6d21f80000000p-4, -0x1.98f8fc0000000p-5, -0x1.499ad80000000p-4, 0x1.40695c0000000p-4, 0x1.b5bb500000000p-5, -0x1.1bfc2c0000000p-4, 0x1.43bf480000000p-5, 0x1.77d3fc0000000p-4, -0x1.b55ca00000000p-8, 0x1.376e6c0000000p-4, 0x1.0bbdc80000000p-4, -0x1.fc2a0c0000000p-5, 0x1.18cf040000000p-4, -0x1.6e63200000000p-8, -0x1.4f5b580000000p-4, -0x1.93f2ae0000000p-5, 0x1.38ac480000000p-5, 0x1.e96a000000000p-6, 0x1.aab2d00000000p-5, -0x1.6afba80000000p-6, 0x1.f4c5a00000000p-7, -0x1.6036b60000000p-4, 0x1.ace5100000000p-7, 0x1.8ede300000000p-5, 0x1.3039400000000p-6, -0x1.40f4e00000000p-8, -0x1.a99f280000000p-6, -0x1.39266e0000000p-4, -0x1.a11eba0000000p-5, -0x1.2ea2a80000000p-4, -0x1.068fa00000000p-4, 0x1.1a35940000000p-4, -0x1.99dca80000000p-6, 0x1.322e000000000p-7, 0x1.3c87000000000p-5, 0x1.5ed2740000000p-4, -0x1.48fb280000000p-5, 0x1.9146980000000p-5, -0x1.1b33a00000000p-5, 0x1.1a41e80000000p-4, -0x1.f3fec00000000p-6, 0x1.e63e500000000p-5, 0x1.18aca80000000p-4, 0x1.7d1b480000000p-5, -0x1.51427c0000000p-4, -0x1.9e6c500000000p-7, -0x1.0eb04e0000000p-4, -0x1.7e63380000000p-5, 0x1.33a5d80000000p-5, 0x1.46766c0000000p-4, -0x1.d0e0600000000p-6, -0x1.5450d00000000p-5, -0x1.7146fa0000000p-4, -0x1.bda5300000000p-7, -0x1.38e9080000000p-4, -0x1.61c7820000000p-4, -0x1.4de8500000000p-6, 0x1.1590800000000p-10, -0x1.0ae06a0000000p-4, 0x1.21a7540000000p-4, -0x1.6a127c0000000p-5, 0x1.f4d4500000000p-6, -0x1.b7bb340000000p-5, 0x1.ae5f600000000p-5, -0x1.5511800000000p-4, -0x1.798fbc0000000p-4, -0x1.53e71c0000000p-5, -0x1.26fd640000000p-4, -0x1.1b2d800000000p-6, 0x1.77028c0000000p-4, -0x1.c602700000000p-7, -0x1.3092000000000p-6, -0x1.6794000000000p-7, -0x1.06e1480000000p-6, -0x1.5b75c80000000p-5, 0x1.30f7f80000000p-4, -0x1.2654300000000p-7, -0x1.9a6d280000000p-6, 0x1.5e2ff00000000p-6, -0x1.3abf000000000p-8, -0x1.51b8700000000p-5, -0x1.24ac580000000p-6, 0x1.d43aa00000000p-5, -0x1.3faff40000000p-4, 0x1.338cb00000000p-5, -0x1.0203a00000000p-6, -0x1.0068dc0000000p-5, -0x1.2daf840000000p-5, 0x1.3cb8640000000p-4, 0x1.3baaa00000000p-4, -0x1.322d800000000p-9, 0x1.c9c4e80000000p-5, 0x1.399dc00000000p-5, -0x1.61618c0000000p-5, 0x1.6755500000000p-5, -0x1.bed3380000000p-6, -0x1.789f4a0000000p-4, 0x1.03bcf40000000p-4, -0x1.5e54e40000000p-4, -0x1.95085e0000000p-5, 0x1.27aa580000000p-4, -0x1.b3c9a20000000p-5, -0x1.066f260000000p-5, 0x1.96f5080000000p-6, -0x1.8b65600000000p-7, -0x1.5e5c120000000p-5, -0x1.b94f600000000p-6, 0x1.5b8f900000000p-5, 0x1.bf59900000000p-6, -0x1.e82d7c0000000p-5, 0x1.3a68e00000000p-5, -0x1.2014c80000000p-6, 0x1.d4a2000000000p-7, 0x1.22a19c0000000p-4, -0x1.6ad2dc0000000p-4, 0x1.4fe7500000000p-4, -0x1.082e700000000p-7, -0x1.744f700000000p-4, -0x1.64261c0000000p-5, -0x1.02ff980000000p-4, 0x1.321ff00000000p-5, -0x1.1357e20000000p-4, -0x1.f6e3040000000p-5, -0x1.74c88c0000000p-5, 0x1.8e57700000000p-7, -0x1.0f0a820000000p-4, -0x1.00b50e0000000p-4, -0x1.ca566c0000000p-5, 0x1.3758480000000p-5, -0x1.0a30860000000p-4, -0x1.5b7f400000000p-7, -0x1.6a55480000000p-6, -0x1.a519900000000p-6, -0x1.b71e940000000p-5, -0x1.3843300000000p-6, -0x1.8027a00000000p-7, 0x1.07d9b00000000p-4, -0x1.039b240000000p-5, 0x1.9d22780000000p-6, 0x1.4eae480000000p-4, 0x1.e2be200000000p-6, 0x1.4041f80000000p-5, -0x1.bc98380000000p-6, -0x1.bc84200000000p-8, -0x1.591df80000000p-4, -0x1.96ae3e0000000p-5, -0x1.6109800000000p-7, -0x1.55a8aa0000000p-4, 0x1.0dd6780000000p-4, -0x1.9641d80000000p-6, -0x1.0dab980000000p-4, 0x1.5f06080000000p-4, -0x1.394f400000000p-7, -0x1.f049480000000p-6, -0x1.5cabfa0000000p-5, 0x1.5f37ac0000000p-4, 0x1.12b6900000000p-5, 0x1.5210980000000p-4, -0x1.72dd800000000p-9, -0x1.2097700000000p-5, 0x1.67e7200000000p-6, 0x1.3c7ff80000000p-4, -0x1.5d31f00000000p-7, 0x1.a889600000000p-5, 0x1.6877840000000p-4, -0x1.990a8e0000000p-5, -0x1.4e40200000000p-4, 0x1.68d0000000000p-4, 0x1.0fcd980000000p-4, -0x1.e8bcb00000000p-5, -0x1.779ccc0000000p-5, 0x1.afae280000000p-5, 0x1.4de5800000000p-5, 0x1.355f9c0000000p-4, 0x1.58d4dc0000000p-4, -0x1.a3cda00000000p-5, 0x1.8299680000000p-5, -0x1.1a42960000000p-5, 0x1.1b247c0000000p-4, 0x1.1347300000000p-4, 0x1.2cf1c00000000p-7, -0x1.33de7a0000000p-4, -0x1.d3ef120000000p-5, -0x1.f802380000000p-6, 0x1.7211980000000p-6, 0x1.7ee7840000000p-4, -0x1.004c980000000p-6, 0x1.2e5e480000000p-4, -0x1.a2ca000000000p-8, 0x1.af54180000000p-6, -0x1.e7ba400000000p-7, 0x1.7342ac0000000p-4, -0x1.5a270e0000000p-5, -0x1.5cc89e0000000p-5, -0x1.0fbac80000000p-4, -0x1.919ac00000000p-8, 0x1.5c077c0000000p-4, 0x1.7a64c40000000p-4, -0x1.6188ee0000000p-5, -0x1.a3a4980000000p-5, 0x1.f49d700000000p-5, -0x1.5110600000000p-8, -0x1.25e2920000000p-5, -0x1.9285300000000p-5, -0x1.48c4f00000000p-4, 0x1.cbff480000000p-5, 0x1.9f2c800000000p-8, -0x1.3485ba0000000p-4, 0x1.5044400000000p-4, -0x1.0bf5600000000p-7, 0x1.7c6dc00000000p-5, -0x1.8e5ffe0000000p-5, -0x1.1bb7e00000000p-7, -0x1.3fe4c20000000p-5, -0x1.0d11cc0000000p-4, -0x1.737e600000000p-7, -0x1.515ff40000000p-4, 0x1.142a740000000p-4, 0x1.80a33c0000000p-4, 0x1.0d7b880000000p-4, -0x1.6c227e0000000p-5, 0x1.0886ec0000000p-4, 0x1.eb94400000000p-8, -0x1.f59eb00000000p-5, -0x1.8c8e060000000p-5, 0x1.5463a00000000p-8, 0x1.5410900000000p-5, 0x1.bd34200000000p-8, -0x1.4b55ec0000000p-4, -0x1.c206ce0000000p-5, 0x1.2c7ce80000000p-5, -0x1.8d5c180000000p-6, 0x1.551db40000000p-4, -0x1.dabf800000000p-9, 0x1.45b2940000000p-4, 0x1.6460fc0000000p-4, -0x1.3bb25a0000000p-4, 0x1.2a37c40000000p-4, 0x1.9560f80000000p-6, 0x1.2bad080000000p-5, 0x1.05ffc00000000p-6, 0x1.b692e80000000p-6, 0x1.e6ab300000000p-5, -0x1.2c7f800000000p-9, 0x1.7ce8080000000p-6, -0x1.4e2d300000000p-7, 0x1.c300680000000p-6, -0x1.ce65d00000000p-5, -0x1.2a83400000000p-4, -0x1.ab8ad60000000p-5, -0x1.2dbb040000000p-5, -0x1.afcb000000000p-9, -0x1.d114b40000000p-5, 0x1.50ade80000000p-5, 0x1.477a440000000p-4, -0x1.ac23300000000p-6, -0x1.0c792c0000000p-4, 0x1.f977300000000p-6, 0x1.58b9d00000000p-7, 0x1.92ea400000000p-9, 0x1.3229480000000p-6, -0x1.b881d00000000p-7, 0x1.e491800000000p-5, 0x1.4af5d40000000p-4, -0x1.e97fb40000000p-5, 0x1.2ead400000000p-8, -0x1.ce54400000000p-6, 0x1.6005500000000p-7, -0x1.494eea0000000p-4, -0x1.887ba00000000p-7, -0x1.b83ad00000000p-5, 0x1.25c7c40000000p-4, 0x1.463e800000000p-5, 0x1.3f76700000000p-4, 0x1.b81fa00000000p-8, -0x1.7283e60000000p-4, -0x1.c144b00000000p-6, 0x1.27c6e80000000p-5, -0x1.4c6aaa0000000p-4, -0x1.38bd480000000p-6, -0x1.c119040000000p-5, -0x1.d850000000000p-6, 0x1.38ebc00000000p-6, -0x1.7450b60000000p-4, -0x1.e5fc160000000p-5, 0x1.2eda2c0000000p-4, -0x1.4b6dda0000000p-5, -0x1.5970800000000p-9, 0x1.2196480000000p-6, 0x1.49c0600000000p-7, -0x1.7d25100000000p-6, 0x1.c4ecf80000000p-6, 0x1.1061a00000000p-7, -0x1.718dea0000000p-4, -0x1.8a1cd00000000p-7, 0x1.63f5700000000p-6, 0x1.2b13800000000p-6, 0x1.0ae0800000000p-5, -0x1.cb5aa20000000p-5, -0x1.1962860000000p-4, 0x1.6763b80000000p-5, -0x1.a757460000000p-5, 0x1.4df9600000000p-7, -0x1.f2e7380000000p-6, -0x1.74cf480000000p-4, -0x1.5d3ec20000000p-4, 0x1.2149380000000p-4, 0x1.378c100000000p-6, 0x1.1cb6400000000p-5, -0x1.84f4000000000p-13, -0x1.08d3a80000000p-5, 0x1.9e9ac00000000p-5, -0x1.a017bc0000000p-5, -0x1.1cfc260000000p-4, 0x1.6ba1100000000p-7, 0x1.d82fe80000000p-5, -0x1.79de000000000p-4, -0x1.750be80000000p-4, -0x1.99fb300000000p-7, -0x1.9de8a40000000p-5, 0x1.91f2b80000000p-5, -0x1.177b700000000p-6, 0x1.5e8f580000000p-4, -0x1.91bca00000000p-7, -0x1.1d52900000000p-4, -0x1.2100dc0000000p-4, -0x1.9d0d0a0000000p-5, 0x1.4ec5500000000p-4, -0x1.8011ac0000000p-5, 0x1.2a92000000000p-9, -0x1.cc40be0000000p-5, -0x1.3bb2780000000p-4, 0x1.f7a5b00000000p-6, 0x1.3dbd940000000p-4, -0x1.57cdf00000000p-5, -0x1.4b1a1a0000000p-5, 0x1.533e900000000p-5, 0x1.7ed74c0000000p-4, -0x1.2d36760000000p-5, 0x1.4e271c0000000p-4, -0x1.449a900000000p-5, -0x1.c41d400000000p-7, 0x1.3aabb80000000p-5, 0x1.6dd3780000000p-4, 0x1.6487380000000p-4, -0x1.370fb00000000p-4, -0x1.402d100000000p-4, 0x1.2f43440000000p-4, 0x1.33b6380000000p-4, -0x1.d6af400000000p-8, -0x1.b155400000000p-6, 0x1.5981d00000000p-5, 0x1.0ebe980000000p-4, 0x1.1f69c00000000p-7, -0x1.dabac80000000p-6, 0x1.6b17080000000p-4, -0x1.eb62120000000p-5, -0x1.510ce20000000p-4, -0x1.d69d980000000p-6, 0x1.5e30800000000p-10, -0x1.2b8b060000000p-4, 0x1.8874a00000000p-7, -0x1.de0a960000000p-5, -0x1.2024200000000p-4, -0x1.7c90260000000p-4, 0x1.731f180000000p-4, 0x1.556a080000000p-4, 0x1.7ff6780000000p-4, 0x1.d3b6000000000p-9, -0x1.be2a400000000p-5, 0x1.08baa00000000p-8, 0x1.cbae180000000p-5, -0x1.4c38c80000000p-5, 0x1.01b0880000000p-5, -0x1.07e64c0000000p-4, 0x1.f72a000000000p-6, -0x1.7b637e0000000p-4, -0x1.9253980000000p-6, 0x1.2465700000000p-5, 0x1.aa1e280000000p-5, -0x1.7a6ae00000000p-5, -0x1.5d5c560000000p-5, 0x1.73ef280000000p-4, 0x1.0dbb540000000p-4, -0x1.9626100000000p-5, -0x1.2f73e00000000p-7, 0x1.4650780000000p-5, 0x1.9f9f100000000p-6, -0x1.9a51a00000000p-8, -0x1.e425c80000000p-5, -0x1.5a113e0000000p-5, -0x1.8c97600000000p-7, 0x1.59a2f80000000p-5, -0x1.1defb40000000p-4, 0x1.7836940000000p-4, -0x1.35a4080000000p-5, 0x1.4b3b080000000p-5, 0x1.5d25c00000000p-5, 0x1.5694080000000p-4, -0x1.e9a3460000000p-5, 0x1.1aff800000000p-10, -0x1.04b0280000000p-6, -0x1.13697a0000000p-4, 0x1.b18f780000000p-5, 0x1.00b6200000000p-6, -0x1.48059a0000000p-5, -0x1.c457400000000p-5, -0x1.4f449e0000000p-4, -0x1.95bb700000000p-7, -0x1.5d483a0000000p-5, 0x1.482ac40000000p-4, -0x1.314e200000000p-7, 0x1.78f0c00000000p-4, 0x1.67ee600000000p-5, -0x1.09d2980000000p-6, -0x1.5ee5380000000p-4, 0x1.535bd80000000p-4, -0x1.4e388a0000000p-4, 0x1.81928c0000000p-4, 0x1.4835f00000000p-6, -0x1.1438a00000000p-7, -0x1.2b09700000000p-5, 0x1.4193000000000p-7, -0x1.bbffc00000000p-9, 0x1.6b41480000000p-6, 0x1.5270180000000p-5, -0x1.759fc60000000p-4, 0x1.1f04f80000000p-4}
, {-0x1.0b463c0000000p-4, 0x1.1a42980000000p-5, -0x1.5234c00000000p-9, 0x1.c698c80000000p-5, -0x1.4143c40000000p-4, 0x1.0be5a80000000p-5, 0x1.2a27480000000p-5, 0x1.a9a8900000000p-6, -0x1.67f9ac0000000p-4, 0x1.22c9d80000000p-5, -0x1.95fcb40000000p-5, 0x1.9246d00000000p-5, -0x1.e3cef80000000p-6, -0x1.178e9a0000000p-4, -0x1.cf75f00000000p-6, -0x1.ccf2f00000000p-6, -0x1.1774520000000p-5, -0x1.2467a80000000p-6, -0x1.6884100000000p-4, -0x1.0e42440000000p-4, 0x1.40cd780000000p-6, 0x1.7e69800000000p-5, -0x1.6904300000000p-7, 0x1.3d85280000000p-5, -0x1.36a0a40000000p-4, 0x1.2662000000000p-5, -0x1.cd6bde0000000p-5, 0x1.9d93100000000p-7, 0x1.30de8c0000000p-4, 0x1.c239280000000p-5, 0x1.52e3700000000p-7, 0x1.f766400000000p-9, -0x1.08ecee0000000p-4, 0x1.6f90d00000000p-5, -0x1.b4c7a20000000p-5, 0x1.60b8400000000p-4, 0x1.432fd00000000p-5, 0x1.8404d80000000p-6, -0x1.e7a49a0000000p-5, -0x1.244fd20000000p-5, -0x1.b61a0a0000000p-5, 0x1.7f99980000000p-4, -0x1.7540da0000000p-4, 0x1.d168900000000p-5, -0x1.69949e0000000p-4, 0x1.cdbec00000000p-7, -0x1.ff542c0000000p-5, 0x1.55be740000000p-4, 0x1.6471200000000p-4, 0x1.3652400000000p-4, 0x1.6240f80000000p-4, 0x1.7376300000000p-5, -0x1.eb44e80000000p-5, 0x1.c0d4400000000p-8, 0x1.038c780000000p-5, 0x1.5e19e00000000p-6, -0x1.b2c3ba0000000p-5, -0x1.fc4f280000000p-6, -0x1.1698260000000p-4, -0x1.9162ec0000000p-5, -0x1.2b98a80000000p-4, 0x1.afe6180000000p-6, -0x1.f71e080000000p-6, -0x1.5838800000000p-9, 0x1.9045380000000p-5, -0x1.a0236c0000000p-5, -0x1.1ac9e40000000p-4, 0x1.d183a00000000p-6, 0x1.1933400000000p-5, 0x1.dbbb000000000p-10, 0x1.1bd4c80000000p-5, 0x1.0831c00000000p-5, 0x1.76a8480000000p-5, -0x1.07bdc00000000p-7, -0x1.4cf5d20000000p-4, 0x1.67d6140000000p-4, 0x1.3dd0600000000p-6, -0x1.47d7080000000p-4, 0x1.1b1c580000000p-5, -0x1.7154a20000000p-4, 0x1.54dee00000000p-6, 0x1.d38c900000000p-5, 0x1.3a7f7c0000000p-4, -0x1.7198ea0000000p-4, 0x1.aefbb80000000p-5, 0x1.1907c00000000p-8, -0x1.08e2800000000p-4, -0x1.8dfb600000000p-8, 0x1.7d02680000000p-5, -0x1.4ddd880000000p-4, 0x1.2d1e700000000p-4, -0x1.ee67f80000000p-6, -0x1.2d2f280000000p-5, -0x1.9b96000000000p-12, -0x1.4cd7780000000p-6, 0x1.c03ed00000000p-5, 0x1.7c6e400000000p-9, 0x1.14d2cc0000000p-4, -0x1.29190a0000000p-5, -0x1.7191000000000p-11, -0x1.46000c0000000p-5, 0x1.a1c5600000000p-5, 0x1.0dc4240000000p-4, 0x1.581e4c0000000p-4, 0x1.10fc880000000p-4, -0x1.25da480000000p-4, 0x1.b469400000000p-8, -0x1.1430aa0000000p-5, 0x1.7713a00000000p-6, -0x1.b398000000000p-9, 0x1.a839800000000p-7, 0x1.3b84c00000000p-9, 0x1.51c9400000000p-5, -0x1.f689000000000p-11, -0x1.5d2a8c0000000p-4, 0x1.925ac00000000p-5, 0x1.a537400000000p-7, 0x1.7720980000000p-4, 0x1.39d0000000000p-13, -0x1.40f3100000000p-7, -0x1.439a560000000p-4, 0x1.ba2b880000000p-5, 0x1.602d480000000p-5, -0x1.f07a3c0000000p-5, -0x1.7a93800000000p-9, -0x1.3144da0000000p-5, 0x1.ed3ba00000000p-6, 0x1.55d1d00000000p-4, -0x1.1feef80000000p-4, 0x1.9488400000000p-8, 0x1.2e16f80000000p-5, -0x1.8b56e00000000p-6, -0x1.58546c0000000p-4, -0x1.58d0980000000p-5, -0x1.2711800000000p-10, -0x1.5c8f0c0000000p-4, 0x1.af12080000000p-5, -0x1.854d2a0000000p-5, 0x1.ee38100000000p-5, -0x1.63e2080000000p-6, -0x1.39cfde0000000p-5, 0x1.2f59b00000000p-5, -0x1.baf1860000000p-5, -0x1.041dec0000000p-4, 0x1.1fd2600000000p-4, 0x1.901d000000000p-5, -0x1.71abfe0000000p-4, 0x1.fb27c00000000p-6, 0x1.0a31d80000000p-4, -0x1.6485980000000p-6, -0x1.00ee440000000p-4, -0x1.b507ca0000000p-5, -0x1.5906880000000p-6, 0x1.7978b80000000p-4, 0x1.8383200000000p-5, -0x1.cdb0300000000p-7, -0x1.16a4f60000000p-5, -0x1.1f0ea00000000p-5, -0x1.c2e1da0000000p-5, -0x1.327b300000000p-4, -0x1.03ccc80000000p-5, 0x1.b62ba80000000p-5, 0x1.2b41400000000p-4, -0x1.a32b640000000p-5, 0x1.a69b300000000p-6, 0x1.781b6c0000000p-4, -0x1.a496800000000p-9, 0x1.6e04580000000p-6, 0x1.8c55680000000p-5, 0x1.ffc2500000000p-6, 0x1.47828c0000000p-4, 0x1.4146500000000p-4, -0x1.3851b40000000p-4, -0x1.4ec1920000000p-4, 0x1.486b700000000p-6, -0x1.b48be80000000p-6, 0x1.7a0b7c0000000p-4, 0x1.10e2380000000p-6, 0x1.3604a00000000p-4, -0x1.92f8740000000p-5, -0x1.abe40e0000000p-5, 0x1.32c6300000000p-5, -0x1.46b9680000000p-4, -0x1.407a180000000p-6, -0x1.f77b120000000p-5, 0x1.e416b80000000p-5, -0x1.44c4640000000p-5, -0x1.64c5600000000p-7, -0x1.b8a6b80000000p-6, 0x1.7e1f7c0000000p-4, 0x1.c005c00000000p-8, -0x1.5cd4700000000p-5, 0x1.4e3e580000000p-5, 0x1.51cb480000000p-4, 0x1.2808ac0000000p-4, 0x1.ffe2400000000p-5, 0x1.4345580000000p-5, 0x1.32ea800000000p-4, 0x1.a09ec00000000p-7, -0x1.e8520a0000000p-5, -0x1.69a4360000000p-4, -0x1.071e600000000p-5, 0x1.4d15380000000p-4, -0x1.bac07c0000000p-5, 0x1.56ae080000000p-6, 0x1.9316300000000p-5, 0x1.10c8b00000000p-7, 0x1.03ae980000000p-4, 0x1.e2d5b00000000p-6, -0x1.0e18600000000p-7, -0x1.5312ec0000000p-4, 0x1.74a0e40000000p-4, 0x1.141f500000000p-4, 0x1.1868a80000000p-4, 0x1.437ee40000000p-4, 0x1.10d2e00000000p-5, -0x1.376e160000000p-4, 0x1.5621a80000000p-4, -0x1.6b6d100000000p-4, -0x1.c55ed80000000p-6, 0x1.f9ba180000000p-5, 0x1.63dec00000000p-4, -0x1.fa63d80000000p-6, -0x1.f052920000000p-5, 0x1.0eaad80000000p-4, 0x1.23ea700000000p-5, -0x1.fbe4100000000p-6, -0x1.39682c0000000p-4, -0x1.d1e4800000000p-6, -0x1.4cc0de0000000p-4, 0x1.7063e80000000p-5, 0x1.34cc780000000p-6, 0x1.147cf00000000p-6, -0x1.b4f0e00000000p-8, 0x1.1558300000000p-7, 0x1.36630c0000000p-4, 0x1.c4c9100000000p-5, 0x1.fc1c180000000p-5, -0x1.0d14900000000p-6, -0x1.a86bd80000000p-6, -0x1.c9c6840000000p-5, 0x1.0e639c0000000p-4, -0x1.03bbd80000000p-4, -0x1.54b81e0000000p-5, -0x1.7367fc0000000p-4, 0x1.845f180000000p-5, -0x1.671ffe0000000p-4, 0x1.73d1a00000000p-5, 0x1.1c45480000000p-4, 0x1.7867280000000p-4, -0x1.ad9c000000000p-10, 0x1.4d47e00000000p-5, 0x1.0b94800000000p-8, 0x1.b7d9f80000000p-5, -0x1.a46f200000000p-7, -0x1.2241f00000000p-4, 0x1.8a82d00000000p-5, 0x1.07f1c80000000p-4, -0x1.4a37500000000p-7, -0x1.3a85fa0000000p-5, -0x1.626e840000000p-5, 0x1.9bdcb00000000p-6, -0x1.69e8160000000p-4, -0x1.053b1a0000000p-4, -0x1.3ffc380000000p-4, -0x1.f3c5000000000p-5, 0x1.5f46b80000000p-5, -0x1.c03e5a0000000p-5, -0x1.a073740000000p-5, -0x1.9da1f00000000p-7, 0x1.e0ed000000000p-11, -0x1.140d180000000p-6, -0x1.231eb20000000p-4, 0x1.728cb40000000p-4, 0x1.31e7740000000p-4, 0x1.ebe2000000000p-5, -0x1.0a80b00000000p-6, 0x1.2968740000000p-4, -0x1.1a7a060000000p-4, 0x1.a251880000000p-5, -0x1.be99900000000p-6, -0x1.e937ba0000000p-5, 0x1.0fd0980000000p-5, 0x1.0f146c0000000p-4, -0x1.b255080000000p-6, -0x1.0480f00000000p-4, 0x1.99dbf00000000p-5, 0x1.32e1800000000p-10, 0x1.36ef580000000p-4, -0x1.2796520000000p-4, -0x1.1482d20000000p-5, -0x1.2058800000000p-6, -0x1.01b73e0000000p-4, 0x1.5046240000000p-4, -0x1.38a8840000000p-4, 0x1.13a6d00000000p-4, -0x1.b358680000000p-6, -0x1.1c8b7e0000000p-5, -0x1.75668a0000000p-5, -0x1.794ba00000000p-5, -0x1.8f6d940000000p-5, 0x1.519f900000000p-5, 0x1.0386e00000000p-4, -0x1.2a81880000000p-5, -0x1.4f56540000000p-4, 0x1.30ef6c0000000p-4, -0x1.01fb800000000p-8, -0x1.fea5380000000p-6, -0x1.7309e40000000p-5, -0x1.7247a00000000p-4, -0x1.bcf4880000000p-5, -0x1.1cedf20000000p-4, 0x1.4283680000000p-5, 0x1.a8e0000000000p-15, -0x1.64ff080000000p-4, 0x1.10e2a80000000p-5, 0x1.abf2780000000p-5, -0x1.ce08800000000p-6, 0x1.d94d300000000p-5, 0x1.a8cce00000000p-6, 0x1.36d5780000000p-4, -0x1.3f87800000000p-9, -0x1.b39f260000000p-5, 0x1.464adc0000000p-4, -0x1.d86dea0000000p-5, 0x1.2687500000000p-5, 0x1.9386100000000p-5, -0x1.5814c00000000p-8, -0x1.2f5d800000000p-4, 0x1.0da8a80000000p-6, -0x1.0e2ed00000000p-6, -0x1.22fb700000000p-6, 0x1.fb32700000000p-6, 0x1.842b000000000p-10, 0x1.1f8f5c0000000p-4, -0x1.23a4ce0000000p-4, -0x1.eed4980000000p-5, 0x1.56c3c00000000p-5, -0x1.e023980000000p-6, -0x1.abef5c0000000p-5, 0x1.199ca00000000p-6, 0x1.2840e40000000p-4, -0x1.6a9b1e0000000p-4, -0x1.17ba200000000p-5, 0x1.7773400000000p-6, 0x1.1baf100000000p-7, -0x1.12eafa0000000p-5, 0x1.5e9fa80000000p-5, 0x1.05b8380000000p-4, 0x1.34c4f80000000p-4, -0x1.79b0920000000p-5, 0x1.1e48380000000p-5, 0x1.a040000000000p-5, 0x1.348d800000000p-4, -0x1.8977d40000000p-5, 0x1.4786080000000p-5, 0x1.afbe400000000p-7, -0x1.64afd00000000p-6, 0x1.0e4d600000000p-4, -0x1.d44f8c0000000p-5, -0x1.d7d2680000000p-6, -0x1.571d620000000p-4, 0x1.a099980000000p-5, -0x1.3fa5ec0000000p-4, -0x1.9a57d40000000p-5, -0x1.72aefa0000000p-4, -0x1.16ab500000000p-6, -0x1.b0f5b80000000p-5, 0x1.c639880000000p-6, -0x1.ff4cea0000000p-5, -0x1.e54caa0000000p-5, -0x1.33d33e0000000p-5, 0x1.2e3f0c0000000p-4, -0x1.dc0b000000000p-9, 0x1.3d9bd80000000p-5, -0x1.28ebca0000000p-4, -0x1.c77b880000000p-5, -0x1.5529800000000p-5, -0x1.19d7780000000p-4, 0x1.746f180000000p-5, -0x1.81ab960000000p-4, 0x1.3080100000000p-4, 0x1.8a3ff00000000p-5, 0x1.0b706c0000000p-4, -0x1.8eb2fe0000000p-5, 0x1.066f500000000p-7, -0x1.fe3dae0000000p-5, -0x1.44eb720000000p-4, -0x1.5db61e0000000p-4, 0x1.cb03980000000p-6, 0x1.9887980000000p-5, 0x1.d607600000000p-5, -0x1.6135980000000p-4, -0x1.91ac280000000p-6, -0x1.7973000000000p-5, -0x1.7ab72e0000000p-5, 0x1.7259580000000p-4, -0x1.0517400000000p-4, 0x1.62a2a00000000p-4, -0x1.0e2ac80000000p-4, -0x1.508d500000000p-6, -0x1.308bd20000000p-5, 0x1.377aa40000000p-4, 0x1.76a2b80000000p-5, 0x1.64bc300000000p-4, 0x1.9962c00000000p-5, 0x1.5ab46c0000000p-4, -0x1.0596220000000p-4, 0x1.4ccd200000000p-6, -0x1.407d0c0000000p-5, -0x1.52c4c00000000p-8, -0x1.e433e00000000p-6, 0x1.f413300000000p-7, 0x1.0635500000000p-5, 0x1.fac6000000000p-8, -0x1.d9f4400000000p-7, 0x1.9b8a400000000p-7, 0x1.7773040000000p-4, 0x1.4f9a600000000p-7, -0x1.26db320000000p-4, 0x1.1d10300000000p-4, 0x1.baa4c00000000p-5, -0x1.86e3e00000000p-7, -0x1.9010600000000p-6, -0x1.10048c0000000p-4, -0x1.64fa5e0000000p-4, -0x1.62e1880000000p-4, -0x1.3d963e0000000p-5, 0x1.bc9e180000000p-5, 0x1.87b8980000000p-6, -0x1.6602b80000000p-4, -0x1.9915700000000p-5, -0x1.3a1d320000000p-4, -0x1.0343d20000000p-4, 0x1.f4a8280000000p-5, 0x1.d876f80000000p-5, -0x1.4664aa0000000p-5, 0x1.3b6a680000000p-6, 0x1.48cb340000000p-4, -0x1.3d3c1a0000000p-4, 0x1.3da5b00000000p-5, 0x1.359c440000000p-4, -0x1.3ddaa40000000p-4, 0x1.7e83fc0000000p-4, -0x1.7691100000000p-7, -0x1.1df4520000000p-4, -0x1.f06d000000000p-7, 0x1.a032c80000000p-5, 0x1.60c2000000000p-5, 0x1.c0c8380000000p-5, -0x1.490ba60000000p-5, 0x1.09f0280000000p-4, -0x1.16e6340000000p-5, 0x1.a3e4600000000p-6, 0x1.454a080000000p-4, 0x1.7f78200000000p-4, 0x1.64df780000000p-6, -0x1.54bf500000000p-6, -0x1.0231640000000p-4, 0x1.7036500000000p-6, -0x1.5b418c0000000p-4, -0x1.40e6300000000p-4, -0x1.2174100000000p-4, -0x1.eb79800000000p-8, -0x1.3c5d640000000p-4, -0x1.efaab00000000p-5, 0x1.1aa6080000000p-6, 0x1.142aa00000000p-8, 0x1.f87a600000000p-5, 0x1.1dc8080000000p-5, -0x1.0b9f5c0000000p-4, -0x1.0b01220000000p-4, 0x1.726f680000000p-4, -0x1.32b40a0000000p-4, -0x1.7ae77e0000000p-4, 0x1.13fcc80000000p-4, -0x1.fcce700000000p-7, 0x1.59a7080000000p-5, 0x1.1b47180000000p-4, 0x1.035bfc0000000p-4, 0x1.9cc0000000000p-11, 0x1.0aad6c0000000p-4, 0x1.bfe7e80000000p-6, -0x1.3c51500000000p-7, -0x1.f975080000000p-6, 0x1.4e8a380000000p-5, 0x1.5633d00000000p-4, 0x1.26bf480000000p-4, 0x1.01b15c0000000p-4, 0x1.09cec80000000p-5, -0x1.38b0f00000000p-7, 0x1.b860380000000p-5, -0x1.6c7f260000000p-4, -0x1.6d6e540000000p-4, -0x1.95af1e0000000p-5, -0x1.3fa1e00000000p-6, -0x1.126d5e0000000p-4, -0x1.1629b00000000p-4, 0x1.78ccb80000000p-6, 0x1.7446000000000p-11, 0x1.e555e00000000p-7, -0x1.10e00e0000000p-4, -0x1.05c4000000000p-7, -0x1.fbeea00000000p-7, 0x1.1319f00000000p-5, -0x1.5a1f1e0000000p-4, -0x1.b2800a0000000p-5, 0x1.6ec8000000000p-9, -0x1.4aa4b60000000p-4, -0x1.eda7e00000000p-6, 0x1.7d37fc0000000p-4, 0x1.79de500000000p-4, 0x1.f8b1e80000000p-5, 0x1.030a780000000p-4, -0x1.64aa800000000p-9, -0x1.25c7a00000000p-7, -0x1.3017660000000p-4, 0x1.557f4c0000000p-4, -0x1.18b01c0000000p-4, -0x1.197cfa0000000p-4, 0x1.de13580000000p-5, -0x1.0846c40000000p-5, -0x1.2305c60000000p-4, -0x1.f16b5e0000000p-5, -0x1.09fd4c0000000p-4, 0x1.2db6980000000p-5, 0x1.fd81900000000p-6, -0x1.42d43c0000000p-4, 0x1.e067e00000000p-5, -0x1.7b65bc0000000p-4, 0x1.2677700000000p-5, 0x1.b6b3e00000000p-5, 0x1.f8fe900000000p-5, -0x1.f568e60000000p-5, 0x1.2a5f700000000p-4, 0x1.ea93380000000p-6, -0x1.7ca7880000000p-4, -0x1.2373220000000p-5, 0x1.7558c00000000p-9, 0x1.649e800000000p-10, 0x1.588d700000000p-4, -0x1.700bbe0000000p-4, 0x1.0dbe900000000p-5, -0x1.4b37e00000000p-8, 0x1.00c0300000000p-5, 0x1.6dea500000000p-7, -0x1.1883ee0000000p-5, -0x1.418c700000000p-7, 0x1.016fb80000000p-5, 0x1.5494f00000000p-4, 0x1.c84ad00000000p-6, 0x1.1934d00000000p-7, -0x1.7797b60000000p-4, 0x1.936c500000000p-7, -0x1.ca17720000000p-5, 0x1.70e0a40000000p-4, 0x1.47b3580000000p-6, 0x1.136ba00000000p-6, 0x1.4135540000000p-4, 0x1.1db0900000000p-4, 0x1.cbb1000000000p-11, -0x1.228d660000000p-4, 0x1.1b867c0000000p-4, 0x1.8cafb00000000p-7, 0x1.845d300000000p-7, 0x1.120fc00000000p-8, -0x1.a3f8d20000000p-5, -0x1.a401800000000p-6, -0x1.4d4fb80000000p-4, 0x1.6703980000000p-6, 0x1.a994d00000000p-7, -0x1.309caa0000000p-4, -0x1.c575000000000p-6, 0x1.5387c80000000p-5, 0x1.dfc8e00000000p-6, -0x1.0298320000000p-4}
, {0x1.2ad3900000000p-4, -0x1.b07eba0000000p-5, 0x1.23df580000000p-5, 0x1.1ea9dc0000000p-4, 0x1.877a900000000p-5, 0x1.d74ec00000000p-5, 0x1.0460ac0000000p-4, -0x1.8dceac0000000p-5, 0x1.3fc2f00000000p-4, 0x1.de14c00000000p-6, 0x1.1804340000000p-4, 0x1.188b480000000p-5, 0x1.c11f880000000p-5, 0x1.82e6700000000p-6, -0x1.1efffa0000000p-4, -0x1.f289c00000000p-7, -0x1.ca1b420000000p-5, -0x1.821c400000000p-6, 0x1.358cc80000000p-4, -0x1.4d9fd80000000p-4, 0x1.2a90680000000p-5, -0x1.b7e6b80000000p-6, -0x1.e0bde00000000p-8, -0x1.12bd800000000p-8, -0x1.d7bde00000000p-8, 0x1.1ad3280000000p-6, -0x1.16d5740000000p-4, 0x1.239ee80000000p-6, 0x1.567ed00000000p-6, -0x1.7d754a0000000p-4, -0x1.1f49880000000p-4, -0x1.67a1d20000000p-4, 0x1.6de7bc0000000p-4, 0x1.5c66200000000p-5, 0x1.0176ec0000000p-4, 0x1.4394c00000000p-5, -0x1.18422c0000000p-4, -0x1.4fac580000000p-5, -0x1.5ea80e0000000p-5, 0x1.315f400000000p-8, -0x1.406b560000000p-5, -0x1.f60c300000000p-7, -0x1.9ff5f00000000p-7, 0x1.027ec80000000p-4, -0x1.8bd9a80000000p-5, 0x1.e3e5c00000000p-9, -0x1.bf66600000000p-5, 0x1.1e97680000000p-4, -0x1.0718800000000p-6, 0x1.d785800000000p-5, -0x1.6f8f980000000p-5, 0x1.d88f800000000p-9, 0x1.7174f40000000p-4, -0x1.10e4c00000000p-7, 0x1.d9cbd80000000p-6, 0x1.495a0c0000000p-4, 0x1.3a030c0000000p-4, -0x1.45ae640000000p-4, 0x1.5bcc400000000p-9, -0x1.7e54580000000p-6, 0x1.1832d40000000p-4, -0x1.7419b60000000p-4, -0x1.63fe800000000p-10, 0x1.41d2700000000p-6, -0x1.7addbe0000000p-4, -0x1.0140980000000p-6, -0x1.411b460000000p-4, -0x1.1f1e620000000p-4, 0x1.3a05a80000000p-5, 0x1.4d96880000000p-5, -0x1.4eb8860000000p-5, -0x1.01867c0000000p-4, 0x1.6d5b400000000p-9, -0x1.5754e00000000p-6, -0x1.bb04e00000000p-7, 0x1.7c0c900000000p-5, -0x1.fa9cf00000000p-6, -0x1.1ba8040000000p-4, 0x1.8d1e100000000p-5, 0x1.026ac80000000p-5, 0x1.223e800000000p-9, 0x1.f9af680000000p-5, 0x1.01fb500000000p-4, 0x1.24202c0000000p-4, -0x1.9053400000000p-6, -0x1.2516160000000p-4, -0x1.8013ac0000000p-4, -0x1.f717ae0000000p-5, -0x1.1359f00000000p-7, -0x1.622f780000000p-4, 0x1.8a3e300000000p-5, 0x1.08f3080000000p-4, 0x1.714a580000000p-4, 0x1.f59a800000000p-10, 0x1.6415480000000p-5, 0x1.7dc5cc0000000p-4, -0x1.20e38a0000000p-4, -0x1.fb8a100000000p-6, -0x1.f274800000000p-8, -0x1.4199400000000p-6, 0x1.cdcd600000000p-8, -0x1.bc6c500000000p-6, 0x1.256cd00000000p-4, 0x1.f104b00000000p-7, -0x1.279ccc0000000p-5, 0x1.65be4c0000000p-4, 0x1.2789040000000p-4, 0x1.298c980000000p-5, -0x1.abce4a0000000p-5, 0x1.359c180000000p-4, 0x1.156b6c0000000p-4, 0x1.270be00000000p-7, -0x1.a5355e0000000p-5, -0x1.23780e0000000p-4, -0x1.7a03140000000p-4, 0x1.5198c80000000p-5, 0x1.fdc7200000000p-8, 0x1.b5dc200000000p-6, 0x1.a797e00000000p-7, 0x1.77f1400000000p-8, 0x1.36f4d80000000p-4, -0x1.1052a00000000p-4, 0x1.f132680000000p-5, 0x1.a19a500000000p-7, 0x1.d17df80000000p-5, 0x1.435da80000000p-4, 0x1.b153f00000000p-5, 0x1.70f6000000000p-4, 0x1.444f700000000p-4, 0x1.641b100000000p-4, 0x1.6a79780000000p-5, -0x1.4ce6520000000p-5, -0x1.219a6c0000000p-5, 0x1.1d75080000000p-6, -0x1.ee01e20000000p-5, 0x1.13d3680000000p-5, 0x1.18a19c0000000p-4, -0x1.60ad200000000p-8, -0x1.e33ef00000000p-7, 0x1.f4b0d80000000p-5, 0x1.5d8c400000000p-4, 0x1.0aa1600000000p-5, 0x1.693aa00000000p-7, 0x1.7f34300000000p-7, -0x1.6296400000000p-9, 0x1.4a0fb80000000p-6, 0x1.0f9d2c0000000p-4, -0x1.1fd2040000000p-4, -0x1.60d0100000000p-4, -0x1.3259e00000000p-7, -0x1.9847060000000p-5, -0x1.a352200000000p-8, 0x1.7c66a00000000p-5, 0x1.81a4280000000p-6, -0x1.28abfc0000000p-5, 0x1.3a5bac0000000p-4, 0x1.8607700000000p-7, -0x1.7031800000000p-6, -0x1.839a560000000p-5, -0x1.323c500000000p-6, 0x1.6432a00000000p-5, -0x1.7e98a40000000p-4, 0x1.dc8fe00000000p-7, -0x1.7c0ad60000000p-4, -0x1.6709c80000000p-4, 0x1.ac63580000000p-5, -0x1.0cce180000000p-6, 0x1.4cac900000000p-4, 0x1.9933400000000p-8, 0x1.2a2fe80000000p-5, 0x1.4382dc0000000p-4, -0x1.1f8c1e0000000p-4, -0x1.3928ac0000000p-4, 0x1.7dced80000000p-5, -0x1.17e3100000000p-4, 0x1.c7d3400000000p-5, -0x1.f9f39a0000000p-5, -0x1.0702600000000p-4, 0x1.ddd2100000000p-5, -0x1.24c69e0000000p-5, 0x1.be7f480000000p-5, -0x1.0e32c40000000p-5, 0x1.4f54f40000000p-4, -0x1.e48d460000000p-5, -0x1.5703500000000p-4, 0x1.9804f80000000p-5, 0x1.f164400000000p-5, -0x1.3ecf780000000p-4, -0x1.8b42660000000p-5, 0x1.2b4d780000000p-6, -0x1.1d85b80000000p-6, -0x1.bb77420000000p-5, -0x1.9baeb80000000p-6, -0x1.4fa4e00000000p-7, -0x1.4243000000000p-10, -0x1.7219800000000p-9, 0x1.ea84300000000p-5, 0x1.76b0d00000000p-4, 0x1.8022000000000p-8, -0x1.25980c0000000p-4, 0x1.6771b40000000p-4, 0x1.f856400000000p-5, 0x1.7533400000000p-5, -0x1.164c840000000p-4, -0x1.250ae00000000p-4, -0x1.6a3f3c0000000p-4, -0x1.f70ce40000000p-5, 0x1.4267a80000000p-5, -0x1.3ef6a40000000p-4, -0x1.26966c0000000p-5, 0x1.9cfc080000000p-6, 0x1.2cc1e00000000p-6, -0x1.3c8f340000000p-5, 0x1.0f67180000000p-4, 0x1.1236e80000000p-6, 0x1.0a0d900000000p-6, 0x1.3a29000000000p-4, 0x1.9578180000000p-5, 0x1.59c8300000000p-4, -0x1.6432200000000p-6, 0x1.0000dc0000000p-4, -0x1.3ae1200000000p-6, -0x1.5597800000000p-8, 0x1.1b0be00000000p-5, -0x1.62557c0000000p-4, -0x1.44d4700000000p-4, -0x1.f5f7340000000p-5, 0x1.5d47e40000000p-4, -0x1.b8914c0000000p-5, 0x1.9b70700000000p-6, 0x1.ac4bb80000000p-5, -0x1.4ba4d20000000p-5, 0x1.bb51780000000p-5, -0x1.0430dc0000000p-4, 0x1.4c7e840000000p-4, 0x1.fae1b80000000p-5, 0x1.7ad7b80000000p-5, 0x1.7704f40000000p-4, 0x1.fa36100000000p-5, 0x1.2740f00000000p-6, -0x1.d9a7000000000p-7, -0x1.b38c2a0000000p-5, -0x1.75157e0000000p-4, 0x1.bc07800000000p-10, -0x1.3e5a880000000p-4, 0x1.b76bf80000000p-6, -0x1.75c5fa0000000p-4, -0x1.f2ead00000000p-7, 0x1.6aff200000000p-4, 0x1.f99d880000000p-5, -0x1.b997900000000p-7, -0x1.e374260000000p-5, 0x1.8097b80000000p-4, 0x1.fac4d00000000p-6, -0x1.354d400000000p-7, -0x1.d0f0c00000000p-9, -0x1.dc84fa0000000p-5, -0x1.ee29380000000p-6, 0x1.562e1c0000000p-4, -0x1.27238c0000000p-4, 0x1.2d62c00000000p-8, -0x1.633a8e0000000p-4, 0x1.a754f00000000p-7, -0x1.d4440e0000000p-5, -0x1.14bd800000000p-10, -0x1.9970400000000p-8, 0x1.2752f00000000p-5, 0x1.1254000000000p-5, -0x1.601a120000000p-5, 0x1.0754380000000p-5, -0x1.d9863c0000000p-5, 0x1.f42bb00000000p-5, -0x1.2ebbe00000000p-4, 0x1.2c28b00000000p-5, -0x1.4d7f520000000p-5, -0x1.c1b9980000000p-6, -0x1.805ab00000000p-5, 0x1.a42e500000000p-7, -0x1.6840cc0000000p-5, 0x1.34bf180000000p-6, 0x1.55ba400000000p-8, -0x1.48b3040000000p-4, 0x1.da70a00000000p-8, -0x1.8d38500000000p-7, -0x1.fb831c0000000p-5, -0x1.55d76a0000000p-5, -0x1.b628500000000p-5, 0x1.0e13380000000p-5, -0x1.563b780000000p-5, -0x1.46a0300000000p-7, -0x1.b9e6e80000000p-5, -0x1.5926a20000000p-4, -0x1.55a40c0000000p-4, 0x1.ebb1b80000000p-6, -0x1.5bcfd40000000p-4, -0x1.b36a700000000p-5, -0x1.6f17200000000p-4, -0x1.58ff480000000p-6, 0x1.200cc80000000p-4, 0x1.fe7d400000000p-6, 0x1.c04a480000000p-5, -0x1.7d87fe0000000p-5, 0x1.3a55900000000p-5, -0x1.ff94e80000000p-6, 0x1.48e3080000000p-5, 0x1.d1e1880000000p-5, -0x1.c2aa800000000p-5, 0x1.0fc2c80000000p-4, 0x1.3bddbc0000000p-4, 0x1.0571e00000000p-8, -0x1.c9188e0000000p-5, -0x1.34e6a00000000p-8, 0x1.1060740000000p-4, -0x1.1549be0000000p-5, 0x1.b046480000000p-6, 0x1.faa5600000000p-5, -0x1.f906c20000000p-5, 0x1.8f96800000000p-9, -0x1.6f4bca0000000p-4, -0x1.1fc92a0000000p-4, -0x1.fa16800000000p-9, 0x1.19cad80000000p-4, 0x1.71e4700000000p-5, 0x1.f20a680000000p-5, -0x1.1fc73c0000000p-4, 0x1.1b65c00000000p-7, -0x1.47ee400000000p-7, -0x1.7572440000000p-4, -0x1.0a83e00000000p-7, -0x1.cf71a00000000p-8, 0x1.3551480000000p-5, 0x1.6ca2ec0000000p-4, 0x1.2079e00000000p-4, -0x1.107dfc0000000p-5, 0x1.8a82400000000p-9, -0x1.4ea3840000000p-5, -0x1.dffb140000000p-5, -0x1.0065060000000p-4, 0x1.e7ab000000000p-8, 0x1.7920500000000p-4, 0x1.5ff5300000000p-6, -0x1.5deb900000000p-4, -0x1.cfbc140000000p-5, -0x1.2bb6080000000p-6, 0x1.5938200000000p-5, 0x1.a631d80000000p-6, -0x1.1161320000000p-4, -0x1.f7e5020000000p-5, -0x1.5dd1640000000p-4, -0x1.5db6980000000p-6, -0x1.5032000000000p-8, -0x1.55bde00000000p-6, 0x1.1ad8a00000000p-5, 0x1.1ae6300000000p-7, -0x1.4dfd420000000p-4, 0x1.ff17200000000p-7, -0x1.3325000000000p-4, 0x1.2dd5580000000p-5, 0x1.4ae3680000000p-4, 0x1.78bef00000000p-7, -0x1.b2cc000000000p-7, -0x1.2879a80000000p-4, 0x1.612e600000000p-5, 0x1.a6ddb00000000p-7, 0x1.7b26d80000000p-4, 0x1.b6d3000000000p-11, 0x1.16add00000000p-4, -0x1.5311100000000p-5, 0x1.ce60f80000000p-5, 0x1.8082f00000000p-4, 0x1.0628700000000p-6, -0x1.2df8160000000p-4, -0x1.05b2100000000p-4, 0x1.87fb400000000p-5, 0x1.3c1f380000000p-5, -0x1.0616580000000p-6, 0x1.700e700000000p-6, 0x1.5825c80000000p-4, -0x1.6de2100000000p-7, 0x1.22c8480000000p-6, -0x1.80b6960000000p-4, -0x1.43e1e40000000p-4, -0x1.36cc120000000p-4, -0x1.41c6400000000p-4, -0x1.42f8200000000p-5, -0x1.3968980000000p-4, -0x1.e2e0800000000p-7, -0x1.5421fe0000000p-5, 0x1.0193180000000p-5, 0x1.5588300000000p-6, 0x1.0c6fd40000000p-4, -0x1.1e02920000000p-4, -0x1.813b200000000p-7, 0x1.3286700000000p-4, -0x1.5378be0000000p-5, 0x1.69e6700000000p-4, -0x1.ea72ae0000000p-5, -0x1.80d53c0000000p-4, 0x1.74aad80000000p-4, 0x1.5038100000000p-5, -0x1.0ee1320000000p-4, 0x1.33ffe80000000p-4, 0x1.a84e180000000p-5, -0x1.7fa8580000000p-6, -0x1.1a79e00000000p-8, -0x1.4d58400000000p-7, -0x1.6232be0000000p-4, -0x1.81d1200000000p-4, -0x1.f289b00000000p-6, 0x1.edd7880000000p-5, -0x1.ce6df80000000p-6, -0x1.ba5df20000000p-5, 0x1.1d72400000000p-5, 0x1.cb37f80000000p-6, 0x1.6de5780000000p-5, -0x1.bbf0080000000p-6, -0x1.7ecbf60000000p-4, 0x1.a84f880000000p-5, 0x1.70eb380000000p-4, 0x1.f28e000000000p-11, 0x1.585bf40000000p-4, -0x1.3b01f00000000p-7, -0x1.edca4e0000000p-5, 0x1.74024c0000000p-4, 0x1.1c11080000000p-5, -0x1.77e1440000000p-4, -0x1.02b9da0000000p-4, 0x1.8058a80000000p-4, -0x1.65cd580000000p-6, 0x1.bbed200000000p-6, 0x1.207ec00000000p-9, 0x1.131b800000000p-4, 0x1.8ee9000000000p-9, 0x1.3346800000000p-9, -0x1.6699fa0000000p-4, 0x1.1f00a80000000p-4, -0x1.b0c9c40000000p-5, -0x1.baa3b00000000p-7, 0x1.11df500000000p-5, 0x1.70da480000000p-4, -0x1.018f340000000p-4, 0x1.ef9a500000000p-7, -0x1.8f7a580000000p-5, -0x1.7b04000000000p-8, -0x1.29fe0a0000000p-4, 0x1.efdb000000000p-11, -0x1.abd5e80000000p-6, -0x1.b67a000000000p-8, 0x1.09eac00000000p-9, 0x1.fd06400000000p-8, 0x1.2a679c0000000p-4, 0x1.552d380000000p-5, 0x1.b5f4880000000p-5, -0x1.e0e2760000000p-5, 0x1.0f4d400000000p-5, 0x1.6b4a080000000p-6, 0x1.7a88c00000000p-5, -0x1.0cc7400000000p-4, -0x1.6bcdf00000000p-5, 0x1.0c11c00000000p-9, -0x1.0659280000000p-6, 0x1.094f440000000p-4, 0x1.5f5a900000000p-7, 0x1.7fd5900000000p-4, -0x1.6db1a00000000p-8, 0x1.0f2cb00000000p-4, 0x1.1f1db00000000p-5, 0x1.563c900000000p-5, 0x1.7f29580000000p-6, 0x1.4279b00000000p-4, 0x1.c8f4000000000p-10, 0x1.ac90000000000p-14, 0x1.6392780000000p-5, 0x1.347cb00000000p-6, 0x1.96f6280000000p-6, 0x1.584c640000000p-4, -0x1.1c88d40000000p-4, 0x1.e93c400000000p-9, -0x1.721c3e0000000p-5, -0x1.8073e40000000p-4, -0x1.430caa0000000p-4, 0x1.d642b80000000p-5, -0x1.0a8db40000000p-4, -0x1.1ede640000000p-4, 0x1.4336fc0000000p-4, -0x1.140a000000000p-9, -0x1.1eae180000000p-6, 0x1.955fe00000000p-8, 0x1.a7d8c80000000p-6, 0x1.09cdc00000000p-5, -0x1.7523ee0000000p-4, 0x1.119b300000000p-4, 0x1.c39ac00000000p-9, 0x1.7e635c0000000p-4, 0x1.78d8e00000000p-6, -0x1.f5e6940000000p-5, -0x1.6509680000000p-6, -0x1.4791be0000000p-4, 0x1.060db00000000p-5, -0x1.4a13b20000000p-4, 0x1.2d72340000000p-4, -0x1.0aabae0000000p-4, -0x1.d5bd9a0000000p-5, -0x1.9c65e80000000p-5, -0x1.401cac0000000p-4, 0x1.0798000000000p-8, 0x1.6131d00000000p-7, -0x1.2cf7fe0000000p-5, -0x1.93cfea0000000p-5, 0x1.6017100000000p-5, -0x1.34c96a0000000p-5, -0x1.6fae880000000p-6, -0x1.6ccb380000000p-5, 0x1.4b71f40000000p-4, -0x1.54c5280000000p-6, -0x1.0492980000000p-6, -0x1.4014080000000p-4, -0x1.7f13240000000p-4, -0x1.886e020000000p-5, 0x1.61e4dc0000000p-4, 0x1.5371800000000p-10, 0x1.d228000000000p-14, -0x1.4a125a0000000p-4, 0x1.7bc6800000000p-8, 0x1.dee9a00000000p-5, 0x1.fc33000000000p-6, 0x1.6097b00000000p-6, -0x1.ce73b80000000p-6, -0x1.9a70300000000p-7, -0x1.2124600000000p-5, -0x1.48cb700000000p-6, 0x1.40c3bc0000000p-4, 0x1.a83cb00000000p-5, 0x1.2d61f00000000p-6, -0x1.6da8600000000p-6, 0x1.20aa000000000p-12, 0x1.6e17980000000p-4, -0x1.e7dd000000000p-6, -0x1.4164f80000000p-4, 0x1.00a4140000000p-4, 0x1.1f73640000000p-4, -0x1.1598e00000000p-6, 0x1.4cd2400000000p-4, 0x1.45d1480000000p-5, 0x1.a1fa300000000p-6, -0x1.e9dcd60000000p-5, 0x1.6d79540000000p-4, -0x1.65cae80000000p-5, 0x1.bb32600000000p-5, -0x1.64308a0000000p-4, 0x1.663b280000000p-4, -0x1.91016a0000000p-5, 0x1.8127800000000p-6, -0x1.d2d4c00000000p-9, 0x1.99c3400000000p-9, -0x1.5c44280000000p-5, -0x1.2026620000000p-4, -0x1.c51f440000000p-5, -0x1.7fe2000000000p-5, -0x1.08c35c0000000p-5, -0x1.d1232a0000000p-5, 0x1.1362b80000000p-5, 0x1.696aec0000000p-4, -0x1.8be4ae0000000p-5, -0x1.5a93ea0000000p-4, -0x1.d3bf360000000p-5, -0x1.277f380000000p-6, -0x1.f4bc080000000p-6, 0x1.3227d00000000p-5, -0x1.60ddca0000000p-5, 0x1.4e3ed00000000p-5, 0x1.7d25f80000000p-4, 0x1.69653c0000000p-4, 0x1.e023800000000p-6, -0x1.3d2ffa0000000p-4, 0x1.c4fa280000000p-6}
, {-0x1.245e000000000p-10, -0x1.6340c00000000p-5, -0x1.8ac9260000000p-5, 0x1.7001d40000000p-4, 0x1.ebfec00000000p-5, 0x1.2e16280000000p-4, 0x1.8b59280000000p-5, 0x1.012bf80000000p-6, 0x1.00ab200000000p-5, 0x1.6ad4800000000p-10, 0x1.2b32840000000p-4, -0x1.b67c7c0000000p-5, 0x1.e8fb180000000p-6, 0x1.1cfc140000000p-4, 0x1.a72d400000000p-5, -0x1.0c12b20000000p-4, -0x1.2750c60000000p-5, -0x1.7896bc0000000p-4, 0x1.8628b80000000p-5, -0x1.afaf900000000p-7, 0x1.3801b00000000p-7, 0x1.1202240000000p-4, -0x1.0792380000000p-6, -0x1.c594fc0000000p-5, 0x1.f401b80000000p-5, 0x1.a4ec980000000p-5, -0x1.ae164e0000000p-5, -0x1.4636a40000000p-5, 0x1.5333080000000p-4, 0x1.7e5be00000000p-8, -0x1.5240180000000p-6, -0x1.6f1b940000000p-5, -0x1.1704c60000000p-4, 0x1.46b7200000000p-8, -0x1.c608040000000p-5, 0x1.f5be300000000p-7, 0x1.e2fa000000000p-8, -0x1.d59ba00000000p-6, -0x1.c302200000000p-6, -0x1.4f13be0000000p-4, 0x1.4551400000000p-6, 0x1.2f34400000000p-4, -0x1.1beef60000000p-4, 0x1.9508c80000000p-5, 0x1.403d200000000p-5, -0x1.a7611e0000000p-5, 0x1.eb5cf00000000p-6, -0x1.279c780000000p-4, 0x1.95e5900000000p-5, -0x1.67d7180000000p-6, 0x1.5faf380000000p-5, 0x1.7e0bf00000000p-5, 0x1.f959400000000p-8, -0x1.774d000000000p-4, -0x1.c8ae9e0000000p-5, -0x1.f0dd200000000p-8, -0x1.3f094a0000000p-4, 0x1.7615500000000p-5, -0x1.56f0f00000000p-7, -0x1.7dca4c0000000p-4, 0x1.7d3cd00000000p-4, 0x1.273bc80000000p-4, -0x1.4b2dee0000000p-4, 0x1.b7d8500000000p-5, -0x1.a2e7cc0000000p-5, -0x1.2087d00000000p-7, -0x1.c30d600000000p-5, -0x1.e634a80000000p-6, 0x1.5b3aa80000000p-5, -0x1.3daddc0000000p-4, -0x1.8f61cc0000000p-5, 0x1.5e23500000000p-6, 0x1.84f1680000000p-6, 0x1.0a4f880000000p-5, 0x1.4420c00000000p-4, 0x1.17b03c0000000p-4, -0x1.a652e00000000p-8, -0x1.3e49e00000000p-4, 0x1.1259580000000p-4, -0x1.6516a80000000p-4, -0x1.74d61c0000000p-4, -0x1.f046ca0000000p-5, -0x1.ca260c0000000p-5, 0x1.df84480000000p-6, -0x1.3fc79a0000000p-5, 0x1.316a300000000p-4, 0x1.23a7800000000p-5, -0x1.bec0c00000000p-6, 0x1.6081180000000p-4, -0x1.395edc0000000p-4, 0x1.02bde80000000p-4, 0x1.40dd400000000p-8, 0x1.f74a980000000p-5, -0x1.ac0c240000000p-5, -0x1.c55cd00000000p-7, -0x1.9d72ec0000000p-5, -0x1.60510a0000000p-4, -0x1.006f140000000p-4, -0x1.4ea4d00000000p-7, 0x1.ead8900000000p-7, 0x1.4c97180000000p-5, 0x1.c2d8d80000000p-5, -0x1.6ca7d80000000p-4, 0x1.a1ce100000000p-5, 0x1.54b0180000000p-4, 0x1.509dd80000000p-5, 0x1.4fa45c0000000p-4, -0x1.182d800000000p-10, 0x1.d510f80000000p-6, -0x1.e1d7200000000p-5, 0x1.ed60e00000000p-5, -0x1.1b3d500000000p-6, 0x1.0664800000000p-4, 0x1.664c700000000p-6, -0x1.4e25760000000p-4, -0x1.7aae0c0000000p-4, 0x1.6fcb600000000p-6, -0x1.3338680000000p-4, 0x1.4967940000000p-4, 0x1.7852000000000p-10, -0x1.c27f660000000p-5, 0x1.f0ec900000000p-6, 0x1.c869680000000p-5, -0x1.70ab200000000p-4, 0x1.585b840000000p-4, 0x1.85b1f80000000p-6, -0x1.3d1eb00000000p-6, -0x1.b769280000000p-6, 0x1.e350a00000000p-8, 0x1.587a5c0000000p-4, -0x1.2a0dc00000000p-5, -0x1.36e7340000000p-4, -0x1.9bf3400000000p-5, 0x1.8105480000000p-4, -0x1.5c882c0000000p-5, 0x1.cd29d00000000p-5, -0x1.c45e400000000p-8, -0x1.4245f80000000p-4, 0x1.2f12180000000p-5, -0x1.3d04980000000p-4, -0x1.8fb58e0000000p-5, 0x1.0a9ca00000000p-5, 0x1.a1d3480000000p-6, 0x1.6a16880000000p-5, -0x1.494a800000000p-10, 0x1.7bf2f00000000p-5, 0x1.09e7800000000p-6, 0x1.56f6d00000000p-4, -0x1.4de25c0000000p-4, 0x1.c42fb80000000p-5, -0x1.be19400000000p-7, 0x1.6a9d600000000p-4, -0x1.cd15ce0000000p-5, -0x1.8306780000000p-5, 0x1.d844200000000p-5, 0x1.694b500000000p-6, 0x1.d48b380000000p-5, -0x1.672fc60000000p-4, -0x1.33a6c00000000p-4, 0x1.51f4c00000000p-8, 0x1.813a200000000p-7, 0x1.7d5ab00000000p-6, -0x1.3d5cc00000000p-4, -0x1.c0d0000000000p-15, 0x1.0d7a600000000p-4, 0x1.47a9580000000p-4, 0x1.eca4f80000000p-5, 0x1.5513340000000p-4, -0x1.1b54920000000p-4, -0x1.d5ac440000000p-5, -0x1.6af1ee0000000p-4, -0x1.3b47400000000p-6, -0x1.eea2300000000p-7, 0x1.c27e800000000p-7, 0x1.d94dd80000000p-5, 0x1.f603680000000p-5, -0x1.ff33aa0000000p-5, -0x1.fe7ff60000000p-5, 0x1.c931f00000000p-5, 0x1.79e0780000000p-6, 0x1.1753c00000000p-8, 0x1.3cd2600000000p-8, -0x1.7fc27e0000000p-5, 0x1.24e97c0000000p-4, 0x1.919ed80000000p-5, 0x1.964b000000000p-7, -0x1.92c91c0000000p-5, 0x1.3f8bb00000000p-5, 0x1.d7eee00000000p-6, -0x1.44cb000000000p-8, -0x1.9e2b7c0000000p-5, -0x1.031a500000000p-6, 0x1.4022a00000000p-7, -0x1.6bfa680000000p-5, 0x1.1fb5580000000p-5, -0x1.5c01b00000000p-5, -0x1.1985d00000000p-7, -0x1.e107000000000p-6, -0x1.8068b40000000p-4, -0x1.a49bc20000000p-5, 0x1.3a90000000000p-14, -0x1.7227740000000p-5, 0x1.cdae800000000p-8, 0x1.83c6900000000p-6, -0x1.38fdf20000000p-4, -0x1.779ea00000000p-8, -0x1.9e903e0000000p-5, -0x1.1a843a0000000p-4, -0x1.347e2a0000000p-4, -0x1.dc9fde0000000p-5, -0x1.25d4940000000p-4, 0x1.e3dc100000000p-6, 0x1.b43dc00000000p-5, 0x1.438eac0000000p-4, 0x1.72b8100000000p-6, 0x1.4c097c0000000p-4, -0x1.4cd9d00000000p-7, -0x1.3bf9980000000p-4, -0x1.e77cd00000000p-7, 0x1.5d18f00000000p-5, -0x1.53d7480000000p-4, 0x1.9b4b900000000p-5, 0x1.9def600000000p-6, 0x1.a975d80000000p-5, -0x1.c6bec00000000p-6, -0x1.7354480000000p-6, 0x1.9c87000000000p-9, -0x1.5ed99c0000000p-4, -0x1.259d300000000p-5, -0x1.ea1ba00000000p-5, 0x1.cde6d00000000p-5, -0x1.d937000000000p-6, -0x1.3cb6800000000p-8, -0x1.4ca1a40000000p-4, -0x1.14b7020000000p-5, -0x1.9faa8c0000000p-5, 0x1.6b67ac0000000p-4, -0x1.b8c3780000000p-6, -0x1.0f66820000000p-5, -0x1.2939a80000000p-4, -0x1.3907c40000000p-4, 0x1.c657000000000p-5, -0x1.3fc1100000000p-7, -0x1.5e10f00000000p-6, -0x1.ee79de0000000p-5, 0x1.0012300000000p-5, -0x1.98f7dc0000000p-5, 0x1.67e6c00000000p-8, 0x1.d2ba000000000p-8, 0x1.abe8c00000000p-5, 0x1.087f580000000p-4, -0x1.3461900000000p-7, -0x1.7ddf3c0000000p-5, 0x1.95e0e80000000p-5, -0x1.42938e0000000p-5, 0x1.01ef540000000p-4, -0x1.ea93be0000000p-5, -0x1.eb82da0000000p-5, -0x1.00d05a0000000p-4, -0x1.49cb760000000p-5, 0x1.f1f1a80000000p-5, 0x1.5e25a40000000p-4, 0x1.3982e00000000p-8, -0x1.9dccda0000000p-5, 0x1.6864c40000000p-4, -0x1.7100080000000p-4, 0x1.1bb2640000000p-4, 0x1.cb5c100000000p-7, -0x1.2e8eea0000000p-4, 0x1.d6ad500000000p-5, -0x1.74a5b00000000p-5, 0x1.e86ac80000000p-6, 0x1.15adc00000000p-4, -0x1.4645a00000000p-5, -0x1.f1adb00000000p-5, 0x1.5a7ff00000000p-5, 0x1.8e5f100000000p-5, -0x1.ad66ca0000000p-5, 0x1.5913580000000p-6, -0x1.ab087e0000000p-5, 0x1.cca2380000000p-5, -0x1.2025ae0000000p-5, 0x1.6d93e40000000p-4, -0x1.7904960000000p-4, 0x1.34ea780000000p-4, 0x1.f6c0800000000p-9, 0x1.2181400000000p-4, -0x1.09b6300000000p-4, -0x1.ffca400000000p-9, -0x1.499eb60000000p-4, 0x1.72b8180000000p-4, 0x1.13e8000000000p-8, 0x1.a21a480000000p-5, 0x1.eb41600000000p-5, 0x1.3273800000000p-7, -0x1.bac2840000000p-5, 0x1.62b8e80000000p-5, 0x1.0dd3b00000000p-4, 0x1.af1e480000000p-6, 0x1.28eb140000000p-4, 0x1.69b59c0000000p-4, 0x1.a4fc400000000p-8, 0x1.bb51300000000p-6, 0x1.52f1b80000000p-4, -0x1.f934200000000p-7, 0x1.9ff7e80000000p-5, -0x1.e6b95a0000000p-5, 0x1.0dfcb00000000p-7, -0x1.236bc20000000p-4, 0x1.5efc900000000p-6, -0x1.5aed500000000p-6, -0x1.152a480000000p-6, 0x1.cc8f400000000p-9, -0x1.357b8c0000000p-4, -0x1.e41d060000000p-5, -0x1.15f1340000000p-4, -0x1.64cf440000000p-5, 0x1.34f4000000000p-10, -0x1.53fd7c0000000p-5, 0x1.4ccaa40000000p-4, -0x1.0afb260000000p-4, 0x1.56f4e00000000p-6, -0x1.699b200000000p-8, 0x1.6cac700000000p-7, -0x1.25db940000000p-4, 0x1.407c900000000p-5, 0x1.3d81c40000000p-4, 0x1.cc08600000000p-6, -0x1.4ea7480000000p-6, 0x1.584d680000000p-6, 0x1.010b140000000p-4, 0x1.5cf6a00000000p-5, 0x1.04aa380000000p-4, 0x1.36fba00000000p-4, -0x1.1aee180000000p-6, -0x1.0e75960000000p-4, -0x1.fc30b00000000p-5, -0x1.662dda0000000p-4, 0x1.5ca5600000000p-8, 0x1.76a5940000000p-4, 0x1.ce93a00000000p-8, -0x1.72736a0000000p-4, -0x1.3bcdbe0000000p-4, 0x1.15b3000000000p-7, 0x1.7041300000000p-4, -0x1.9fc6400000000p-8, -0x1.f724ba0000000p-5, -0x1.f2c5800000000p-5, 0x1.90b2e00000000p-6, 0x1.11a3580000000p-6, 0x1.1785940000000p-4, -0x1.4eb86e0000000p-4, 0x1.3927d40000000p-4, 0x1.2d14380000000p-5, -0x1.437e8a0000000p-4, 0x1.1a7a680000000p-5, -0x1.7876fc0000000p-5, -0x1.6a45f00000000p-6, -0x1.0efea40000000p-5, 0x1.5a8c000000000p-8, -0x1.70d7380000000p-5, 0x1.07b76c0000000p-4, 0x1.7ea7580000000p-6, -0x1.1f4cda0000000p-5, -0x1.23e8120000000p-4, 0x1.58adc80000000p-6, 0x1.565f080000000p-5, 0x1.1e9e840000000p-4, -0x1.4ff1060000000p-5, -0x1.d707340000000p-5, 0x1.77c8e00000000p-7, 0x1.361dd80000000p-6, 0x1.34fde40000000p-4, -0x1.e1dd640000000p-5, 0x1.99c3700000000p-5, -0x1.529f000000000p-9, -0x1.dced500000000p-7, -0x1.09e6540000000p-4, -0x1.a8f9da0000000p-5, -0x1.5380a20000000p-4, 0x1.92ef800000000p-6, -0x1.17c2d20000000p-4, 0x1.2b0c380000000p-5, 0x1.69b3900000000p-4, 0x1.005e680000000p-5, 0x1.605a080000000p-4, 0x1.fa82180000000p-5, 0x1.7575400000000p-5, -0x1.4652a00000000p-4, -0x1.2207380000000p-4, 0x1.ec71500000000p-5, -0x1.a75ea00000000p-5, -0x1.d27a400000000p-8, 0x1.a9f5500000000p-5, -0x1.6565400000000p-6, -0x1.c5afc80000000p-6, 0x1.3599080000000p-4, -0x1.aa36e00000000p-8, -0x1.37f0e00000000p-4, 0x1.0464380000000p-5, -0x1.f687400000000p-9, 0x1.3b32880000000p-6, 0x1.2bdd340000000p-4, 0x1.7341880000000p-5, 0x1.bacc900000000p-5, 0x1.32b4d80000000p-5, -0x1.aa481e0000000p-5, 0x1.9514580000000p-5, -0x1.74f3520000000p-4, -0x1.1a0cc40000000p-4, 0x1.b6a9900000000p-5, 0x1.0313780000000p-4, -0x1.74c8740000000p-4, 0x1.4e25280000000p-4, -0x1.b13b320000000p-5, 0x1.a2ff400000000p-6, 0x1.1424f80000000p-5, -0x1.b75f100000000p-7, 0x1.ae38080000000p-5, 0x1.cd4a900000000p-5, -0x1.1ddcc40000000p-5, -0x1.1b4a300000000p-5, -0x1.3de8d20000000p-5, 0x1.f5e7800000000p-9, 0x1.9e31500000000p-5, -0x1.5659920000000p-4, -0x1.6496900000000p-6, -0x1.af5cfc0000000p-5, 0x1.3d69b80000000p-4, 0x1.3d78900000000p-7, -0x1.96cc400000000p-5, 0x1.1cbfc80000000p-4, 0x1.0800d80000000p-4, 0x1.4e9d340000000p-4, -0x1.3baa080000000p-5, 0x1.0822800000000p-5, 0x1.d46a680000000p-6, 0x1.57e7b80000000p-5, -0x1.e1b2c00000000p-9, 0x1.971a400000000p-7, 0x1.38caa80000000p-6, 0x1.7db5800000000p-10, -0x1.d2172c0000000p-5, 0x1.83f5000000000p-7, -0x1.59f7c20000000p-5, -0x1.79bd8c0000000p-4, -0x1.7ce48a0000000p-5, -0x1.b0b0600000000p-7, -0x1.b759100000000p-7, -0x1.9a97000000000p-10, 0x1.778d600000000p-7, 0x1.3c05e80000000p-4, -0x1.e097700000000p-7, -0x1.b671e40000000p-5, -0x1.5f6b1e0000000p-5, -0x1.5cbab80000000p-4, -0x1.0b03a00000000p-7, -0x1.a561be0000000p-5, -0x1.7a1e360000000p-4, 0x1.e3ad400000000p-6, 0x1.63cf100000000p-4, 0x1.c11ca80000000p-6, 0x1.50aa380000000p-4, -0x1.62635c0000000p-4, 0x1.6777600000000p-7, 0x1.0ea4700000000p-5, -0x1.7a75d00000000p-6, -0x1.77bec00000000p-8, 0x1.bbc7500000000p-7, 0x1.8974200000000p-8, 0x1.2364040000000p-4, -0x1.ae88f60000000p-5, -0x1.a45cba0000000p-5, -0x1.3e64780000000p-4, 0x1.5ff7d00000000p-6, 0x1.db4e380000000p-6, 0x1.437bf00000000p-5, 0x1.7891f00000000p-5, 0x1.2f6b3c0000000p-4, 0x1.455ed00000000p-5, 0x1.1a95980000000p-5, 0x1.b4c7700000000p-6, 0x1.3a85a80000000p-4, 0x1.4682940000000p-4, 0x1.380a580000000p-5, 0x1.d238100000000p-5, 0x1.6fc9f00000000p-4, -0x1.35d1c60000000p-5, 0x1.36fcd80000000p-6, -0x1.0f7e100000000p-5, -0x1.47e6500000000p-6, 0x1.4999140000000p-4, 0x1.815d700000000p-4, -0x1.00c8f40000000p-4, -0x1.6470e00000000p-6, -0x1.25172c0000000p-5, 0x1.8ac9900000000p-6, 0x1.5528900000000p-4, -0x1.6392d00000000p-4, -0x1.979f3c0000000p-5, 0x1.38f0d40000000p-4, 0x1.fda0900000000p-7, 0x1.b27ad00000000p-5, 0x1.0eb4980000000p-6, -0x1.d89c200000000p-6, -0x1.d318460000000p-5, -0x1.fdd4600000000p-7, 0x1.fdb3c00000000p-6, -0x1.fb816a0000000p-5, -0x1.da82c40000000p-5, 0x1.484a300000000p-6, -0x1.877eda0000000p-5, 0x1.1d11b80000000p-4, 0x1.71adc00000000p-8, 0x1.502ba40000000p-4, 0x1.45ba180000000p-6, -0x1.252d000000000p-4, 0x1.8fa4800000000p-5, -0x1.48d23a0000000p-5, 0x1.1bf7a80000000p-4, 0x1.42f5100000000p-7, 0x1.ef10200000000p-6, 0x1.bee0100000000p-5, -0x1.1737e20000000p-5, -0x1.3d2bd40000000p-5, -0x1.27da200000000p-6, 0x1.bb3da80000000p-5, -0x1.b868200000000p-5, 0x1.88bbe00000000p-6, -0x1.d7d4d20000000p-5, -0x1.0e033c0000000p-5, 0x1.40edc00000000p-8, 0x1.2a3a2c0000000p-4, -0x1.691b4c0000000p-4, 0x1.3029800000000p-5, 0x1.9947c00000000p-5, -0x1.7613cc0000000p-5, 0x1.4df4740000000p-4, 0x1.5d00f00000000p-5, 0x1.3239000000000p-4, 0x1.8255800000000p-5, 0x1.5227780000000p-5, 0x1.0595480000000p-4, 0x1.4c30400000000p-7, 0x1.1067040000000p-4, -0x1.a7472a0000000p-5, 0x1.15f5640000000p-4, 0x1.2f0f400000000p-6, -0x1.7d6c880000000p-5, 0x1.3655640000000p-4, -0x1.549e540000000p-4, -0x1.5437fe0000000p-5, -0x1.1ae04c0000000p-4, 0x1.1eba600000000p-7, 0x1.8dedd00000000p-5, -0x1.508f1c0000000p-5, -0x1.9965300000000p-6, 0x1.ac35400000000p-6, -0x1.150d4e0000000p-4, -0x1.e19db40000000p-5, 0x1.0b0e000000000p-7, 0x1.3aed900000000p-6, -0x1.3695b00000000p-6, 0x1.d253300000000p-6, -0x1.4e07800000000p-5, 0x1.424b500000000p-7, -0x1.8d384e0000000p-5, -0x1.bc4cd60000000p-5, -0x1.361ab80000000p-4, -0x1.a8c9800000000p-7, 0x1.4c127c0000000p-4, 0x1.3a1d900000000p-6, -0x1.2eacec0000000p-4, -0x1.8dd4500000000p-6, -0x1.fb62be0000000p-5, 0x1.43c2240000000p-4}
, {0x1.281cc00000000p-5, 0x1.9771800000000p-5, 0x1.ae22000000000p-6, -0x1.5f4fe40000000p-4, 0x1.04b3000000000p-7, 0x1.4276640000000p-4, 0x1.5ed7f00000000p-4, -0x1.6fbb700000000p-6, 0x1.15ccd00000000p-7, 0x1.177c780000000p-4, 0x1.73c2a00000000p-8, 0x1.3d5e600000000p-4, -0x1.0111800000000p-7, -0x1.2816800000000p-7, -0x1.484e600000000p-4, -0x1.6848280000000p-6, 0x1.65f7900000000p-6, 0x1.7c57a80000000p-5, 0x1.72056c0000000p-4, 0x1.90d7400000000p-5, -0x1.f077ec0000000p-5, -0x1.11044e0000000p-4, -0x1.a7d4c40000000p-5, -0x1.df33100000000p-6, -0x1.6df8000000000p-9, 0x1.15cc800000000p-10, 0x1.55aef80000000p-4, -0x1.55a8d40000000p-4, 0x1.2f77800000000p-10, -0x1.3d8fa60000000p-5, -0x1.7a4cd20000000p-4, -0x1.39eba00000000p-8, -0x1.4ced3e0000000p-5, 0x1.562d200000000p-4, 0x1.1055600000000p-7, 0x1.e096c00000000p-5, -0x1.12ca7a0000000p-5, 0x1.3717140000000p-4, 0x1.5058480000000p-4, 0x1.7716a80000000p-4, -0x1.965bfe0000000p-5, -0x1.93814c0000000p-5, -0x1.e134a80000000p-5, -0x1.75647e0000000p-4, 0x1.4749000000000p-7, -0x1.c23c780000000p-6, 0x1.7dbbc80000000p-4, 0x1.0e5bf40000000p-4, -0x1.b125c00000000p-8, 0x1.01e2440000000p-4, -0x1.9437740000000p-5, 0x1.3d30a40000000p-4, -0x1.44a26e0000000p-4, -0x1.6ba2dc0000000p-4, -0x1.5d3db80000000p-6, -0x1.39bfd40000000p-4, -0x1.59a9980000000p-6, -0x1.ea39960000000p-5, -0x1.24baa20000000p-4, 0x1.5464f00000000p-5, -0x1.7938500000000p-5, 0x1.3fd3480000000p-4, -0x1.191e8e0000000p-4, 0x1.3019800000000p-6, 0x1.444ec80000000p-5, 0x1.4fa4900000000p-5, 0x1.8118400000000p-5, 0x1.c675880000000p-5, 0x1.2b0c280000000p-6, -0x1.28c5240000000p-5, 0x1.6f45f40000000p-4, 0x1.4df3000000000p-9, -0x1.2b30b80000000p-5, -0x1.453df00000000p-6, -0x1.03c5600000000p-6, -0x1.38e7380000000p-4, -0x1.25f7040000000p-4, -0x1.1d20f00000000p-7, -0x1.a14d700000000p-7, -0x1.49fdd00000000p-6, -0x1.cdcec00000000p-7, 0x1.8c1f800000000p-5, -0x1.4b8e680000000p-6, -0x1.4a8f600000000p-6, 0x1.956f400000000p-8, -0x1.7ff9900000000p-6, -0x1.19d2000000000p-4, 0x1.938a880000000p-5, 0x1.3a1f800000000p-9, 0x1.b2bfc80000000p-6, -0x1.b1af000000000p-9, -0x1.2a40c40000000p-5, -0x1.772d5e0000000p-4, -0x1.4b45800000000p-7, -0x1.3b9ae80000000p-6, 0x1.444ba80000000p-4, -0x1.101e740000000p-5, -0x1.99e4b40000000p-5, 0x1.794dd00000000p-4, -0x1.d08e380000000p-6, -0x1.0508c40000000p-4, 0x1.3cd6140000000p-4, -0x1.26b2e00000000p-6, -0x1.52278a0000000p-4, -0x1.77c0800000000p-5, -0x1.ff84c80000000p-5, -0x1.9a85320000000p-5, 0x1.60c3d80000000p-4, 0x1.378a0c0000000p-4, 0x1.72dc7c0000000p-4, 0x1.6a18540000000p-4, 0x1.1a9e3c0000000p-4, 0x1.4df6880000000p-5, -0x1.82cce80000000p-5, 0x1.5c06e00000000p-5, -0x1.c32a000000000p-8, -0x1.49c9dc0000000p-5, -0x1.10f9680000000p-6, 0x1.d4b6e00000000p-7, 0x1.39ac200000000p-7, 0x1.fdc1900000000p-5, -0x1.0472c80000000p-4, -0x1.7781e00000000p-4, -0x1.97e6800000000p-7, 0x1.7e01180000000p-4, 0x1.d29a680000000p-6, -0x1.be12b20000000p-5, -0x1.3061780000000p-6, -0x1.06c9360000000p-4, -0x1.7af1c80000000p-6, -0x1.03d30c0000000p-5, -0x1.04e6280000000p-6, 0x1.6fc4800000000p-4, 0x1.bad7300000000p-5, -0x1.570b880000000p-5, -0x1.443e920000000p-4, 0x1.fb5db00000000p-7, 0x1.037d500000000p-4, -0x1.91ec000000000p-10, 0x1.5f56300000000p-4, -0x1.24e5b00000000p-7, -0x1.624db00000000p-5, -0x1.7de8f00000000p-4, -0x1.b23b680000000p-5, -0x1.4efa780000000p-5, 0x1.f42de80000000p-5, 0x1.ac88000000000p-7, 0x1.23a0e80000000p-5, -0x1.9b45860000000p-5, 0x1.74a9740000000p-4, 0x1.fd3ec00000000p-6, -0x1.59e4120000000p-4, 0x1.7f5d580000000p-5, -0x1.79b8040000000p-5, 0x1.e71ba80000000p-6, -0x1.45e5140000000p-4, 0x1.6a51b40000000p-4, -0x1.fb37600000000p-6, -0x1.0f9ca00000000p-6, -0x1.e11c500000000p-7, 0x1.580ae80000000p-5, 0x1.0dfdb80000000p-5, -0x1.03bc0a0000000p-4, -0x1.0638d60000000p-4, -0x1.7f20fc0000000p-4, -0x1.0ef4ea0000000p-4, 0x1.28fa600000000p-4, 0x1.5d25200000000p-7, 0x1.e5c4f00000000p-5, 0x1.4f0c180000000p-6, -0x1.c302380000000p-6, -0x1.36e4360000000p-5, -0x1.b538ba0000000p-5, -0x1.768c080000000p-4, -0x1.6255d00000000p-4, -0x1.2a22180000000p-4, -0x1.764e580000000p-5, 0x1.6fb9900000000p-5, 0x1.bcb2380000000p-6, -0x1.2f826e0000000p-4, -0x1.c181a00000000p-6, -0x1.25f15c0000000p-5, 0x1.0a64100000000p-4, 0x1.246ce80000000p-4, -0x1.b526680000000p-5, -0x1.97b3700000000p-6, 0x1.56e5b40000000p-4, 0x1.e59cf80000000p-5, -0x1.faa5620000000p-5, 0x1.b4dc100000000p-6, 0x1.fd80b00000000p-6, -0x1.1d31060000000p-4, -0x1.4763520000000p-5, 0x1.53ca700000000p-5, 0x1.b592300000000p-5, 0x1.6f29580000000p-6, 0x1.714f700000000p-5, -0x1.363e780000000p-4, 0x1.dcf4d80000000p-6, -0x1.f848c80000000p-6, 0x1.bf44000000000p-12, -0x1.543be00000000p-7, -0x1.5c94c00000000p-4, -0x1.aa358e0000000p-5, 0x1.6352600000000p-8, 0x1.385c9c0000000p-4, 0x1.45e0000000000p-13, -0x1.77b8d20000000p-5, 0x1.391f600000000p-8, -0x1.dd2a900000000p-7, -0x1.30f21c0000000p-4, 0x1.837f580000000p-6, -0x1.83ba100000000p-7, 0x1.19f1d00000000p-6, -0x1.680bda0000000p-4, -0x1.0b4f4e0000000p-5, -0x1.9c1e880000000p-6, -0x1.a690ba0000000p-5, -0x1.344fbe0000000p-4, -0x1.6639ac0000000p-4, -0x1.3a99500000000p-7, 0x1.6135940000000p-4, 0x1.ec4bc00000000p-8, -0x1.1a9a500000000p-4, -0x1.37fd320000000p-4, 0x1.62b6240000000p-4, 0x1.5739180000000p-5, -0x1.14fc000000000p-4, -0x1.132e320000000p-5, 0x1.b42da80000000p-5, -0x1.7816e00000000p-8, -0x1.6f00900000000p-4, -0x1.0482000000000p-5, -0x1.5d2bf00000000p-7, -0x1.1664180000000p-4, -0x1.7f86b00000000p-7, 0x1.57db680000000p-4, -0x1.8b6ff40000000p-5, -0x1.47536c0000000p-4, 0x1.0235dc0000000p-4, -0x1.0c5cd00000000p-7, 0x1.2810800000000p-6, -0x1.dbdac80000000p-5, 0x1.b9dc800000000p-6, 0x1.47cc340000000p-4, 0x1.3e55d00000000p-5, -0x1.010e200000000p-8, -0x1.74aa060000000p-4, -0x1.5b05880000000p-5, -0x1.6bad260000000p-4, -0x1.4e93b00000000p-4, -0x1.5e1bd20000000p-5, -0x1.c223400000000p-8, -0x1.8e63e80000000p-6, 0x1.3777480000000p-4, 0x1.6b36300000000p-4, 0x1.e41f180000000p-5, 0x1.1452c00000000p-4, 0x1.0007740000000p-4, 0x1.dd0c380000000p-6, 0x1.1a368c0000000p-4, 0x1.5816a00000000p-5, -0x1.544abe0000000p-5, 0x1.dfb4380000000p-5, -0x1.9ae4000000000p-11, -0x1.45129c0000000p-4, -0x1.8de6f80000000p-6, 0x1.403aa80000000p-4, -0x1.53fc000000000p-11, 0x1.659d800000000p-8, 0x1.ebcb400000000p-5, -0x1.6782600000000p-4, 0x1.6edbb00000000p-7, -0x1.6e281c0000000p-4, 0x1.cae2800000000p-9, 0x1.70218c0000000p-4, -0x1.4c03500000000p-6, 0x1.a6e9600000000p-7, 0x1.4276400000000p-4, -0x1.5308420000000p-5, -0x1.734fc00000000p-6, 0x1.3aa9680000000p-5, -0x1.b895040000000p-5, 0x1.0a7d5c0000000p-4, -0x1.0d5f120000000p-5, -0x1.56d6400000000p-6, 0x1.7c0b580000000p-5, 0x1.adc1d00000000p-6, 0x1.3382900000000p-5, -0x1.7eecc00000000p-7, 0x1.6db8f80000000p-5, 0x1.65520c0000000p-4, -0x1.3ac91c0000000p-5, 0x1.81d1e00000000p-4, -0x1.3f44440000000p-5, -0x1.d668e00000000p-8, -0x1.54b41e0000000p-4, 0x1.50a4500000000p-6, -0x1.5ff3b00000000p-6, 0x1.3da2f00000000p-4, -0x1.b650c80000000p-6, 0x1.9674100000000p-6, 0x1.f67be80000000p-5, 0x1.2eaaa80000000p-4, -0x1.d150560000000p-5, 0x1.40e0700000000p-5, 0x1.6733980000000p-5, -0x1.ed27760000000p-5, 0x1.44cb2c0000000p-4, -0x1.6d56c00000000p-5, 0x1.0e66200000000p-6, 0x1.f75ff00000000p-5, 0x1.f124000000000p-5, -0x1.b41bd00000000p-7, 0x1.4459c80000000p-5, 0x1.a5c1a80000000p-5, 0x1.7025080000000p-4, -0x1.73a6a20000000p-4, 0x1.3638900000000p-4, 0x1.bfc4e00000000p-6, 0x1.79d5400000000p-6, 0x1.7326280000000p-5, -0x1.0df9460000000p-4, 0x1.3f87b40000000p-4, 0x1.6e31140000000p-4, -0x1.c2f4100000000p-7, 0x1.5f1f300000000p-4, 0x1.0fc9480000000p-5, -0x1.1ec4dc0000000p-4, -0x1.2f306c0000000p-5, -0x1.12d8880000000p-4, -0x1.7877580000000p-4, 0x1.0b1cd80000000p-5, 0x1.10bd280000000p-5, 0x1.6061b80000000p-4, -0x1.5458240000000p-4, 0x1.245af80000000p-5, 0x1.521a400000000p-4, 0x1.a07ce80000000p-6, 0x1.44ea400000000p-7, -0x1.22280c0000000p-4, -0x1.24819c0000000p-4, 0x1.7bab180000000p-4, -0x1.089a800000000p-10, 0x1.46693c0000000p-4, -0x1.1ae5200000000p-4, 0x1.3758e80000000p-6, -0x1.c044600000000p-8, -0x1.8ee9f60000000p-5, 0x1.9477080000000p-5, 0x1.d0f0180000000p-5, 0x1.8a9bb00000000p-5, 0x1.dfa5200000000p-7, 0x1.818fe40000000p-4, -0x1.5058fc0000000p-5, -0x1.55558c0000000p-5, 0x1.0b2f300000000p-7, 0x1.3aea180000000p-5, 0x1.9d4d700000000p-6, -0x1.89e3600000000p-8, 0x1.cfcfe80000000p-5, -0x1.2479000000000p-10, 0x1.7dc4300000000p-4, -0x1.4dcc260000000p-5, -0x1.c43aaa0000000p-5, -0x1.48e8180000000p-6, 0x1.3166100000000p-6, -0x1.65c3480000000p-6, 0x1.3785f80000000p-4, -0x1.46c1460000000p-5, -0x1.1e9b1a0000000p-4, 0x1.f2f5280000000p-6, 0x1.1534880000000p-6, -0x1.4725a80000000p-5, 0x1.4c2ee80000000p-4, -0x1.da565a0000000p-5, 0x1.3d83b00000000p-7, 0x1.1ada100000000p-5, 0x1.d99f180000000p-5, -0x1.7dd1020000000p-5, -0x1.f765000000000p-7, 0x1.66ce640000000p-4, -0x1.4e2c4a0000000p-4, 0x1.898b380000000p-6, -0x1.8612ea0000000p-5, 0x1.50d7780000000p-5, 0x1.2428700000000p-4, 0x1.9008a80000000p-6, 0x1.a925000000000p-5, 0x1.501e580000000p-6, -0x1.a588520000000p-5, 0x1.02df300000000p-5, 0x1.f1edd80000000p-5, -0x1.b562f00000000p-5, 0x1.4cf3080000000p-5, 0x1.f77fe80000000p-5, 0x1.4e9b000000000p-8, 0x1.4683d80000000p-4, 0x1.a766b00000000p-7, -0x1.05eeec0000000p-4, 0x1.1843cc0000000p-4, 0x1.47d1b00000000p-5, 0x1.205d500000000p-4, 0x1.4c5b440000000p-4, -0x1.2b07dc0000000p-4, 0x1.2954800000000p-10, -0x1.008c480000000p-6, -0x1.8014500000000p-4, 0x1.f241e00000000p-6, 0x1.c985a80000000p-6, -0x1.7636200000000p-6, 0x1.bed0b80000000p-5, 0x1.0002380000000p-5, 0x1.7f3aa80000000p-4, -0x1.4b46900000000p-4, 0x1.aeebe00000000p-5, -0x1.0f5f040000000p-4, -0x1.70e9540000000p-4, -0x1.dde0780000000p-6, -0x1.c2b6480000000p-6, -0x1.10afd20000000p-4, -0x1.b6e6480000000p-6, 0x1.6d3c800000000p-6, 0x1.5d42a00000000p-5, 0x1.44f6f80000000p-4, -0x1.0d63380000000p-6, -0x1.4427040000000p-4, -0x1.7814d80000000p-4, 0x1.7d45380000000p-4, 0x1.47a3400000000p-5, 0x1.1aefd80000000p-4, -0x1.650e3e0000000p-5, 0x1.272bf00000000p-5, 0x1.e008c80000000p-5, 0x1.190b100000000p-5, 0x1.f77e780000000p-5, 0x1.5412100000000p-5, -0x1.8a57000000000p-8, 0x1.bb69b00000000p-6, 0x1.4afcd40000000p-4, -0x1.36770c0000000p-4, 0x1.b0b7d00000000p-6, 0x1.36a8000000000p-5, -0x1.02b61c0000000p-5, 0x1.3371e00000000p-4, -0x1.1659b40000000p-4, 0x1.cd3ec80000000p-5, -0x1.557e000000000p-12, -0x1.040f000000000p-10, -0x1.6f50200000000p-4, 0x1.139df80000000p-5, -0x1.186fac0000000p-4, -0x1.f555660000000p-5, -0x1.20c7880000000p-4, -0x1.0dab260000000p-4, -0x1.5033520000000p-4, -0x1.3a5ca00000000p-8, -0x1.d91d300000000p-5, 0x1.b79a980000000p-6, -0x1.663bf40000000p-4, -0x1.8cb4080000000p-6, 0x1.0e43c00000000p-7, -0x1.72e9340000000p-5, 0x1.d806780000000p-5, -0x1.6077860000000p-5, 0x1.0624800000000p-7, 0x1.0cd1800000000p-7, 0x1.1b0e740000000p-4, 0x1.3a7f200000000p-7, 0x1.51b0500000000p-7, -0x1.0b22f00000000p-7, 0x1.86b7080000000p-5, 0x1.bb25580000000p-5, 0x1.2a04e40000000p-4, -0x1.6584f40000000p-5, 0x1.5ee5380000000p-4, 0x1.6c99a00000000p-8, 0x1.6a36f00000000p-6, -0x1.ef4bb80000000p-5, -0x1.0843f80000000p-4, -0x1.13ca500000000p-6, 0x1.75e9300000000p-7, -0x1.5d8c740000000p-4, -0x1.2ceac20000000p-5, -0x1.4c246e0000000p-4, -0x1.25e52a0000000p-4, 0x1.306c540000000p-4, 0x1.08b1e80000000p-4, -0x1.5bb6a00000000p-7, -0x1.64d3ca0000000p-5, 0x1.8ef3180000000p-5, -0x1.4cb99e0000000p-5, -0x1.44465c0000000p-4, -0x1.13a8180000000p-6, 0x1.2cbc600000000p-5, 0x1.05dc040000000p-4, 0x1.f900800000000p-5, -0x1.78f7720000000p-4, 0x1.7e41240000000p-4, 0x1.24bdac0000000p-4, 0x1.172b8c0000000p-4, -0x1.827b000000000p-9, 0x1.5b52100000000p-5, -0x1.29a2c00000000p-4, -0x1.a690a20000000p-5, 0x1.0fe0600000000p-5, -0x1.68d4580000000p-6, -0x1.df95780000000p-5, -0x1.b782c60000000p-5, 0x1.4d67800000000p-8, 0x1.6a75280000000p-5, 0x1.6ce1400000000p-9, -0x1.3599500000000p-4, -0x1.03483c0000000p-5, -0x1.573eb60000000p-4, -0x1.571bec0000000p-5, 0x1.b473280000000p-5, -0x1.71440e0000000p-4, 0x1.331a800000000p-8, 0x1.5bd3f00000000p-5, -0x1.3195600000000p-7, 0x1.2a07ac0000000p-4, 0x1.a7c0d80000000p-5, 0x1.9d67800000000p-7, -0x1.1579280000000p-4, -0x1.e5acc00000000p-8, 0x1.bca1880000000p-5, -0x1.05d9500000000p-7, -0x1.66d3ae0000000p-4, -0x1.2ffab00000000p-5, -0x1.6173fc0000000p-4, -0x1.7900100000000p-4, 0x1.5d34700000000p-5, 0x1.206af00000000p-5, 0x1.6768dc0000000p-4, -0x1.4025140000000p-4, 0x1.5e1ae00000000p-4, -0x1.7f93320000000p-4, 0x1.54f2780000000p-5, 0x1.177f340000000p-4, -0x1.7ab2780000000p-5, -0x1.21e9a80000000p-5, 0x1.7a2c280000000p-4, 0x1.70f2700000000p-6, -0x1.20a9dc0000000p-4, 0x1.71a2580000000p-5, 0x1.3fdfd00000000p-5, 0x1.f002f00000000p-7, -0x1.ec92b20000000p-5, -0x1.401fb60000000p-4, 0x1.09d8680000000p-4, -0x1.659fc20000000p-5, 0x1.1e9b3c0000000p-4, 0x1.a561700000000p-7, -0x1.a600100000000p-5, 0x1.b70fc00000000p-7, -0x1.5714880000000p-6, 0x1.3aa6940000000p-4, 0x1.cdd4000000000p-7, 0x1.4941800000000p-6, 0x1.e41a780000000p-5, 0x1.cb33980000000p-5, -0x1.0de8440000000p-4, 0x1.3c2a580000000p-4, 0x1.b653680000000p-5, 0x1.4272300000000p-4, -0x1.4804d20000000p-4, 0x1.640bb40000000p-4, -0x1.6c7e100000000p-5, 0x1.06acd00000000p-4, 0x1.29b9d00000000p-5, -0x1.45dbec0000000p-5, 0x1.2e9b1c0000000p-4, 0x1.55ed680000000p-5, 0x1.7d2d700000000p-4, -0x1.cbfbc00000000p-9}
