/**
  ******************************************************************************
  * @file    weights/fc.cc
  * @author  Pierre-Emmanuel Novac <penovac@unice.fr>, LEAT, CNRS, Université Côte d'Azur, France
  * @version 1.0.0
  * @date    24 march 2020
  * @brief   Template generating plain C code for the implementation of Convolutional Neural Networks on MCU
  */

#include <stdint.h>

#define INPUT_SAMPLES 100
#define FC_UNITS 10


const float dense_5_bias[FC_UNITS] = {0x0.0p+0, 0x0.0p+0, 0x0.0p+0, 0x0.0p+0, 0x0.0p+0, 0x0.0p+0, 0x0.0p+0, 0x0.0p+0, 0x0.0p+0, 0x0.0p+0}
;

const float dense_5_kernel[FC_UNITS][INPUT_SAMPLES] = {{-0x1.9b52780000000p-3, 0x1.457a340000000p-3, -0x1.3782720000000p-3, -0x1.e1d04e0000000p-4, -0x1.2c33040000000p-3, 0x1.1bd5a80000000p-3, -0x1.a195800000000p-3, 0x1.0c5fa00000000p-3, 0x1.5cb3a00000000p-3, 0x1.f668800000000p-5, -0x1.dcba340000000p-3, -0x1.4550700000000p-4, -0x1.4d3e440000000p-3, -0x1.26d5880000000p-4, 0x1.4384fc0000000p-3, -0x1.cbd86e0000000p-4, 0x1.6d9e7c0000000p-3, -0x1.448d3c0000000p-4, -0x1.c391760000000p-3, -0x1.b3e1660000000p-3, -0x1.5c2cc80000000p-3, 0x1.4f2dcc0000000p-3, -0x1.c67fae0000000p-3, 0x1.89cf200000000p-5, 0x1.5e1eb40000000p-3, 0x1.3528340000000p-3, -0x1.9f95980000000p-4, -0x1.5088cc0000000p-3, -0x1.33aac00000000p-7, -0x1.863c2c0000000p-4, -0x1.3e7bd80000000p-4, -0x1.740fa20000000p-3, -0x1.3365480000000p-5, -0x1.f732b60000000p-4, -0x1.db63800000000p-6, 0x1.000eb00000000p-4, -0x1.bb168e0000000p-3, 0x1.8cb6f00000000p-5, 0x1.d673200000000p-3, 0x1.b025e40000000p-3, -0x1.d91eb00000000p-4, -0x1.cbf8640000000p-3, -0x1.3589e40000000p-3, 0x1.72e1e00000000p-5, 0x1.5fe9740000000p-3, -0x1.94bc540000000p-3, 0x1.3ebc840000000p-3, -0x1.38b3e60000000p-3, -0x1.2436ec0000000p-3, -0x1.b004d80000000p-3, 0x1.12dcd00000000p-3, 0x1.affd680000000p-4, -0x1.29ba3c0000000p-4, 0x1.3ba4400000000p-6, 0x1.ba3f200000000p-4, 0x1.d05dc00000000p-5, 0x1.5032f80000000p-4, -0x1.2acad80000000p-4, -0x1.f4e8260000000p-4, -0x1.d667200000000p-6, 0x1.5a7b880000000p-4, 0x1.02fa400000000p-3, 0x1.d1f8a00000000p-5, -0x1.123cb00000000p-5, -0x1.84af400000000p-5, -0x1.3400880000000p-4, 0x1.98a1bc0000000p-3, 0x1.5f7ec80000000p-3, 0x1.c0abcc0000000p-3, -0x1.87c9d40000000p-3, 0x1.0412740000000p-3, 0x1.c660980000000p-3, 0x1.d233400000000p-5, 0x1.129ea00000000p-3, 0x1.a242580000000p-4, -0x1.353da00000000p-5, -0x1.901eec0000000p-3, 0x1.3eec300000000p-5, -0x1.a6c5ee0000000p-3, 0x1.57adb40000000p-3, 0x1.b250800000000p-8, 0x1.0b7e600000000p-6, 0x1.4fc5800000000p-9, -0x1.54e0900000000p-4, 0x1.80b9740000000p-3, 0x1.bdc2680000000p-4, -0x1.eda1a60000000p-4, 0x1.97e7b00000000p-3, 0x1.c1d1840000000p-3, 0x1.0dc1e00000000p-3, 0x1.d286400000000p-7, 0x1.3b9d100000000p-3, -0x1.5c51380000000p-4, -0x1.658c280000000p-4, 0x1.b68a500000000p-5, 0x1.9e30940000000p-3, 0x1.115fe40000000p-3, 0x1.6afdf80000000p-4, -0x1.b31f800000000p-7, -0x1.f5c2ec0000000p-4}
, {-0x1.5308c80000000p-4, -0x1.cdfdae0000000p-4, -0x1.c98b960000000p-4, -0x1.7bffa00000000p-4, 0x1.0501ec0000000p-3, 0x1.da0e240000000p-3, -0x1.0fea980000000p-4, 0x1.1ef0ec0000000p-3, -0x1.b05dc00000000p-6, 0x1.56b1e00000000p-5, 0x1.4ed6380000000p-3, -0x1.605c200000000p-5, -0x1.d938780000000p-3, 0x1.0644300000000p-3, 0x1.825e200000000p-7, -0x1.917f780000000p-5, -0x1.a77b400000000p-3, 0x1.7f89480000000p-4, 0x1.d594000000000p-11, -0x1.3eb80c0000000p-4, -0x1.cc6d400000000p-6, -0x1.60982e0000000p-3, 0x1.8415580000000p-4, 0x1.0eaa700000000p-5, 0x1.1bd3a00000000p-5, 0x1.d430b40000000p-3, -0x1.89a2200000000p-6, -0x1.c94f000000000p-7, -0x1.1e3b480000000p-4, -0x1.dbc3c80000000p-3, -0x1.7717400000000p-6, -0x1.7470e80000000p-3, -0x1.1e46d80000000p-4, -0x1.c002bc0000000p-3, -0x1.2ab6e00000000p-4, -0x1.bf9d000000000p-9, -0x1.3c47680000000p-4, 0x1.058e700000000p-6, -0x1.8aceca0000000p-3, 0x1.7852900000000p-5, 0x1.f38d400000000p-6, 0x1.c6bee00000000p-4, -0x1.3749d80000000p-5, 0x1.334dc00000000p-7, 0x1.80f0000000000p-8, 0x1.8963700000000p-3, 0x1.922dc00000000p-3, 0x1.c907e00000000p-5, -0x1.0d78720000000p-3, 0x1.29ca200000000p-4, 0x1.5640780000000p-4, 0x1.b1f7e80000000p-4, 0x1.0cc1e40000000p-3, 0x1.1efdf00000000p-3, 0x1.7442b00000000p-5, 0x1.2172ec0000000p-3, 0x1.6856d80000000p-3, -0x1.68575e0000000p-3, 0x1.00f8bc0000000p-3, -0x1.8029000000000p-3, -0x1.28e0c00000000p-3, -0x1.257fc00000000p-7, -0x1.9bdd240000000p-3, -0x1.9786e00000000p-3, -0x1.62628c0000000p-4, -0x1.f183c00000000p-5, 0x1.55ae200000000p-4, -0x1.5d5b1c0000000p-3, -0x1.9a18a80000000p-5, 0x1.5fbb080000000p-4, 0x1.02f52c0000000p-3, -0x1.640eb40000000p-4, -0x1.6935540000000p-3, -0x1.45941a0000000p-3, -0x1.503a4c0000000p-3, -0x1.4682f00000000p-3, 0x1.18e5d80000000p-4, -0x1.3cf8800000000p-7, -0x1.5f977a0000000p-3, 0x1.bda8f00000000p-3, 0x1.1a7cd40000000p-3, 0x1.ab0b9c0000000p-3, -0x1.c8b73c0000000p-3, -0x1.f817c00000000p-5, 0x1.5c8be40000000p-3, -0x1.4959b00000000p-3, -0x1.5075c40000000p-4, 0x1.a009100000000p-5, -0x1.cf99140000000p-3, -0x1.a7c9600000000p-4, 0x1.57d7180000000p-3, -0x1.2593100000000p-4, -0x1.2d9b100000000p-5, -0x1.664c900000000p-3, 0x1.3a67f80000000p-3, -0x1.6b75f00000000p-6, -0x1.407ee80000000p-3, 0x1.5376500000000p-4, -0x1.384bcc0000000p-4, -0x1.8c6d0c0000000p-3}
, {0x1.0f0e300000000p-3, -0x1.2635d80000000p-3, -0x1.09123e0000000p-3, 0x1.7c1ee00000000p-4, -0x1.3ab96a0000000p-3, -0x1.43c5100000000p-3, 0x1.1286000000000p-10, -0x1.5a2ec40000000p-4, -0x1.17c7400000000p-8, 0x1.de71800000000p-5, 0x1.aa06800000000p-4, -0x1.b591000000000p-3, 0x1.741ec00000000p-4, -0x1.4279c40000000p-3, 0x1.ad8b200000000p-5, 0x1.2d37380000000p-4, 0x1.06447c0000000p-3, -0x1.6510a20000000p-3, -0x1.9d75180000000p-3, -0x1.5511780000000p-5, 0x1.984ae80000000p-3, 0x1.71873c0000000p-3, -0x1.a2c5b20000000p-3, 0x1.0bbee40000000p-3, -0x1.62fe9e0000000p-3, 0x1.0787e80000000p-4, 0x1.aeb1500000000p-3, -0x1.e68d300000000p-5, -0x1.b25d3c0000000p-3, 0x1.578e140000000p-3, 0x1.0ec1e00000000p-4, -0x1.a3d3300000000p-4, 0x1.1ad1b00000000p-5, -0x1.4e6fb00000000p-4, -0x1.c91ca80000000p-4, -0x1.1ae3d80000000p-3, -0x1.d1e07c0000000p-3, -0x1.da218e0000000p-3, -0x1.30b9440000000p-4, 0x1.320bc00000000p-5, -0x1.706ab80000000p-4, -0x1.c326760000000p-4, 0x1.e11fb00000000p-5, -0x1.87b8000000000p-12, 0x1.e5b4500000000p-5, 0x1.298f280000000p-3, -0x1.93dd2c0000000p-3, -0x1.2339780000000p-3, 0x1.2e1b180000000p-4, 0x1.af8c980000000p-3, -0x1.471e000000000p-10, -0x1.9181740000000p-3, 0x1.bce0580000000p-3, 0x1.9b58600000000p-3, -0x1.a876000000000p-6, 0x1.30bda80000000p-3, -0x1.d6b4560000000p-3, 0x1.8ef2e40000000p-3, 0x1.ced9580000000p-4, 0x1.da95800000000p-6, -0x1.dc63f80000000p-4, -0x1.78f5500000000p-6, 0x1.7b08c80000000p-4, 0x1.7ba02c0000000p-3, -0x1.85c8200000000p-7, -0x1.5000d00000000p-5, -0x1.2ed9380000000p-4, -0x1.b9ad180000000p-5, -0x1.8248e80000000p-5, 0x1.3ae07c0000000p-3, -0x1.9d896a0000000p-3, 0x1.9784800000000p-6, 0x1.3c32b00000000p-3, 0x1.441da80000000p-3, 0x1.1856000000000p-3, -0x1.d7800e0000000p-3, -0x1.a8a8800000000p-6, 0x1.5987740000000p-3, -0x1.d66b720000000p-4, -0x1.d810e20000000p-3, 0x1.2edfa80000000p-3, 0x1.646bb00000000p-5, 0x1.fd6c400000000p-7, -0x1.8adbd00000000p-5, 0x1.898bfc0000000p-3, 0x1.a0eb980000000p-3, 0x1.be42200000000p-5, 0x1.e6ded00000000p-5, 0x1.910ea80000000p-4, 0x1.7dcda80000000p-3, 0x1.112fc00000000p-5, -0x1.38dfe40000000p-3, -0x1.8656900000000p-4, 0x1.ac90980000000p-4, -0x1.545a9c0000000p-4, -0x1.25de080000000p-4, 0x1.50e4580000000p-4, -0x1.84bef80000000p-3, 0x1.5ea2f40000000p-3, -0x1.7496300000000p-6}
, {0x1.69b5700000000p-5, 0x1.9acd080000000p-3, 0x1.9127500000000p-5, 0x1.96cfec0000000p-3, -0x1.29f3840000000p-4, -0x1.68cd560000000p-3, 0x1.3e2b600000000p-5, -0x1.fc1dd60000000p-4, -0x1.3d00500000000p-5, 0x1.f99ee80000000p-4, 0x1.4195d00000000p-5, -0x1.66603e0000000p-3, 0x1.1806500000000p-4, -0x1.4f6ddc0000000p-3, 0x1.c688c00000000p-5, -0x1.d0c1c60000000p-3, -0x1.1f3aac0000000p-4, 0x1.7b78300000000p-4, -0x1.daeb5e0000000p-4, 0x1.5f7df80000000p-4, 0x1.20850c0000000p-3, -0x1.521d480000000p-3, -0x1.770de80000000p-5, 0x1.1eb91c0000000p-3, 0x1.79da700000000p-5, -0x1.6129380000000p-3, 0x1.50f8f00000000p-5, 0x1.a03bb00000000p-4, 0x1.5167ec0000000p-3, -0x1.ba4e800000000p-9, 0x1.ab80d40000000p-3, -0x1.0ad1e00000000p-4, 0x1.48df380000000p-3, -0x1.4132740000000p-3, -0x1.b47f980000000p-5, 0x1.3ca6400000000p-8, 0x1.cfa6100000000p-5, 0x1.c933900000000p-5, -0x1.17a6800000000p-8, 0x1.dcdd4c0000000p-3, 0x1.a492c00000000p-4, 0x1.1359cc0000000p-3, -0x1.a916ae0000000p-3, -0x1.1538200000000p-3, -0x1.bf96400000000p-7, -0x1.be31300000000p-6, -0x1.2be7680000000p-3, -0x1.d7b1fa0000000p-3, -0x1.7ebb840000000p-4, 0x1.a1aaac0000000p-3, -0x1.3489280000000p-4, -0x1.6e50c40000000p-3, -0x1.87635a0000000p-3, -0x1.8211ca0000000p-3, 0x1.09cbe00000000p-4, 0x1.f60c300000000p-4, 0x1.a876800000000p-9, -0x1.1b81500000000p-3, -0x1.4aa9ac0000000p-3, 0x1.2a4f200000000p-3, -0x1.a27e080000000p-3, -0x1.33df300000000p-5, 0x1.3819d80000000p-3, 0x1.7e54e80000000p-3, -0x1.1682c00000000p-4, 0x1.8216e00000000p-4, -0x1.0287c80000000p-5, 0x1.d3a2780000000p-4, 0x1.020aa80000000p-4, -0x1.b15a600000000p-7, 0x1.acc5080000000p-4, -0x1.1a37b00000000p-6, -0x1.aae3900000000p-3, 0x1.34d5f00000000p-5, -0x1.22b7680000000p-4, 0x1.d68a200000000p-6, -0x1.e03ae80000000p-5, -0x1.62bd1c0000000p-3, 0x1.537c800000000p-8, -0x1.95b20e0000000p-3, -0x1.4e26540000000p-3, 0x1.0c16e80000000p-4, 0x1.64fda00000000p-3, 0x1.2a7dfc0000000p-3, 0x1.3d71c00000000p-3, -0x1.346fd20000000p-3, 0x1.e214b00000000p-5, -0x1.44fa7c0000000p-4, 0x1.235d080000000p-3, 0x1.18bff00000000p-3, 0x1.a432680000000p-4, 0x1.5d26880000000p-3, -0x1.5e50800000000p-6, 0x1.3347800000000p-6, 0x1.d49b080000000p-4, -0x1.3a61400000000p-7, 0x1.70b1d00000000p-5, -0x1.4ff7300000000p-3, -0x1.960e380000000p-4, 0x1.29aaf00000000p-3}
, {0x1.01ab480000000p-3, -0x1.c9bcc00000000p-7, 0x1.9e19800000000p-5, -0x1.2b56fc0000000p-3, 0x1.3788200000000p-7, 0x1.d035b40000000p-3, -0x1.d860100000000p-5, -0x1.d439e00000000p-5, -0x1.7bb2280000000p-4, -0x1.25f9d40000000p-3, -0x1.2f6c2c0000000p-4, 0x1.6fa2c00000000p-3, -0x1.be20000000000p-5, 0x1.2f7e880000000p-3, -0x1.360b8a0000000p-3, 0x1.a7fca40000000p-3, 0x1.c5a5400000000p-5, -0x1.a14cfc0000000p-3, -0x1.b5c60a0000000p-3, -0x1.5994600000000p-5, -0x1.83fb040000000p-4, 0x1.b1eed40000000p-3, -0x1.7e05100000000p-6, -0x1.aa61e00000000p-4, -0x1.293f900000000p-3, 0x1.302d500000000p-3, -0x1.ed0df00000000p-5, 0x1.5b71080000000p-3, 0x1.f3e1400000000p-5, 0x1.072ee00000000p-3, -0x1.c8ac0e0000000p-3, -0x1.1e18280000000p-3, -0x1.24a1220000000p-3, -0x1.4232400000000p-3, -0x1.b686ec0000000p-3, 0x1.2a3b600000000p-7, 0x1.ebfb900000000p-4, -0x1.dc99560000000p-3, 0x1.c18ee80000000p-4, -0x1.3fb7b80000000p-5, 0x1.35e0800000000p-3, 0x1.d3f3680000000p-4, 0x1.729c800000000p-5, -0x1.326b9c0000000p-4, -0x1.ab5db40000000p-3, 0x1.c7a7540000000p-3, 0x1.1f96140000000p-3, -0x1.5f7f700000000p-6, 0x1.1bfc300000000p-5, -0x1.cffd9e0000000p-3, -0x1.24eba80000000p-5, -0x1.4e70fc0000000p-4, -0x1.a829820000000p-3, 0x1.44e7dc0000000p-3, 0x1.8318d40000000p-3, -0x1.4c97200000000p-6, 0x1.663d100000000p-4, -0x1.b078c40000000p-3, 0x1.515b1c0000000p-3, 0x1.51df080000000p-3, 0x1.209a400000000p-6, 0x1.2433600000000p-6, 0x1.76bee80000000p-4, 0x1.e2ee380000000p-4, 0x1.5db1800000000p-8, 0x1.73a3100000000p-3, -0x1.072f200000000p-6, 0x1.30dbe40000000p-3, 0x1.99dd400000000p-5, -0x1.b1306c0000000p-3, -0x1.75d8a20000000p-3, 0x1.5b23100000000p-5, 0x1.006c6c0000000p-3, 0x1.aa3db00000000p-4, -0x1.88c6800000000p-3, 0x1.deb4e00000000p-6, 0x1.ca40b00000000p-5, 0x1.579b140000000p-3, -0x1.a902e00000000p-7, -0x1.531e600000000p-6, -0x1.bb79240000000p-4, -0x1.2fd1f00000000p-3, 0x1.03fd580000000p-4, -0x1.4c4eb40000000p-3, -0x1.f75a1e0000000p-4, 0x1.591e380000000p-4, -0x1.6018940000000p-4, -0x1.64bc580000000p-5, 0x1.965b680000000p-4, -0x1.8f31280000000p-5, -0x1.0bd8ba0000000p-3, 0x1.6fbe280000000p-3, 0x1.fa38800000000p-6, -0x1.5472400000000p-7, 0x1.06edfc0000000p-3, 0x1.8d77d00000000p-4, 0x1.0d572c0000000p-3, 0x1.2ae95c0000000p-3, 0x1.715c5c0000000p-3, 0x1.4969400000000p-8}
, {0x1.e25db00000000p-5, -0x1.2920080000000p-4, 0x1.3790400000000p-3, -0x1.0710e00000000p-5, 0x1.b4a4600000000p-4, 0x1.9f56d40000000p-3, -0x1.9363600000000p-3, 0x1.07e7e00000000p-6, 0x1.2b17580000000p-4, 0x1.d85de40000000p-3, 0x1.66fa900000000p-3, 0x1.6bc4d80000000p-4, 0x1.0c43f00000000p-4, 0x1.674da00000000p-6, 0x1.b753d00000000p-3, -0x1.747c9c0000000p-3, 0x1.226b740000000p-3, 0x1.da7a400000000p-3, 0x1.ba15bc0000000p-3, -0x1.4d04000000000p-3, 0x1.8ae0680000000p-4, 0x1.42dbd40000000p-3, -0x1.9984040000000p-3, -0x1.a598080000000p-4, 0x1.a6e3800000000p-5, 0x1.639a040000000p-3, 0x1.4fc2b80000000p-3, -0x1.5939b80000000p-4, -0x1.9bb9520000000p-3, 0x1.aecec80000000p-3, 0x1.9e0df40000000p-3, 0x1.a647d00000000p-3, 0x1.b021880000000p-3, -0x1.1109280000000p-3, -0x1.9232f20000000p-3, -0x1.65cc000000000p-12, 0x1.230f000000000p-6, 0x1.2ec9200000000p-3, -0x1.8492d40000000p-4, -0x1.7b97700000000p-3, 0x1.6558880000000p-3, 0x1.3029800000000p-7, -0x1.7c50180000000p-5, 0x1.69bc800000000p-4, -0x1.35fd180000000p-4, 0x1.ed26800000000p-6, 0x1.a3119c0000000p-3, -0x1.1158640000000p-3, 0x1.27e6440000000p-3, -0x1.4ea55c0000000p-4, -0x1.0e03e00000000p-4, 0x1.ae54a00000000p-4, 0x1.a41bf00000000p-4, -0x1.0f3ac20000000p-3, -0x1.6ea1e80000000p-5, 0x1.a21d200000000p-5, -0x1.7613c80000000p-4, 0x1.635f200000000p-6, -0x1.2f7ca00000000p-7, 0x1.6b4f300000000p-4, 0x1.43b1400000000p-4, -0x1.f58f500000000p-5, -0x1.1110180000000p-5, -0x1.2e285c0000000p-3, 0x1.1e0da80000000p-3, -0x1.b3a5a00000000p-7, -0x1.4ed4f00000000p-4, 0x1.a02ea00000000p-6, 0x1.14a9940000000p-3, 0x1.ad97380000000p-3, 0x1.2fe9100000000p-3, 0x1.1f9d040000000p-3, -0x1.1022c40000000p-4, -0x1.349a440000000p-3, -0x1.4525fc0000000p-3, -0x1.2c31000000000p-7, 0x1.4688580000000p-4, 0x1.0f55000000000p-3, 0x1.567cb80000000p-4, 0x1.c9fcc00000000p-4, -0x1.862d700000000p-3, 0x1.0c82580000000p-3, -0x1.1898700000000p-3, 0x1.7eb2300000000p-3, -0x1.b466e60000000p-3, 0x1.9bc5680000000p-3, 0x1.f432900000000p-4, -0x1.24c8f40000000p-3, -0x1.9e46000000000p-6, -0x1.fb36000000000p-11, -0x1.ff10180000000p-5, 0x1.c6f0c00000000p-4, -0x1.ce99380000000p-3, -0x1.b4edb80000000p-5, -0x1.0cb7980000000p-5, 0x1.597e900000000p-5, -0x1.a9e0d80000000p-3, 0x1.1465400000000p-4, -0x1.70c1400000000p-3, -0x1.703e200000000p-5}
, {0x1.4258480000000p-3, 0x1.aa390c0000000p-3, -0x1.ae97400000000p-6, -0x1.bc11980000000p-4, -0x1.393f020000000p-3, -0x1.bc3cc00000000p-8, -0x1.7318f40000000p-4, -0x1.1060f20000000p-3, 0x1.1710a00000000p-3, -0x1.01a0280000000p-4, 0x1.78dbb00000000p-4, 0x1.adf5380000000p-3, -0x1.694b840000000p-3, -0x1.bf40820000000p-3, -0x1.ed90400000000p-6, -0x1.c1ba200000000p-7, 0x1.6e79b80000000p-4, 0x1.50f7b40000000p-3, -0x1.9533bc0000000p-4, 0x1.2a4aa80000000p-3, 0x1.7ad0500000000p-4, 0x1.47c4380000000p-4, -0x1.cc302e0000000p-3, -0x1.18d8000000000p-11, 0x1.0898580000000p-4, -0x1.5128000000000p-7, 0x1.0b057c0000000p-3, 0x1.bc92780000000p-4, 0x1.5b99900000000p-5, -0x1.215ea80000000p-3, 0x1.52a0a00000000p-4, -0x1.056fde0000000p-3, 0x1.309d280000000p-3, -0x1.bb44ae0000000p-3, 0x1.dae1e00000000p-6, 0x1.23195c0000000p-3, -0x1.880ccc0000000p-3, -0x1.d4e0e00000000p-6, 0x1.44f2c00000000p-3, 0x1.ed10c00000000p-7, 0x1.b984640000000p-3, -0x1.939fe00000000p-4, -0x1.1dfb240000000p-3, 0x1.7a65400000000p-3, -0x1.71ff480000000p-4, -0x1.3eb1100000000p-3, 0x1.d5eb0c0000000p-3, 0x1.e423380000000p-4, -0x1.aaa7fa0000000p-3, 0x1.e771000000000p-4, -0x1.da2c000000000p-8, -0x1.79dc240000000p-4, 0x1.5dfd800000000p-5, 0x1.0ce7200000000p-5, 0x1.856ae80000000p-4, -0x1.f033620000000p-4, 0x1.6a88000000000p-5, -0x1.c7ce960000000p-3, 0x1.2cbcc00000000p-3, -0x1.ae46a40000000p-3, 0x1.9484b00000000p-3, 0x1.e933600000000p-7, -0x1.f3797a0000000p-4, 0x1.4ca0280000000p-4, -0x1.9ebb6c0000000p-3, 0x1.a24da80000000p-3, 0x1.57d3380000000p-4, -0x1.31ee580000000p-3, -0x1.67b25c0000000p-3, -0x1.688f880000000p-3, 0x1.8977400000000p-4, -0x1.84fde80000000p-4, 0x1.0f14600000000p-3, 0x1.cc4f0c0000000p-3, 0x1.06b7c00000000p-5, -0x1.45c8720000000p-3, 0x1.6773280000000p-3, 0x1.7fbf940000000p-3, 0x1.7b03d00000000p-3, 0x1.8d35180000000p-4, 0x1.553ef80000000p-3, -0x1.fdc67c0000000p-4, -0x1.63f3600000000p-4, 0x1.3335000000000p-4, -0x1.8c63f00000000p-5, -0x1.d6fb880000000p-5, 0x1.22e3340000000p-3, -0x1.a65a880000000p-5, 0x1.4ca0700000000p-5, 0x1.75f0140000000p-3, 0x1.a709d00000000p-3, 0x1.d732600000000p-3, 0x1.fdd8000000000p-12, -0x1.c248d40000000p-3, 0x1.34d9ac0000000p-3, 0x1.3124c00000000p-7, 0x1.a8d5c00000000p-3, -0x1.b384a00000000p-6, -0x1.0c71880000000p-5, -0x1.4086da0000000p-3}
, {0x1.90939c0000000p-3, -0x1.1380800000000p-6, 0x1.95c9c00000000p-6, -0x1.d8b0480000000p-5, 0x1.3cd4ec0000000p-3, -0x1.6931000000000p-5, -0x1.d847a80000000p-5, -0x1.7ddf840000000p-3, -0x1.6b61260000000p-3, -0x1.4bcf400000000p-4, -0x1.4d27d80000000p-4, -0x1.5e55d20000000p-3, 0x1.abe42c0000000p-3, 0x1.1a34900000000p-3, 0x1.4428c00000000p-8, 0x1.a4a7c00000000p-3, 0x1.fa81d80000000p-4, -0x1.7658180000000p-4, 0x1.4ae7640000000p-3, -0x1.94d28c0000000p-3, -0x1.9121000000000p-7, 0x1.ac41a80000000p-4, -0x1.b0da040000000p-3, 0x1.538f300000000p-3, 0x1.87c7000000000p-4, 0x1.4a5f480000000p-4, -0x1.5cc7020000000p-3, 0x1.72b6580000000p-4, 0x1.8649800000000p-8, 0x1.6beda80000000p-3, -0x1.d6e6680000000p-3, 0x1.aeeb4c0000000p-3, 0x1.4459640000000p-3, 0x1.4a73200000000p-4, 0x1.18a5340000000p-3, -0x1.14fa800000000p-3, 0x1.8b3a900000000p-3, 0x1.4648ec0000000p-3, 0x1.eab4300000000p-5, -0x1.0695800000000p-4, -0x1.445a980000000p-3, -0x1.5667e00000000p-6, 0x1.1addfc0000000p-3, 0x1.742a0c0000000p-3, 0x1.ff0d580000000p-4, 0x1.8a98f40000000p-3, -0x1.01b9c00000000p-8, -0x1.4620e00000000p-6, 0x1.b67f100000000p-4, -0x1.f9e1300000000p-6, -0x1.3142e40000000p-3, 0x1.518d2c0000000p-3, 0x1.844a400000000p-3, -0x1.9e617a0000000p-3, 0x1.bb00e00000000p-7, 0x1.4841280000000p-4, -0x1.296d500000000p-3, -0x1.b3b2a00000000p-3, -0x1.1317ac0000000p-3, 0x1.42bc600000000p-4, 0x1.8515e00000000p-3, 0x1.f1ee980000000p-4, 0x1.f5acd80000000p-4, 0x1.adc3540000000p-3, -0x1.ac01c00000000p-3, 0x1.06dd2c0000000p-3, 0x1.9f08880000000p-3, 0x1.f52fe80000000p-4, 0x1.7235440000000p-3, -0x1.c305000000000p-5, 0x1.d614440000000p-3, 0x1.74fc580000000p-4, -0x1.73e6500000000p-6, 0x1.0e3a440000000p-3, 0x1.24e5b80000000p-4, 0x1.f185000000000p-9, -0x1.4ec3800000000p-9, 0x1.4cf7800000000p-4, 0x1.3268e80000000p-3, 0x1.d415080000000p-4, 0x1.007d5c0000000p-3, -0x1.b234d00000000p-6, -0x1.4611a40000000p-4, 0x1.09f0e80000000p-3, -0x1.c0e2260000000p-4, -0x1.173fc00000000p-7, 0x1.87f0380000000p-3, 0x1.9b91180000000p-3, -0x1.9dc1d80000000p-4, 0x1.6687680000000p-4, -0x1.8da3b80000000p-4, 0x1.3bd6500000000p-4, 0x1.c81a680000000p-4, -0x1.6537c00000000p-8, 0x1.7681040000000p-3, -0x1.cfeed20000000p-3, 0x1.ba84ac0000000p-3, 0x1.9aea100000000p-4, -0x1.ddbaa80000000p-5, -0x1.04d3080000000p-5}
, {0x1.3621140000000p-3, 0x1.5a9c780000000p-4, -0x1.4c3d740000000p-3, 0x1.3208dc0000000p-3, 0x1.1d9ba40000000p-3, 0x1.4cd9c80000000p-4, 0x1.4037980000000p-4, 0x1.209b000000000p-6, -0x1.7a52500000000p-4, 0x1.464cd00000000p-5, 0x1.6180580000000p-4, -0x1.6119120000000p-3, 0x1.c802c40000000p-3, -0x1.681fc80000000p-3, 0x1.77b9f80000000p-4, 0x1.3cd8800000000p-6, -0x1.8fb1200000000p-6, 0x1.e139180000000p-4, 0x1.423c1c0000000p-3, -0x1.965fc80000000p-5, 0x1.06c6d80000000p-4, -0x1.28193c0000000p-3, -0x1.7b4bf00000000p-6, -0x1.3090e00000000p-4, -0x1.6a3d080000000p-3, -0x1.af4dc40000000p-3, 0x1.44dd380000000p-4, -0x1.47d8780000000p-4, -0x1.5d26c40000000p-3, -0x1.18c8b20000000p-3, -0x1.0409400000000p-4, -0x1.0670f20000000p-3, 0x1.a044880000000p-4, 0x1.424be00000000p-3, 0x1.28f9100000000p-3, 0x1.3a9f000000000p-9, 0x1.e35dc00000000p-5, 0x1.9c5af80000000p-3, -0x1.0746c40000000p-3, -0x1.3f9ef00000000p-3, -0x1.2f49240000000p-3, -0x1.113e8e0000000p-3, -0x1.0cd6300000000p-5, -0x1.d288ee0000000p-3, -0x1.4fac080000000p-4, -0x1.c24f560000000p-3, 0x1.a00cf00000000p-4, 0x1.60a1d00000000p-5, -0x1.4143000000000p-9, -0x1.6e36f00000000p-5, 0x1.91d4b00000000p-5, -0x1.494c580000000p-4, 0x1.8dedc80000000p-3, 0x1.23ec200000000p-6, -0x1.7e33040000000p-3, 0x1.b684f00000000p-3, 0x1.0748b00000000p-3, -0x1.8cc3240000000p-3, -0x1.7b48000000000p-11, 0x1.b072a00000000p-5, 0x1.2342d80000000p-3, 0x1.fd85c80000000p-4, 0x1.8e2a600000000p-6, 0x1.9fdafc0000000p-3, 0x1.7eb3800000000p-6, 0x1.f015400000000p-4, 0x1.bdbf000000000p-10, -0x1.98bd800000000p-4, -0x1.22faf80000000p-4, -0x1.f96b3a0000000p-4, 0x1.a4bd800000000p-5, 0x1.0753ac0000000p-3, -0x1.3e7cec0000000p-3, 0x1.8ce0f00000000p-3, 0x1.881c900000000p-5, 0x1.d97a300000000p-4, -0x1.c42d960000000p-3, 0x1.3bda080000000p-3, 0x1.7a3eec0000000p-3, 0x1.433f700000000p-4, -0x1.cd3a480000000p-3, 0x1.3f03e00000000p-5, 0x1.b78df00000000p-3, 0x1.02111c0000000p-3, -0x1.6618840000000p-3, -0x1.18d5480000000p-3, -0x1.cdd0de0000000p-3, -0x1.4586fe0000000p-3, -0x1.a7657a0000000p-3, -0x1.afc3e40000000p-4, 0x1.2892000000000p-5, -0x1.b410e80000000p-5, 0x1.3f507c0000000p-3, -0x1.44b0820000000p-3, 0x1.f0baa00000000p-7, 0x1.c5c6180000000p-4, 0x1.3c2a640000000p-3, 0x1.7f91f80000000p-4, -0x1.d848a40000000p-3, 0x1.c365200000000p-5}
, {0x1.b75b700000000p-4, 0x1.4dc8900000000p-5, -0x1.6668ea0000000p-3, -0x1.5e2d300000000p-4, 0x1.c5f1400000000p-3, -0x1.4a2ce00000000p-7, 0x1.5dc9500000000p-5, 0x1.0d74500000000p-6, 0x1.8c8c180000000p-4, -0x1.a134aa0000000p-3, 0x1.eac4a00000000p-5, 0x1.8aeb400000000p-3, -0x1.5115920000000p-3, -0x1.4a70380000000p-3, -0x1.8c4d800000000p-7, 0x1.5813000000000p-5, 0x1.4d66800000000p-3, 0x1.d3dee80000000p-4, -0x1.1a63540000000p-4, -0x1.6211900000000p-4, -0x1.871c340000000p-4, -0x1.eb4af20000000p-4, -0x1.2cdb900000000p-5, -0x1.a38f0c0000000p-4, -0x1.b1d26c0000000p-4, 0x1.1566780000000p-4, -0x1.436d6c0000000p-3, 0x1.7ec4f40000000p-3, 0x1.b3e3e80000000p-3, 0x1.1120780000000p-4, -0x1.3eedd00000000p-4, -0x1.00aca00000000p-4, 0x1.7ad0b80000000p-3, -0x1.c0d5b00000000p-3, 0x1.3de36c0000000p-3, 0x1.669e6c0000000p-3, 0x1.14e8000000000p-8, -0x1.7d4b480000000p-5, -0x1.e2f54a0000000p-4, -0x1.c0e63e0000000p-3, 0x1.29a5280000000p-4, -0x1.0691000000000p-7, 0x1.f444f80000000p-4, -0x1.a0a3380000000p-5, -0x1.7f3ac00000000p-8, -0x1.4430380000000p-5, -0x1.c8205c0000000p-4, 0x1.9141a00000000p-4, -0x1.0aa91c0000000p-4, -0x1.f40b800000000p-4, 0x1.5ad4000000000p-3, 0x1.4c9e500000000p-3, 0x1.2aea500000000p-4, -0x1.546ab80000000p-5, 0x1.43fdb80000000p-3, 0x1.09f1d00000000p-6, 0x1.a1f5d80000000p-3, -0x1.967f080000000p-4, 0x1.49f1c00000000p-4, 0x1.a0e7780000000p-3, 0x1.a352800000000p-3, -0x1.fd0d840000000p-4, -0x1.830e140000000p-4, 0x1.9859540000000p-3, 0x1.6726d80000000p-4, -0x1.0e394c0000000p-3, 0x1.a6c4b80000000p-4, -0x1.4002d60000000p-3, -0x1.2d907e0000000p-3, 0x1.ec04f80000000p-4, -0x1.79b0a00000000p-6, -0x1.325e100000000p-5, 0x1.5a9e500000000p-5, -0x1.cb29d00000000p-6, -0x1.7115c40000000p-3, 0x1.8124780000000p-3, -0x1.1f1ee00000000p-4, 0x1.715afc0000000p-3, -0x1.af6d780000000p-4, 0x1.2653000000000p-9, 0x1.f0bdd00000000p-5, 0x1.0c33e80000000p-3, -0x1.bd6e480000000p-3, 0x1.59ffe00000000p-4, 0x1.dcb5100000000p-5, -0x1.5b1ebc0000000p-4, 0x1.322bc00000000p-4, 0x1.6bc2900000000p-3, 0x1.bdd6f00000000p-3, 0x1.be8cbc0000000p-3, 0x1.d1dea80000000p-4, -0x1.f0b8d00000000p-6, 0x1.5e83c00000000p-3, -0x1.a0c2760000000p-3, 0x1.ccc1cc0000000p-3, 0x1.a24a300000000p-5, -0x1.b156700000000p-3, 0x1.8573200000000p-6, 0x1.ba7e800000000p-4, 0x1.67c4200000000p-6}
}
;

#undef INPUT_SAMPLES
#undef FC_UNITS