/**
  ******************************************************************************
  * @file    weights/fc.cc
  * @author  Pierre-Emmanuel Novac <penovac@unice.fr>, LEAT, CNRS, Université Côte d'Azur, France
  * @version 1.0.0
  * @date    24 march 2020
  * @brief   Template generating plain C code for the implementation of Convolutional Neural Networks on MCU
  */

#include <stdint.h>

#define INPUT_SAMPLES 576
#define FC_UNITS 100


const float dense_bias[FC_UNITS] = {0x1.05a0660000000p-5, -0x1.1c6f5c0000000p-4, -0x1.b5bf560000000p-4, -0x1.d51a640000000p-5, -0x1.fdfbb80000000p-5, 0x1.9d1e460000000p-4, -0x1.54ab100000000p-5, -0x1.0fa6e40000000p-4, -0x1.91e24c0000000p-3, -0x1.d873ec0000000p-3, -0x1.df7e4e0000000p-4, -0x1.7904ec0000000p-6, -0x1.a376200000000p-5, -0x1.016ffc0000000p-2, -0x1.3c05840000000p-7, -0x1.27feea0000000p-4, -0x1.906b6a0000000p-3, -0x1.a720ea0000000p-4, -0x1.6c49a40000000p-3, -0x1.fdd1840000000p-4, -0x1.da80c40000000p-3, -0x1.cd31a20000000p-9, -0x1.a30cc00000000p-3, -0x1.1079480000000p-3, 0x1.f812900000000p-4, -0x1.c413060000000p-3, -0x1.4bd9060000000p-5, -0x1.941f360000000p-3, -0x1.837f460000000p-5, -0x1.e8e8220000000p-3, -0x1.aec1f80000000p-4, -0x1.c7bf920000000p-4, -0x1.1340fe0000000p-2, -0x1.3b61940000000p-4, -0x1.669dea0000000p-4, 0x1.bf12ea0000000p-3, -0x1.90bda00000000p-7, -0x1.0fffb60000000p-3, -0x1.7a95a00000000p-3, -0x1.c9d6060000000p-3, 0x1.e352f20000000p-5, -0x1.622b440000000p-4, -0x1.c63bf00000000p-3, -0x1.eebac20000000p-5, -0x1.a63c7a0000000p-4, -0x1.4a0df40000000p-3, 0x1.a5e9160000000p-5, -0x1.304dc80000000p-3, -0x1.6dfcce0000000p-3, -0x1.206da80000000p-4, -0x1.3095020000000p-4, 0x1.5399640000000p-6, -0x1.ae0fd40000000p-3, -0x1.5497ce0000000p-3, -0x1.7402600000000p-3, -0x1.0fedc00000000p-2, -0x1.ebaff80000000p-4, -0x1.787e240000000p-3, -0x1.29c4480000000p-2, -0x1.b0ab5c0000000p-8, -0x1.fd4aea0000000p-4, -0x1.54dd360000000p-4, -0x1.6a861c0000000p-5, -0x1.9fc1c20000000p-4, 0x1.61899c0000000p-7, -0x1.0c280c0000000p-6, 0x1.08259c0000000p-4, 0x1.8e30fa0000000p-5, -0x1.51386c0000000p-3, 0x1.753ccc0000000p-3, -0x1.f72f8e0000000p-4, -0x1.667d4a0000000p-4, -0x1.44e22a0000000p-5, -0x1.c47da80000000p-3, -0x1.f1552a0000000p-4, -0x1.42847c0000000p-2, 0x1.41e8600000000p-7, 0x1.090c880000000p-4, -0x1.88fbba0000000p-3, -0x1.6a9bc40000000p-3, 0x1.b92d0e0000000p-5, -0x1.2973840000000p-7, -0x1.089d000000000p-3, -0x1.4050f60000000p-4, -0x1.80a6900000000p-6, 0x1.b085e60000000p-4, 0x1.2be9f40000000p-4, -0x1.3e84ea0000000p-3, 0x1.a9320e0000000p-4, -0x1.c7d4f20000000p-4, -0x1.fccbf60000000p-6, -0x1.218fcc0000000p-2, -0x1.7b83440000000p-3, -0x1.2f295a0000000p-2, 0x1.db6b2a0000000p-4, -0x1.64d0ee0000000p-5, 0x1.f3676a0000000p-5, -0x1.2e14000000000p-3, -0x1.72992a0000000p-3, -0x1.1b0c240000000p-4}
;

const float dense_kernel[FC_UNITS][INPUT_SAMPLES] = {{-0x1.4b00ae0000000p-3, -0x1.fc59700000000p-4, -0x1.f319d20000000p-5, 0x1.2cd7a80000000p-3, 0x1.19f2700000000p-3, -0x1.9f85b20000000p-2, -0x1.b796560000000p-5, -0x1.a474d40000000p-4, 0x1.108b300000000p-2, -0x1.5bb6c20000000p-6, 0x1.50bae60000000p-6, -0x1.f81fda0000000p-2, 0x1.2aa7d80000000p-6, -0x1.b444720000000p-3, 0x1.0956ee0000000p-9, 0x1.fd26ec0000000p-5, -0x1.149a7c0000000p-1, -0x1.3117f00000000p-2, 0x1.e083300000000p-3, -0x1.a249a00000000p-3, 0x1.c3f8280000000p-5, -0x1.f68ee60000000p-3, 0x1.0ff00c0000000p-1, -0x1.5196520000000p-2, 0x1.d0cb780000000p-2, -0x1.1eb64e0000000p-3, -0x1.00ea760000000p-2, -0x1.18c0d80000000p-1, -0x1.aba1c60000000p-6, -0x1.94b4fe0000000p-2, -0x1.7c54080000000p-2, -0x1.d6f9b80000000p-3, -0x1.25d0ce0000000p-3, -0x1.7cfcc60000000p-3, -0x1.a5f3ac0000000p-4, -0x1.2be31e0000000p-2, 0x1.634bce0000000p-4, 0x1.20aa720000000p-2, 0x1.7f1f520000000p-4, -0x1.d5bdc00000000p-8, -0x1.6ce15c0000000p-3, 0x1.12421a0000000p-5, 0x1.567ef80000000p-3, -0x1.0c5fe20000000p-5, 0x1.e6cc000000000p-3, -0x1.4248740000000p-6, 0x1.ce82d00000000p-3, -0x1.482b980000000p-3, -0x1.976a8c0000000p-6, 0x1.321c3a0000000p-2, -0x1.ea76260000000p-5, -0x1.7b01760000000p-3, -0x1.9c41e40000000p-11, -0x1.013dd20000000p-5, -0x1.87955c0000000p-4, -0x1.4f478c0000000p-4, 0x1.3c27320000000p-3, -0x1.3004760000000p-2, -0x1.67bc700000000p-3, 0x1.4c864e0000000p-6, -0x1.026ba40000000p-3, -0x1.1144520000000p-3, 0x1.fd392e0000000p-5, -0x1.bd425c0000000p-5, 0x1.814e5e0000000p-6, -0x1.bef1220000000p-4, -0x1.5be13a0000000p-3, 0x1.8f97d60000000p-4, 0x1.bd0c480000000p-4, 0x1.5e807a0000000p-3, -0x1.f628f60000000p-5, -0x1.9850d40000000p-4, -0x1.814cbe0000000p-6, 0x1.9d744a0000000p-4, 0x1.4c4b480000000p-2, 0x1.7d01aa0000000p-2, -0x1.30a2d00000000p-9, -0x1.6f87120000000p-4, 0x1.52ed3a0000000p-8, -0x1.88d12a0000000p-4, 0x1.0372f20000000p-4, 0x1.1782380000000p-3, 0x1.b3501a0000000p-2, 0x1.892b020000000p-3, -0x1.ef98e20000000p-3, 0x1.bdf1a60000000p-2, -0x1.4afa180000000p-3, 0x1.cde4940000000p-6, -0x1.da51640000000p-5, 0x1.be1dcc0000000p-2, 0x1.7f764e0000000p-3, 0x1.a559f40000000p-4, -0x1.d6335a0000000p-4, 0x1.e79c240000000p-4, 0x1.511df60000000p-4, -0x1.43e4e00000000p-2, -0x1.5179700000000p-4, 0x1.911b2a0000000p-5, -0x1.35dc200000000p-4, 0x1.de7b7a0000000p-3, 0x1.6e9e0a0000000p-4, -0x1.1dd7d40000000p-4, -0x1.69791e0000000p-4, 0x1.dafaa00000000p-4, 0x1.df50f40000000p-4, 0x1.24e2200000000p-2, 0x1.01a8340000000p-3, 0x1.0636400000000p-6, -0x1.a31de00000000p-3, 0x1.9d5e220000000p-8, 0x1.243cbe0000000p-3, 0x1.6726080000000p-3, 0x1.d8a4b60000000p-4, 0x1.b6091a0000000p-5, -0x1.c495420000000p-5, -0x1.324d3e0000000p-2, -0x1.f8cac00000000p-4, -0x1.2d655c0000000p-3, -0x1.01f3420000000p-2, 0x1.da0c8e0000000p-5, 0x1.c2152e0000000p-5, 0x1.3ea1e60000000p-2, 0x1.e02a800000000p-6, -0x1.267c880000000p-2, -0x1.7097d80000000p-2, 0x1.a002460000000p-5, 0x1.ba19160000000p-5, -0x1.e9bf2c0000000p-3, -0x1.f205540000000p-6, 0x1.d71cb80000000p-5, -0x1.d80aae0000000p-6, 0x1.16ab600000000p-3, -0x1.3f7fd20000000p-4, 0x1.2567e00000000p-2, -0x1.0141ca0000000p-3, -0x1.8cea240000000p-8, -0x1.5578740000000p-5, -0x1.bdb8c40000000p-4, -0x1.c0fa7c0000000p-4, 0x1.47dd020000000p-3, 0x1.247e7e0000000p-3, 0x1.2759600000000p-3, 0x1.51327e0000000p-5, -0x1.75da3e0000000p-4, -0x1.2d2f620000000p-11, 0x1.75a5260000000p-2, -0x1.8bd1000000000p-8, -0x1.e2b2a00000000p-5, -0x1.1932860000000p-3, 0x1.9f18820000000p-5, -0x1.74ffc60000000p-4, -0x1.fcf2ac0000000p-6, -0x1.ff4a080000000p-4, -0x1.dca8e80000000p-4, 0x1.f481720000000p-6, -0x1.866dc60000000p-4, -0x1.549f680000000p-3, -0x1.b94e7c0000000p-5, -0x1.361f240000000p-5, 0x1.9ad4a20000000p-7, 0x1.708afe0000000p-3, 0x1.783dc80000000p-2, 0x1.e2d28a0000000p-4, 0x1.27e46c0000000p-2, -0x1.4e8ab60000000p-3, 0x1.3aa1400000000p-2, -0x1.5dc1880000000p-4, 0x1.f30a540000000p-5, -0x1.94cb3a0000000p-2, -0x1.76abc60000000p-6, -0x1.ffa8d80000000p-4, 0x1.7066f80000000p-1, 0x1.5408b40000000p-4, 0x1.765c960000000p-6, -0x1.5e25560000000p-3, -0x1.5ae9060000000p-4, 0x1.49540e0000000p-1, 0x1.630e9a0000000p-2, 0x1.d94ddc0000000p-8, 0x1.90e4200000000p-3, 0x1.dde75a0000000p-4, 0x1.5a6daa0000000p-2, 0x1.c91eb40000000p-13, 0x1.57589a0000000p-3, -0x1.75d9f60000000p-3, 0x1.17aa200000000p-4, -0x1.8112960000000p-4, 0x1.9e3e8e0000000p-1, 0x1.2b1a020000000p-4, 0x1.f0d4100000000p-3, -0x1.f29e8c0000000p-5, -0x1.4a90620000000p-4, 0x1.98adf80000000p-4, -0x1.7b78b20000000p-4, -0x1.17d1c00000000p-6, 0x1.321fe80000000p-2, -0x1.150de00000000p-6, 0x1.103a840000000p-3, -0x1.1015ca0000000p-5, -0x1.4bc2bc0000000p-7, -0x1.fda4160000000p-6, 0x1.271c440000000p-3, -0x1.4f2de00000000p-6, 0x1.8752b20000000p-4, 0x1.af72b80000000p-3, -0x1.15a1dc0000000p-2, -0x1.7179f80000000p-2, 0x1.48afc20000000p-2, 0x1.1fd8940000000p-3, 0x1.063fb60000000p-3, -0x1.05c38c0000000p-2, 0x1.23b07e0000000p-2, 0x1.2c38e60000000p-2, 0x1.02df4c0000000p-2, 0x1.28dfaa0000000p-5, 0x1.2223cc0000000p-3, -0x1.90c51a0000000p-4, -0x1.6574e40000000p-3, 0x1.e6751a0000000p-4, 0x1.0420060000000p-6, 0x1.4d2c3a0000000p-5, 0x1.f50d760000000p-6, -0x1.1681d60000000p-3, 0x1.8ca3e40000000p-3, -0x1.5492ae0000000p-3, 0x1.532a260000000p-3, 0x1.da0da20000000p-5, 0x1.8ba36c0000000p-5, 0x1.168cfe0000000p-1, -0x1.5aaa320000000p-5, 0x1.7b124c0000000p-3, 0x1.f8ad780000000p-4, -0x1.a0e4760000000p-6, -0x1.d126be0000000p-3, 0x1.ee2f9c0000000p-7, -0x1.d64ccc0000000p-6, 0x1.2034f20000000p-2, -0x1.3c6a6a0000000p-2, -0x1.17839e0000000p-2, 0x1.f3d6c80000000p-5, -0x1.2c9a060000000p-4, 0x1.1633480000000p-2, 0x1.efcdda0000000p-5, 0x1.4d2d880000000p-3, -0x1.28e0aa0000000p-3, 0x1.e1ce8e0000000p-2, -0x1.1cc3800000000p-2, -0x1.abc6cc0000000p-3, -0x1.14e78e0000000p-2, -0x1.150d600000000p-2, -0x1.af7bb00000000p-3, 0x1.10a2020000000p-4, -0x1.8cde800000000p-3, -0x1.8e9e340000000p-3, -0x1.79adbc0000000p-2, 0x1.0bd46e0000000p-4, 0x1.bcbc8a0000000p-3, -0x1.0fe31a0000000p-5, 0x1.b6bf620000000p-2, -0x1.f86a1e0000000p-4, -0x1.2adc3c0000000p-3, 0x1.f214e00000000p-5, -0x1.eff4160000000p-7, -0x1.d2a0160000000p-10, -0x1.3e35c40000000p-1, 0x1.7006ea0000000p-2, -0x1.1c08980000000p-4, 0x1.71be360000000p-2, -0x1.d71f640000000p-2, -0x1.4562c60000000p-6, -0x1.0ed5ec0000000p-1, -0x1.bdbdac0000000p-2, 0x1.d6cf3e0000000p-2, 0x1.1574380000000p-3, 0x1.70bd4e0000000p-4, -0x1.805ae80000000p-3, -0x1.f93dfe0000000p-5, -0x1.b3ad6c0000000p-7, 0x1.beda8c0000000p-2, -0x1.440e0a0000000p-2, -0x1.97a15e0000000p-5, 0x1.5451ca0000000p-3, -0x1.5f7b220000000p-2, -0x1.10bbf80000000p-7, 0x1.1f6c7a0000000p-4, -0x1.ae1b1c0000000p-4, -0x1.ed5c340000000p-4, -0x1.456ef40000000p-2, 0x1.b4a7480000000p-5, 0x1.41ca100000000p-3, 0x1.2ccc0a0000000p-1, 0x1.148fc40000000p-1, 0x1.670f260000000p-2, 0x1.48046a0000000p-3, 0x1.37c3c80000000p-3, 0x1.e7c8c20000000p-3, -0x1.df81800000000p-5, 0x1.b914de0000000p-5, 0x1.332c380000000p-2, 0x1.e1afa60000000p-3, 0x1.a933400000000p-2, 0x1.3407f40000000p-3, 0x1.dd5ae20000000p-5, 0x1.35ef2a0000000p-2, -0x1.317bf40000000p-2, -0x1.58b3a00000000p-3, 0x1.283c4e0000000p-5, 0x1.7b36940000000p-5, 0x1.5fd15e0000000p-5, -0x1.91f73a0000000p-3, 0x1.3a532a0000000p-4, -0x1.fa79be0000000p-2, 0x1.5fc20c0000000p-2, -0x1.edbd720000000p-3, 0x1.d027640000000p-4, -0x1.d411580000000p-5, 0x1.9ae9bc0000000p-5, 0x1.21041a0000000p-2, 0x1.7508700000000p-2, 0x1.040a1c0000000p-4, 0x1.ddf72a0000000p-5, 0x1.f242b60000000p-4, 0x1.42265e0000000p-6, -0x1.ee137a0000000p-3, -0x1.c239e00000000p-4, -0x1.0ad4c80000000p-2, -0x1.988efe0000000p-4, 0x1.65aea80000000p-4, 0x1.d5ab500000000p-5, -0x1.d93a2a0000000p-2, 0x1.652cbc0000000p-4, -0x1.07cb000000000p-3, 0x1.19589c0000000p-4, -0x1.a571280000000p-5, 0x1.16bdf00000000p-5, 0x1.d70be00000000p-7, -0x1.03f25e0000000p-5, 0x1.3e6d260000000p-3, 0x1.1e7c040000000p-2, 0x1.6def0e0000000p-3, -0x1.a202a00000000p-3, 0x1.7ed0f00000000p-4, 0x1.f27f460000000p-3, -0x1.7d413e0000000p-2, -0x1.fe11180000000p-2, 0x1.6fcbce0000000p-2, -0x1.1cf7c20000000p-4, -0x1.fd722a0000000p-10, -0x1.299f020000000p-3, -0x1.46e0b20000000p-2, -0x1.1660ce0000000p-1, 0x1.07a5180000000p-4, 0x1.19294e0000000p-3, -0x1.0f64180000000p-1, 0x1.f74e5a0000000p-7, -0x1.0ad1b20000000p-3, 0x1.a9f46e0000000p-3, 0x1.9b385c0000000p-6, 0x1.0e65da0000000p-1, -0x1.cc225a0000000p-9, 0x1.04270c0000000p-2, 0x1.c1f7bc0000000p-4, -0x1.2b51420000000p-2, -0x1.05d0240000000p-3, 0x1.a94b140000000p-4, -0x1.43114a0000000p-2, 0x1.4cd9840000000p-3, -0x1.22d8ce0000000p-4, 0x1.d3bd120000000p-1, -0x1.d3ea9a0000000p-8, 0x1.458e6e0000000p-2, -0x1.2940c80000000p-1, 0x1.884cc40000000p-2, -0x1.95231a0000000p-2, 0x1.0020900000000p-1, -0x1.7996ce0000000p-3, 0x1.1da68a0000000p-1, -0x1.321dae0000000p-6, -0x1.7b87a20000000p-2, -0x1.782b3e0000000p-3, 0x1.0d01da0000000p-5, 0x1.001c400000000p-1, 0x1.3a614a0000000p-1, -0x1.09a7800000000p-4, 0x1.f017580000000p-4, 0x1.b9f7120000000p-6, 0x1.4ec91a0000000p-2, 0x1.3ad53c0000000p-2, 0x1.1052a40000000p-6, 0x1.37a32a0000000p-5, 0x1.ab73580000000p-3, -0x1.7c925e0000000p-4, 0x1.97a2c20000000p-2, 0x1.6951680000000p-4, 0x1.76c59c0000000p-4, 0x1.b802c80000000p-4, 0x1.450b080000000p-3, 0x1.bd4f540000000p-3, 0x1.80dd720000000p-2, 0x1.487f8c0000000p-3, 0x1.8ae2bc0000000p-2, -0x1.34049a0000000p-4, 0x1.7676040000000p-3, 0x1.8c3cba0000000p-3, 0x1.07d3c20000000p-5, -0x1.f904dc0000000p-2, 0x1.2b88fc0000000p-5, -0x1.b1ed2a0000000p-1, 0x1.303f940000000p-4, 0x1.9471880000000p-2, 0x1.770c100000000p-4, 0x1.1783ca0000000p-4, -0x1.40bcf00000000p-5, 0x1.ac77800000000p-4, 0x1.d860a00000000p-4, -0x1.916ab20000000p-7, 0x1.39652c0000000p-2, 0x1.15dcca0000000p-2, 0x1.5d8b060000000p-3, 0x1.ded6260000000p-2, -0x1.23a4aa0000000p-2, -0x1.e9c9a80000000p-4, -0x1.45c2680000000p-2, -0x1.6d13da0000000p-1, -0x1.30314e0000000p-2, 0x1.55f9b80000000p-2, -0x1.268e900000000p-4, 0x1.fa22600000000p-3, -0x1.4bcb060000000p-3, -0x1.88e8ba0000000p-2, -0x1.c2e0c60000000p-3, -0x1.baab560000000p-2, -0x1.9269c80000000p-3, 0x1.90ce5c0000000p-3, -0x1.aade480000000p-2, -0x1.7aa2ba0000000p-2, -0x1.7ba0f40000000p-3, 0x1.a36a260000000p-3, -0x1.48083c0000000p-2, 0x1.39339a0000000p-4, -0x1.242be60000000p-2, -0x1.1489c00000000p-2, -0x1.6a263e0000000p-7, 0x1.9e7c800000000p-3, -0x1.1c14280000000p-3, -0x1.546bf80000000p-1, 0x1.4cea800000000p-3, -0x1.6539e00000000p-2, 0x1.713b380000000p-3, -0x1.cb7be00000000p-5, 0x1.886f8e0000000p-5, -0x1.50cc8a0000000p-3, 0x1.7fce300000000p-2, -0x1.7c8f6c0000000p-4, 0x1.317a1a0000000p-2, 0x1.71fd540000000p-2, 0x1.62dde80000000p-3, -0x1.3cd5620000000p-3, 0x1.23c7b60000000p-6, 0x1.a109bc0000000p-6, 0x1.71e6260000000p-2, 0x1.4e95320000000p-2, 0x1.8c94780000000p-3, -0x1.71e2000000000p-3, 0x1.3880ba0000000p-5, -0x1.f498ce0000000p-3, 0x1.f38e1a0000000p-4, -0x1.767cd40000000p-2, 0x1.f1784c0000000p-2, -0x1.9f19300000000p-3, 0x1.bff2580000000p-3, 0x1.e2fbfe0000000p-6, 0x1.8536120000000p-2, -0x1.86c22a0000000p-3, 0x1.4fbfa00000000p-7, -0x1.59bcc80000000p-3, 0x1.5e2fd80000000p-2, 0x1.9313260000000p-1, 0x1.23281a0000000p-2, 0x1.26775a0000000p-2, -0x1.4a5ce00000000p-10, -0x1.bda3200000000p-4, 0x1.75e5660000000p-3, 0x1.1ce2ea0000000p-8, -0x1.ae4c1e0000000p-4, 0x1.ff8d8e0000000p-3, -0x1.d8d8e60000000p-6, 0x1.1104e20000000p-4, 0x1.22d38c0000000p-3, 0x1.3d16fa0000000p-4, 0x1.2f38b60000000p-4, 0x1.435f940000000p-5, -0x1.08a6660000000p-2, -0x1.2ba29e0000000p-5, 0x1.7946ac0000000p-2, -0x1.8cb2cc0000000p-3, 0x1.0765140000000p-1, 0x1.83e04c0000000p-2, 0x1.f885aa0000000p-4, 0x1.57cfa00000000p-2, -0x1.3721140000000p-5, 0x1.5293940000000p-3, -0x1.457a5a0000000p-7, 0x1.b5c1ce0000000p-3, -0x1.d4fa220000000p-4, 0x1.202f100000000p-1, -0x1.f26dfc0000000p-4, 0x1.b6c3d80000000p-2, -0x1.4bceca0000000p-5, -0x1.06ac700000000p-1, 0x1.3487040000000p-8, -0x1.70ae7e0000000p-3, -0x1.a21e6e0000000p-4, 0x1.b30f7c0000000p-2, -0x1.bfe6740000000p-5, 0x1.013d760000000p-3, -0x1.b027e60000000p-8, 0x1.c03ed00000000p-1, -0x1.02fd400000000p-7, 0x1.ef5aa20000000p-3, -0x1.619fbc0000000p-4, 0x1.6ae3940000000p-3, -0x1.6841be0000000p-4, 0x1.99690a0000000p-2, -0x1.abbb760000000p-4, -0x1.a7503c0000000p-1, -0x1.19b79c0000000p-3, 0x1.e0492a0000000p-4, -0x1.37a7480000000p-1, 0x1.9bdcf60000000p-2, -0x1.1293060000000p-3, -0x1.080d3a0000000p-2, 0x1.8b571e0000000p-3, 0x1.bf88700000000p-2, 0x1.1da6140000000p-4, 0x1.3224460000000p+0, 0x1.46a36e0000000p-3, -0x1.d8443e0000000p-3, -0x1.577e080000000p-6, 0x1.5fdbe00000000p-2, -0x1.1995820000000p-5, -0x1.6bc9e80000000p-2, -0x1.b014900000000p-4, 0x1.09737a0000000p-4, -0x1.b7b35c0000000p-3, -0x1.19afac0000000p-3, -0x1.af72be0000000p-3, -0x1.df667a0000000p-3, 0x1.597a420000000p-1, 0x1.12b5ee0000000p-1, 0x1.73dd320000000p-4, 0x1.956a2a0000000p-1, 0x1.d7634a0000000p-4, -0x1.5a0cd00000000p-7, 0x1.5dc1ea0000000p-2, -0x1.7c8c680000000p-3, 0x1.7ce32a0000000p-2, 0x1.ace0c20000000p-2, 0x1.10335e0000000p-5, 0x1.8ed7be0000000p-2, 0x1.13abb20000000p-5, 0x1.b560d20000000p-5, 0x1.f721880000000p-5, -0x1.023e060000000p-3, 0x1.2eebd40000000p-3, -0x1.b29fba0000000p-4, -0x1.fef9020000000p-7, 0x1.cb3b360000000p-2, -0x1.0e03660000000p-7, -0x1.cdbe480000000p-3, 0x1.4ea4120000000p-2, -0x1.e30b800000000p-4, 0x1.32efec0000000p-1, 0x1.b0dcda0000000p-1, 0x1.4148660000000p-4, 0x1.6e3a4c0000000p-2}
, {-0x1.9fdb840000000p-2, -0x1.081ce20000000p-3, -0x1.1c4c900000000p-6, 0x1.83080e0000000p-4, -0x1.11da0e0000000p-2, -0x1.7185b40000000p-3, 0x1.9898160000000p-4, -0x1.594a460000000p-3, 0x1.cf35540000000p-3, -0x1.c2e6c60000000p-4, 0x1.b0f2760000000p-4, -0x1.fec30e0000000p-2, 0x1.38968a0000000p-3, -0x1.d8f4540000000p-3, -0x1.57c5600000000p-2, -0x1.b6b5820000000p-4, -0x1.7475520000000p-6, -0x1.fdd7680000000p-5, 0x1.ee31dc0000000p-3, -0x1.3546a60000000p-3, 0x1.f3dc820000000p-2, -0x1.0c20760000000p-3, 0x1.9fdefa0000000p-2, -0x1.3beeea0000000p-2, 0x1.fb2cdc0000000p-3, 0x1.902a4c0000000p-6, 0x1.6ed6e40000000p-3, -0x1.6139d60000000p-2, 0x1.a27b4a0000000p-3, 0x1.ea012a0000000p-5, -0x1.74311c0000000p-3, 0x1.9f8bee0000000p-3, 0x1.0d08460000000p-3, 0x1.18e2980000000p-2, 0x1.bdc30c0000000p-4, -0x1.3635d80000000p-2, 0x1.7a331e0000000p-2, 0x1.915e640000000p-5, 0x1.96eaa40000000p-3, 0x1.f38f900000000p-4, -0x1.00c6ea0000000p-3, 0x1.0e41700000000p-2, 0x1.5691e40000000p-3, 0x1.59d3400000000p-5, 0x1.721b0c0000000p-2, 0x1.0396120000000p-5, -0x1.4865b20000000p-4, 0x1.7a3ca20000000p-2, 0x1.e83b260000000p-5, 0x1.35b81e0000000p-2, 0x1.0f81660000000p-3, 0x1.5303fc0000000p-2, 0x1.630a840000000p-2, 0x1.503dfe0000000p-1, 0x1.3082280000000p-1, 0x1.3e07780000000p-4, -0x1.4c71680000000p-2, 0x1.15f73c0000000p-5, 0x1.b891580000000p-3, 0x1.04200c0000000p-1, 0x1.48c8720000000p-3, 0x1.61f0a40000000p-5, 0x1.2e95ac0000000p-4, -0x1.ad17860000000p-4, 0x1.3634ec0000000p-4, 0x1.5119f40000000p-2, 0x1.a155ae0000000p-2, 0x1.4b05340000000p-5, 0x1.a48d4c0000000p-2, 0x1.5148e40000000p-2, 0x1.1e80a80000000p-3, 0x1.9e4cc20000000p-5, -0x1.295c0c0000000p-2, 0x1.71fc640000000p-2, 0x1.9436180000000p-3, 0x1.a6272e0000000p-3, 0x1.aacc6c0000000p-2, 0x1.b269cc0000000p-4, 0x1.2740ec0000000p-9, 0x1.02eccc0000000p-1, -0x1.23f62e0000000p-4, -0x1.e6f6400000000p-3, 0x1.eccb9e0000000p-2, 0x1.03c7220000000p-3, -0x1.9cebc20000000p-3, -0x1.ff22460000000p-4, -0x1.4f17ac0000000p-4, 0x1.8e71540000000p-3, -0x1.6734860000000p-4, 0x1.6e67620000000p-2, 0x1.423a080000000p-6, -0x1.0a55240000000p-2, -0x1.0ff6a40000000p-3, -0x1.7c37580000000p-3, 0x1.a053740000000p-3, -0x1.1a82b60000000p-4, 0x1.0a15980000000p-5, -0x1.9bba480000000p-13, 0x1.c533260000000p-3, 0x1.7fff900000000p-2, -0x1.b0a22c0000000p-4, 0x1.7856bc0000000p-12, 0x1.b787060000000p-3, 0x1.178c680000000p-7, 0x1.193e8c0000000p-2, 0x1.d580200000000p-3, 0x1.04d34e0000000p-3, -0x1.08c6020000000p-4, -0x1.76d2ea0000000p-3, 0x1.72b1780000000p-6, -0x1.3b3e280000000p-3, -0x1.9c3c760000000p-4, 0x1.d9c8ea0000000p-5, -0x1.7dfc920000000p-3, 0x1.e2b6080000000p-3, -0x1.0db1600000000p-4, -0x1.1cbe280000000p-4, -0x1.71fb820000000p-6, -0x1.0e9cb20000000p-5, 0x1.0c43220000000p-5, 0x1.1d3cc60000000p-3, -0x1.21141e0000000p-3, -0x1.988cfe0000000p-4, -0x1.3a8a780000000p-5, -0x1.27429c0000000p-3, 0x1.0131640000000p-3, 0x1.111dc20000000p-4, -0x1.0f2a760000000p-5, 0x1.609d300000000p-4, -0x1.810f040000000p-6, 0x1.4914640000000p-4, -0x1.a4e35a0000000p-3, -0x1.0205760000000p-4, -0x1.8d81f80000000p-2, 0x1.7c6cda0000000p-7, -0x1.71c1ce0000000p-1, -0x1.e3b86c0000000p-5, -0x1.9cf76a0000000p-3, 0x1.819c840000000p-4, 0x1.6f3fe80000000p-5, 0x1.6e5f760000000p-4, 0x1.2fbb240000000p-4, 0x1.518fca0000000p-3, -0x1.ef70ae0000000p-4, 0x1.475ac80000000p-6, 0x1.8921a00000000p-3, 0x1.36c1d00000000p-3, 0x1.d77f520000000p-3, 0x1.c7e12c0000000p-6, 0x1.fcf94c0000000p-3, 0x1.364c0c0000000p-4, 0x1.391f4e0000000p-3, -0x1.319fda0000000p-3, -0x1.2d73a00000000p-2, 0x1.bde6ae0000000p-5, 0x1.4220300000000p-3, 0x1.a4266c0000000p-3, -0x1.c26dd20000000p-4, -0x1.3cef9a0000000p-5, 0x1.14f1140000000p-4, -0x1.df8f640000000p-3, -0x1.5fd8d80000000p-4, -0x1.93b0ba0000000p-6, -0x1.243cea0000000p-7, 0x1.4848000000000p-3, 0x1.808e0e0000000p-2, -0x1.0748280000000p-3, 0x1.e171280000000p-5, -0x1.8e8b7c0000000p-3, 0x1.199c500000000p-5, -0x1.81c58c0000000p-4, 0x1.37c0480000000p-3, 0x1.c322f60000000p-3, -0x1.5121760000000p-4, -0x1.9566380000000p-6, 0x1.945e3a0000000p-4, -0x1.d397020000000p-4, 0x1.931cb20000000p-3, -0x1.93622c0000000p-3, 0x1.4d35280000000p-2, -0x1.792d620000000p-3, 0x1.1204b60000000p-2, -0x1.3da46c0000000p-2, 0x1.a7d3ec0000000p-4, -0x1.993f7c0000000p-2, 0x1.5c83200000000p-4, 0x1.85b5c20000000p-3, 0x1.4797f40000000p-2, 0x1.c942b20000000p-4, -0x1.4567280000000p-2, -0x1.f5f6d20000000p-5, 0x1.04704c0000000p-2, 0x1.497e680000000p-3, 0x1.2630ec0000000p-4, 0x1.65cd940000000p-5, 0x1.7249100000000p-3, 0x1.47b9540000000p-6, -0x1.9bfb500000000p-9, -0x1.f7ea2a0000000p-6, 0x1.a811280000000p-3, -0x1.1a16c80000000p-3, -0x1.0fcd700000000p-2, 0x1.45756c0000000p-10, 0x1.7bf1b40000000p-5, 0x1.6f3a060000000p-4, 0x1.1114340000000p-4, -0x1.0e2c520000000p-3, 0x1.c85c620000000p-4, -0x1.0e76340000000p-3, 0x1.5f008c0000000p-4, 0x1.d86b100000000p-4, 0x1.0adb440000000p-4, 0x1.3a82b20000000p-3, 0x1.d281a00000000p-4, -0x1.fa5eb20000000p-6, -0x1.1063640000000p-3, -0x1.8ab0780000000p-6, 0x1.cbc3a40000000p-4, 0x1.7ac50e0000000p-5, 0x1.15c7d20000000p-7, 0x1.3251a00000000p-2, -0x1.5ed1700000000p-2, -0x1.dac3d80000000p-4, -0x1.6791400000000p-4, -0x1.91140a0000000p-3, 0x1.641cdc0000000p-4, 0x1.0669d00000000p-5, 0x1.04c1c60000000p-6, 0x1.928c840000000p-4, -0x1.32906e0000000p-4, -0x1.7ac2f40000000p-2, 0x1.8972b80000000p-2, -0x1.12b8b80000000p-2, 0x1.f75cba0000000p-4, 0x1.24a78e0000000p-6, 0x1.8e725c0000000p-4, -0x1.41ab440000000p-3, -0x1.a25d600000000p-9, 0x1.cd16400000000p-4, -0x1.f1cdc00000000p-4, -0x1.4acc7c0000000p-3, 0x1.7aa5940000000p-4, 0x1.d65dce0000000p-7, 0x1.2d11840000000p-4, -0x1.3b47c00000000p-3, 0x1.0dcdac0000000p-2, -0x1.9159880000000p-2, -0x1.30d7740000000p-2, 0x1.3402500000000p-3, -0x1.5c52f80000000p-4, 0x1.1142a80000000p-3, -0x1.dc2d260000000p-4, -0x1.d070000000000p-2, -0x1.2ed8cc0000000p-2, 0x1.71ca160000000p-5, -0x1.20a69a0000000p-3, -0x1.7f99780000000p-6, 0x1.3d6db00000000p-1, -0x1.0ae0fe0000000p-8, -0x1.49878a0000000p-4, -0x1.0bddbe0000000p-4, 0x1.2eb2920000000p-2, 0x1.65162c0000000p-5, -0x1.224e180000000p-3, -0x1.2c55e80000000p-2, -0x1.3892c20000000p-7, 0x1.34232e0000000p-2, 0x1.47f9820000000p-2, -0x1.5ae4000000000p-6, 0x1.4901c40000000p-3, -0x1.7e07780000000p-2, -0x1.2408980000000p-2, 0x1.fa4a240000000p-3, -0x1.ecff760000000p-5, 0x1.92ae4a0000000p-2, 0x1.b5984a0000000p-3, 0x1.6e450e0000000p-2, -0x1.bc460c0000000p-5, 0x1.a9dfc60000000p-2, -0x1.b8be920000000p-3, -0x1.4189b40000000p-5, 0x1.a9fcce0000000p-5, -0x1.9c92ea0000000p-3, 0x1.67349e0000000p-2, -0x1.5320320000000p-4, -0x1.465d420000000p-6, -0x1.3b68960000000p-3, -0x1.2372060000000p-2, 0x1.7c0e0a0000000p-5, -0x1.430eba0000000p-4, 0x1.fbcfdc0000000p-3, 0x1.c1f7a80000000p-3, 0x1.47ff5a0000000p-4, -0x1.00f05a0000000p-2, -0x1.780b4a0000000p-4, 0x1.039d380000000p-4, 0x1.0e808c0000000p-5, 0x1.1408ae0000000p-3, 0x1.cbd76e0000000p-3, 0x1.5099280000000p-6, 0x1.8d9e240000000p-4, -0x1.8c78c80000000p-9, 0x1.dc82bc0000000p-3, 0x1.738dde0000000p-5, -0x1.e46ffc0000000p-5, -0x1.4d44840000000p-4, -0x1.01eef40000000p-2, -0x1.71c4be0000000p-5, -0x1.5220e00000000p-5, -0x1.8578300000000p-4, 0x1.1c88c00000000p-6, -0x1.64c4720000000p-1, -0x1.be66200000000p-7, 0x1.2f3cae0000000p-3, -0x1.4959000000000p-4, -0x1.3f7ad00000000p-6, -0x1.49222e0000000p-2, 0x1.0b597e0000000p-2, -0x1.5bfa8c0000000p-4, 0x1.9dcc160000000p-8, 0x1.4475ce0000000p-2, 0x1.ffea680000000p-6, 0x1.03821e0000000p-2, 0x1.4c1c540000000p-2, -0x1.0b00e60000000p-6, 0x1.ce1e560000000p-4, -0x1.6a05ba0000000p-1, 0x1.4891640000000p-2, -0x1.d76f9e0000000p-1, 0x1.d75dba0000000p-3, 0x1.c85e1c0000000p-4, 0x1.ed03ca0000000p-5, -0x1.6d88ba0000000p-3, -0x1.2519d40000000p-5, -0x1.ff88500000000p-2, -0x1.506f6e0000000p-5, 0x1.5302a00000000p-2, 0x1.466bb00000000p-3, -0x1.cdfc5c0000000p-3, -0x1.68350c0000000p-5, -0x1.c905d20000000p-3, 0x1.ce16860000000p-3, -0x1.9e89b80000000p-2, -0x1.4d3c7a0000000p-7, -0x1.0f00900000000p-2, -0x1.221ffc0000000p-3, -0x1.3c087c0000000p-2, 0x1.8832820000000p-4, 0x1.3b3a020000000p-6, 0x1.a691c60000000p-6, -0x1.1764a40000000p-2, -0x1.82079c0000000p-5, 0x1.347faa0000000p-2, 0x1.f84c9e0000000p-3, 0x1.294a5a0000000p-2, -0x1.10c2700000000p-4, 0x1.654c900000000p-4, -0x1.ba820e0000000p-5, -0x1.62dd9c0000000p-2, 0x1.baf8e60000000p-5, -0x1.55f56a0000000p-2, 0x1.6c6c2e0000000p-4, -0x1.963bda0000000p-3, 0x1.7f6cd80000000p-2, 0x1.87ae260000000p-3, -0x1.29fcf60000000p-2, 0x1.ca7a3c0000000p-3, -0x1.2955d60000000p-2, 0x1.26141c0000000p-2, -0x1.5a9e6e0000000p-4, -0x1.6b28800000000p-2, -0x1.5a1c900000000p-3, 0x1.01babe0000000p-4, -0x1.3b03e00000000p-3, 0x1.554b260000000p-3, 0x1.462f740000000p-4, -0x1.382fce0000000p-6, 0x1.e2cb560000000p-6, 0x1.dad2ce0000000p-8, -0x1.e729160000000p-7, -0x1.f1dcaa0000000p-6, 0x1.648da40000000p-3, 0x1.e98c120000000p-3, -0x1.17002e0000000p-2, -0x1.dc09020000000p-5, -0x1.1ec96c0000000p-2, -0x1.3ac9660000000p-3, 0x1.abcc2a0000000p-2, -0x1.e596900000000p-2, -0x1.66d1080000000p-2, 0x1.0345580000000p-5, -0x1.5a6bbc0000000p-3, 0x1.641f060000000p-7, 0x1.5c97160000000p-4, -0x1.61f32e0000000p-3, 0x1.cefd9e0000000p-3, -0x1.8729440000000p-3, -0x1.0f6f580000000p-2, 0x1.0d48f20000000p-3, -0x1.4e2b720000000p-5, 0x1.0938040000000p-1, 0x1.7c2f560000000p-3, 0x1.1c35820000000p-2, 0x1.2bdbb20000000p-1, -0x1.5f96e20000000p-2, -0x1.3902f60000000p-2, -0x1.3beb440000000p-1, -0x1.023b020000000p+0, -0x1.9a63360000000p-2, -0x1.5129960000000p-4, 0x1.a30d7e0000000p-4, 0x1.2b5f380000000p-2, -0x1.48d9ea0000000p-1, -0x1.b70fc60000000p-2, -0x1.5cb3e20000000p-1, -0x1.4bdc3c0000000p-2, 0x1.5b0c260000000p-4, -0x1.1c3b2e0000000p-5, -0x1.01e3180000000p-6, 0x1.6dc9780000000p-3, 0x1.eec0ae0000000p-6, 0x1.71c8de0000000p-2, -0x1.ba2cda0000000p-1, -0x1.863cf00000000p-2, -0x1.1912600000000p+0, -0x1.8e58a20000000p-6, 0x1.5d2dda0000000p-5, 0x1.9c72da0000000p-3, -0x1.370f1c0000000p-2, -0x1.472b3c0000000p-1, -0x1.852db40000000p-1, -0x1.a22ebe0000000p-2, 0x1.3121c20000000p-3, -0x1.c7392e0000000p-6, -0x1.814ec60000000p-10, 0x1.7b8b7a0000000p-5, -0x1.29b2b80000000p-3, -0x1.3de0c20000000p-5, -0x1.dfeb0c0000000p-2, 0x1.d3580c0000000p-3, -0x1.6447d60000000p-1, -0x1.8137b00000000p-3, -0x1.3eb3640000000p-4, -0x1.9f6f760000000p-6, -0x1.87d2c60000000p-3, 0x1.a47ca80000000p-4, -0x1.576ad60000000p-2, 0x1.69ff660000000p-5, -0x1.ab3c120000000p-3, 0x1.285f620000000p-3, 0x1.49862c0000000p-3, 0x1.df9b620000000p-5, 0x1.aabafe0000000p-3, 0x1.5550d00000000p-3, -0x1.2cc5e80000000p-2, 0x1.11cb720000000p-2, -0x1.9e68b80000000p-2, -0x1.8e0d300000000p-4, -0x1.3df2c20000000p-7, 0x1.7d09d40000000p-4, 0x1.3175b80000000p-2, 0x1.3f1da60000000p-4, -0x1.05035c0000000p-2, -0x1.b611d20000000p-4, -0x1.cf626a0000000p-6, 0x1.bef5e60000000p-4, 0x1.5810140000000p-6, 0x1.88bbb20000000p-3, 0x1.dd322a0000000p-3, -0x1.d3bf440000000p-4, 0x1.32e6580000000p-4, 0x1.30c1060000000p-2, 0x1.e294fe0000000p-4, -0x1.24778e0000000p-3, 0x1.6114f80000000p-1, 0x1.2995f40000000p-3, 0x1.1b38060000000p-1, 0x1.1e9f200000000p-2, 0x1.7047b60000000p-6, 0x1.8b271c0000000p-4, -0x1.1f7bce0000000p-6, 0x1.6e6fc60000000p-4, 0x1.3d08260000000p-2, 0x1.245d680000000p-3, -0x1.11b3960000000p-3, 0x1.7d0d120000000p-3, 0x1.58999c0000000p-3, 0x1.4f865e0000000p-6, -0x1.ac93140000000p-3, -0x1.857d400000000p-9, 0x1.4d580c0000000p-5, 0x1.3e4eb20000000p-3, -0x1.37aaf80000000p-4, -0x1.09fa460000000p-1, -0x1.13e10a0000000p-1, 0x1.4222f80000000p-4, -0x1.a6cfdc0000000p-4, 0x1.75b3900000000p-3, -0x1.6bf5a20000000p-5, 0x1.56fc9a0000000p-3, 0x1.d6c8980000000p-6, 0x1.cf72b80000000p-2, 0x1.d23b7c0000000p-6, 0x1.eb02660000000p-2, 0x1.4649f80000000p-8, 0x1.0454d80000000p-2, -0x1.b776680000000p-3, 0x1.1edd5c0000000p-3, -0x1.aa88460000000p-2, -0x1.da3f780000000p-1, -0x1.cc34e00000000p-2, 0x1.47e3620000000p-2, -0x1.9891240000000p-3, 0x1.d143b20000000p-4, -0x1.8e14f60000000p-3, -0x1.f9efec0000000p-5, 0x1.84070e0000000p-3, 0x1.7ba7f00000000p-3, 0x1.60dfdc0000000p-6, 0x1.5d10fa0000000p-2, -0x1.7fbf880000000p-6, -0x1.34e80c0000000p-3, -0x1.9e96c20000000p-3, -0x1.e98b2e0000000p-8, 0x1.20e7920000000p-6, -0x1.46bf360000000p-1, -0x1.ca744a0000000p-3, 0x1.0999a80000000p-4, -0x1.9956a40000000p-3, -0x1.5cb5a20000000p-3, 0x1.58ab2e0000000p-7, 0x1.6026c60000000p-2, 0x1.a402fc0000000p-4, 0x1.9912940000000p-8, 0x1.b595040000000p-4, -0x1.591caa0000000p-4, -0x1.85b0f80000000p-7, -0x1.9720f60000000p-6, 0x1.3094ee0000000p-5, -0x1.15c4ee0000000p-11, 0x1.9d73420000000p-3, 0x1.0997d00000000p-5, 0x1.2fd2780000000p-3, 0x1.0a3eea0000000p-2, -0x1.b036fc0000000p-2, -0x1.f8e9620000000p-5, 0x1.8cb8560000000p-3, 0x1.ec81d20000000p-2, 0x1.22bd060000000p-3, -0x1.9c16f80000000p-5, 0x1.3dcd020000000p-3, 0x1.b2ebe60000000p-3, 0x1.ac14620000000p-5, 0x1.75ad180000000p-4, 0x1.32130a0000000p-5, 0x1.837f1c0000000p-3, 0x1.04a2a80000000p-2, 0x1.ad31640000000p-3, -0x1.0a92a20000000p-3, 0x1.f2410e0000000p-3, -0x1.e7bebc0000000p-3, 0x1.93ae8a0000000p-3, 0x1.8084120000000p-4, 0x1.5356c40000000p-4, 0x1.4639080000000p-1, -0x1.e9281e0000000p-6, 0x1.dcadb80000000p-2, 0x1.f1423a0000000p-9, 0x1.0a085e0000000p-1, 0x1.3c6d7e0000000p-3, 0x1.1af7260000000p-2, -0x1.3c8ef40000000p-3, 0x1.052ee00000000p-2, -0x1.7dc6600000000p-6, 0x1.3d72cc0000000p-4, 0x1.692d9c0000000p-1}
, {0x1.dc2cf80000000p-5, 0x1.ec26aa0000000p-6, 0x1.033fac0000000p-2, 0x1.e4208e0000000p-5, -0x1.3642300000000p-6, 0x1.fa84be0000000p-3, -0x1.944eba0000000p-2, 0x1.0974be0000000p-3, -0x1.5089ca0000000p-5, 0x1.0ebba80000000p-5, -0x1.1f410e0000000p-3, 0x1.71cbac0000000p-3, -0x1.7a1fd40000000p-4, -0x1.ce23600000000p-3, -0x1.51e56c0000000p-4, 0x1.1e303e0000000p-6, 0x1.115b300000000p-3, 0x1.25106c0000000p-2, 0x1.91550a0000000p-4, 0x1.0944fa0000000p-1, 0x1.f67d260000000p-6, 0x1.40c09e0000000p-3, 0x1.cd7cf80000000p-4, -0x1.e58f460000000p-6, -0x1.c701d40000000p-3, 0x1.85e0700000000p-7, -0x1.d2ae0a0000000p-6, 0x1.c23c5e0000000p-2, 0x1.3402d40000000p-3, -0x1.8d99b40000000p-7, 0x1.1c1cb80000000p-2, -0x1.e0550c0000000p-6, -0x1.6783e60000000p-5, -0x1.9941a80000000p-2, -0x1.4ae8fa0000000p-9, -0x1.8489440000000p-11, -0x1.6fe5c20000000p-8, 0x1.7191660000000p-4, 0x1.1d3d220000000p-5, -0x1.3d0d1c0000000p-4, 0x1.1860da0000000p-3, -0x1.cd265a0000000p-4, 0x1.c18fcc0000000p-2, -0x1.0f98400000000p-2, 0x1.79cb060000000p-3, 0x1.99df660000000p-5, 0x1.652caa0000000p-6, 0x1.f6d5380000000p-6, -0x1.5b3ec60000000p-4, -0x1.4376d20000000p-2, -0x1.a7c1600000000p-3, 0x1.e704780000000p-7, -0x1.e0b20c0000000p-5, -0x1.bb3a340000000p-3, -0x1.b814c80000000p-7, -0x1.bf641e0000000p-4, 0x1.a014fe0000000p-5, -0x1.a05dea0000000p-2, 0x1.4b40d20000000p-3, -0x1.99251e0000000p-2, -0x1.ef28660000000p-9, 0x1.1297680000000p-3, 0x1.103db00000000p-3, 0x1.8919d60000000p-4, 0x1.0a87200000000p-5, -0x1.7b97060000000p-3, 0x1.7fae8c0000000p-2, 0x1.cdbf180000000p-3, -0x1.4c47020000000p-3, -0x1.53c7a00000000p-2, 0x1.b543640000000p-3, -0x1.23d60a0000000p-3, -0x1.5d79240000000p-4, 0x1.02fe0a0000000p-2, -0x1.2e1c980000000p-3, -0x1.eb43c40000000p-5, 0x1.0bec760000000p-8, -0x1.a6eaba0000000p-6, 0x1.aeeba40000000p-6, -0x1.5769ae0000000p-3, 0x1.b6af8a0000000p-4, 0x1.f0923e0000000p-7, 0x1.9de2700000000p-4, 0x1.8cb04c0000000p-6, 0x1.83816a0000000p-5, -0x1.9c56e80000000p-3, 0x1.cab9f80000000p-3, -0x1.89e0120000000p-5, 0x1.0301840000000p-4, -0x1.ce50dc0000000p-3, -0x1.0a79760000000p-6, 0x1.27bfc20000000p-2, 0x1.4b0ef40000000p-4, -0x1.4efa660000000p-5, -0x1.b1c3a80000000p-4, 0x1.263e700000000p-3, 0x1.8325100000000p-5, 0x1.e47d3e0000000p-4, -0x1.435fd40000000p-4, -0x1.b63e1c0000000p-11, 0x1.22b81c0000000p-3, 0x1.b0b0b60000000p-3, 0x1.7767b40000000p-4, 0x1.0665dc0000000p-2, -0x1.5baea60000000p-3, 0x1.0743e80000000p-3, 0x1.ff562a0000000p-4, 0x1.0dcbbc0000000p-2, 0x1.6e120a0000000p-3, -0x1.57f43a0000000p-4, -0x1.5f45880000000p-3, -0x1.d11da00000000p-10, -0x1.c955ce0000000p-6, 0x1.4c1bca0000000p-3, 0x1.9fcc040000000p-4, 0x1.bff1c20000000p-3, 0x1.9f72ce0000000p-3, 0x1.8e39b80000000p-3, 0x1.0fb2620000000p-4, 0x1.1d910a0000000p-2, 0x1.6e17540000000p-2, 0x1.18693c0000000p-4, 0x1.f0e4660000000p-3, 0x1.73eb320000000p-4, 0x1.0180020000000p-5, -0x1.a5d4660000000p-6, 0x1.3c12a40000000p-3, 0x1.6b20e40000000p-3, -0x1.5609f00000000p-4, -0x1.31ff8c0000000p-3, -0x1.673e340000000p-4, -0x1.29607a0000000p-4, -0x1.2057f80000000p-6, -0x1.65c96e0000000p-3, -0x1.c054fc0000000p-4, -0x1.2bc9a80000000p-6, 0x1.10712c0000000p-4, -0x1.65e1f20000000p-1, 0x1.4786100000000p-2, -0x1.9a55c40000000p-4, 0x1.02fafc0000000p-3, 0x1.1de4580000000p-4, 0x1.654f2a0000000p-2, 0x1.d8cfba0000000p-3, -0x1.b8611e0000000p-3, -0x1.7d745a0000000p-1, 0x1.8bb5420000000p-3, -0x1.088a420000000p-2, 0x1.5375180000000p-4, -0x1.ffe6220000000p-3, 0x1.4fc3d60000000p-3, -0x1.b00b9c0000000p-5, 0x1.40e5040000000p-3, 0x1.232b1a0000000p-5, -0x1.4950460000000p-4, -0x1.f3a5f40000000p-1, 0x1.f98bec0000000p-3, 0x1.a426580000000p-3, 0x1.b8446c0000000p-5, 0x1.33ece00000000p-4, -0x1.71f91c0000000p-2, -0x1.0fd5520000000p-1, -0x1.d5c2e60000000p-5, -0x1.2264e40000000p-2, 0x1.5772060000000p-6, -0x1.cd55900000000p-2, 0x1.24cf5e0000000p-3, -0x1.57f3860000000p-3, 0x1.09a0de0000000p-1, 0x1.dd67560000000p-3, -0x1.9f0e200000000p-4, -0x1.ae76300000000p-1, 0x1.8d800a0000000p-5, 0x1.6f4c720000000p-3, 0x1.9a01860000000p-3, 0x1.2212fe0000000p-2, -0x1.90a9200000000p-3, 0x1.83bf9a0000000p-2, 0x1.37875a0000000p-4, -0x1.6d8ccc0000000p-3, 0x1.7016340000000p-3, -0x1.dc6d1c0000000p-3, 0x1.2bb4a00000000p-2, -0x1.d2abfc0000000p-3, 0x1.5d21d00000000p-2, 0x1.7895f40000000p-5, -0x1.12edfe0000000p-2, -0x1.40f4ce0000000p-5, -0x1.5cae080000000p-3, -0x1.0527180000000p-3, -0x1.95915c0000000p-3, 0x1.f04ffe0000000p-4, 0x1.43918a0000000p-3, 0x1.b776f60000000p-4, 0x1.3e66360000000p-3, 0x1.32da980000000p-4, 0x1.a946960000000p-3, 0x1.d39d340000000p-5, -0x1.e2ad540000000p-7, -0x1.e018880000000p-3, -0x1.696e4a0000000p-3, 0x1.0e7cf60000000p-5, 0x1.e02dfc0000000p-3, -0x1.d9ffca0000000p-2, 0x1.7445d20000000p-2, -0x1.a4fae80000000p-3, -0x1.4ed1ee0000000p-5, 0x1.40ccea0000000p-3, -0x1.1acd720000000p-3, 0x1.2a3b180000000p-4, 0x1.785b6a0000000p-2, -0x1.9399240000000p-4, -0x1.4e2a780000000p-4, -0x1.21a2be0000000p-3, 0x1.3bfda80000000p-3, -0x1.6239620000000p-2, 0x1.d090ac0000000p-4, 0x1.4748dc0000000p-4, 0x1.bf81980000000p-3, -0x1.f76ee40000000p-4, -0x1.1662740000000p-3, -0x1.bc7f8c0000000p-4, 0x1.4a93040000000p-3, -0x1.cf7f2a0000000p-6, 0x1.8414700000000p-5, -0x1.229f320000000p-4, 0x1.123b340000000p-4, 0x1.a682780000000p-7, -0x1.17347e0000000p-2, -0x1.908a880000000p-5, 0x1.33c0120000000p-2, -0x1.7dc7640000000p-2, 0x1.de34420000000p-3, 0x1.a5ad920000000p-2, 0x1.8693740000000p-4, -0x1.74713c0000000p-5, -0x1.3e76760000000p-2, 0x1.ad8f040000000p-3, 0x1.39734e0000000p-3, -0x1.27cb960000000p-4, 0x1.2d10de0000000p-6, -0x1.8daadc0000000p-6, 0x1.3f93f00000000p-5, -0x1.b175c40000000p-3, 0x1.3d1ea80000000p-14, -0x1.bb09ae0000000p-4, 0x1.7a2f6e0000000p-2, 0x1.0652ce0000000p-4, -0x1.11abc20000000p-3, 0x1.3738000000000p-2, 0x1.a8cc840000000p-6, 0x1.0f79580000000p-4, -0x1.1953160000000p-3, 0x1.24d55e0000000p-5, 0x1.e663540000000p-5, 0x1.46bd060000000p-5, -0x1.05ff6a0000000p-3, -0x1.1eb8780000000p-1, -0x1.adc31e0000000p-3, -0x1.df0f160000000p-3, -0x1.47a7ae0000000p-3, -0x1.21488e0000000p-4, 0x1.9425a40000000p-6, 0x1.bf79b60000000p-4, 0x1.fdee8a0000000p-3, 0x1.e0a3140000000p-7, -0x1.6f3f480000000p-3, -0x1.471ec40000000p-2, 0x1.442c480000000p-4, 0x1.a296c20000000p-4, 0x1.aa7eca0000000p-3, 0x1.956dea0000000p-3, -0x1.593e740000000p-3, -0x1.ed9eb20000000p-4, -0x1.6f48f20000000p-3, -0x1.09ef340000000p-2, -0x1.2b43620000000p-2, -0x1.0f39e80000000p-1, -0x1.3125740000000p-2, 0x1.a8ecc60000000p-6, 0x1.593ae00000000p-5, -0x1.e80bfe0000000p-2, -0x1.ca213c0000000p-2, -0x1.3580900000000p-2, -0x1.f06f4a0000000p-3, 0x1.4cd4840000000p-2, 0x1.b71dc80000000p-4, -0x1.acebd60000000p-4, -0x1.999c760000000p-2, -0x1.eadee80000000p-3, 0x1.e3e61a0000000p-3, 0x1.825cf40000000p-4, -0x1.f327e20000000p-3, -0x1.1985240000000p-3, 0x1.e90c7c0000000p-6, 0x1.17cf700000000p-3, 0x1.839c680000000p-3, 0x1.ef1db00000000p-2, -0x1.026e080000000p-3, -0x1.555c240000000p-1, -0x1.2f783c0000000p-3, -0x1.1312380000000p-2, 0x1.d243d40000000p-2, 0x1.35536e0000000p-4, -0x1.ee265a0000000p-3, -0x1.00fcf20000000p-6, 0x1.fd11ee0000000p-4, -0x1.a7dc2c0000000p-1, -0x1.ca41c60000000p-3, -0x1.19ea260000000p-2, -0x1.9707cc0000000p-6, 0x1.4a61400000000p-3, 0x1.1297b20000000p-3, 0x1.05efb20000000p-4, -0x1.89e63c0000000p-2, -0x1.b827020000000p-2, -0x1.d236b40000000p-2, 0x1.ddb1880000000p-4, 0x1.3a9dbe0000000p-2, -0x1.341f700000000p-2, 0x1.67f4f60000000p-3, -0x1.57b88c0000000p-3, 0x1.4fddf60000000p-3, -0x1.bd04640000000p-2, -0x1.4257780000000p-4, 0x1.644b780000000p-4, 0x1.d01e7e0000000p-4, -0x1.0daf480000000p-6, 0x1.67a7600000000p-2, 0x1.151b400000000p-3, -0x1.e77fd80000000p-3, -0x1.659d280000000p-5, 0x1.9c19d40000000p-4, 0x1.87a2840000000p-2, 0x1.00dbd40000000p-1, -0x1.822d760000000p-5, -0x1.b424e20000000p-6, 0x1.0e36160000000p-2, 0x1.6dd2200000000p-3, -0x1.0db1e80000000p-4, 0x1.fcd1f80000000p-3, 0x1.9a41f00000000p-10, -0x1.cd78680000000p-8, 0x1.2f7d3c0000000p-3, 0x1.720daa0000000p-3, -0x1.f285e40000000p-5, -0x1.c86dd40000000p-4, 0x1.abb0b20000000p-5, 0x1.ae4d420000000p-7, -0x1.dc9e320000000p-4, 0x1.33fd280000000p-3, 0x1.7096760000000p-3, -0x1.3031900000000p-1, -0x1.12e4660000000p-5, -0x1.b7ad8c0000000p-2, 0x1.5d4a5c0000000p-4, 0x1.dc31d40000000p-3, 0x1.473e860000000p-8, -0x1.9a02fa0000000p-3, 0x1.c46d840000000p-4, -0x1.93b32a0000000p-6, -0x1.41534c0000000p-3, 0x1.307f4e0000000p-5, 0x1.a9fbfa0000000p-6, 0x1.8a498c0000000p-4, 0x1.0d87fe0000000p-2, 0x1.3df08a0000000p-4, 0x1.7414ce0000000p-3, -0x1.f743820000000p-3, 0x1.bc5b9c0000000p-3, 0x1.185e7e0000000p-3, 0x1.9b32c60000000p-9, 0x1.94ea360000000p-4, 0x1.4b406c0000000p-4, -0x1.36868e0000000p-2, 0x1.60b8b80000000p-3, -0x1.9447de0000000p-4, -0x1.ad3a480000000p-5, 0x1.f854fa0000000p-5, 0x1.32ed3a0000000p-6, 0x1.7dea4c0000000p-4, -0x1.25f0120000000p-3, -0x1.00e4e20000000p-2, 0x1.945ed00000000p-3, -0x1.e3ab8c0000000p-3, -0x1.40d83e0000000p-2, 0x1.3e51800000000p-6, 0x1.9e0aee0000000p-3, 0x1.a42be80000000p-3, 0x1.a7d91e0000000p-1, -0x1.27c1f40000000p-3, 0x1.470bf60000000p-4, -0x1.c2bf5e0000000p-3, 0x1.12d0280000000p-2, -0x1.89b57a0000000p-5, -0x1.a3ee160000000p-3, 0x1.5888080000000p-4, 0x1.22535e0000000p-5, -0x1.1bb0b60000000p-5, 0x1.5144ca0000000p-2, -0x1.92c0260000000p-1, -0x1.b62a440000000p-2, -0x1.0a3a2c0000000p-3, -0x1.60992a0000000p-1, -0x1.32105a0000000p-2, -0x1.06e45c0000000p-4, -0x1.7f09bc0000000p-3, 0x1.3e26e80000000p-3, 0x1.c02fba0000000p-3, 0x1.f01efe0000000p-2, -0x1.72725e0000000p-2, -0x1.a45ff20000000p-2, -0x1.3ae3c80000000p-3, 0x1.9100e00000000p-2, 0x1.b4d4220000000p-2, -0x1.01d67a0000000p-4, -0x1.89568e0000000p-2, -0x1.5777160000000p-3, -0x1.cf3bc40000000p-2, -0x1.3794540000000p-1, -0x1.a130e00000000p-3, -0x1.c0a31e0000000p-2, 0x1.d5aa220000000p-4, 0x1.388c420000000p-2, 0x1.60dca80000000p-5, -0x1.0925920000000p-4, -0x1.1717000000000p-3, -0x1.8a7e980000000p-2, -0x1.04b6ca0000000p-3, 0x1.4c698a0000000p-1, 0x1.d0b86c0000000p-2, -0x1.b795b60000000p-2, 0x1.3e26720000000p-2, 0x1.88a65e0000000p-6, 0x1.5fbbb80000000p-3, 0x1.340ed80000000p-4, -0x1.2b02140000000p-5, -0x1.9bce620000000p-4, -0x1.1ef8c00000000p-5, 0x1.00d4ba0000000p-2, -0x1.2abf100000000p-2, 0x1.485b300000000p-2, 0x1.26eef20000000p-4, 0x1.4d5d3a0000000p-8, -0x1.6b936c0000000p-7, 0x1.5e27fc0000000p-2, 0x1.4c35880000000p-4, -0x1.3e49480000000p-3, 0x1.c6d6f40000000p-4, -0x1.dc8dfa0000000p-5, 0x1.226c120000000p-3, 0x1.1cb9d60000000p-4, 0x1.fd85420000000p-3, -0x1.bb2a1a0000000p-5, -0x1.d9d1ca0000000p-3, -0x1.2f1c5c0000000p-5, -0x1.4034ec0000000p-2, 0x1.e3dbc00000000p-4, 0x1.7bded80000000p-3, -0x1.3952b60000000p-4, -0x1.32713e0000000p-3, 0x1.910ede0000000p-3, -0x1.9b0af40000000p-4, 0x1.a60e560000000p-4, 0x1.5947880000000p-6, 0x1.00a69c0000000p-1, -0x1.fad72e0000000p-3, 0x1.d2a9200000000p-3, -0x1.7ddb4e0000000p-2, 0x1.fca3800000000p-4, -0x1.21157e0000000p-2, -0x1.218bac0000000p-4, -0x1.1c2b820000000p-2, 0x1.07b06a0000000p-3, -0x1.437ec60000000p-4, 0x1.5d006c0000000p-2, -0x1.0d91f00000000p-1, -0x1.de9b9c0000000p-1, -0x1.12326c0000000p-2, -0x1.6f52aa0000000p-3, 0x1.1ae7b80000000p-1, 0x1.7ba3520000000p-3, 0x1.9a454a0000000p-7, 0x1.b74d6a0000000p-5, 0x1.f3fc4e0000000p-1, 0x1.d2ce180000000p-3, 0x1.df49900000000p-4, 0x1.7b44140000000p-7, -0x1.598f1a0000000p-3, -0x1.56c6da0000000p-6, 0x1.1628540000000p-1, 0x1.184eb80000000p-2, 0x1.c40cda0000000p-1, 0x1.c5d7e00000000p-1, 0x1.d3ee560000000p-5, 0x1.0396e60000000p-1, 0x1.720b7c0000000p-2, -0x1.edb7c80000000p-6, 0x1.e6ba940000000p-3, 0x1.e435b80000000p-2, -0x1.20aa0e0000000p-2, -0x1.7eb1720000000p-5, -0x1.cb53760000000p-3, -0x1.9308720000000p-2, -0x1.10c0b00000000p-2, 0x1.48dd940000000p-3, -0x1.0118640000000p-2, 0x1.5297540000000p-1, 0x1.c82a020000000p-6, 0x1.cbfb300000000p-1, -0x1.3e250a0000000p-3, -0x1.9d83260000000p-3, 0x1.9bb0be0000000p-2, -0x1.0b02340000000p-4, 0x1.6b33560000000p-3, 0x1.1823060000000p-1, -0x1.09106c0000000p-4, -0x1.f19fe00000000p-3, 0x1.af7f8a0000000p-5, -0x1.8e7dde0000000p-4, -0x1.62d3200000000p-4, 0x1.c0c3660000000p-2, 0x1.66ec1c0000000p-4, 0x1.e73ca00000000p-2, 0x1.066dd80000000p-4, 0x1.3313280000000p-1, -0x1.5d27000000000p-2, -0x1.ccd8580000000p-4, 0x1.1a1d700000000p-1, 0x1.5b51b00000000p-3, 0x1.1014c00000000p-4, 0x1.08b34e0000000p-1, -0x1.0b25f40000000p-4, 0x1.9c7b1c0000000p-7, -0x1.84f9520000000p-4, 0x1.c734560000000p-3, 0x1.1d65c40000000p-4, 0x1.52b6740000000p-3, -0x1.744cd20000000p-4, 0x1.41543c0000000p-7, 0x1.80cfb60000000p-4, 0x1.eb8db40000000p-2, -0x1.b4d1460000000p-4, -0x1.fd06dc0000000p-4, 0x1.8525100000000p-1, 0x1.7ec11a0000000p-2, 0x1.4caf100000000p-4, 0x1.be4e300000000p-7, -0x1.e5413e0000000p-2, -0x1.b35f480000000p-5, -0x1.8e65e00000000p-5, 0x1.6be26e0000000p-4, -0x1.af097a0000000p-4, 0x1.9c415e0000000p-5, -0x1.1212b20000000p-2, 0x1.cfcdfa0000000p-2, -0x1.39b7420000000p-2, 0x1.764cf40000000p-6, -0x1.5a39460000000p-4, -0x1.a42c520000000p-3, 0x1.22bdb80000000p-3, 0x1.8689f40000000p-4, 0x1.3d75fa0000000p-2, 0x1.fff7da0000000p-4, -0x1.6bc1ca0000000p-2, -0x1.be49d00000000p-12, 0x1.79e3fc0000000p-5, -0x1.6979200000000p-2, -0x1.dae4580000000p-3, -0x1.6244620000000p-3, -0x1.2672600000000p-2, 0x1.0d509e0000000p-1, -0x1.5d229c0000000p-3, -0x1.d98ed60000000p-3, -0x1.93d4760000000p-4, -0x1.d86bee0000000p-2}
, {-0x1.20bdb60000000p-4, -0x1.196d200000000p-4, -0x1.d2c23e0000000p-4, 0x1.0345700000000p-3, -0x1.139ef00000000p-4, -0x1.774c420000000p-3, -0x1.1617200000000p-4, 0x1.9c9c240000000p-4, -0x1.0a4c560000000p-2, -0x1.24f08c0000000p-2, -0x1.bf28bc0000000p-4, 0x1.5c092a0000000p-4, 0x1.987eb80000000p-5, 0x1.c742ae0000000p-3, 0x1.b59e940000000p-3, -0x1.576d6a0000000p-4, 0x1.4250d20000000p-6, 0x1.d32d160000000p-7, -0x1.7a0c440000000p-3, 0x1.5f415c0000000p-4, -0x1.22ede80000000p-3, 0x1.6419fe0000000p-5, 0x1.b9b1160000000p-2, 0x1.98d2060000000p-2, 0x1.0734980000000p-4, -0x1.d48b000000000p-3, -0x1.0e92600000000p-4, 0x1.f456b00000000p-4, -0x1.cae0060000000p-11, 0x1.51f3b00000000p-3, -0x1.c6bbbc0000000p-7, -0x1.20c6e40000000p-3, -0x1.dfc8ea0000000p-4, 0x1.ac33f40000000p-8, -0x1.b6cbac0000000p-3, -0x1.17110a0000000p-2, 0x1.4da9820000000p-2, 0x1.66d21e0000000p-3, 0x1.8a644c0000000p-4, 0x1.97b6d60000000p-4, 0x1.6f3efa0000000p-3, -0x1.9b03fc0000000p-2, 0x1.ead8280000000p-3, 0x1.39482e0000000p-3, 0x1.3794b60000000p-3, -0x1.1ba73a0000000p-4, -0x1.513a8a0000000p-3, -0x1.342fbc0000000p-7, -0x1.9d932a0000000p-3, 0x1.7bcdec0000000p-2, -0x1.8a0b060000000p-5, -0x1.d2628e0000000p-5, 0x1.8ef36c0000000p-4, 0x1.f35e120000000p-3, -0x1.a9b1f80000000p-3, 0x1.7782ae0000000p-5, -0x1.d905480000000p-2, 0x1.11c8140000000p-6, -0x1.40f8760000000p-3, 0x1.1a76a60000000p-3, -0x1.d8f0320000000p-4, -0x1.a5ea160000000p-6, -0x1.c6719c0000000p-6, -0x1.ec12b40000000p-3, -0x1.72dd4c0000000p-3, 0x1.8f84840000000p-2, -0x1.7f06100000000p-4, -0x1.f551c00000000p-5, -0x1.0e3d080000000p-3, 0x1.52b1d20000000p-2, -0x1.3f58940000000p-1, 0x1.f9612e0000000p-3, -0x1.09b1460000000p-1, -0x1.08feac0000000p-5, -0x1.2c473a0000000p-4, 0x1.5bb87c0000000p-2, -0x1.c371780000000p-4, -0x1.7530e20000000p-5, 0x1.416c340000000p-5, -0x1.1fc9520000000p-2, 0x1.407a500000000p-2, -0x1.8e3f7c0000000p-4, 0x1.f8c6dc0000000p-4, -0x1.f95b460000000p-4, -0x1.3eea280000000p-17, 0x1.50c8180000000p-2, -0x1.c2da5e0000000p-2, 0x1.5c30a40000000p-3, -0x1.db7af00000000p-7, 0x1.d98b200000000p-4, 0x1.03a4820000000p-2, 0x1.034d9a0000000p-2, -0x1.319a3c0000000p-4, 0x1.3e57e00000000p-2, 0x1.050d8c0000000p-3, -0x1.ec6e480000000p-3, 0x1.5522940000000p-5, 0x1.0a62680000000p-3, -0x1.1d42180000000p-7, 0x1.70bfd80000000p-4, 0x1.1d0a260000000p-2, 0x1.9746260000000p-3, -0x1.97194c0000000p-8, -0x1.990e8e0000000p-4, 0x1.840f880000000p-3, 0x1.e65f000000000p-3, 0x1.ab063e0000000p-4, -0x1.73f85c0000000p-4, 0x1.ea91f00000000p-4, 0x1.04d2c40000000p-6, -0x1.0c63900000000p-1, 0x1.d1d5f60000000p-3, -0x1.367c500000000p-3, 0x1.1476480000000p-3, -0x1.0a63560000000p-2, -0x1.0222560000000p-2, 0x1.b2e6a60000000p-3, 0x1.0d00920000000p-2, -0x1.8e84ba0000000p-2, 0x1.9dc9580000000p-2, 0x1.602b480000000p-5, 0x1.5ea51e0000000p-2, -0x1.d4f60e0000000p-7, -0x1.0f46860000000p-3, -0x1.5f40f40000000p-5, -0x1.9a91ae0000000p-2, -0x1.0468e20000000p-3, -0x1.3cbe9c0000000p-4, -0x1.1faf3e0000000p-6, 0x1.146e920000000p-2, -0x1.b4737c0000000p-2, 0x1.1ef8c40000000p-2, -0x1.4c05040000000p-4, 0x1.a6175a0000000p-2, -0x1.31adb80000000p-1, 0x1.9d7f800000000p-2, 0x1.c76cf80000000p-6, 0x1.3435440000000p-3, 0x1.e6b7340000000p-4, 0x1.6481bc0000000p-5, -0x1.42421e0000000p-2, -0x1.e999740000000p-3, -0x1.5ba4dc0000000p-2, -0x1.dfc9360000000p-2, 0x1.82cc400000000p-4, 0x1.33ec700000000p-1, -0x1.27d1100000000p-2, -0x1.d905ee0000000p-6, -0x1.339ba80000000p-2, 0x1.1267a60000000p-2, -0x1.32fac00000000p-1, 0x1.1078500000000p-3, -0x1.dfd9a20000000p-2, -0x1.8e1dee0000000p-5, -0x1.a4bc5c0000000p-4, 0x1.9465760000000p-3, -0x1.f8b4f20000000p-2, -0x1.7eb24c0000000p-3, -0x1.f4d01a0000000p-2, -0x1.84dc220000000p-2, 0x1.25fd260000000p-4, 0x1.dfb8980000000p-2, 0x1.c0d8860000000p-3, 0x1.72f07c0000000p-2, -0x1.30f1da0000000p-1, 0x1.4e1ff40000000p-2, -0x1.a46cca0000000p-1, 0x1.e3f0a40000000p-5, -0x1.bc19220000000p-1, 0x1.0f99c80000000p-3, -0x1.c52b800000000p-6, 0x1.6cae6a0000000p-1, -0x1.fa2ef40000000p-2, -0x1.9863380000000p-2, -0x1.a90b700000000p-1, -0x1.61f8700000000p-2, 0x1.355d780000000p-1, 0x1.0620160000000p-2, 0x1.bd9fa40000000p-5, 0x1.56162e0000000p-3, -0x1.3270c60000000p-2, 0x1.dfc6000000000p-3, 0x1.1be4a20000000p-8, -0x1.a6653e0000000p-3, 0x1.e2ac0e0000000p-4, 0x1.34b7700000000p-3, -0x1.b500e20000000p-7, 0x1.caaa600000000p-2, -0x1.721b2c0000000p-3, 0x1.8c83960000000p-3, -0x1.3629700000000p-2, -0x1.ccb9020000000p-3, -0x1.2d58ec0000000p-3, -0x1.2116c20000000p-5, -0x1.8933c60000000p-3, 0x1.5960b20000000p-4, 0x1.b5c3e20000000p-3, 0x1.9fee8a0000000p-3, -0x1.9178000000000p-3, -0x1.99b8b40000000p-4, -0x1.ca08800000000p-4, 0x1.da37820000000p-3, 0x1.0053780000000p-3, 0x1.ec92220000000p-6, -0x1.4c29240000000p-2, 0x1.4ef9d40000000p-4, 0x1.d8dbd20000000p-6, -0x1.c4ceb60000000p-3, 0x1.c68d5e0000000p-4, -0x1.84f8680000000p-4, -0x1.3a168c0000000p-2, 0x1.31babe0000000p-3, -0x1.6b75300000000p-2, 0x1.28d3040000000p-5, -0x1.4502640000000p-5, 0x1.189e4c0000000p-1, -0x1.1362dc0000000p-5, -0x1.23079c0000000p-2, 0x1.305a720000000p-4, -0x1.7b5ba00000000p-4, -0x1.59ffa40000000p-3, 0x1.1a07620000000p-6, 0x1.1b9f600000000p-4, -0x1.3b08560000000p-4, -0x1.136cd40000000p-4, -0x1.8e3e800000000p-4, 0x1.ba35fe0000000p-4, -0x1.aa039a0000000p-8, 0x1.54c2b20000000p-3, 0x1.1a69880000000p-3, -0x1.f6c3300000000p-3, 0x1.e19cea0000000p-3, -0x1.92139c0000000p-6, -0x1.19d98e0000000p-3, 0x1.7a69920000000p-3, -0x1.98d64a0000000p-9, -0x1.d186840000000p-6, -0x1.25843a0000000p-3, -0x1.001f2c0000000p-3, -0x1.9614fa0000000p-3, 0x1.1fedc00000000p-4, 0x1.f2d77c0000000p-3, -0x1.4272ee0000000p-3, 0x1.8d2a760000000p-4, -0x1.f00d340000000p-4, 0x1.d1358e0000000p-4, -0x1.2884e20000000p-1, 0x1.7decf80000000p-2, -0x1.3cad1c0000000p-1, -0x1.2aea220000000p-2, -0x1.cdb4aa0000000p-3, 0x1.5033cc0000000p-4, -0x1.4a594e0000000p-3, -0x1.4a18640000000p-2, -0x1.667aec0000000p-2, -0x1.1064860000000p-3, -0x1.00d8d00000000p-4, 0x1.7aea8a0000000p-3, 0x1.fda4b40000000p-5, 0x1.98f2a80000000p-4, -0x1.8495100000000p-3, 0x1.a1358c0000000p-2, -0x1.1db94c0000000p-2, 0x1.6ccde20000000p-4, -0x1.6d666e0000000p-1, 0x1.5a41900000000p-4, -0x1.954a280000000p-5, 0x1.9b5fd60000000p-2, -0x1.fac3020000000p-4, -0x1.ecf5cc0000000p-2, -0x1.5389fa0000000p-1, -0x1.2553560000000p-1, 0x1.feb89e0000000p-3, -0x1.77d5d20000000p-2, -0x1.5c04540000000p-5, -0x1.8c06940000000p-2, 0x1.229f580000000p-3, -0x1.292a880000000p-6, 0x1.4804ea0000000p-4, -0x1.ebd1f60000000p-3, 0x1.a48b440000000p-3, -0x1.b5a1c40000000p-7, -0x1.21c2ee0000000p-3, 0x1.2e9eba0000000p-3, 0x1.0b3c500000000p-5, 0x1.772ff40000000p-5, 0x1.d1a8e80000000p-5, -0x1.4201c60000000p-2, 0x1.1ea9760000000p-2, 0x1.eed7e40000000p-4, 0x1.62f3600000000p-3, 0x1.0820420000000p-2, -0x1.4136640000000p-3, -0x1.007fd60000000p-2, 0x1.30eb820000000p-2, -0x1.7177260000000p-3, -0x1.81274e0000000p-5, 0x1.3629400000000p-3, 0x1.cddfec0000000p-2, 0x1.db60480000000p-5, 0x1.cf27720000000p-4, 0x1.2f9fac0000000p-2, -0x1.4a5c980000000p-4, 0x1.da07f00000000p-2, 0x1.a722e20000000p-3, -0x1.53ccc80000000p-3, 0x1.238f460000000p-2, 0x1.16dffc0000000p-2, -0x1.f506be0000000p-11, -0x1.1adb760000000p-2, 0x1.635c0a0000000p-2, -0x1.3b341a0000000p-1, 0x1.47b53c0000000p-3, -0x1.15dc1c0000000p-2, 0x1.0b808e0000000p-2, 0x1.bd33b40000000p-4, 0x1.871b780000000p-4, 0x1.c8694c0000000p-8, 0x1.8a88020000000p-4, 0x1.9942160000000p-3, -0x1.8594dc0000000p-5, 0x1.5baec00000000p-5, -0x1.9fe1a20000000p-4, -0x1.e42ab00000000p-3, 0x1.8326a20000000p-5, -0x1.76aeb00000000p-4, 0x1.1b18100000000p-2, 0x1.6e70900000000p-4, 0x1.1b0f9c0000000p-4, -0x1.8bf45c0000000p-3, 0x1.6dba880000000p-4, -0x1.6a16c80000000p-4, -0x1.c37c4e0000000p-4, -0x1.a8ee7e0000000p-3, 0x1.3252580000000p-3, 0x1.5dd3f80000000p-2, -0x1.be8e9e0000000p-10, -0x1.e1a3ee0000000p-5, 0x1.e634420000000p-4, 0x1.5d727e0000000p-3, -0x1.2587de0000000p-3, 0x1.2090380000000p-4, -0x1.ad1a900000000p-5, -0x1.3239500000000p-4, -0x1.31a7cc0000000p-3, 0x1.92c7620000000p-3, 0x1.d0ae9a0000000p-2, -0x1.0296620000000p-3, 0x1.d2604c0000000p-5, -0x1.19c42c0000000p-2, -0x1.0e72880000000p-2, -0x1.6a4dec0000000p-9, 0x1.3472700000000p-3, -0x1.7cb14c0000000p-2, -0x1.7a7c820000000p-2, -0x1.1cbb200000000p-3, -0x1.b1f9840000000p-7, -0x1.f966600000000p-5, 0x1.3df6f00000000p-3, -0x1.011d700000000p-7, 0x1.c6c2780000000p-4, -0x1.9a18a80000000p-6, -0x1.e94f6a0000000p-5, -0x1.6432480000000p-4, 0x1.eee2040000000p-3, -0x1.e2f95c0000000p-3, -0x1.19c6660000000p-3, -0x1.1e2fc60000000p-4, 0x1.746a640000000p-2, -0x1.481b580000000p-2, 0x1.a7e5760000000p-4, -0x1.d2f7000000000p-4, 0x1.9225fc0000000p-6, -0x1.d0bbf60000000p-2, 0x1.13d3da0000000p-2, -0x1.0b1ebc0000000p-3, 0x1.37bcac0000000p-2, -0x1.cfc5a80000000p-5, -0x1.269c7a0000000p-1, -0x1.0314c40000000p-2, 0x1.af0e2e0000000p-6, 0x1.9f4cd60000000p-2, 0x1.92b2d40000000p-2, 0x1.1cd47e0000000p-3, 0x1.b9870c0000000p-4, -0x1.25e7f60000000p-3, 0x1.79fb460000000p-2, 0x1.27df9c0000000p-1, 0x1.965ac00000000p-6, -0x1.72d4120000000p-3, -0x1.fb90560000000p-5, 0x1.4d3a580000000p-2, 0x1.9a8af00000000p-3, 0x1.42faaa0000000p-2, 0x1.18bfd20000000p-2, 0x1.aa42260000000p-2, 0x1.0b34940000000p-2, 0x1.dbe8d00000000p-4, 0x1.33ba5c0000000p-2, 0x1.6ec6b20000000p-4, 0x1.fcb35c0000000p-3, -0x1.3e87280000000p-5, 0x1.820ae80000000p-3, 0x1.564a580000000p-7, -0x1.acd0460000000p-4, -0x1.0658100000000p-2, 0x1.d29c420000000p-4, -0x1.24b7160000000p-2, -0x1.7c650a0000000p-5, 0x1.b236760000000p-2, 0x1.fa78280000000p-4, 0x1.cec4120000000p-4, 0x1.f5514c0000000p-3, 0x1.9b08c80000000p-4, 0x1.c313a60000000p-4, -0x1.4ee5180000000p-3, 0x1.a1fda20000000p-3, 0x1.27c5440000000p-2, 0x1.7cda6c0000000p-4, 0x1.125cf80000000p-7, -0x1.7bc1e00000000p-2, -0x1.5fae880000000p-2, 0x1.d1e79c0000000p-5, -0x1.3004820000000p-3, -0x1.87c1880000000p-4, 0x1.05133e0000000p-1, -0x1.fc167e0000000p-4, -0x1.2503020000000p-3, -0x1.1eefd60000000p-3, 0x1.40d8c20000000p-3, 0x1.b335060000000p-5, -0x1.72f3d20000000p-4, -0x1.058c740000000p-2, 0x1.66435c0000000p-6, -0x1.014d6a0000000p-2, -0x1.dfa8c20000000p-3, 0x1.18f5820000000p-2, 0x1.120e5a0000000p-2, -0x1.4a03780000000p-5, 0x1.e715540000000p-3, 0x1.5140ae0000000p-2, -0x1.877e540000000p-3, 0x1.cd81940000000p-5, 0x1.1690c00000000p-5, -0x1.50cb900000000p-3, -0x1.653c2a0000000p-3, 0x1.0b1a140000000p-7, 0x1.4824100000000p-3, 0x1.71f8520000000p-3, 0x1.b9994e0000000p-3, 0x1.68c7920000000p-6, 0x1.2034260000000p-3, 0x1.b2a65e0000000p-2, 0x1.34a2940000000p-2, 0x1.8e75400000000p-3, 0x1.af73e80000000p-2, 0x1.364db00000000p-4, -0x1.57af4c0000000p-2, 0x1.9ee82c0000000p-4, -0x1.a0e6680000000p-6, 0x1.07499c0000000p-2, 0x1.ee6cd60000000p-2, 0x1.6d769a0000000p-3, 0x1.65e0f20000000p-3, 0x1.0cc1ca0000000p-1, 0x1.27b1500000000p-2, -0x1.53e1b60000000p-2, 0x1.23b97a0000000p-3, 0x1.79ab3e0000000p-2, 0x1.c17c9e0000000p-3, 0x1.ebb3500000000p-3, 0x1.ff53720000000p-3, -0x1.1bccda0000000p-4, -0x1.9bc4560000000p-5, 0x1.617d660000000p-2, -0x1.3fb05a0000000p-4, 0x1.f8c3c80000000p-4, 0x1.992bbe0000000p-2, -0x1.f892980000000p-5, 0x1.54a3640000000p-2, -0x1.bc23d00000000p-3, -0x1.6e42ec0000000p-4, 0x1.1593780000000p-1, 0x1.7786720000000p-6, -0x1.c811dc0000000p-2, -0x1.6f0f480000000p-2, 0x1.3d3e6a0000000p-2, -0x1.f2caa80000000p-5, 0x1.3f17180000000p-3, -0x1.0e945e0000000p-3, -0x1.62c4660000000p-8, -0x1.c0012c0000000p-3, -0x1.1f76c80000000p-1, -0x1.fbafb40000000p-2, 0x1.debacc0000000p-4, -0x1.7d3ba80000000p-5, 0x1.1bf5d60000000p-3, 0x1.1b01de0000000p-2, -0x1.dcf1820000000p-5, -0x1.8084420000000p-4, 0x1.96e6a20000000p-3, 0x1.59e4f40000000p-2, 0x1.89d3b20000000p-4, 0x1.d1f9c00000000p-3, 0x1.ef2d780000000p-4, 0x1.4e27c20000000p-2, -0x1.5c886a0000000p-4, -0x1.89a9600000000p-3, -0x1.a322040000000p-2, -0x1.b1b46c0000000p-3, 0x1.9920a20000000p-4, 0x1.5a4d4e0000000p-3, -0x1.5f59820000000p-3, -0x1.0b78060000000p-4, 0x1.0af9f60000000p-3, -0x1.0afe140000000p-3, 0x1.a620c80000000p-8, 0x1.1c825e0000000p-8, 0x1.cd3f8a0000000p-5, 0x1.ad207e0000000p-4, -0x1.a5fef20000000p-5, 0x1.3cfcc40000000p-3, -0x1.e62e7a0000000p-4, -0x1.5dd12e0000000p-3, 0x1.fd53580000000p-7, -0x1.0d0f900000000p-3, -0x1.0df97e0000000p-4, 0x1.ff626e0000000p-4, -0x1.bfa99c0000000p-2, -0x1.9610740000000p-3, 0x1.c946360000000p-4, -0x1.3ce00c0000000p-4, 0x1.0778420000000p-4, -0x1.86fd600000000p-5, 0x1.6c8eb00000000p-3, 0x1.7e831a0000000p-3, 0x1.c9853a0000000p-3, -0x1.3e71680000000p-6, -0x1.40c8960000000p-2, 0x1.c5aab80000000p-6, 0x1.ca595a0000000p-8, -0x1.eba07a0000000p-3, -0x1.0c5d080000000p-2, 0x1.4d9e3c0000000p-3, -0x1.0280180000000p-2, 0x1.f5438a0000000p-4, 0x1.2e33260000000p-5, 0x1.75e8dc0000000p-9, 0x1.f748b80000000p-4, -0x1.e1b0e40000000p-4, 0x1.1db17c0000000p-2, 0x1.009b720000000p-3, 0x1.54fda60000000p-2, 0x1.e85b380000000p-3, 0x1.66db6c0000000p-4, -0x1.28a2e00000000p-2, -0x1.aae92c0000000p-4, 0x1.2b78560000000p-2, 0x1.554f3c0000000p-3, 0x1.a82e500000000p-3, 0x1.3eb96e0000000p-2, 0x1.dd526c0000000p-2, -0x1.5a70820000000p-3, -0x1.17fdf40000000p-2, 0x1.03acb00000000p-2, 0x1.453cd00000000p-4, 0x1.2c242a0000000p-3, -0x1.9c07f80000000p-5, 0x1.b5db880000000p-4, 0x1.44672a0000000p-3, 0x1.c8c09e0000000p-3, -0x1.addb640000000p-4, 0x1.0707880000000p-2, -0x1.c6ca020000000p-6, 0x1.6ade500000000p-3, 0x1.0879b60000000p-4}
, {0x1.dd24c60000000p-3, -0x1.0e4c940000000p-4, -0x1.992a7e0000000p-2, 0x1.07f7700000000p-3, -0x1.8292b20000000p-4, 0x1.22b9c80000000p-4, 0x1.005bf00000000p-4, -0x1.7062040000000p-4, 0x1.0e4e3c0000000p-3, -0x1.5d5c680000000p-6, 0x1.8e9df00000000p-4, 0x1.1562820000000p-5, 0x1.99c35e0000000p-2, 0x1.4fd0540000000p-2, 0x1.41655e0000000p-3, -0x1.39fe880000000p-3, 0x1.4a50240000000p-5, 0x1.d278640000000p-3, 0x1.3ca9ae0000000p-2, 0x1.51778a0000000p-2, 0x1.450de80000000p-5, -0x1.2627a80000000p-7, 0x1.a4f26e0000000p-3, 0x1.a9f3980000000p-4, 0x1.e593d80000000p-3, 0x1.a858300000000p-3, 0x1.fe23960000000p-3, 0x1.8206fa0000000p-3, 0x1.9fada40000000p-2, -0x1.4e54660000000p-9, -0x1.7ff2c40000000p-3, 0x1.c71ec80000000p-2, -0x1.ef3a440000000p-5, -0x1.522c5a0000000p-5, 0x1.3592340000000p-2, 0x1.8ca1da0000000p-5, 0x1.71889e0000000p-2, 0x1.4bbf020000000p-3, 0x1.09db540000000p-1, -0x1.a688e60000000p-3, 0x1.2319ee0000000p-2, 0x1.b0ae8a0000000p-2, 0x1.687a4c0000000p-4, -0x1.72b2540000000p-4, 0x1.6c40640000000p-1, -0x1.a967b60000000p-5, -0x1.a65eac0000000p-4, 0x1.4b17520000000p-1, 0x1.60e3f00000000p-3, 0x1.d5a62a0000000p-2, -0x1.54e98e0000000p-6, -0x1.e322bc0000000p-5, 0x1.b40ef80000000p-2, 0x1.c61a0c0000000p-3, 0x1.0f2c340000000p-2, 0x1.6e43ca0000000p-5, -0x1.1e7dbc0000000p-4, 0x1.45ae840000000p-7, -0x1.a86d700000000p-6, -0x1.5d649a0000000p-5, 0x1.fbf0e00000000p-2, 0x1.1608740000000p-3, -0x1.1eb1980000000p-4, 0x1.a68b3e0000000p-3, 0x1.d8387a0000000p-4, 0x1.484d520000000p-3, -0x1.5f9d140000000p-5, 0x1.094ae00000000p-2, 0x1.4d86b60000000p-4, 0x1.3276780000000p-3, 0x1.f4dffc0000000p-6, 0x1.4f4f4e0000000p-4, 0x1.f046aa0000000p-5, 0x1.85d8480000000p-3, -0x1.8055fe0000000p-5, 0x1.cf1e120000000p-3, 0x1.4686a00000000p-2, 0x1.f1bf280000000p-4, -0x1.6c41a20000000p-4, 0x1.57b67a0000000p-2, 0x1.ac1ddc0000000p-6, 0x1.a6cf320000000p-3, -0x1.18f0140000000p-3, 0x1.22ed380000000p-3, -0x1.aaa1840000000p-5, 0x1.d1dcf20000000p-7, -0x1.1e54d60000000p-6, 0x1.15d46c0000000p-2, 0x1.f97bf60000000p-7, 0x1.e10d5c0000000p-2, -0x1.4775460000000p-4, -0x1.3bf5de0000000p-3, 0x1.6597ba0000000p-5, 0x1.f56e960000000p-5, 0x1.c209880000000p-3, -0x1.9c97360000000p-7, 0x1.bb902c0000000p-5, -0x1.d288f40000000p-5, 0x1.c8af080000000p-3, 0x1.015f240000000p-3, 0x1.258fe00000000p-2, -0x1.fe62be0000000p-3, 0x1.9de8080000000p-7, -0x1.8937f80000000p-2, 0x1.98a9880000000p-3, 0x1.89b0900000000p-3, 0x1.4cbe8e0000000p-3, -0x1.15b6b80000000p-4, 0x1.4a286e0000000p-4, -0x1.6fe1e80000000p-8, -0x1.9f315a0000000p-4, 0x1.ed145e0000000p-4, 0x1.7d81760000000p-7, -0x1.c5aeee0000000p-3, 0x1.82c46c0000000p-3, -0x1.179a980000000p-4, -0x1.c962460000000p-4, 0x1.6e4b1a0000000p-4, 0x1.6f49ae0000000p-3, -0x1.8548720000000p-2, 0x1.5b8b960000000p-2, 0x1.4b94800000000p-2, 0x1.3280e00000000p-3, -0x1.687a740000000p-4, -0x1.7815fa0000000p-4, 0x1.685e9a0000000p-4, 0x1.3df2c00000000p-3, 0x1.9cef340000000p-6, 0x1.21b07a0000000p-6, -0x1.a6f6540000000p-4, 0x1.32be1e0000000p-3, -0x1.5780480000000p-4, -0x1.0088e20000000p-4, -0x1.a782940000000p-4, 0x1.7ce2500000000p-3, 0x1.28607e0000000p-4, -0x1.22df120000000p-4, -0x1.c1f70e0000000p-4, 0x1.096c120000000p-5, -0x1.51125c0000000p-8, 0x1.15bb0a0000000p-10, 0x1.1733f20000000p-4, -0x1.0a01e00000000p-3, -0x1.4293660000000p-4, -0x1.76c1120000000p-2, 0x1.e4f4a00000000p-3, 0x1.3430480000000p-3, -0x1.536cd40000000p-3, 0x1.0032900000000p-3, -0x1.7f0d1e0000000p-3, 0x1.416e400000000p-3, 0x1.50122a0000000p-4, 0x1.4ceda20000000p-4, 0x1.1421380000000p-3, 0x1.9d05e00000000p-4, -0x1.377f580000000p-2, 0x1.a53fc00000000p-4, -0x1.07417a0000000p-5, 0x1.2f1ad20000000p-4, 0x1.5c39cc0000000p-5, 0x1.03cca60000000p-4, 0x1.0bb82c0000000p-2, -0x1.f7307e0000000p-4, 0x1.1e1ef20000000p-3, -0x1.2782da0000000p-5, 0x1.0dad920000000p-3, 0x1.8670aa0000000p-3, -0x1.81fd780000000p-5, 0x1.735c100000000p-3, 0x1.5600100000000p-5, 0x1.6968c40000000p-3, 0x1.66c3040000000p-2, -0x1.2e5bf20000000p-4, 0x1.efaba20000000p-7, -0x1.2bf9b60000000p-4, -0x1.920d080000000p-5, 0x1.248a880000000p-2, -0x1.17aa6c0000000p-4, -0x1.c77d0e0000000p-5, 0x1.80d4b40000000p-2, 0x1.41ad380000000p-2, 0x1.05e31e0000000p-2, 0x1.9c641e0000000p-5, -0x1.f770500000000p-6, 0x1.8de40a0000000p-4, 0x1.850d8c0000000p-5, 0x1.80b7a00000000p-3, 0x1.ca3b340000000p-3, 0x1.a2a8f80000000p-6, 0x1.a3216e0000000p-5, -0x1.26f80a0000000p-7, 0x1.7b50c80000000p-3, -0x1.24ce360000000p-2, -0x1.4580580000000p-3, 0x1.a89f360000000p-2, -0x1.2b05dc0000000p-5, -0x1.7f43fa0000000p-7, -0x1.7cb7a40000000p-3, 0x1.58d3da0000000p-6, 0x1.f3dc0c0000000p-4, 0x1.c5e06a0000000p-3, 0x1.8f9fe60000000p-3, 0x1.c9c0560000000p-4, -0x1.c87eda0000000p-3, 0x1.d576600000000p-6, -0x1.5a44980000000p-6, 0x1.38f00e0000000p-2, -0x1.598d8c0000000p-5, -0x1.38d8ac0000000p-3, -0x1.1e9fc20000000p-4, 0x1.0f04000000000p-3, -0x1.70a33c0000000p-2, -0x1.79438c0000000p-4, -0x1.bdc5dc0000000p-3, 0x1.338d740000000p-2, 0x1.7d6eee0000000p-6, 0x1.67a3ca0000000p-3, 0x1.fb5e200000000p-3, -0x1.6d7c620000000p-4, -0x1.a39f660000000p-3, -0x1.9c7a040000000p-12, 0x1.f88c200000000p-3, 0x1.01b1760000000p-2, -0x1.104b160000000p-3, -0x1.6640580000000p-4, -0x1.15b8180000000p-4, -0x1.401f700000000p-2, -0x1.8936ce0000000p-5, 0x1.da23800000000p-3, -0x1.af9c620000000p-7, -0x1.1a1ece0000000p-2, 0x1.1184460000000p-4, -0x1.31df700000000p-4, 0x1.5b1b9e0000000p-4, 0x1.203faa0000000p-4, -0x1.3a6c620000000p-4, 0x1.bd0eca0000000p-3, 0x1.0bfb880000000p-1, 0x1.15c01c0000000p-3, 0x1.467d160000000p-6, 0x1.594fe40000000p-6, -0x1.a276bc0000000p-2, 0x1.12c6400000000p-2, -0x1.fd7ac80000000p-3, -0x1.4e2da40000000p-2, -0x1.84fb200000000p-2, -0x1.4e6a440000000p-5, -0x1.1f3efe0000000p-6, -0x1.b2bfce0000000p-2, -0x1.a0c02c0000000p-3, 0x1.bdb8fe0000000p-5, -0x1.1cc6bc0000000p-2, 0x1.42ab0c0000000p-3, -0x1.5b0af00000000p-4, 0x1.5cc2d40000000p-2, 0x1.c8d8ae0000000p-4, -0x1.75f13c0000000p-3, -0x1.8e6a960000000p-2, 0x1.1567540000000p-2, -0x1.95030e0000000p-3, 0x1.1ef37a0000000p-7, -0x1.8bb0040000000p-3, 0x1.1793380000000p-1, -0x1.0a4c840000000p-1, 0x1.14cb340000000p-3, 0x1.9686a80000000p-4, -0x1.83c56e0000000p-2, -0x1.6a26ca0000000p-2, -0x1.1812700000000p-3, 0x1.4c44960000000p-3, 0x1.49510a0000000p-2, 0x1.35323c0000000p-3, -0x1.80d9c00000000p-3, -0x1.61c4340000000p-2, 0x1.fa368c0000000p-4, -0x1.d087620000000p-4, 0x1.a619220000000p-5, -0x1.1209800000000p-1, 0x1.18c1020000000p-1, -0x1.0e8fd60000000p-1, 0x1.ab30740000000p-2, 0x1.94a2f60000000p-4, -0x1.857de60000000p-2, -0x1.72ba040000000p-2, -0x1.4ed3360000000p-2, -0x1.7156960000000p-3, 0x1.353db20000000p-2, -0x1.7aa3b40000000p-4, 0x1.a7b1060000000p-3, 0x1.bdae0e0000000p-5, 0x1.8815920000000p-4, -0x1.044f960000000p-2, 0x1.be5d6e0000000p-4, 0x1.093a7a0000000p-3, -0x1.2ca0300000000p-4, 0x1.f85cb40000000p-3, -0x1.118d8e0000000p-2, -0x1.d7dab00000000p-4, -0x1.4db16a0000000p-3, -0x1.1300740000000p-4, -0x1.8a1e040000000p-4, 0x1.09a48c0000000p-2, -0x1.ae11f00000000p-8, 0x1.c6fe320000000p-3, 0x1.5a3cfc0000000p-3, 0x1.9736f00000000p-3, 0x1.137cdc0000000p-2, -0x1.0395d80000000p-3, 0x1.1905d80000000p-8, -0x1.100d460000000p-2, -0x1.4742840000000p-4, -0x1.c95a020000000p-2, -0x1.9a41d00000000p-3, -0x1.4563b80000000p-4, -0x1.2677900000000p-3, -0x1.359c760000000p-5, -0x1.6278c80000000p-3, -0x1.7868580000000p-3, -0x1.1e66ac0000000p-4, 0x1.45b9da0000000p-5, -0x1.a811100000000p-7, 0x1.7960520000000p-3, 0x1.a684500000000p-3, 0x1.04080a0000000p-3, -0x1.1cc3ea0000000p-6, -0x1.0507ea0000000p-3, -0x1.7bbaf40000000p-5, -0x1.0607080000000p-1, -0x1.593dce0000000p-2, 0x1.068d0a0000000p-5, 0x1.9685780000000p-4, -0x1.b4e0720000000p-5, -0x1.8dee960000000p-4, -0x1.beb9780000000p-3, -0x1.04cfd60000000p-2, -0x1.89dd400000000p-6, -0x1.24a0e80000000p-1, -0x1.f7f8f20000000p-1, -0x1.2457a60000000p-4, 0x1.aab2900000000p-5, 0x1.a41ce40000000p-3, -0x1.84f49c0000000p-3, 0x1.43f2a40000000p-12, 0x1.ffb0700000000p-2, 0x1.ff4eac0000000p-3, -0x1.dd44a40000000p-3, 0x1.71d5e80000000p-3, -0x1.137f1e0000000p-1, 0x1.8ab2240000000p-3, -0x1.9e59280000000p-4, 0x1.11c13e0000000p-2, 0x1.a9a4300000000p-3, -0x1.07c5880000000p-1, -0x1.17f5600000000p-1, -0x1.1a48140000000p-1, -0x1.fe03b60000000p-2, 0x1.f64c940000000p-2, -0x1.4370ae0000000p-2, -0x1.17c2d20000000p-2, 0x1.01b6d20000000p-2, 0x1.5465740000000p-4, -0x1.c6a23e0000000p-2, 0x1.7719dc0000000p-4, -0x1.9d859e0000000p-1, 0x1.f6c5300000000p-3, 0x1.4a2cfe0000000p-2, 0x1.27fc4a0000000p-1, -0x1.8dc2600000000p-5, -0x1.e25d440000000p-3, 0x1.124d4c0000000p-2, -0x1.b3bfe80000000p-4, -0x1.0c18c20000000p-1, -0x1.5f8d1c0000000p-3, -0x1.291f2e0000000p-2, -0x1.b80f660000000p-1, 0x1.9132260000000p-3, -0x1.1c39e20000000p-3, -0x1.69809c0000000p-1, 0x1.72b4120000000p-5, -0x1.0a265e0000000p-1, 0x1.6ce73c0000000p-3, 0x1.3163c40000000p-5, -0x1.2a92dc0000000p-3, -0x1.c151b20000000p-3, 0x1.b29c2c0000000p-3, -0x1.3964820000000p-3, -0x1.2beb4e0000000p-3, 0x1.f07fde0000000p-2, 0x1.4c05d00000000p-6, 0x1.f81d5e0000000p-2, -0x1.8eaf6a0000000p-4, 0x1.f0f8a60000000p-3, -0x1.b33bea0000000p-2, 0x1.d3c6260000000p-3, 0x1.5030aa0000000p-3, 0x1.f049ac0000000p-5, 0x1.80ce920000000p-3, -0x1.61ea080000000p-4, -0x1.09d02a0000000p-2, 0x1.7fbb060000000p-4, -0x1.cf49a20000000p-5, 0x1.52fa680000000p-2, 0x1.3523f80000000p-7, 0x1.72d79c0000000p-10, -0x1.1660fa0000000p-2, 0x1.026f340000000p-4, -0x1.c6e3160000000p-3, -0x1.a33e760000000p-2, -0x1.57568a0000000p-3, -0x1.9447180000000p-2, -0x1.77eb800000000p-3, 0x1.6303880000000p-2, 0x1.0db0900000000p-4, -0x1.0f24d80000000p-3, -0x1.4242360000000p-3, -0x1.9f807a0000000p-7, -0x1.161e5c0000000p-3, -0x1.9abefe0000000p-6, -0x1.3bd10a0000000p-2, -0x1.8ad6360000000p-2, -0x1.1623320000000p-9, 0x1.3f3f4a0000000p-5, 0x1.fb1a0a0000000p-4, -0x1.1424d20000000p-4, 0x1.7d397a0000000p-4, -0x1.4098120000000p-4, -0x1.b848a40000000p-3, 0x1.d5b67e0000000p-6, 0x1.f1bb860000000p-5, -0x1.0b2ef80000000p-3, -0x1.ba9d9c0000000p-7, -0x1.d462b60000000p-2, -0x1.c8d8ba0000000p-3, -0x1.3f359a0000000p-2, 0x1.b17a980000000p-4, -0x1.17ce000000000p-4, 0x1.90ea6a0000000p-2, 0x1.5f473c0000000p-4, -0x1.92afe60000000p-5, 0x1.765d4c0000000p-2, -0x1.30b7920000000p-2, -0x1.9bd1ce0000000p-3, 0x1.df5c800000000p-4, -0x1.4780f60000000p-2, 0x1.e5f4fe0000000p-3, 0x1.9fc4300000000p-3, -0x1.a66fe60000000p-4, -0x1.b772a00000000p-5, -0x1.be78880000000p-3, 0x1.c571b00000000p-6, 0x1.a0fb8a0000000p-10, 0x1.414e580000000p-3, 0x1.1680ea0000000p-4, 0x1.8b687e0000000p-3, -0x1.1a8af60000000p-2, 0x1.39a96c0000000p-3, -0x1.2f287c0000000p-1, 0x1.1e3cc80000000p-2, 0x1.ec11460000000p-2, -0x1.357e180000000p-3, 0x1.4aa6ec0000000p-4, -0x1.f87c200000000p-3, -0x1.1ba0de0000000p+0, -0x1.b268ce0000000p-5, 0x1.99a7e20000000p-3, -0x1.f813500000000p-12, 0x1.1744be0000000p-4, 0x1.ac0b580000000p-3, -0x1.4a3c3e0000000p-6, 0x1.1cef760000000p-2, -0x1.27cdc40000000p-6, 0x1.9fda820000000p-2, -0x1.a2783c0000000p-2, 0x1.78bbf00000000p-4, 0x1.1bebf40000000p-2, -0x1.c2e85c0000000p-4, -0x1.0c137c0000000p-4, -0x1.9cdd140000000p-2, -0x1.18f5aa0000000p-1, 0x1.283e540000000p-4, -0x1.8ba41e0000000p-4, 0x1.570ef20000000p-3, -0x1.08391a0000000p-4, -0x1.3de6420000000p-2, 0x1.1f7c360000000p-1, 0x1.c0054c0000000p-3, -0x1.aaa8620000000p-3, 0x1.bdf6780000000p-4, -0x1.2a286a0000000p-2, -0x1.1c091a0000000p-4, 0x1.9f098e0000000p-4, 0x1.0483500000000p-4, 0x1.2c948c0000000p-3, -0x1.05a5060000000p-2, -0x1.b5826c0000000p-2, 0x1.12636c0000000p-2, -0x1.8b92a00000000p-5, -0x1.2fa7300000000p-7, -0x1.65c6ea0000000p-5, 0x1.aac31e0000000p-7, 0x1.3884880000000p-3, 0x1.3977020000000p-3, 0x1.0ffca60000000p-10, 0x1.b848440000000p-3, 0x1.4417840000000p-4, -0x1.401a400000000p-2, 0x1.b049c00000000p-5, -0x1.bde5d80000000p-3, -0x1.b28f7c0000000p-8, 0x1.da07580000000p-4, 0x1.63713c0000000p-4, 0x1.7badb00000000p-3, -0x1.42271a0000000p-5, -0x1.1639520000000p-6, 0x1.6c7b240000000p-4, -0x1.33e6900000000p-5, 0x1.0e936e0000000p-5, -0x1.70fe9a0000000p-3, 0x1.4d19420000000p-4, 0x1.6fe0620000000p-6, 0x1.5a93220000000p-4, -0x1.3f9ec00000000p-1, 0x1.5093d00000000p-3, -0x1.783d3a0000000p-2, 0x1.3b39ec0000000p-3, 0x1.9b888c0000000p-5, 0x1.a042a40000000p-5, 0x1.1081100000000p-4, 0x1.726f400000000p-2, -0x1.57378a0000000p-3, 0x1.48faee0000000p-2, -0x1.12e8ca0000000p-3, -0x1.501ada0000000p-3, -0x1.0f4d560000000p-2, 0x1.f1d11c0000000p-5, -0x1.2ff4800000000p+0, -0x1.45e28a0000000p-5, 0x1.4adea00000000p-2, 0x1.5f5e7e0000000p-5, -0x1.a8a2a00000000p-3, 0x1.e000980000000p-4, 0x1.4e1e320000000p-2, 0x1.2289740000000p-5, -0x1.55d9e60000000p-5, -0x1.7c47160000000p-8, 0x1.4c87500000000p-4, 0x1.0a53e60000000p-2, 0x1.2a73180000000p-1, -0x1.b3f8ec0000000p-3, -0x1.c0768a0000000p-4, 0x1.fde69e0000000p-4, -0x1.7536e00000000p-2, 0x1.47890c0000000p-3, 0x1.6fbd540000000p-4, -0x1.8e6af00000000p-5, -0x1.46969e0000000p-2, -0x1.0809600000000p-2, 0x1.fd6aee0000000p-3, 0x1.27a18e0000000p-3, 0x1.73cd4a0000000p-3, 0x1.68718a0000000p-4, 0x1.b393560000000p-4, -0x1.1f8a2c0000000p-2, 0x1.cc2e600000000p-2, 0x1.a63a9c0000000p-4, 0x1.b5355e0000000p-5, 0x1.383d2a0000000p-4, 0x1.9315220000000p-4, 0x1.8a1fce0000000p-3, 0x1.11b70e0000000p-3, 0x1.0a63e60000000p-4, 0x1.c4afaa0000000p-2, -0x1.9a1b320000000p-3, -0x1.1821260000000p-3, 0x1.9c53340000000p-4, 0x1.a8ab4c0000000p-6}
, {0x1.935ca20000000p-2, 0x1.a9350a0000000p-3, 0x1.2e877a0000000p-2, 0x1.e212580000000p-3, 0x1.d3717a0000000p-7, 0x1.5724dc0000000p-2, 0x1.f2a1fe0000000p-2, 0x1.9505f80000000p-3, 0x1.1f98800000000p-3, 0x1.aa93e20000000p-5, -0x1.f999c00000000p-6, 0x1.1e129e0000000p-2, 0x1.13651a0000000p-3, 0x1.d348580000000p-2, 0x1.3626880000000p-3, 0x1.04d47a0000000p-6, -0x1.5056e60000000p-14, -0x1.23d7700000000p-3, 0x1.710b300000000p-1, -0x1.af91620000000p-6, -0x1.230cfc0000000p-3, 0x1.dc9d280000000p-6, 0x1.b3da060000000p-2, 0x1.24c32c0000000p-3, 0x1.76346a0000000p-2, 0x1.8785c00000000p-2, -0x1.ae69680000000p-3, 0x1.c4f8f80000000p-6, -0x1.20487a0000000p-4, -0x1.54d94c0000000p-3, 0x1.fdf1d00000000p-3, 0x1.1287b20000000p-4, -0x1.6b39560000000p-2, -0x1.3d22c60000000p-7, 0x1.1caaf00000000p-3, 0x1.c86e920000000p-3, 0x1.d638620000000p-3, 0x1.14d51e0000000p-5, -0x1.77d1f80000000p-3, -0x1.e41d840000000p-4, 0x1.4e85f80000000p-2, 0x1.7a3e900000000p-4, -0x1.1666200000000p-5, -0x1.8fc9d00000000p-3, -0x1.9ec5720000000p-4, -0x1.cd9d420000000p-3, -0x1.0ae1700000000p-2, -0x1.81efc60000000p-6, -0x1.617a960000000p-3, 0x1.28e5180000000p-3, -0x1.c6c7020000000p-3, -0x1.8259360000000p-4, -0x1.0374c00000000p-3, -0x1.62fdd60000000p-5, -0x1.42fa400000000p-4, 0x1.2faa500000000p-6, 0x1.0a13260000000p-2, 0x1.6e4dac0000000p-2, -0x1.5e88b00000000p-4, 0x1.7765f60000000p-3, 0x1.ae12480000000p-5, -0x1.f337360000000p-4, -0x1.12792c0000000p-3, -0x1.f3821e0000000p-3, 0x1.b6fd940000000p-4, 0x1.5bea6c0000000p-2, -0x1.778f160000000p-7, -0x1.bd37f60000000p-4, 0x1.d1f61c0000000p-4, 0x1.75712e0000000p-1, 0x1.4c089a0000000p-6, -0x1.244b260000000p-4, 0x1.e4482a0000000p-2, 0x1.2912000000000p-6, 0x1.6555600000000p-2, 0x1.1b01f20000000p-2, -0x1.7a66080000000p-7, 0x1.1a6dbe0000000p-10, -0x1.4326ea0000000p-3, -0x1.a6b0900000000p-3, -0x1.2bdd820000000p-4, 0x1.c8aa520000000p-4, 0x1.3e07d40000000p-2, 0x1.a0ab080000000p-4, -0x1.6b8eac0000000p-4, 0x1.82603a0000000p-3, 0x1.1832a60000000p-2, -0x1.042fec0000000p-4, 0x1.b468640000000p-3, 0x1.5551f20000000p-3, 0x1.0208d20000000p-4, 0x1.7c1d1c0000000p-5, -0x1.33bd1e0000000p-4, -0x1.0a47040000000p-5, 0x1.45f1d40000000p-8, 0x1.d4840e0000000p-3, -0x1.583fce0000000p-3, -0x1.874abc0000000p-4, 0x1.92ef380000000p-2, 0x1.2e26e20000000p-4, 0x1.aa75960000000p-2, 0x1.1a25e00000000p-1, 0x1.c8aed20000000p-2, 0x1.113f5e0000000p-6, 0x1.acd0ec0000000p-2, 0x1.59442c0000000p-2, 0x1.6d9d360000000p-4, -0x1.7886080000000p-4, 0x1.22cf060000000p-2, -0x1.2c6f300000000p-5, 0x1.801a380000000p-4, 0x1.c6e6800000000p-6, -0x1.6b20d80000000p-3, -0x1.ada4460000000p-4, -0x1.2a5d1a0000000p-3, 0x1.85f63e0000000p-2, -0x1.717cb20000000p-5, -0x1.153c480000000p-6, -0x1.210fa00000000p-1, 0x1.39c64c0000000p-2, -0x1.3942960000000p-2, 0x1.5138b40000000p-3, -0x1.259bb40000000p-2, 0x1.11f39a0000000p-3, -0x1.c833fa0000000p-4, -0x1.edc6800000000p-4, -0x1.76fb260000000p-6, -0x1.0102020000000p-3, -0x1.130b2c0000000p-4, -0x1.81cd480000000p-6, 0x1.03d4060000000p-4, 0x1.9ba7940000000p-4, -0x1.46a6940000000p-2, 0x1.c3a7460000000p-4, -0x1.16154a0000000p-1, 0x1.190f8e0000000p-6, -0x1.9192880000000p-1, 0x1.78633a0000000p-1, -0x1.7995940000000p-3, -0x1.a82af20000000p-4, -0x1.e447c40000000p-2, -0x1.44f9860000000p-4, -0x1.b248f80000000p-3, -0x1.b359aa0000000p-2, 0x1.1587900000000p-3, 0x1.f4376c0000000p-3, 0x1.0818500000000p-4, 0x1.746b3c0000000p-5, -0x1.7272260000000p-9, 0x1.6c39ac0000000p-3, 0x1.0f849a0000000p-4, -0x1.7df0b80000000p-5, -0x1.9dc01a0000000p-4, 0x1.7c80e40000000p-2, -0x1.13808e0000000p-3, 0x1.87ac8c0000000p-3, -0x1.dd1ffc0000000p-4, 0x1.820d0e0000000p-6, -0x1.3fa7180000000p-1, -0x1.040b180000000p-5, 0x1.01ef8c0000000p-2, 0x1.3126940000000p-2, 0x1.7077800000000p-5, 0x1.7d39d40000000p-4, 0x1.a4413e0000000p-4, -0x1.1514ea0000000p-4, 0x1.ef8baa0000000p-6, 0x1.e6b2ca0000000p-4, -0x1.2de6680000000p-5, -0x1.ad8f460000000p-11, -0x1.5fe4580000000p-2, 0x1.0a9ad40000000p-3, 0x1.723fdc0000000p-5, 0x1.894a5c0000000p-5, 0x1.54532e0000000p-5, -0x1.2258be0000000p-3, -0x1.3db6820000000p-3, 0x1.bdbe2a0000000p-7, -0x1.6086fa0000000p-4, -0x1.7309080000000p-3, -0x1.55b74e0000000p-4, -0x1.4c4c260000000p-4, -0x1.8394980000000p-4, 0x1.39312e0000000p-4, -0x1.0392f80000000p-3, -0x1.eac52c0000000p-3, -0x1.117a3a0000000p-3, 0x1.d370da0000000p-11, 0x1.586b9e0000000p-3, -0x1.72b9760000000p-3, -0x1.8c9e020000000p-2, -0x1.ae027a0000000p-4, -0x1.0dc3700000000p-3, -0x1.8426820000000p-3, -0x1.54ac8e0000000p-3, -0x1.a9ca3e0000000p-8, -0x1.236c4e0000000p-2, -0x1.da037c0000000p-6, 0x1.9c638a0000000p-4, 0x1.19a17a0000000p-4, 0x1.3b9b520000000p-4, -0x1.b9aa4e0000000p-4, -0x1.4f7bac0000000p-2, -0x1.6d38660000000p-3, -0x1.456c860000000p-2, -0x1.bb96b80000000p-2, -0x1.769bac0000000p-5, -0x1.d4162a0000000p-2, 0x1.513c8c0000000p-4, 0x1.035a1a0000000p-2, -0x1.962fbc0000000p-3, 0x1.7f8c9c0000000p-4, -0x1.f0b93c0000000p-3, -0x1.184f8e0000000p-4, -0x1.b59b720000000p-2, -0x1.ffe36c0000000p-5, -0x1.afe6620000000p-1, 0x1.36a8160000000p-2, -0x1.ee787e0000000p-3, 0x1.8569b60000000p-3, -0x1.ce41d40000000p-5, -0x1.05994c0000000p-2, -0x1.6686e00000000p-1, -0x1.f903d60000000p-2, -0x1.762d420000000p-4, -0x1.36407a0000000p-3, -0x1.1beb360000000p-4, 0x1.4b00c40000000p-4, -0x1.f59d020000000p-4, -0x1.21ef800000000p-5, -0x1.4359e20000000p-2, 0x1.1032440000000p-9, -0x1.7facf40000000p-2, -0x1.8dab2c0000000p-3, -0x1.dcd9e20000000p-3, 0x1.06d7e20000000p-4, 0x1.8763920000000p-7, -0x1.782c760000000p-3, -0x1.42f1d60000000p-2, -0x1.da07640000000p-4, 0x1.009c120000000p-1, 0x1.0faf300000000p-8, 0x1.589b040000000p-3, 0x1.b1d2620000000p-3, -0x1.8884f80000000p-2, 0x1.4667ec0000000p-4, -0x1.6c90d20000000p-1, 0x1.6bb4d40000000p-3, -0x1.7bc2dc0000000p-2, 0x1.91a3180000000p-2, -0x1.4518d40000000p-4, 0x1.03caba0000000p-4, 0x1.07bde20000000p-4, 0x1.0d8e2c0000000p-2, 0x1.40ecde0000000p-3, 0x1.5410640000000p-2, 0x1.41d1100000000p-5, 0x1.0e5fe00000000p-1, 0x1.4bb6ea0000000p-3, -0x1.b4bb500000000p-4, -0x1.8b527e0000000p-5, -0x1.f3126c0000000p-4, -0x1.c2e9020000000p-2, 0x1.830d5e0000000p-3, -0x1.42f6300000000p-1, 0x1.1b68b40000000p-3, -0x1.5223040000000p-2, 0x1.86f2980000000p-3, -0x1.23571e0000000p-6, 0x1.8c5fb20000000p-5, -0x1.80a6a80000000p-4, 0x1.ad14dc0000000p-4, -0x1.82f4680000000p-2, 0x1.3285d20000000p-3, 0x1.e62caa0000000p-7, -0x1.01a3d80000000p-3, -0x1.f860c60000000p-8, 0x1.782acc0000000p-7, -0x1.2fbcc40000000p-2, 0x1.90dbe40000000p-4, 0x1.11417c0000000p-7, -0x1.a7a1020000000p-5, -0x1.6b3bd80000000p-5, -0x1.684fec0000000p-3, 0x1.abddc20000000p-2, -0x1.46a5d80000000p-3, -0x1.3e191a0000000p-7, 0x1.b1f3520000000p-5, -0x1.01518e0000000p-3, -0x1.f9dadc0000000p-4, -0x1.86dc100000000p-5, 0x1.25c4fa0000000p-4, -0x1.d29ef20000000p-6, 0x1.93d8f40000000p-4, -0x1.09cd960000000p-2, 0x1.e21f5a0000000p-2, -0x1.5dab1a0000000p-4, 0x1.8ea82e0000000p-3, -0x1.aa2f440000000p-4, -0x1.59ee260000000p-4, 0x1.43c2b60000000p-2, -0x1.10e7520000000p-4, 0x1.fc49160000000p-7, 0x1.acd8d20000000p-3, 0x1.439fde0000000p-3, 0x1.18acda0000000p-7, -0x1.fd76c60000000p-5, 0x1.651e3a0000000p-4, 0x1.8e191e0000000p-3, 0x1.51ef0a0000000p-3, 0x1.2b74340000000p-3, -0x1.60f61c0000000p-6, 0x1.4cfc420000000p-4, -0x1.c816660000000p-2, 0x1.073b5a0000000p-3, -0x1.7960080000000p-5, 0x1.26c98a0000000p-2, -0x1.803e5c0000000p-2, -0x1.f54e3a0000000p-4, -0x1.247b360000000p-4, 0x1.067cf20000000p-5, 0x1.3622ea0000000p-7, 0x1.7b2d8c0000000p-4, 0x1.f009a60000000p-4, 0x1.894ace0000000p-5, -0x1.b4676a0000000p-3, 0x1.ac4bb60000000p-2, -0x1.bd0e420000000p-2, 0x1.6118a20000000p-4, -0x1.8676d20000000p-1, 0x1.3615a60000000p-2, -0x1.2a1c100000000p-3, 0x1.22cc0a0000000p-3, 0x1.27f6c40000000p-8, 0x1.13b4ba0000000p-6, 0x1.6d1ba20000000p-2, -0x1.bbb5680000000p-1, -0x1.b8a0200000000p-3, -0x1.314f280000000p-4, 0x1.ecf6d60000000p-4, -0x1.8593ec0000000p-2, -0x1.8b48b20000000p-3, 0x1.385fc40000000p-4, -0x1.f67ea80000000p-4, -0x1.97ea400000000p-4, 0x1.c639260000000p-3, 0x1.aac24c0000000p-2, -0x1.8b52d40000000p-2, -0x1.decefa0000000p-3, -0x1.bc46b40000000p-4, -0x1.b0feca0000000p-3, 0x1.c123500000000p-3, -0x1.24a26c0000000p-4, 0x1.3c03000000000p-2, -0x1.868fe60000000p-2, 0x1.a8e3380000000p-2, -0x1.151b980000000p-1, -0x1.c232300000000p-4, 0x1.f4f3a60000000p-7, -0x1.8ba57a0000000p-2, -0x1.bc92b40000000p-5, 0x1.a481500000000p-4, -0x1.7314d80000000p-2, 0x1.dbbf6e0000000p-3, -0x1.2acc020000000p-2, -0x1.58e1ba0000000p-1, -0x1.acfbee0000000p-2, -0x1.f3b01e0000000p-3, 0x1.713c020000000p-2, 0x1.8cd5480000000p-4, 0x1.e5cac40000000p-6, -0x1.05e03a0000000p-2, 0x1.5080200000000p-10, 0x1.3ab8b80000000p-2, 0x1.721a980000000p-3, -0x1.4884700000000p-2, 0x1.567d8a0000000p-3, -0x1.e2ac160000000p-4, 0x1.2b58e00000000p-4, 0x1.084b220000000p-1, 0x1.b0c3660000000p-6, 0x1.5960440000000p-3, 0x1.2d07740000000p-4, -0x1.4610d00000000p-2, -0x1.c6f20e0000000p-4, -0x1.06d2b40000000p-2, 0x1.d2bfe20000000p-3, 0x1.f1a6820000000p-3, -0x1.fbc0f80000000p-6, 0x1.69f30a0000000p-4, 0x1.8d03a20000000p-4, -0x1.0739640000000p-4, 0x1.95710c0000000p-3, 0x1.11a7f60000000p-3, 0x1.24a1140000000p-5, -0x1.2e39a40000000p-3, 0x1.68fd180000000p-4, -0x1.42662c0000000p-4, 0x1.7ef0720000000p-4, -0x1.cf48ca0000000p-4, -0x1.da36b80000000p-6, -0x1.6d50f20000000p-3, 0x1.0a91880000000p-2, -0x1.23377c0000000p-3, -0x1.6cabc40000000p-2, -0x1.b6d33c0000000p-3, -0x1.06a1e20000000p-3, 0x1.0a6f540000000p-3, 0x1.bd7fb20000000p-3, 0x1.af763c0000000p-2, 0x1.aef2020000000p-8, 0x1.bb48240000000p-4, -0x1.2957f40000000p-2, -0x1.34e8520000000p-6, 0x1.0fef1e0000000p-2, -0x1.b7c9a60000000p-4, 0x1.ce94f40000000p-4, 0x1.822eac0000000p-5, 0x1.893d040000000p-3, 0x1.c7369e0000000p-9, -0x1.4abcf00000000p-2, -0x1.8384d20000000p-6, -0x1.7cd4900000000p-5, 0x1.01aa3a0000000p-3, 0x1.b876600000000p-7, 0x1.8ac8080000000p-2, -0x1.aae79c0000000p-4, 0x1.8552ba0000000p-4, -0x1.47bd7c0000000p-1, -0x1.a3a7cc0000000p-4, -0x1.8a8bfc0000000p-5, -0x1.746c440000000p-2, -0x1.d7f2e60000000p-4, 0x1.7d1a480000000p-2, -0x1.74167c0000000p-4, 0x1.773b260000000p-8, -0x1.6c58ae0000000p-2, 0x1.339ace0000000p-5, -0x1.98ef4c0000000p-7, -0x1.06de360000000p-6, 0x1.2ea76e0000000p-3, 0x1.59ec400000000p-3, -0x1.41310c0000000p-2, 0x1.4f91040000000p-2, -0x1.c87e5c0000000p-2, -0x1.2aefb00000000p-3, 0x1.5e645e0000000p-3, -0x1.6611d80000000p-1, -0x1.2ca1440000000p-5, -0x1.57f9e00000000p-4, -0x1.facd1e0000000p-2, -0x1.5977640000000p-2, -0x1.5b6bd40000000p-2, 0x1.f5cad80000000p-5, -0x1.83e4660000000p-2, -0x1.4b09120000000p-3, 0x1.a7d2ae0000000p-3, -0x1.d446880000000p-2, -0x1.66d0740000000p-3, 0x1.992bbc0000000p-5, -0x1.0659f80000000p-2, 0x1.1bd8ae0000000p-2, -0x1.80c5100000000p-3, -0x1.5047d40000000p-2, 0x1.91ab960000000p-3, 0x1.5b977a0000000p-2, -0x1.47f0360000000p-5, -0x1.65dc440000000p-3, 0x1.8ef3a40000000p-3, 0x1.acc0720000000p-4, 0x1.9d77240000000p-4, 0x1.753c5e0000000p-4, 0x1.b7c2320000000p-3, -0x1.6baa4a0000000p-2, -0x1.928ad80000000p-4, 0x1.2147d40000000p-3, 0x1.03b8220000000p-2, 0x1.19c7460000000p-1, 0x1.d379880000000p-2, -0x1.ed8bc00000000p-4, -0x1.602f640000000p-5, -0x1.06bc200000000p-2, 0x1.7f44dc0000000p-5, 0x1.16ccf80000000p-6, -0x1.21189e0000000p-9, 0x1.85a9f20000000p-3, -0x1.4547b20000000p-4, -0x1.0d0ca20000000p-5, -0x1.2700960000000p-7, 0x1.59968e0000000p-2, 0x1.47774c0000000p-5, -0x1.c9d3180000000p-3, -0x1.b377600000000p-5, 0x1.800c7c0000000p-8, 0x1.b78f4e0000000p-6, 0x1.308e7c0000000p-2, 0x1.eee8220000000p-4, 0x1.71c9c40000000p-3, 0x1.2879660000000p-2, 0x1.2549980000000p-3, -0x1.77c6360000000p-2, -0x1.aea1580000000p-4, -0x1.c007060000000p-4, -0x1.361baa0000000p-3, 0x1.0eaf600000000p-5, 0x1.931aea0000000p-2, -0x1.ace0d60000000p-3, 0x1.1369ac0000000p-5, 0x1.7998e00000000p-5, -0x1.60da300000000p-4, -0x1.857fb40000000p-2, -0x1.177f080000000p-6, 0x1.bc54800000000p-3, 0x1.1872360000000p-2, -0x1.de92de0000000p-5, -0x1.107e020000000p-3, -0x1.0fb5640000000p-5, -0x1.4e300a0000000p-3, -0x1.44b8ce0000000p-6, 0x1.68fba60000000p-2, -0x1.7de38c0000000p-3, 0x1.9747320000000p-3, -0x1.9c38c40000000p-2, -0x1.d48c760000000p-6, -0x1.6537600000000p-4, -0x1.5828b20000000p-2, -0x1.5ca09e0000000p-3, -0x1.26ea8a0000000p-2, -0x1.54e2d60000000p-4, 0x1.0e2e540000000p-2, -0x1.e6d3620000000p-2, -0x1.76f11e0000000p-3, 0x1.35dfb20000000p-4, 0x1.4506600000000p-3, -0x1.19a5520000000p-2, 0x1.7b74ca0000000p-3, -0x1.7ac3aa0000000p-3, 0x1.4c92b80000000p-5, -0x1.6f7a660000000p-6, 0x1.095fda0000000p-2, 0x1.d69ca80000000p-6, -0x1.014bb00000000p-2, -0x1.24e1840000000p-1, -0x1.7eb56a0000000p-3, 0x1.7cd7300000000p-4, -0x1.62f35e0000000p-2, -0x1.86fcf80000000p-4, -0x1.3d9c640000000p-2, 0x1.6483b60000000p-2, 0x1.c3895a0000000p-5, 0x1.4c4cda0000000p-11, 0x1.b2511c0000000p-2, -0x1.021a400000000p-3, -0x1.89743a0000000p-4, 0x1.3b1ac00000000p-3, 0x1.0199fc0000000p-2, -0x1.9248b40000000p-5, 0x1.c964060000000p-2, -0x1.c990880000000p-2, 0x1.48e1e40000000p-3, 0x1.174afc0000000p-2, 0x1.4224a80000000p-2, 0x1.10ecae0000000p-2, 0x1.d006140000000p-3, 0x1.da7ebc0000000p-3, 0x1.8b91a20000000p-6, 0x1.063b5c0000000p-2, 0x1.ce802e0000000p-2, 0x1.6db3860000000p-3, 0x1.90fdc20000000p-3, 0x1.f35ab40000000p-2, 0x1.771eb60000000p-2, 0x1.be07820000000p-2, 0x1.648ca20000000p-1, 0x1.74d6ce0000000p-3, -0x1.ef19ba0000000p-7}
, {0x1.8d2cec0000000p-2, -0x1.ffca960000000p-5, 0x1.2c5ade0000000p-3, 0x1.0a9cec0000000p-2, -0x1.978fe40000000p-3, 0x1.855ff60000000p-2, -0x1.5b119e0000000p-4, 0x1.f51aa60000000p-2, -0x1.40b4060000000p-2, -0x1.8828940000000p-5, -0x1.2989b20000000p-5, 0x1.881bcc0000000p-2, 0x1.62ae460000000p-2, -0x1.0d1a240000000p-4, -0x1.57e8300000000p-3, 0x1.9895400000000p-9, 0x1.0568460000000p-2, 0x1.c342440000000p-3, 0x1.8a26fe0000000p-2, 0x1.1a182c0000000p-3, 0x1.12c7240000000p-2, 0x1.c087dc0000000p-4, 0x1.3906880000000p-3, 0x1.291ca60000000p-1, -0x1.6e4d3c0000000p-3, 0x1.6e2f8a0000000p-2, 0x1.5b22580000000p-2, 0x1.719a0c0000000p-4, 0x1.3fe2560000000p-2, -0x1.2078ce0000000p-5, 0x1.5cb9640000000p-3, 0x1.fc97b60000000p-2, -0x1.8aab8e0000000p-4, -0x1.dfc7260000000p-5, -0x1.8ce4b20000000p-8, 0x1.1202b40000000p-6, -0x1.c4d2180000000p-4, -0x1.6f3d320000000p-2, 0x1.66d1e40000000p-1, -0x1.6d409e0000000p-4, -0x1.85e9fa0000000p-4, 0x1.86bd060000000p-7, 0x1.ac04100000000p-3, 0x1.4559f20000000p-6, 0x1.e4ee400000000p-2, 0x1.4c806a0000000p-8, -0x1.a505120000000p-4, 0x1.b973120000000p-3, 0x1.9122300000000p-3, 0x1.f2e11c0000000p-3, -0x1.8e80d00000000p-5, -0x1.4f81300000000p-3, -0x1.cde6480000000p-7, 0x1.e7d90e0000000p-3, 0x1.5b11bc0000000p-5, 0x1.72533a0000000p-6, 0x1.1674d00000000p-3, -0x1.78cff00000000p-1, -0x1.6437e80000000p-4, -0x1.c719220000000p-6, 0x1.ded9160000000p-3, 0x1.d83afa0000000p-5, -0x1.e6cdcc0000000p-4, 0x1.c100620000000p-4, 0x1.0142ac0000000p-3, -0x1.5ea3fe0000000p-3, -0x1.aaf8d20000000p-4, 0x1.612a9c0000000p-3, -0x1.e14d1c0000000p-4, 0x1.3cda960000000p-3, 0x1.ddb5c40000000p-2, 0x1.61670a0000000p-6, -0x1.3942900000000p-3, 0x1.ec00b40000000p-3, 0x1.818e640000000p-5, -0x1.2ba73a0000000p-3, 0x1.070ac60000000p-2, -0x1.d73ce80000000p-7, -0x1.5988320000000p-3, 0x1.559ff80000000p-4, 0x1.7f803e0000000p-5, 0x1.364eea0000000p-3, 0x1.601dea0000000p-3, 0x1.6dc4ec0000000p-4, 0x1.1594360000000p-2, 0x1.9b949c0000000p-3, 0x1.2424f20000000p-4, 0x1.2036c40000000p-8, -0x1.0d4f140000000p-2, 0x1.969b6e0000000p-2, 0x1.0188ac0000000p-2, 0x1.1af9980000000p-1, 0x1.aaca340000000p-2, -0x1.855e100000000p-11, -0x1.1216d40000000p-4, 0x1.84d4080000000p-4, 0x1.320b180000000p-2, 0x1.667f180000000p-3, 0x1.7a79900000000p-2, 0x1.1f87860000000p-2, 0x1.715dba0000000p-1, 0x1.88c2f00000000p-7, 0x1.d304e60000000p-5, 0x1.2aa2020000000p-2, -0x1.c8f5920000000p-2, -0x1.11b0360000000p-4, 0x1.0b4c880000000p-1, 0x1.27b8b20000000p-3, 0x1.8f46860000000p-1, 0x1.2685ba0000000p-6, 0x1.94d4460000000p-8, 0x1.0584620000000p-1, -0x1.88464c0000000p-3, -0x1.37ba280000000p-6, -0x1.24b6440000000p-3, 0x1.eabd4a0000000p-3, 0x1.385df20000000p-2, 0x1.fb51640000000p-2, 0x1.d7d48c0000000p-2, 0x1.6fb92a0000000p-1, 0x1.60cd740000000p-1, 0x1.e7e5ec0000000p-1, -0x1.ff37b80000000p-4, -0x1.7397f40000000p-3, 0x1.bc93ce0000000p-2, -0x1.22e7bc0000000p-3, -0x1.05f9960000000p-3, 0x1.62272c0000000p-3, -0x1.cc2f9e0000000p-4, 0x1.5ef70a0000000p-2, -0x1.729aa40000000p-4, -0x1.5ebac00000000p-3, 0x1.e92d100000000p-5, 0x1.ed79ee0000000p-4, -0x1.c50a120000000p-5, 0x1.53e35c0000000p-3, 0x1.d12f280000000p-2, 0x1.1feef00000000p-1, -0x1.c7dbe40000000p-3, 0x1.9afd620000000p-5, -0x1.b408740000000p-4, 0x1.d4571e0000000p-4, 0x1.023e340000000p-5, -0x1.694ee60000000p-3, -0x1.9f34b60000000p-2, 0x1.30a4ee0000000p-2, 0x1.fe78460000000p-6, 0x1.da5e200000000p-6, -0x1.3b19780000000p-4, 0x1.91e84a0000000p-3, 0x1.4c277e0000000p-3, -0x1.0f16960000000p-2, 0x1.0cb7b00000000p-3, 0x1.07a5440000000p-2, -0x1.2a477a0000000p-4, -0x1.4c818e0000000p-4, -0x1.58c0d40000000p-2, -0x1.5993240000000p-3, -0x1.7124f20000000p-3, -0x1.022baa0000000p-2, -0x1.41db5a0000000p-3, 0x1.9326040000000p-3, 0x1.94b4b00000000p-6, -0x1.0d07de0000000p-3, -0x1.7ff0ac0000000p-3, 0x1.ef042c0000000p-3, -0x1.3f577c0000000p-4, 0x1.f69e9c0000000p-5, 0x1.1178a20000000p-6, 0x1.f344fc0000000p-2, 0x1.062b600000000p-3, 0x1.8a851c0000000p-4, -0x1.426a9e0000000p-3, -0x1.29b2740000000p-4, 0x1.95dd940000000p-3, -0x1.74694c0000000p-3, 0x1.3c2a7c0000000p-1, 0x1.ded9540000000p-2, -0x1.6a048e0000000p-3, 0x1.37c12e0000000p-4, -0x1.f7bd380000000p-5, 0x1.75a4440000000p-3, 0x1.61830c0000000p-4, -0x1.fbc3880000000p-3, 0x1.a58db80000000p-3, 0x1.cec3680000000p-4, -0x1.02b1fa0000000p-2, 0x1.3c65000000000p-1, -0x1.9f7e340000000p-2, 0x1.7c4ed40000000p-2, 0x1.da22000000000p-2, -0x1.afbeac0000000p-2, -0x1.e594dc0000000p-3, -0x1.b4ea520000000p-3, 0x1.6fa6fc0000000p-2, -0x1.0f99300000000p-3, 0x1.20c0ca0000000p-3, -0x1.7990840000000p-3, 0x1.a3a7120000000p-3, 0x1.1d797e0000000p-2, 0x1.c1eee80000000p-2, 0x1.d26c7c0000000p-3, 0x1.ac37ce0000000p-2, -0x1.1f095a0000000p-2, 0x1.c247300000000p-3, 0x1.8460480000000p-5, 0x1.f244b40000000p-2, 0x1.2507f20000000p-2, -0x1.cb9bb40000000p-4, -0x1.6a79680000000p-3, -0x1.bb3ab00000000p-3, -0x1.c4c39e0000000p-4, 0x1.a5343c0000000p-4, -0x1.0990a80000000p-2, -0x1.66d92e0000000p-3, 0x1.0594880000000p-3, 0x1.01febc0000000p-1, 0x1.7a7c8e0000000p-3, -0x1.af6c5c0000000p-5, -0x1.2a4bf00000000p-8, -0x1.255b4a0000000p-2, 0x1.c595c00000000p-3, 0x1.6c6a6c0000000p-1, 0x1.c585560000000p-3, -0x1.cd03320000000p-3, 0x1.bca2f00000000p-9, -0x1.0d0b120000000p-3, -0x1.23d6fe0000000p-3, -0x1.93130a0000000p-4, -0x1.b599f80000000p-4, -0x1.19c5980000000p-4, 0x1.5cfff80000000p-5, -0x1.91c9f80000000p-4, -0x1.fe25400000000p-2, 0x1.6d54ea0000000p-8, -0x1.dee0cc0000000p-3, 0x1.a438d80000000p-4, 0x1.84e3da0000000p-3, 0x1.314acc0000000p-3, 0x1.8c7c0c0000000p-2, 0x1.fae3220000000p-12, -0x1.d1e1c40000000p-3, -0x1.7435640000000p-5, 0x1.b47b800000000p-4, -0x1.02afd20000000p-4, 0x1.1264260000000p-4, -0x1.5b85e00000000p-2, -0x1.6c2c860000000p-6, -0x1.680ac60000000p-2, -0x1.a074160000000p-6, -0x1.bbf5d40000000p-3, -0x1.d6f96c0000000p-3, 0x1.9ed4e20000000p-2, 0x1.ac76ea0000000p-3, 0x1.25940c0000000p-6, 0x1.9aafb80000000p-3, 0x1.2d28c80000000p-4, -0x1.0e015c0000000p-2, 0x1.fdd3920000000p-3, -0x1.9729840000000p-3, -0x1.a8a2f20000000p-8, -0x1.0312900000000p-2, 0x1.a042700000000p-2, 0x1.e530a40000000p-5, 0x1.6ea03e0000000p-2, -0x1.0acd0e0000000p-5, -0x1.25bb6e0000000p-1, -0x1.32c3280000000p-2, 0x1.3b26080000000p-2, 0x1.0a07fc0000000p-3, 0x1.b478580000000p-2, 0x1.8601d00000000p-3, 0x1.29311a0000000p-1, -0x1.a2a2720000000p-3, 0x1.3c90540000000p-2, -0x1.245d160000000p-2, -0x1.ee93520000000p-9, -0x1.23ff940000000p-2, 0x1.759fe00000000p-1, -0x1.8ddb780000000p-3, 0x1.7ce1c20000000p-1, -0x1.e01b020000000p-4, -0x1.852e0a0000000p-2, -0x1.2b79360000000p-2, 0x1.0a390e0000000p-3, 0x1.4a6a9c0000000p-1, 0x1.2355140000000p-1, 0x1.46c2580000000p-3, 0x1.2661a20000000p-2, 0x1.4acefa0000000p-4, 0x1.4e132a0000000p-2, 0x1.b30d200000000p-3, -0x1.467db20000000p-5, 0x1.bf9aae0000000p-3, 0x1.6aa0380000000p-3, 0x1.eaa1400000000p-3, -0x1.79a73a0000000p-5, 0x1.90ed280000000p-4, 0x1.81f4360000000p-2, 0x1.b7e4720000000p-5, 0x1.5fa15c0000000p-5, 0x1.6c9f5a0000000p-2, 0x1.c7a61e0000000p-2, 0x1.836b420000000p-2, 0x1.59d4740000000p-3, 0x1.bcaa9e0000000p-4, 0x1.260a020000000p-3, -0x1.75678c0000000p-5, -0x1.2f65a00000000p-2, -0x1.e4f0240000000p-4, 0x1.8112d80000000p-4, 0x1.24b32c0000000p-4, -0x1.6706a00000000p-4, 0x1.8b87d00000000p-3, -0x1.f307120000000p-3, 0x1.edadfe0000000p-4, 0x1.6bc2220000000p-5, 0x1.32a6380000000p-1, 0x1.177ce20000000p-2, -0x1.874afa0000000p-7, -0x1.8b165e0000000p-4, -0x1.f806a60000000p-5, 0x1.22a9360000000p-2, -0x1.841eb60000000p-3, -0x1.8085c60000000p-3, -0x1.d2e2e00000000p-3, 0x1.fcf4d60000000p-4, -0x1.b237aa0000000p-2, -0x1.e11d9c0000000p-9, -0x1.4bcd3e0000000p-6, 0x1.bbed880000000p-4, 0x1.213f7c0000000p-7, 0x1.0a2dce0000000p-4, 0x1.062b9e0000000p-2, -0x1.7fdc220000000p-5, -0x1.4c3c2c0000000p-7, -0x1.9b72b00000000p-2, -0x1.388ce00000000p-2, 0x1.c9b33e0000000p-4, -0x1.f153ca0000000p-4, 0x1.aecdbc0000000p-2, -0x1.acb4860000000p-2, 0x1.32e22c0000000p-2, 0x1.4ed3440000000p-4, 0x1.9ace1e0000000p-3, -0x1.2714160000000p-2, 0x1.67e4820000000p-2, -0x1.2cb8c80000000p-1, 0x1.39739a0000000p-2, -0x1.22b4900000000p-2, 0x1.4237760000000p-4, 0x1.bed9200000000p-2, -0x1.23dfae0000000p-2, -0x1.3a58d40000000p-2, -0x1.bcad980000000p-7, -0x1.bb47fe0000000p-4, 0x1.e5528e0000000p-2, -0x1.defedc0000000p-4, 0x1.a813e40000000p-1, 0x1.4b0bb00000000p-2, 0x1.3f94300000000p-1, -0x1.3c2e340000000p-3, 0x1.102b7a0000000p-2, -0x1.a7547c0000000p-3, 0x1.0870940000000p-1, 0x1.d0de740000000p-3, 0x1.038eca0000000p-1, 0x1.67eebe0000000p-2, 0x1.ce0b0a0000000p-3, 0x1.6befbe0000000p-4, -0x1.256fa40000000p-4, -0x1.2aaf120000000p-3, 0x1.c9797e0000000p-5, -0x1.7b5b520000000p-3, -0x1.5940b60000000p-2, 0x1.46a2560000000p-2, -0x1.1a1ee20000000p-6, -0x1.c909940000000p-3, 0x1.3a077e0000000p-3, 0x1.9622ac0000000p-7, 0x1.5536720000000p-3, 0x1.1280740000000p-1, 0x1.69f5340000000p-3, 0x1.6792d00000000p-4, 0x1.29305a0000000p-3, 0x1.4cf48a0000000p-3, 0x1.405daa0000000p-2, 0x1.06f4800000000p-1, 0x1.018baa0000000p-2, 0x1.5e72600000000p-1, 0x1.0ce6020000000p-2, 0x1.1b69600000000p-3, 0x1.816ce00000000p-5, 0x1.ac56ee0000000p-5, 0x1.fbc87e0000000p-3, -0x1.9f9edc0000000p-4, 0x1.7797da0000000p-3, -0x1.9d939e0000000p-4, -0x1.0889ae0000000p-4, 0x1.8db2760000000p-2, -0x1.1bc19e0000000p-2, 0x1.2494a40000000p-2, 0x1.c07d880000000p-5, -0x1.ae0c5e0000000p-3, -0x1.390b200000000p-7, 0x1.055d160000000p-3, 0x1.faef1c0000000p-7, -0x1.302de20000000p-3, 0x1.596be00000000p-4, 0x1.e00e8c0000000p-3, -0x1.56e5460000000p-2, -0x1.3515fe0000000p-6, 0x1.0961b60000000p-3, -0x1.b8448e0000000p-3, 0x1.d7ec100000000p-4, -0x1.10ac500000000p-14, -0x1.5045d20000000p-2, -0x1.eb9d1e0000000p-5, 0x1.70f1880000000p-5, -0x1.c9d5e00000000p-4, -0x1.85881c0000000p-5, 0x1.1ffcbc0000000p-3, -0x1.0f60040000000p-3, -0x1.ee2fb20000000p-3, -0x1.e8fcd40000000p-4, -0x1.10c5220000000p-3, -0x1.d42c780000000p-4, 0x1.dff2080000000p-7, -0x1.a410c40000000p-5, -0x1.7456380000000p-2, 0x1.3d1fd40000000p-7, -0x1.1b9a620000000p-2, -0x1.d75f400000000p-5, 0x1.48fbe80000000p-3, 0x1.40481a0000000p-3, -0x1.0bba4c0000000p-3, -0x1.4071600000000p-4, 0x1.79def00000000p-3, 0x1.a8d3ce0000000p-4, -0x1.ada0d20000000p-8, -0x1.0c37f00000000p-2, -0x1.5837100000000p-4, 0x1.43281e0000000p-3, -0x1.95c7fe0000000p-3, 0x1.1618be0000000p-4, 0x1.fd25e40000000p-6, 0x1.7976fa0000000p-4, -0x1.bb4ec20000000p-3, 0x1.33264c0000000p-3, 0x1.7808240000000p-4, -0x1.c16f560000000p-5, 0x1.2acb7c0000000p-3, 0x1.019f500000000p-3, -0x1.5d209e0000000p-6, 0x1.894ddc0000000p-4, -0x1.7793280000000p-5, 0x1.f39ca40000000p-4, 0x1.0d599e0000000p-3, 0x1.63c5700000000p-3, -0x1.27ab780000000p-5, -0x1.eb24220000000p-3, 0x1.14754e0000000p-2, -0x1.15bec00000000p-5, 0x1.16e5f40000000p-6, 0x1.dd297c0000000p-5, -0x1.05677e0000000p-2, 0x1.e783ca0000000p-9, 0x1.232a660000000p-2, 0x1.63c4800000000p-5, -0x1.f6fdee0000000p-5, 0x1.2d71f40000000p-6, 0x1.53e6180000000p-5, 0x1.2c56940000000p-2, 0x1.8ac0b20000000p-3, 0x1.92b1f20000000p-3, 0x1.18e5920000000p-3, -0x1.8b021c0000000p-2, 0x1.97b69a0000000p-5, 0x1.d0a1520000000p-4, 0x1.322dc80000000p-6, -0x1.10c25c0000000p-2, -0x1.2d4c9a0000000p-4, 0x1.1a86b80000000p-3, 0x1.50ec400000000p-3, 0x1.5d17dc0000000p-2, 0x1.28a18a0000000p-4, 0x1.ea03bc0000000p-5, 0x1.81937a0000000p-2, -0x1.3e012c0000000p-4, 0x1.a8a09e0000000p-4, 0x1.d2c1d80000000p-5, -0x1.09ab2e0000000p-3, 0x1.ff8e4a0000000p-3, -0x1.66750e0000000p-2, 0x1.6b71680000000p-3, 0x1.f8d1f80000000p-3, -0x1.71d7de0000000p-3, 0x1.e0206a0000000p-4, -0x1.e21c400000000p-4, -0x1.a250340000000p-2, -0x1.f212f20000000p-6, -0x1.f458ec0000000p-4, -0x1.6205a20000000p-3, -0x1.a337fc0000000p-2, -0x1.0647160000000p-7, -0x1.4c4df20000000p-1, -0x1.94f9a80000000p-5, -0x1.7d09e80000000p-2, 0x1.aaea020000000p-6, -0x1.f88a0c0000000p-3, 0x1.f63f100000000p-6, 0x1.fca0fc0000000p-6, -0x1.326f6c0000000p-2, -0x1.c638be0000000p-3, 0x1.1ed69a0000000p-3, -0x1.0adebe0000000p-10, 0x1.d1000c0000000p-11, 0x1.5993ca0000000p-2, -0x1.3419fc0000000p-6, -0x1.323afa0000000p-2, 0x1.c9dae20000000p-7, -0x1.c212ce0000000p-4, -0x1.bcad040000000p-6, -0x1.228d5e0000000p-3, 0x1.8a65980000000p-7, -0x1.24989e0000000p-2, 0x1.97f4e00000000p-4, -0x1.7606440000000p-7, -0x1.f0093a0000000p-6, 0x1.f7c3620000000p-4, -0x1.4bcbce0000000p-6, -0x1.4fac2e0000000p-3, -0x1.00d6c00000000p-5, 0x1.9331ac0000000p-3, -0x1.f5f89e0000000p-5, -0x1.70a0a60000000p-4, 0x1.6ac1040000000p-5, 0x1.bd2a5e0000000p-4, 0x1.285c360000000p-6, 0x1.9e34380000000p-3, -0x1.25f08e0000000p-4, 0x1.4c13d00000000p-6, 0x1.25e84a0000000p-3, -0x1.2e3d7a0000000p-3, 0x1.6151820000000p-2, 0x1.d9c1100000000p-3, 0x1.4ac2b60000000p-7, -0x1.e750ae0000000p-4, -0x1.6bc6000000000p-2, -0x1.eb9c660000000p-2, 0x1.511c700000000p-6, -0x1.a294c00000000p-2, -0x1.273c1e0000000p-3, 0x1.0e18f20000000p-3, -0x1.18a3d80000000p-2, -0x1.01604e0000000p-2, -0x1.6b38e00000000p-2, 0x1.3273220000000p-3, 0x1.10f14e0000000p-4, -0x1.233de00000000p-3, 0x1.c45dfe0000000p-4, -0x1.fc04340000000p-3, -0x1.7585220000000p-4, 0x1.1488ba0000000p-2, -0x1.90ea000000000p-3, 0x1.41e2ec0000000p-3, -0x1.59996c0000000p-3, -0x1.59d5860000000p-2, -0x1.df47e80000000p-3, 0x1.8ca5e60000000p-4, -0x1.82cae80000000p-2, 0x1.ee32920000000p-2, -0x1.d124bc0000000p-4, 0x1.3a58660000000p-5, -0x1.7d32920000000p-6, -0x1.51feb40000000p-3}
