/**
  ******************************************************************************
  * @file    weights/fc.cc
  * @author  Pierre-Emmanuel Novac <penovac@unice.fr>, LEAT, CNRS, Université Côte d'Azur, France
  * @version 1.0.0
  * @date    24 march 2020
  * @brief   Template generating plain C code for the implementation of Convolutional Neural Networks on MCU
  */

#include <stdint.h>

#define INPUT_SAMPLES 576
#define FC_UNITS 100


const float dense_2_bias[FC_UNITS] = {0x0.0p+0, 0x0.0p+0, 0x0.0p+0, 0x0.0p+0, 0x0.0p+0, 0x0.0p+0, 0x0.0p+0, 0x0.0p+0, 0x0.0p+0, 0x0.0p+0, 0x0.0p+0, 0x0.0p+0, 0x0.0p+0, 0x0.0p+0, 0x0.0p+0, 0x0.0p+0, 0x0.0p+0, 0x0.0p+0, 0x0.0p+0, 0x0.0p+0, 0x0.0p+0, 0x0.0p+0, 0x0.0p+0, 0x0.0p+0, 0x0.0p+0, 0x0.0p+0, 0x0.0p+0, 0x0.0p+0, 0x0.0p+0, 0x0.0p+0, 0x0.0p+0, 0x0.0p+0, 0x0.0p+0, 0x0.0p+0, 0x0.0p+0, 0x0.0p+0, 0x0.0p+0, 0x0.0p+0, 0x0.0p+0, 0x0.0p+0, 0x0.0p+0, 0x0.0p+0, 0x0.0p+0, 0x0.0p+0, 0x0.0p+0, 0x0.0p+0, 0x0.0p+0, 0x0.0p+0, 0x0.0p+0, 0x0.0p+0, 0x0.0p+0, 0x0.0p+0, 0x0.0p+0, 0x0.0p+0, 0x0.0p+0, 0x0.0p+0, 0x0.0p+0, 0x0.0p+0, 0x0.0p+0, 0x0.0p+0, 0x0.0p+0, 0x0.0p+0, 0x0.0p+0, 0x0.0p+0, 0x0.0p+0, 0x0.0p+0, 0x0.0p+0, 0x0.0p+0, 0x0.0p+0, 0x0.0p+0, 0x0.0p+0, 0x0.0p+0, 0x0.0p+0, 0x0.0p+0, 0x0.0p+0, 0x0.0p+0, 0x0.0p+0, 0x0.0p+0, 0x0.0p+0, 0x0.0p+0, 0x0.0p+0, 0x0.0p+0, 0x0.0p+0, 0x0.0p+0, 0x0.0p+0, 0x0.0p+0, 0x0.0p+0, 0x0.0p+0, 0x0.0p+0, 0x0.0p+0, 0x0.0p+0, 0x0.0p+0, 0x0.0p+0, 0x0.0p+0, 0x0.0p+0, 0x0.0p+0, 0x0.0p+0, 0x0.0p+0, 0x0.0p+0, 0x0.0p+0}
;

const float dense_2_kernel[FC_UNITS][INPUT_SAMPLES] = {{-0x1.0ceb9e0000000p-4, -0x1.4a85b00000000p-7, 0x1.4c23f80000000p-5, 0x1.1d2bc00000000p-5, -0x1.0606020000000p-5, 0x1.ce76400000000p-8, -0x1.9a81aa0000000p-5, -0x1.7bfce00000000p-6, -0x1.bfb19a0000000p-5, -0x1.1ca9700000000p-6, -0x1.91daf20000000p-5, -0x1.1c35600000000p-6, 0x1.37ab000000000p-9, -0x1.57c5e20000000p-4, -0x1.466d480000000p-6, 0x1.a3c2900000000p-6, 0x1.a0f2f80000000p-5, 0x1.1a48980000000p-4, 0x1.7689f80000000p-6, 0x1.7c2a740000000p-4, -0x1.1afa940000000p-4, -0x1.d94a5e0000000p-5, -0x1.1ee55c0000000p-4, 0x1.568dac0000000p-4, 0x1.7247780000000p-4, -0x1.7673200000000p-8, 0x1.e348400000000p-6, -0x1.679a080000000p-6, 0x1.91b4400000000p-9, -0x1.4dec480000000p-6, 0x1.0e72a40000000p-4, 0x1.02fff80000000p-5, 0x1.0150600000000p-5, 0x1.0b68300000000p-5, 0x1.f28b000000000p-6, -0x1.a30ac00000000p-6, 0x1.cd0f200000000p-6, -0x1.3813c20000000p-4, 0x1.6256200000000p-4, 0x1.417cb00000000p-6, -0x1.78d0640000000p-5, 0x1.5dfc380000000p-5, 0x1.c56c580000000p-6, 0x1.5b8a7c0000000p-4, -0x1.f8d5400000000p-5, 0x1.b9d3800000000p-10, 0x1.d0dda00000000p-6, -0x1.c4e2c80000000p-5, 0x1.4788f40000000p-4, -0x1.3438000000000p-4, 0x1.07517c0000000p-4, 0x1.54f6ac0000000p-4, -0x1.eba0b00000000p-7, 0x1.674e200000000p-7, -0x1.825f800000000p-7, 0x1.89c0480000000p-5, -0x1.6cbc320000000p-4, 0x1.3b0bf00000000p-5, 0x1.79ad800000000p-9, -0x1.3059240000000p-4, -0x1.12b7960000000p-5, -0x1.c697a40000000p-5, 0x1.b2a0880000000p-5, -0x1.322e8c0000000p-4, 0x1.84f3c00000000p-8, 0x1.0a98580000000p-4, 0x1.87cec00000000p-5, 0x1.9a54b80000000p-5, 0x1.b9aee00000000p-7, 0x1.62cc580000000p-5, -0x1.55c56c0000000p-4, 0x1.4a4c4c0000000p-4, -0x1.070dd80000000p-6, 0x1.7d74040000000p-4, 0x1.2908d40000000p-4, 0x1.611c500000000p-5, 0x1.1f80700000000p-4, -0x1.a323e00000000p-7, -0x1.78ff8c0000000p-5, -0x1.24cc4c0000000p-4, 0x1.488c000000000p-5, 0x1.f991000000000p-10, 0x1.c4dcf00000000p-6, 0x1.aa9d400000000p-9, -0x1.371b700000000p-7, -0x1.bbcbc40000000p-5, -0x1.729e120000000p-5, -0x1.6141fc0000000p-5, -0x1.0614a00000000p-7, -0x1.b4d9500000000p-7, -0x1.89d4280000000p-6, 0x1.4c55200000000p-5, -0x1.9431700000000p-7, -0x1.689ef60000000p-5, 0x1.7b79400000000p-9, -0x1.28be6e0000000p-4, 0x1.4dcb400000000p-5, 0x1.58cad00000000p-5, -0x1.fd90320000000p-5, 0x1.a92a800000000p-7, 0x1.ca8d600000000p-7, -0x1.5e70900000000p-7, 0x1.0961b40000000p-4, 0x1.76a1700000000p-7, -0x1.c4e7000000000p-7, 0x1.fbfff00000000p-5, 0x1.4919e80000000p-6, -0x1.1d4cb80000000p-6, 0x1.0927700000000p-4, -0x1.1fc3d80000000p-5, 0x1.559ec00000000p-5, 0x1.3fc1ec0000000p-4, 0x1.0fb3500000000p-7, -0x1.0b73fa0000000p-4, -0x1.bbd9600000000p-5, 0x1.91f2100000000p-6, -0x1.dd5f080000000p-6, -0x1.3a879c0000000p-4, 0x1.7be8c00000000p-5, 0x1.5d25500000000p-7, -0x1.53d1d20000000p-4, 0x1.6102c40000000p-4, -0x1.acfebc0000000p-5, 0x1.35ffc00000000p-8, 0x1.c581200000000p-8, -0x1.8cc2800000000p-5, 0x1.5c5f000000000p-6, -0x1.ef59f20000000p-5, 0x1.68b8b00000000p-5, -0x1.b759e00000000p-6, 0x1.1e3b580000000p-5, 0x1.0c67040000000p-4, -0x1.bf9f780000000p-6, -0x1.5254e00000000p-5, 0x1.418df00000000p-4, -0x1.694b2e0000000p-4, -0x1.331de20000000p-5, -0x1.07b0080000000p-5, 0x1.7bb9180000000p-5, 0x1.2ddb840000000p-4, -0x1.560f1e0000000p-4, -0x1.55d9c60000000p-4, -0x1.f347000000000p-10, -0x1.516ce80000000p-4, -0x1.de87b20000000p-5, 0x1.3adfd40000000p-4, 0x1.e53b600000000p-6, 0x1.3ca3080000000p-4, 0x1.47e7300000000p-4, 0x1.7e43c00000000p-7, -0x1.5ccbf00000000p-4, 0x1.51e2400000000p-7, 0x1.0cba580000000p-4, -0x1.49fe480000000p-6, 0x1.7fb2840000000p-4, -0x1.463c940000000p-4, 0x1.34be3c0000000p-4, -0x1.5a8d380000000p-6, -0x1.8b08f80000000p-6, 0x1.4657700000000p-4, -0x1.9f2c360000000p-5, -0x1.6767680000000p-5, -0x1.5af9900000000p-4, -0x1.e0b8400000000p-5, 0x1.60ce200000000p-7, 0x1.4cee4c0000000p-4, 0x1.f8d5180000000p-5, 0x1.2b70780000000p-5, 0x1.5885d80000000p-4, -0x1.7b74580000000p-6, 0x1.1bbde00000000p-8, -0x1.ec1a280000000p-5, 0x1.7521280000000p-5, -0x1.a5251e0000000p-5, -0x1.4b84d00000000p-4, 0x1.5982ac0000000p-4, 0x1.b95be80000000p-5, 0x1.b074900000000p-5, 0x1.f618000000000p-5, 0x1.15ac7c0000000p-4, 0x1.18e5f80000000p-5, 0x1.3ded880000000p-5, 0x1.0f54600000000p-6, -0x1.58acfc0000000p-5, 0x1.804e880000000p-4, -0x1.e0f6000000000p-11, -0x1.d3eb400000000p-8, 0x1.aa5bd00000000p-5, 0x1.c782f00000000p-5, 0x1.3c8efc0000000p-4, -0x1.8ee1580000000p-5, 0x1.49b4e00000000p-7, 0x1.0c49e80000000p-4, 0x1.7713380000000p-4, 0x1.9da6080000000p-5, -0x1.f54f760000000p-5, -0x1.ae82ee0000000p-5, 0x1.782d800000000p-4, 0x1.1500d00000000p-6, 0x1.f052d00000000p-5, -0x1.1fa5f80000000p-6, 0x1.09784c0000000p-4, -0x1.af75b00000000p-7, -0x1.daeaa00000000p-6, 0x1.6534680000000p-5, 0x1.7310980000000p-5, -0x1.30b80e0000000p-5, 0x1.ad62c80000000p-5, 0x1.3e8ad00000000p-6, -0x1.23085e0000000p-4, -0x1.5cdcea0000000p-4, 0x1.0ae82c0000000p-4, 0x1.1d39780000000p-5, -0x1.61aa6c0000000p-4, 0x1.20f9c00000000p-4, -0x1.8842f40000000p-5, 0x1.fb1bc00000000p-5, -0x1.dea84a0000000p-5, 0x1.c5bd580000000p-6, 0x1.1a99780000000p-4, 0x1.430cdc0000000p-4, -0x1.6e279e0000000p-5, -0x1.2795000000000p-9, 0x1.7504780000000p-4, -0x1.88a0000000000p-9, 0x1.6636300000000p-4, 0x1.6a2cb80000000p-4, 0x1.3606c80000000p-6, -0x1.c2ecde0000000p-5, 0x1.80ce980000000p-4, -0x1.7f35440000000p-4, -0x1.0423d60000000p-5, -0x1.bdaefa0000000p-5, 0x1.d40f480000000p-5, 0x1.17d0000000000p-15, -0x1.beab000000000p-11, -0x1.2d4ed60000000p-4, -0x1.951f600000000p-7, 0x1.0b13d80000000p-6, 0x1.63a4f00000000p-4, 0x1.0c4f9c0000000p-4, 0x1.50d6580000000p-6, -0x1.52a9680000000p-4, -0x1.af4b2e0000000p-5, 0x1.17ed300000000p-5, -0x1.6085240000000p-5, -0x1.3a8e9a0000000p-4, 0x1.c5ec300000000p-7, 0x1.5986d00000000p-5, -0x1.62aae80000000p-4, -0x1.afc3b80000000p-5, -0x1.8a0d560000000p-5, -0x1.2af8b60000000p-5, 0x1.f651f80000000p-6, -0x1.7bfcae0000000p-5, 0x1.86d9900000000p-5, 0x1.f839880000000p-5, -0x1.e12ff20000000p-5, -0x1.1c56000000000p-10, 0x1.434d700000000p-5, -0x1.2c6b620000000p-4, 0x1.f56b580000000p-6, 0x1.0ffc940000000p-4, -0x1.3dd4c00000000p-4, 0x1.81a66c0000000p-4, 0x1.a6b6080000000p-6, -0x1.14172e0000000p-5, -0x1.65847a0000000p-4, 0x1.2611800000000p-10, -0x1.abf9f60000000p-5, 0x1.f77ea00000000p-7, 0x1.e468c80000000p-5, -0x1.7da40c0000000p-4, -0x1.2b94ae0000000p-5, -0x1.cf26700000000p-7, -0x1.cd4a0c0000000p-5, 0x1.69cd3c0000000p-4, -0x1.79a8a80000000p-4, 0x1.3d6a980000000p-4, 0x1.7cabe80000000p-5, 0x1.1af2700000000p-6, 0x1.bf7ba00000000p-5, -0x1.4316e00000000p-6, -0x1.908cae0000000p-5, -0x1.6dba600000000p-4, -0x1.4234b00000000p-5, -0x1.2a07dc0000000p-4, -0x1.2514400000000p-6, -0x1.0f16480000000p-4, 0x1.38ea380000000p-5, 0x1.4029700000000p-5, -0x1.4ca3e00000000p-4, 0x1.39d0400000000p-4, 0x1.23e9200000000p-6, 0x1.243c1c0000000p-4, 0x1.3126200000000p-5, -0x1.38d2c60000000p-4, 0x1.77b2000000000p-6, -0x1.1aa5e80000000p-4, 0x1.3d920c0000000p-4, -0x1.53afc40000000p-4, 0x1.1c6a480000000p-5, -0x1.7effb40000000p-4, -0x1.104ec80000000p-4, 0x1.35aefc0000000p-4, 0x1.5aa9000000000p-6, -0x1.77e6000000000p-4, 0x1.f086580000000p-5, -0x1.1fc4a00000000p-7, 0x1.016f8c0000000p-4, 0x1.3abb980000000p-4, 0x1.4413600000000p-5, 0x1.e6a7980000000p-5, -0x1.5521840000000p-4, 0x1.2be8700000000p-7, -0x1.8e02280000000p-5, 0x1.35e3700000000p-6, 0x1.27c4600000000p-4, 0x1.1641e80000000p-6, -0x1.8f8c300000000p-6, 0x1.3789700000000p-4, -0x1.3f23dc0000000p-4, 0x1.ef24900000000p-7, 0x1.2f4e180000000p-6, -0x1.7e98200000000p-8, 0x1.3babc00000000p-4, -0x1.69f3280000000p-4, 0x1.8027000000000p-5, -0x1.9d6dd80000000p-6, 0x1.086b300000000p-6, 0x1.cb4f100000000p-6, -0x1.859b800000000p-5, 0x1.2457280000000p-5, -0x1.2f1ca20000000p-5, 0x1.3424680000000p-6, -0x1.0c4e300000000p-5, 0x1.5ed4900000000p-4, 0x1.a6cec00000000p-8, -0x1.7e44760000000p-5, 0x1.2cc8340000000p-4, -0x1.e404c20000000p-5, -0x1.4478600000000p-6, 0x1.1347c80000000p-4, -0x1.f788960000000p-5, 0x1.1552740000000p-4, -0x1.a372500000000p-7, 0x1.7096bc0000000p-4, 0x1.2b4c680000000p-6, -0x1.534bb60000000p-5, -0x1.e38ec20000000p-5, 0x1.9187280000000p-6, 0x1.4a92f00000000p-6, 0x1.60da000000000p-7, 0x1.5e25f80000000p-4, 0x1.2b0c980000000p-5, 0x1.b6db380000000p-5, -0x1.849f4c0000000p-5, 0x1.82a4980000000p-6, 0x1.7a43bc0000000p-4, -0x1.5f38560000000p-4, -0x1.2a7d820000000p-4, -0x1.5704500000000p-7, -0x1.8f25f80000000p-6, 0x1.3321a00000000p-8, -0x1.e163e00000000p-7, -0x1.7059240000000p-4, 0x1.490e9c0000000p-4, 0x1.01a5c00000000p-5, 0x1.6c6d800000000p-7, 0x1.24c5940000000p-4, 0x1.f80a700000000p-7, 0x1.3616c80000000p-4, -0x1.5340b80000000p-6, 0x1.8bb3980000000p-6, 0x1.b794e80000000p-5, -0x1.fa0dc00000000p-8, 0x1.fddf300000000p-5, 0x1.6146700000000p-4, 0x1.0ff4e80000000p-5, 0x1.31af580000000p-6, 0x1.1fbd400000000p-5, -0x1.ca99600000000p-8, 0x1.b7d4680000000p-5, -0x1.805f000000000p-4, 0x1.23cd400000000p-5, 0x1.dfb8080000000p-5, 0x1.0f70400000000p-8, 0x1.017da00000000p-4, 0x1.589e8c0000000p-4, 0x1.bcd2200000000p-7, 0x1.716bd40000000p-4, 0x1.5730640000000p-4, 0x1.3d30400000000p-4, 0x1.a68d700000000p-5, 0x1.0f23d00000000p-4, 0x1.deff000000000p-9, -0x1.c151600000000p-7, 0x1.2142d40000000p-4, 0x1.35f7100000000p-4, 0x1.3164c00000000p-4, -0x1.06f0980000000p-5, 0x1.2545d80000000p-5, -0x1.0c7b700000000p-4, -0x1.3daa2a0000000p-4, 0x1.7b26b80000000p-6, -0x1.0fc4800000000p-7, 0x1.1e51b00000000p-6, -0x1.f339240000000p-5, -0x1.df353c0000000p-5, 0x1.4191c80000000p-5, -0x1.2e81fc0000000p-4, -0x1.b92d400000000p-6, -0x1.2d29b80000000p-4, -0x1.91c3a00000000p-7, -0x1.7db2dc0000000p-4, 0x1.3bee900000000p-6, 0x1.cbd2000000000p-10, -0x1.e75d080000000p-6, -0x1.f78d800000000p-9, 0x1.6c8d180000000p-4, -0x1.4e68800000000p-9, -0x1.c1ca000000000p-12, -0x1.131d180000000p-5, -0x1.1a26a60000000p-4, -0x1.39b8400000000p-9, 0x1.47ca700000000p-5, -0x1.05a5a80000000p-4, -0x1.f305d80000000p-6, -0x1.68ac0e0000000p-4, 0x1.3d86780000000p-5, 0x1.741a900000000p-7, 0x1.7734080000000p-5, -0x1.ce83c00000000p-9, 0x1.156d500000000p-5, -0x1.246de00000000p-5, -0x1.afd3780000000p-6, -0x1.cc96aa0000000p-5, -0x1.737d960000000p-5, -0x1.51c2660000000p-4, 0x1.af09980000000p-5, 0x1.c0b8580000000p-5, 0x1.f7b0d00000000p-6, 0x1.e74bc00000000p-5, 0x1.8440300000000p-7, 0x1.25f9900000000p-6, -0x1.0451bc0000000p-4, -0x1.f50d100000000p-7, 0x1.92b5e80000000p-5, 0x1.245cc80000000p-5, 0x1.a3f4980000000p-6, -0x1.6b14c40000000p-5, 0x1.d7e2280000000p-6, 0x1.897ce80000000p-6, -0x1.31a3940000000p-5, -0x1.6c6ab00000000p-7, -0x1.481fe80000000p-4, -0x1.47f8440000000p-5, 0x1.7a6eb00000000p-5, -0x1.14d5280000000p-5, 0x1.3af7300000000p-5, 0x1.3a9ff00000000p-5, 0x1.3348480000000p-5, -0x1.0b79280000000p-4, 0x1.0970800000000p-10, -0x1.2288600000000p-4, -0x1.37a2780000000p-6, -0x1.e777840000000p-5, 0x1.be65a80000000p-5, -0x1.5fbf100000000p-5, -0x1.7d0d240000000p-5, -0x1.21cc680000000p-4, 0x1.84a2800000000p-5, -0x1.21394c0000000p-5, 0x1.755f0c0000000p-4, -0x1.4cc2e00000000p-8, 0x1.4a49a80000000p-5, -0x1.3689880000000p-4, -0x1.5b42600000000p-8, -0x1.b363520000000p-5, 0x1.e5d3b00000000p-7, 0x1.0d606c0000000p-4, -0x1.892b000000000p-8, -0x1.2166780000000p-4, -0x1.11cd2a0000000p-4, -0x1.a71be00000000p-5, -0x1.632f220000000p-5, -0x1.48fb9c0000000p-4, 0x1.221efc0000000p-4, -0x1.8905f00000000p-6, -0x1.5746f40000000p-4, -0x1.ea434a0000000p-5, -0x1.db22b20000000p-5, -0x1.55f0620000000p-5, -0x1.a103300000000p-6, 0x1.392fb80000000p-5, -0x1.e64c380000000p-6, 0x1.6f5adc0000000p-4, 0x1.1a95580000000p-4, -0x1.5cb3fc0000000p-5, 0x1.20ecd80000000p-5, -0x1.6dcc100000000p-4, -0x1.4d54c80000000p-5, 0x1.8260780000000p-6, 0x1.225ba00000000p-4, -0x1.e380e00000000p-8, -0x1.4b28fc0000000p-5, -0x1.42b7ec0000000p-4, -0x1.8aee2c0000000p-5, 0x1.79e7800000000p-10, -0x1.55f2c00000000p-9, 0x1.1e56b00000000p-5, -0x1.73325a0000000p-5, 0x1.846dd80000000p-5, -0x1.ba821e0000000p-5, -0x1.8b305c0000000p-5, 0x1.6736000000000p-8, -0x1.b6ccce0000000p-5, 0x1.6ba5300000000p-5, -0x1.38ee600000000p-7, -0x1.ea37460000000p-5, 0x1.ac88400000000p-5, 0x1.246a780000000p-5, -0x1.66b9de0000000p-5, 0x1.3cd2600000000p-8, 0x1.f9f3600000000p-6, -0x1.c6ff5e0000000p-5, -0x1.3fcdf00000000p-4, 0x1.0362c00000000p-6, -0x1.5d49a20000000p-5, -0x1.107ee00000000p-5, -0x1.bbf7260000000p-5, -0x1.4ff4760000000p-5, 0x1.8929400000000p-5, -0x1.20b23e0000000p-5, 0x1.3ef1d80000000p-5, 0x1.deded80000000p-5, -0x1.41233c0000000p-4, -0x1.6293a40000000p-4, -0x1.7cb6900000000p-7, 0x1.7098a00000000p-5, -0x1.b1ce440000000p-5, -0x1.47263a0000000p-5, 0x1.6c4f840000000p-4, -0x1.5858300000000p-4, -0x1.3cc5540000000p-5, -0x1.3876f60000000p-4, -0x1.c620f00000000p-7, 0x1.336ba40000000p-4, 0x1.126a400000000p-6, 0x1.02a0f40000000p-4, 0x1.8c04d00000000p-7, -0x1.0094340000000p-4, -0x1.3ae77c0000000p-4, -0x1.ba7c000000000p-12, -0x1.40ec3e0000000p-4, -0x1.397ca00000000p-6, -0x1.6556a00000000p-4, 0x1.0ad6a00000000p-4, 0x1.9623680000000p-5, 0x1.80c55c0000000p-4, 0x1.fe4a400000000p-8, -0x1.5209ca0000000p-5, -0x1.27dbc00000000p-8, -0x1.3aa4900000000p-6, -0x1.69a7be0000000p-5, 0x1.2e05b00000000p-5, 0x1.97e0280000000p-5, 0x1.8095000000000p-10, -0x1.11a5020000000p-4, -0x1.414bf00000000p-5, -0x1.48d0380000000p-4, 0x1.4001200000000p-5, 0x1.c319b80000000p-5, 0x1.7cdf600000000p-4, -0x1.5f9d800000000p-8, 0x1.90b3700000000p-6}
, {-0x1.2d839e0000000p-5, -0x1.edf6a00000000p-5, -0x1.49a8e80000000p-4, -0x1.8c1f760000000p-5, -0x1.76a2000000000p-12, -0x1.5dd87c0000000p-4, 0x1.872ea00000000p-8, 0x1.92ee200000000p-5, 0x1.42f7780000000p-5, -0x1.0531b40000000p-4, 0x1.64aba80000000p-4, -0x1.b18b980000000p-6, -0x1.0f32200000000p-4, 0x1.3bc7900000000p-4, 0x1.40aa700000000p-4, 0x1.0552240000000p-4, -0x1.a3ed9c0000000p-5, -0x1.0367ca0000000p-4, -0x1.04ff500000000p-6, 0x1.f0b1000000000p-8, 0x1.7286ec0000000p-4, 0x1.2aea500000000p-5, -0x1.cfe10e0000000p-5, 0x1.f8c1300000000p-7, -0x1.241cb60000000p-4, 0x1.1f40500000000p-7, 0x1.3121c80000000p-4, 0x1.07a3280000000p-5, 0x1.6f8b000000000p-4, -0x1.5da3840000000p-5, -0x1.4088a80000000p-4, 0x1.e7a4800000000p-5, -0x1.3d0ce00000000p-6, 0x1.6fb3b40000000p-4, -0x1.067cf20000000p-4, 0x1.e502c00000000p-7, 0x1.8d59800000000p-7, -0x1.51777a0000000p-4, 0x1.d31b000000000p-5, 0x1.6c70b40000000p-4, 0x1.f33f080000000p-5, 0x1.4802b00000000p-5, -0x1.dcce000000000p-12, 0x1.34ab800000000p-5, -0x1.0247c80000000p-5, -0x1.4dfb460000000p-4, 0x1.e7bf880000000p-5, -0x1.097e700000000p-4, -0x1.49a25c0000000p-4, -0x1.1b54dc0000000p-4, -0x1.145f700000000p-4, -0x1.815fe40000000p-4, 0x1.c9c6380000000p-5, -0x1.46818a0000000p-4, 0x1.cb97b00000000p-6, -0x1.45154c0000000p-4, -0x1.3c64b80000000p-4, -0x1.3bfa4e0000000p-5, 0x1.21b1280000000p-4, 0x1.3e08300000000p-4, -0x1.7d59880000000p-6, -0x1.cd13100000000p-7, -0x1.9ac6800000000p-7, 0x1.a7f4f00000000p-5, -0x1.b796e00000000p-8, 0x1.6371700000000p-7, -0x1.7fe0c00000000p-8, -0x1.1cdb440000000p-4, -0x1.733c9a0000000p-4, -0x1.64f5540000000p-5, -0x1.65994c0000000p-5, 0x1.a35f280000000p-5, -0x1.728ad40000000p-4, -0x1.4e0ea40000000p-4, 0x1.fced380000000p-5, 0x1.6abe480000000p-5, -0x1.13169e0000000p-4, -0x1.7bb7580000000p-6, 0x1.7c4e800000000p-10, -0x1.1b83b00000000p-7, -0x1.01581c0000000p-4, 0x1.5e992c0000000p-4, 0x1.f569680000000p-5, -0x1.505e960000000p-4, -0x1.d92f600000000p-6, 0x1.51df000000000p-10, 0x1.2c3ae00000000p-6, 0x1.589c200000000p-8, -0x1.e38f540000000p-5, 0x1.44ffe80000000p-4, 0x1.f3d8800000000p-6, 0x1.02498c0000000p-4, 0x1.7253080000000p-5, -0x1.7b4a400000000p-5, 0x1.3d99a80000000p-4, 0x1.0141480000000p-4, 0x1.66c4e40000000p-4, 0x1.fc27380000000p-5, -0x1.d387a20000000p-5, -0x1.5a34620000000p-4, 0x1.ab1fe80000000p-5, -0x1.eed3b20000000p-5, 0x1.0b626c0000000p-4, -0x1.b2803a0000000p-5, 0x1.15cef40000000p-4, 0x1.7c41740000000p-4, -0x1.1726aa0000000p-4, 0x1.59f6b80000000p-5, -0x1.faa1f00000000p-5, 0x1.11f1940000000p-4, 0x1.849d600000000p-6, -0x1.8e02000000000p-11, 0x1.9110400000000p-6, 0x1.cb55c00000000p-9, 0x1.8f93a00000000p-5, 0x1.b812980000000p-5, 0x1.2f77700000000p-7, 0x1.5b1e080000000p-4, -0x1.479cf40000000p-4, -0x1.596fe00000000p-8, -0x1.6637940000000p-5, 0x1.e0ff300000000p-6, -0x1.52df520000000p-5, 0x1.683f340000000p-4, -0x1.a3fe400000000p-9, -0x1.3793ba0000000p-4, -0x1.786bba0000000p-5, 0x1.bb3b400000000p-6, -0x1.98ff720000000p-5, -0x1.7c85f20000000p-4, -0x1.d479900000000p-5, 0x1.250be00000000p-6, 0x1.1438a80000000p-4, -0x1.44ec020000000p-5, 0x1.3ae1b00000000p-7, 0x1.f5ba880000000p-5, -0x1.70ee980000000p-6, 0x1.9585100000000p-5, 0x1.d89ae80000000p-6, 0x1.7203700000000p-7, -0x1.2778380000000p-4, 0x1.e292d80000000p-5, 0x1.0638440000000p-4, 0x1.390f900000000p-7, -0x1.25e6b80000000p-6, 0x1.ace9c80000000p-5, -0x1.8d63400000000p-7, -0x1.9408880000000p-6, -0x1.5d35fe0000000p-4, 0x1.3865640000000p-4, 0x1.ee0e480000000p-6, 0x1.5fed300000000p-7, -0x1.5382840000000p-4, 0x1.a494500000000p-5, -0x1.258a300000000p-7, -0x1.d55a100000000p-6, 0x1.7439040000000p-4, -0x1.05f2600000000p-8, 0x1.ffc9f00000000p-6, 0x1.f18c480000000p-5, 0x1.3885c00000000p-4, 0x1.0a78c40000000p-4, -0x1.22412e0000000p-5, 0x1.565e1c0000000p-4, -0x1.bd6f0e0000000p-5, 0x1.4292200000000p-7, -0x1.0ddef00000000p-7, -0x1.81c7a80000000p-6, -0x1.c862000000000p-11, 0x1.faa7a00000000p-6, 0x1.f430000000000p-12, 0x1.9f31500000000p-6, -0x1.8095920000000p-4, -0x1.1cc1400000000p-8, -0x1.dc90800000000p-9, 0x1.0c19d40000000p-4, 0x1.5e50f00000000p-7, 0x1.2508740000000p-4, 0x1.1a13c40000000p-4, -0x1.d99cf00000000p-6, 0x1.e869400000000p-6, -0x1.7bee0e0000000p-4, -0x1.7bfb5e0000000p-5, -0x1.4864d80000000p-6, -0x1.458a800000000p-4, 0x1.053a880000000p-4, 0x1.28648c0000000p-4, -0x1.8609980000000p-6, -0x1.2b67300000000p-6, -0x1.ecdb100000000p-6, -0x1.78642c0000000p-4, 0x1.0c618c0000000p-4, 0x1.4f5d880000000p-5, 0x1.3db9bc0000000p-4, 0x1.1b7f000000000p-7, 0x1.098eac0000000p-4, -0x1.7068c00000000p-5, 0x1.26a7c80000000p-4, 0x1.6203740000000p-4, 0x1.0ab4080000000p-6, -0x1.f447020000000p-5, -0x1.c43c120000000p-5, 0x1.19fc3c0000000p-4, -0x1.0bfb6e0000000p-5, 0x1.1f4eac0000000p-4, 0x1.e5aff00000000p-7, 0x1.00a9a00000000p-4, -0x1.5f59380000000p-5, 0x1.6e73340000000p-4, 0x1.be66700000000p-5, 0x1.739a980000000p-4, -0x1.2275a80000000p-5, -0x1.78b6380000000p-6, 0x1.7509f80000000p-4, -0x1.d36f0a0000000p-5, 0x1.748ef00000000p-4, 0x1.79f5140000000p-4, -0x1.58e1e20000000p-4, -0x1.017b400000000p-4, 0x1.9771e00000000p-5, 0x1.9fc9280000000p-5, 0x1.11dc200000000p-4, 0x1.3c05000000000p-5, -0x1.f816e60000000p-5, 0x1.28beb40000000p-4, -0x1.f180000000000p-9, 0x1.e98c100000000p-5, -0x1.3fcc780000000p-4, -0x1.1672700000000p-7, 0x1.cd26e00000000p-8, -0x1.31756c0000000p-4, -0x1.38ebc40000000p-4, -0x1.433a800000000p-6, -0x1.0f26180000000p-4, -0x1.c740700000000p-7, 0x1.81b8600000000p-7, 0x1.48c9700000000p-4, -0x1.38e6000000000p-10, -0x1.6637ee0000000p-4, 0x1.cd85400000000p-5, -0x1.0b84e80000000p-6, -0x1.1258080000000p-4, 0x1.2b84440000000p-4, 0x1.0d9b300000000p-6, 0x1.3015800000000p-4, 0x1.7da3080000000p-5, -0x1.20aeda0000000p-4, -0x1.34cb800000000p-8, 0x1.d66b500000000p-7, 0x1.7af3d00000000p-5, 0x1.3d917c0000000p-4, -0x1.0546680000000p-4, 0x1.0e1df00000000p-5, 0x1.cfff280000000p-5, 0x1.e843980000000p-6, -0x1.1a71e00000000p-5, -0x1.0bbcde0000000p-4, 0x1.9397d80000000p-5, 0x1.8290100000000p-6, 0x1.6dada80000000p-5, -0x1.fe5bc80000000p-5, -0x1.9a08c00000000p-7, 0x1.7495b80000000p-6, -0x1.a2d3ba0000000p-5, 0x1.6666cc0000000p-4, 0x1.031eb00000000p-5, 0x1.b16c100000000p-7, 0x1.1cdf480000000p-5, 0x1.c61b380000000p-5, 0x1.7926980000000p-5, 0x1.58f0740000000p-4, -0x1.d6b9d80000000p-6, 0x1.5cf1380000000p-4, -0x1.978f500000000p-5, -0x1.4d01fe0000000p-4, 0x1.030f780000000p-6, 0x1.077a200000000p-5, 0x1.3080000000000p-4, 0x1.9300000000000p-5, -0x1.6612680000000p-4, 0x1.1e64b80000000p-6, -0x1.578ca00000000p-4, -0x1.71f0b80000000p-6, -0x1.1b43700000000p-7, -0x1.2fe95c0000000p-4, 0x1.0396a80000000p-4, -0x1.30a4760000000p-5, 0x1.3247800000000p-6, 0x1.3e2b300000000p-7, 0x1.09e5980000000p-5, 0x1.80fd500000000p-4, -0x1.af2d900000000p-6, 0x1.cfac000000000p-8, 0x1.b638180000000p-5, 0x1.5940c00000000p-8, -0x1.1476560000000p-5, -0x1.c8a0880000000p-5, 0x1.c237300000000p-5, -0x1.240d0c0000000p-4, -0x1.e23eda0000000p-5, -0x1.6696d20000000p-5, -0x1.3b2dd00000000p-6, -0x1.404e3a0000000p-4, -0x1.7518700000000p-4, -0x1.542cc80000000p-5, -0x1.ba87980000000p-6, 0x1.57dd740000000p-4, -0x1.4cb3540000000p-4, -0x1.2301600000000p-6, 0x1.43d4900000000p-7, 0x1.965d400000000p-7, 0x1.34bc4c0000000p-4, 0x1.f592100000000p-5, -0x1.ad71ac0000000p-5, 0x1.1a25180000000p-4, -0x1.c01ca00000000p-5, -0x1.088fd00000000p-6, -0x1.e96a8e0000000p-5, -0x1.cf392c0000000p-5, 0x1.64f9300000000p-6, 0x1.7336d80000000p-5, 0x1.4069380000000p-4, 0x1.01b5480000000p-5, 0x1.593f340000000p-4, 0x1.4c4a400000000p-7, 0x1.2cb3100000000p-4, -0x1.ae3da40000000p-5, 0x1.502c9c0000000p-4, 0x1.7ea5f80000000p-4, -0x1.08de7e0000000p-5, 0x1.fce3000000000p-6, 0x1.cd82180000000p-5, 0x1.d1aba00000000p-5, 0x1.bf85c00000000p-6, 0x1.a7e5500000000p-5, -0x1.f416ae0000000p-5, -0x1.dcf65c0000000p-5, -0x1.747fdc0000000p-5, -0x1.2a430c0000000p-4, -0x1.0ae3d00000000p-7, 0x1.127b640000000p-4, 0x1.62fce00000000p-8, 0x1.67e3f40000000p-4, -0x1.a2f2c00000000p-8, 0x1.0093a00000000p-8, 0x1.67e3e80000000p-4, -0x1.2dac500000000p-5, 0x1.0f61c00000000p-7, -0x1.6a3bc00000000p-9, 0x1.5d4c080000000p-5, -0x1.52b3cc0000000p-5, -0x1.64a1800000000p-4, -0x1.201f500000000p-6, -0x1.452d580000000p-4, -0x1.0007f00000000p-4, -0x1.940b980000000p-5, -0x1.0817800000000p-4, -0x1.08ca2c0000000p-4, -0x1.6036240000000p-5, -0x1.14bb040000000p-5, -0x1.9582fa0000000p-5, -0x1.af40300000000p-6, 0x1.31ed600000000p-4, 0x1.4948d80000000p-6, -0x1.75e35e0000000p-4, -0x1.1ca0d00000000p-4, 0x1.75064c0000000p-4, 0x1.d434380000000p-6, 0x1.1431b00000000p-5, 0x1.4605d00000000p-4, 0x1.7f39180000000p-6, -0x1.8160800000000p-6, 0x1.ed3fd00000000p-5, -0x1.0959100000000p-7, -0x1.0136000000000p-5, 0x1.709a540000000p-4, 0x1.a4f4900000000p-5, -0x1.32e37a0000000p-4, -0x1.0d5fc80000000p-4, 0x1.bd23800000000p-9, -0x1.3f1e400000000p-5, -0x1.09bd240000000p-4, 0x1.d0a3d00000000p-7, -0x1.5242820000000p-4, -0x1.265e5e0000000p-4, 0x1.f557900000000p-6, 0x1.5ef0f00000000p-5, 0x1.ff92600000000p-6, -0x1.2b34460000000p-4, 0x1.6e3e780000000p-6, 0x1.ba7ae00000000p-5, 0x1.59fbb00000000p-4, -0x1.924c240000000p-5, -0x1.30eb000000000p-7, 0x1.2212300000000p-7, -0x1.c3b3840000000p-5, 0x1.e357500000000p-6, 0x1.50cb080000000p-6, -0x1.57afa60000000p-4, 0x1.86cc000000000p-8, -0x1.5fe5080000000p-4, 0x1.168cd80000000p-5, 0x1.3d60900000000p-4, -0x1.3152340000000p-4, 0x1.f496a80000000p-5, -0x1.1347060000000p-5, -0x1.9b87a00000000p-6, 0x1.51f6700000000p-7, 0x1.0654e40000000p-4, -0x1.1e00920000000p-4, 0x1.5a0c580000000p-6, -0x1.0f53740000000p-4, 0x1.a256780000000p-5, -0x1.bcb9c00000000p-6, -0x1.7ff2960000000p-5, -0x1.9447f00000000p-5, -0x1.5308040000000p-4, 0x1.e8b1a00000000p-5, 0x1.11e8f00000000p-5, 0x1.f8c0d00000000p-5, -0x1.ab37780000000p-6, 0x1.5a07580000000p-6, -0x1.8594500000000p-7, 0x1.9de2900000000p-6, -0x1.bbb6180000000p-6, -0x1.1863980000000p-4, 0x1.5814880000000p-4, 0x1.c6c2c80000000p-6, 0x1.4cddd80000000p-5, 0x1.09aff00000000p-6, 0x1.5963c00000000p-4, -0x1.a6b9a00000000p-6, 0x1.7c46e40000000p-4, 0x1.307ff40000000p-4, 0x1.29ba6c0000000p-4, 0x1.d0ebf80000000p-5, 0x1.46faf00000000p-5, 0x1.4643c80000000p-5, -0x1.4652fa0000000p-4, 0x1.d4e3180000000p-6, -0x1.6e30840000000p-4, -0x1.76379e0000000p-4, -0x1.a14c180000000p-5, 0x1.dfd2400000000p-5, 0x1.30b0d00000000p-7, 0x1.7b6f440000000p-4, -0x1.2328fc0000000p-5, 0x1.9aea480000000p-5, 0x1.2d7b500000000p-5, 0x1.6b1c000000000p-4, 0x1.90e7300000000p-7, 0x1.4347300000000p-4, -0x1.db9bc00000000p-6, -0x1.0d75200000000p-6, -0x1.2771e20000000p-5, -0x1.5edefa0000000p-5, 0x1.04782c0000000p-4, -0x1.46cef80000000p-6, 0x1.3d66e00000000p-4, 0x1.d76f500000000p-5, -0x1.e30fc00000000p-8, -0x1.e544780000000p-5, 0x1.1243400000000p-7, 0x1.098a440000000p-4, -0x1.146ecc0000000p-4, -0x1.7e24000000000p-6, 0x1.185a240000000p-4, -0x1.c0eeb00000000p-7, 0x1.1df7080000000p-4, -0x1.045a380000000p-4, -0x1.39a19c0000000p-4, 0x1.fb26a00000000p-5, -0x1.2828a80000000p-5, -0x1.05b5380000000p-5, -0x1.19f7d00000000p-6, -0x1.2aa90e0000000p-5, 0x1.b763b00000000p-5, -0x1.0b81840000000p-5, -0x1.37363e0000000p-4, 0x1.7747a00000000p-4, 0x1.3e9e080000000p-5, -0x1.87e1720000000p-5, -0x1.4ea0200000000p-6, 0x1.1217140000000p-4, 0x1.7430480000000p-4, -0x1.cb4c2c0000000p-5, 0x1.d02c700000000p-5, 0x1.7b56b00000000p-5, 0x1.61bdf80000000p-5, -0x1.f7c1500000000p-6, 0x1.0c5b8c0000000p-4, -0x1.5200700000000p-4, 0x1.7bd0b00000000p-7, -0x1.8e7b800000000p-8, 0x1.ffe5680000000p-5, -0x1.127d680000000p-4, -0x1.7604880000000p-5, 0x1.e5c7a80000000p-6, 0x1.851f000000000p-9, 0x1.e388800000000p-6, -0x1.7142140000000p-4, -0x1.67e8880000000p-6, 0x1.a812e80000000p-6, 0x1.14157c0000000p-4, -0x1.b869c80000000p-6, -0x1.fe46880000000p-6, -0x1.3508360000000p-4, -0x1.0fd70a0000000p-4, 0x1.fabfe80000000p-5, -0x1.001dec0000000p-4, -0x1.efb9400000000p-6, -0x1.5f02680000000p-6, -0x1.a88d900000000p-7, 0x1.3f5cd00000000p-4, -0x1.15cdbc0000000p-4, 0x1.6318940000000p-4, -0x1.173f2e0000000p-4, -0x1.83e4400000000p-6, 0x1.4ebb380000000p-5, -0x1.a1498c0000000p-5, -0x1.65d1ec0000000p-4, 0x1.151d600000000p-4, -0x1.06286c0000000p-4, 0x1.073db80000000p-6, -0x1.6bb7800000000p-8, 0x1.3e25e80000000p-6, 0x1.eed4b80000000p-5, 0x1.bfc2c00000000p-8, -0x1.4cafae0000000p-5, 0x1.6518000000000p-11, -0x1.6608660000000p-4, -0x1.3dc5460000000p-4, -0x1.bc19400000000p-5, -0x1.47b97a0000000p-5, -0x1.26dfe80000000p-5, -0x1.9d2cf00000000p-6, -0x1.28ebac0000000p-5, 0x1.5425480000000p-6, -0x1.cddf200000000p-8, 0x1.4f1d3c0000000p-4, 0x1.8e56580000000p-6, 0x1.3175a80000000p-5, -0x1.2e37900000000p-4, 0x1.5766a00000000p-5, 0x1.d187200000000p-5, 0x1.1ed2900000000p-4, -0x1.3798820000000p-4, 0x1.4ebb1c0000000p-4, -0x1.1db2000000000p-7, 0x1.34d3bc0000000p-4, 0x1.fae4900000000p-6, 0x1.52ad200000000p-4, 0x1.0556100000000p-5, -0x1.5357a00000000p-6, -0x1.a5b7180000000p-5, -0x1.923a200000000p-8, -0x1.d3da700000000p-6, 0x1.e7a6d00000000p-7, -0x1.55ffe00000000p-4, -0x1.8aeb340000000p-5, -0x1.428e600000000p-6, -0x1.0ecf000000000p-8, -0x1.10538a0000000p-4, 0x1.4b02b00000000p-6, -0x1.191ba80000000p-6, 0x1.b9ec080000000p-6, -0x1.2784800000000p-10, -0x1.304df80000000p-6, 0x1.2e668c0000000p-4, -0x1.2203120000000p-4, 0x1.18bc380000000p-6, -0x1.31b44e0000000p-5, 0x1.a272a80000000p-5, -0x1.1b331a0000000p-5, -0x1.5a83aa0000000p-5, 0x1.c4d2180000000p-5}
, {0x1.b4ebc00000000p-5, 0x1.0b60100000000p-5, -0x1.285c480000000p-5, -0x1.2a995e0000000p-4, 0x1.9ca3f00000000p-7, 0x1.3365280000000p-6, -0x1.0cc74c0000000p-4, -0x1.cdf8c20000000p-5, -0x1.0f83180000000p-6, -0x1.ad966a0000000p-5, -0x1.ecefe00000000p-7, 0x1.5bcc8c0000000p-4, 0x1.2529900000000p-4, 0x1.f18a680000000p-5, 0x1.eafd800000000p-6, 0x1.0c1eec0000000p-4, -0x1.67ea3e0000000p-4, 0x1.84f2a00000000p-8, 0x1.465c400000000p-6, 0x1.1e3f1c0000000p-4, 0x1.32ae2c0000000p-4, -0x1.1897ce0000000p-4, 0x1.d259100000000p-5, -0x1.5afe280000000p-4, 0x1.2420400000000p-4, -0x1.78c6e00000000p-5, -0x1.6e21ba0000000p-5, -0x1.4eaea00000000p-8, 0x1.0ccdf80000000p-4, 0x1.64e1400000000p-6, -0x1.824cec0000000p-5, -0x1.5c26d40000000p-4, 0x1.1b54440000000p-4, -0x1.4667c60000000p-5, 0x1.6809900000000p-4, -0x1.e75ca00000000p-8, -0x1.5c18220000000p-4, 0x1.f31c080000000p-5, 0x1.2dddc80000000p-5, -0x1.3322c00000000p-7, 0x1.7d1b900000000p-4, 0x1.d28fc00000000p-7, 0x1.14a3400000000p-4, -0x1.81e1d80000000p-6, -0x1.e6d8ea0000000p-5, 0x1.6454940000000p-4, 0x1.4bab400000000p-7, 0x1.633e880000000p-5, 0x1.70d7b00000000p-7, 0x1.6fc9f80000000p-5, -0x1.5bbc800000000p-8, -0x1.3050a00000000p-6, 0x1.610ccc0000000p-4, -0x1.3127700000000p-4, -0x1.2adec80000000p-4, -0x1.c527760000000p-5, 0x1.2477dc0000000p-4, 0x1.14e2880000000p-5, -0x1.4318040000000p-5, -0x1.691a580000000p-6, 0x1.8514880000000p-6, 0x1.7401ec0000000p-4, -0x1.ccae400000000p-7, 0x1.3258ec0000000p-4, -0x1.aca5d80000000p-6, -0x1.2c6d200000000p-5, 0x1.da39580000000p-5, -0x1.5c56fe0000000p-4, -0x1.e141e40000000p-5, 0x1.0de3880000000p-4, -0x1.75e4580000000p-6, -0x1.3857d40000000p-4, -0x1.d03d900000000p-6, -0x1.9a18180000000p-5, -0x1.6f1ddc0000000p-4, -0x1.a339a00000000p-8, -0x1.a05f0e0000000p-5, 0x1.665fa80000000p-5, 0x1.feeea00000000p-7, -0x1.1bea380000000p-6, -0x1.2b33580000000p-6, -0x1.0782f00000000p-6, -0x1.9094000000000p-6, 0x1.668d480000000p-4, -0x1.1d28180000000p-4, -0x1.7812f00000000p-4, 0x1.8f17800000000p-8, 0x1.43da340000000p-4, -0x1.e633100000000p-7, -0x1.ea75b00000000p-5, 0x1.bc22200000000p-8, -0x1.4afa200000000p-7, 0x1.4bc9000000000p-4, 0x1.46dbe00000000p-6, -0x1.a7f2280000000p-5, 0x1.030b800000000p-9, -0x1.708d1e0000000p-4, -0x1.a27c800000000p-10, 0x1.adac200000000p-5, -0x1.76dfd00000000p-6, 0x1.6a2e480000000p-5, -0x1.3c946e0000000p-5, -0x1.1cbb200000000p-8, 0x1.52acf80000000p-5, -0x1.8385100000000p-7, -0x1.1515e00000000p-8, 0x1.a695780000000p-5, 0x1.0872c80000000p-4, 0x1.5452f00000000p-4, 0x1.4ecd380000000p-4, -0x1.6ec9a80000000p-5, -0x1.1cf8660000000p-4, -0x1.22b4420000000p-4, -0x1.d917400000000p-7, -0x1.3efbb40000000p-4, -0x1.3223800000000p-9, 0x1.6d75800000000p-7, -0x1.69cd400000000p-8, 0x1.4259280000000p-6, -0x1.09ecb20000000p-5, 0x1.b29a200000000p-5, 0x1.1c02d80000000p-4, -0x1.3461080000000p-5, 0x1.1f62b80000000p-6, 0x1.175a140000000p-4, -0x1.0c4a9c0000000p-5, 0x1.2ce0580000000p-5, 0x1.74c6780000000p-4, -0x1.583b200000000p-5, 0x1.562b700000000p-7, -0x1.25839c0000000p-5, 0x1.6972640000000p-4, -0x1.2669800000000p-7, 0x1.5c34180000000p-4, -0x1.bc64b00000000p-7, 0x1.4fb7e80000000p-4, -0x1.7caf1e0000000p-4, -0x1.71140e0000000p-4, 0x1.a6acd80000000p-5, 0x1.2848f00000000p-6, -0x1.538cb00000000p-7, -0x1.181faa0000000p-4, 0x1.6511500000000p-6, -0x1.5c90160000000p-4, -0x1.51b9c20000000p-4, -0x1.4065580000000p-6, -0x1.2593be0000000p-4, -0x1.6fd24c0000000p-4, -0x1.234a620000000p-5, -0x1.d441800000000p-6, 0x1.eebab00000000p-5, 0x1.6554e80000000p-4, -0x1.34a3f20000000p-4, 0x1.d36e480000000p-6, -0x1.2029e00000000p-6, -0x1.e50f900000000p-6, -0x1.870e0a0000000p-5, -0x1.7c5d280000000p-5, -0x1.eda8580000000p-6, -0x1.edf86c0000000p-5, -0x1.0830500000000p-7, -0x1.27e0400000000p-7, -0x1.3e110c0000000p-5, 0x1.2a40d00000000p-5, -0x1.2bba300000000p-6, 0x1.c3ddb80000000p-5, -0x1.1dd5c00000000p-8, -0x1.55b0000000000p-8, -0x1.ccd7280000000p-5, 0x1.c8b8180000000p-5, -0x1.1fef520000000p-4, -0x1.e8d5680000000p-6, 0x1.af53500000000p-5, -0x1.dd1c400000000p-8, 0x1.ebfb400000000p-5, -0x1.5789a80000000p-4, 0x1.5fe9f80000000p-4, -0x1.70b2620000000p-5, 0x1.80d5000000000p-8, 0x1.be2e400000000p-9, 0x1.2096a00000000p-5, 0x1.af74500000000p-5, -0x1.9cbcd00000000p-5, 0x1.0ff7c00000000p-4, 0x1.071fe80000000p-4, -0x1.f662460000000p-5, 0x1.4d54980000000p-6, -0x1.0cd73e0000000p-4, -0x1.cb74060000000p-5, -0x1.ad88240000000p-5, 0x1.61fd200000000p-7, -0x1.c6e2040000000p-5, -0x1.c57f800000000p-5, -0x1.111f220000000p-4, -0x1.a8d2000000000p-11, -0x1.7b28d40000000p-4, 0x1.eafe280000000p-5, 0x1.237b600000000p-4, -0x1.5a671e0000000p-5, -0x1.3255ec0000000p-4, 0x1.be6ef00000000p-5, -0x1.00af600000000p-5, -0x1.1bd1ce0000000p-4, 0x1.ada2280000000p-5, 0x1.dda7400000000p-5, 0x1.b060a00000000p-5, 0x1.030d480000000p-4, -0x1.ec7a200000000p-8, -0x1.6f2f440000000p-5, 0x1.8d4fc80000000p-6, -0x1.66d1b40000000p-5, 0x1.0bc1140000000p-4, -0x1.51e6200000000p-6, 0x1.31c5a00000000p-5, 0x1.af64900000000p-7, -0x1.1b15b00000000p-7, -0x1.75f0080000000p-6, 0x1.e139200000000p-8, 0x1.171b100000000p-5, -0x1.dd3c100000000p-7, -0x1.4bf38a0000000p-5, -0x1.2361ba0000000p-4, -0x1.51ca4a0000000p-5, 0x1.20cff00000000p-7, -0x1.4f17040000000p-5, 0x1.19f2600000000p-6, 0x1.2c3d180000000p-5, -0x1.2fa6900000000p-7, 0x1.7815400000000p-5, -0x1.15e5000000000p-6, 0x1.0dbd000000000p-9, -0x1.0c0a980000000p-4, 0x1.24b6340000000p-4, 0x1.20f1e00000000p-6, 0x1.3f0c000000000p-12, 0x1.62d37c0000000p-4, 0x1.803e6c0000000p-4, -0x1.79d6e40000000p-4, 0x1.07c5f40000000p-4, -0x1.4e853a0000000p-5, 0x1.2ee4280000000p-4, -0x1.05ade40000000p-4, 0x1.851df00000000p-7, -0x1.95eec00000000p-6, 0x1.5b9f800000000p-8, 0x1.7e91780000000p-6, -0x1.bcb4e40000000p-5, -0x1.80be260000000p-4, -0x1.aeb3c80000000p-5, -0x1.3716300000000p-5, -0x1.0cebc00000000p-6, -0x1.3c77fc0000000p-4, 0x1.2a42780000000p-5, 0x1.6372f80000000p-5, -0x1.5c1a760000000p-5, 0x1.2496180000000p-4, -0x1.20ef1a0000000p-5, 0x1.177db80000000p-4, -0x1.f61f7a0000000p-5, -0x1.00e3b00000000p-4, 0x1.2fab380000000p-5, 0x1.39cf600000000p-4, 0x1.2255980000000p-4, 0x1.69309c0000000p-4, 0x1.b722c80000000p-5, -0x1.4d20480000000p-4, 0x1.4658000000000p-12, -0x1.dba7e80000000p-5, -0x1.1196860000000p-4, -0x1.6e08560000000p-4, 0x1.b2b2a00000000p-5, -0x1.0add000000000p-11, 0x1.d95d200000000p-8, 0x1.d7f8e80000000p-5, 0x1.2f85b80000000p-4, -0x1.31ea560000000p-5, -0x1.31db700000000p-7, -0x1.b05e0a0000000p-5, 0x1.71d71c0000000p-4, -0x1.93fd9a0000000p-5, 0x1.ec1c000000000p-6, 0x1.3990400000000p-4, 0x1.79f1980000000p-4, -0x1.6507820000000p-4, -0x1.599c600000000p-5, 0x1.c50cf00000000p-5, -0x1.0a59460000000p-5, -0x1.a8a51c0000000p-5, -0x1.b469f80000000p-6, -0x1.9bc7800000000p-6, -0x1.fa14340000000p-5, -0x1.456e540000000p-4, 0x1.e7b5380000000p-5, -0x1.1e78740000000p-4, -0x1.fcd1000000000p-9, 0x1.2248400000000p-7, -0x1.1edfd40000000p-4, -0x1.91d3300000000p-6, 0x1.613ed40000000p-4, -0x1.e811760000000p-5, -0x1.2e62600000000p-5, -0x1.e516900000000p-7, -0x1.271bae0000000p-5, 0x1.05c28c0000000p-4, -0x1.1f2a580000000p-4, 0x1.3031480000000p-5, 0x1.ebd1600000000p-6, -0x1.26b4a80000000p-6, 0x1.27fbc00000000p-7, 0x1.6093f00000000p-4, -0x1.32f48c0000000p-4, 0x1.073ee00000000p-5, -0x1.01b2cc0000000p-5, -0x1.4742e00000000p-6, -0x1.4ff6e40000000p-4, -0x1.4ca14a0000000p-4, 0x1.8604380000000p-5, 0x1.2026480000000p-6, -0x1.a952700000000p-7, 0x1.78c3040000000p-4, -0x1.c3536c0000000p-5, -0x1.63b6a20000000p-4, -0x1.7e99a20000000p-4, -0x1.d048d00000000p-7, 0x1.582e280000000p-4, 0x1.1d53800000000p-4, -0x1.00b9280000000p-4, -0x1.f466900000000p-6, 0x1.46ccd00000000p-7, -0x1.2ba2c00000000p-8, 0x1.7489280000000p-5, 0x1.1b9a780000000p-5, -0x1.4047340000000p-4, 0x1.14e4a00000000p-4, 0x1.4cf1c80000000p-6, 0x1.9356480000000p-5, -0x1.0cba3a0000000p-4, 0x1.bde3300000000p-7, 0x1.6012e00000000p-5, 0x1.23f0d80000000p-5, -0x1.55d6d80000000p-6, -0x1.2bbf4e0000000p-5, 0x1.490e900000000p-5, 0x1.7cc7c80000000p-4, -0x1.413a760000000p-4, 0x1.1a0d080000000p-4, -0x1.f9ac880000000p-6, 0x1.8974880000000p-6, 0x1.08e8200000000p-4, 0x1.1c23a00000000p-5, -0x1.4fd1180000000p-6, -0x1.6be3460000000p-5, -0x1.45946a0000000p-5, -0x1.781a060000000p-4, 0x1.35dce80000000p-4, 0x1.7ee5740000000p-4, -0x1.3140000000000p-7, -0x1.d581a40000000p-5, 0x1.7cfd100000000p-4, -0x1.8121b60000000p-5, 0x1.3761e80000000p-4, 0x1.3029480000000p-5, -0x1.e7a1420000000p-5, 0x1.fcb2b00000000p-5, 0x1.51d4b00000000p-5, 0x1.3b73e40000000p-4, 0x1.5a57700000000p-7, -0x1.2f961e0000000p-4, 0x1.670a940000000p-4, 0x1.5c82d80000000p-4, -0x1.0449780000000p-5, 0x1.7bee600000000p-5, 0x1.820b200000000p-8, 0x1.11abf00000000p-5, 0x1.e031700000000p-6, 0x1.a0a3780000000p-5, -0x1.4936400000000p-9, -0x1.362d640000000p-5, 0x1.6e4b200000000p-5, 0x1.db7ef80000000p-5, -0x1.4885d00000000p-6, -0x1.19f6880000000p-4, -0x1.d553200000000p-8, -0x1.290cfa0000000p-5, 0x1.dd6f300000000p-5, 0x1.a1d1c80000000p-6, -0x1.74b2400000000p-9, -0x1.dd66800000000p-8, -0x1.e65d800000000p-9, 0x1.c1e1900000000p-7, -0x1.6ba8760000000p-4, -0x1.9c7c780000000p-6, 0x1.90d2580000000p-5, 0x1.1691200000000p-5, -0x1.499e0c0000000p-4, 0x1.62fd640000000p-4, -0x1.e02e200000000p-7, -0x1.a03c560000000p-5, -0x1.3ec6f20000000p-4, 0x1.86e5e80000000p-5, -0x1.3f8c300000000p-6, -0x1.5826360000000p-4, -0x1.26541e0000000p-4, -0x1.2e86000000000p-10, 0x1.6510980000000p-4, -0x1.3564d00000000p-7, -0x1.9374880000000p-6, 0x1.af43900000000p-7, 0x1.9296900000000p-5, -0x1.ec00b80000000p-5, 0x1.3e5d500000000p-5, 0x1.f7eb980000000p-6, -0x1.652cd80000000p-4, -0x1.8af3c00000000p-8, 0x1.c7df380000000p-5, 0x1.a5b3500000000p-6, 0x1.e4efb80000000p-5, -0x1.dcc4280000000p-6, 0x1.5d83600000000p-8, -0x1.0e92e00000000p-6, 0x1.0831900000000p-5, -0x1.1e1a9e0000000p-4, 0x1.26c03c0000000p-4, -0x1.2643300000000p-4, 0x1.9924900000000p-6, 0x1.89c9080000000p-6, 0x1.a8dcb00000000p-7, -0x1.77a2800000000p-8, -0x1.95d8580000000p-6, 0x1.7885400000000p-8, -0x1.ae61700000000p-5, 0x1.fd24500000000p-5, 0x1.0ddb400000000p-5, -0x1.ddb7200000000p-6, 0x1.2428f40000000p-4, -0x1.4e4f200000000p-4, 0x1.8e77380000000p-5, -0x1.371e020000000p-4, -0x1.435ad00000000p-7, -0x1.91abb00000000p-6, 0x1.2526740000000p-4, 0x1.adbcd80000000p-5, 0x1.d5b5480000000p-6, 0x1.ff43200000000p-5, -0x1.3b2ace0000000p-4, -0x1.ef45a80000000p-6, 0x1.f04db80000000p-6, 0x1.87bf900000000p-5, -0x1.13b3500000000p-6, -0x1.686c500000000p-7, -0x1.0e9e280000000p-6, 0x1.446e800000000p-7, 0x1.27b40c0000000p-4, -0x1.e53bb00000000p-7, -0x1.75a3e40000000p-4, 0x1.c409600000000p-5, 0x1.8d88700000000p-5, -0x1.c3fd180000000p-6, 0x1.f402480000000p-5, 0x1.6874200000000p-4, -0x1.2889d60000000p-5, -0x1.937eb40000000p-5, 0x1.937b800000000p-10, 0x1.48fe300000000p-5, -0x1.0557be0000000p-4, 0x1.874b500000000p-5, -0x1.3d19820000000p-5, -0x1.73e3180000000p-4, -0x1.34897e0000000p-4, 0x1.ba5b000000000p-11, 0x1.09dda00000000p-6, -0x1.1f2d0e0000000p-5, -0x1.a732e00000000p-7, 0x1.8963780000000p-5, -0x1.81f3f00000000p-7, -0x1.d189f00000000p-6, 0x1.6854580000000p-5, 0x1.ddc7080000000p-6, -0x1.3a45720000000p-4, -0x1.22b2e40000000p-4, 0x1.19cef80000000p-4, 0x1.2a62600000000p-4, 0x1.11bd780000000p-6, -0x1.ea7d460000000p-5, -0x1.f4ac300000000p-6, 0x1.dbf8600000000p-6, -0x1.73b3b00000000p-7, -0x1.0f6e100000000p-4, -0x1.79ea780000000p-6, 0x1.d03d480000000p-5, 0x1.f4b4900000000p-6, -0x1.bcff820000000p-5, -0x1.37446c0000000p-4, 0x1.7d0b180000000p-4, 0x1.79cce80000000p-4, 0x1.5ba4600000000p-5, 0x1.3c61000000000p-10, 0x1.3d706c0000000p-4, 0x1.adaee00000000p-7, 0x1.6987280000000p-5, -0x1.671ed80000000p-4, 0x1.36f44c0000000p-4, 0x1.6f37000000000p-9, 0x1.f266980000000p-5, 0x1.34eb240000000p-4, -0x1.d43ef80000000p-6, -0x1.39d1100000000p-6, -0x1.3d63220000000p-5, 0x1.3cafa40000000p-4, -0x1.5e23740000000p-5, -0x1.14e0000000000p-8, -0x1.42f5100000000p-7, -0x1.a5331c0000000p-5, 0x1.e020900000000p-6, 0x1.1f54200000000p-4, -0x1.0fd64a0000000p-4, 0x1.8920200000000p-8, -0x1.4b8ae80000000p-6, 0x1.6cdec00000000p-4, 0x1.0899f00000000p-4, -0x1.3efa6e0000000p-4, -0x1.2a41e40000000p-5, -0x1.296c000000000p-8, -0x1.edf2400000000p-5, -0x1.6b64a20000000p-4, -0x1.d4a49e0000000p-5, 0x1.7e71380000000p-5, -0x1.58072c0000000p-4, 0x1.7cefac0000000p-4, -0x1.e47b480000000p-5, -0x1.3800de0000000p-5, 0x1.61c2500000000p-5, 0x1.7244c80000000p-4, -0x1.812c300000000p-4, 0x1.d944580000000p-5, -0x1.4e8f420000000p-4, -0x1.bde8580000000p-6, 0x1.eb3a200000000p-5, 0x1.0322800000000p-5, -0x1.0bfc100000000p-4, -0x1.c32e580000000p-5, 0x1.5779480000000p-4, 0x1.1355580000000p-4, -0x1.13a8ca0000000p-4, 0x1.2d7f040000000p-4, -0x1.58534c0000000p-4, 0x1.8303900000000p-6, 0x1.1426180000000p-4, -0x1.5c07740000000p-4, 0x1.caadb80000000p-5, -0x1.09e0800000000p-8, -0x1.7c37240000000p-5, -0x1.1133e80000000p-6, -0x1.a916de0000000p-5, -0x1.7414900000000p-6, 0x1.4c35180000000p-5, -0x1.7dbf7c0000000p-5, 0x1.0370b00000000p-4, 0x1.1170040000000p-4, 0x1.6013380000000p-4, -0x1.ff58b00000000p-6, 0x1.6dda400000000p-4, -0x1.4df4ae0000000p-4, -0x1.2083d80000000p-6, -0x1.757f500000000p-4, -0x1.750b100000000p-5, -0x1.0c91f40000000p-4, 0x1.5705e00000000p-4, 0x1.a2da100000000p-7, 0x1.3939600000000p-7, -0x1.26f47e0000000p-4, 0x1.266e300000000p-7, 0x1.668efc0000000p-4, 0x1.ee78400000000p-5, 0x1.4222000000000p-12, 0x1.4615a00000000p-5}
, {-0x1.103e340000000p-5, -0x1.3611520000000p-4, 0x1.f6d3c00000000p-5, 0x1.775b080000000p-6, 0x1.38d8000000000p-5, -0x1.2f40b80000000p-4, -0x1.b0c3f80000000p-6, 0x1.69cdd80000000p-4, 0x1.fd06900000000p-5, 0x1.9677d80000000p-6, -0x1.92c2fc0000000p-5, 0x1.6f04b00000000p-4, 0x1.dc4e300000000p-5, 0x1.50e9a00000000p-4, 0x1.4908500000000p-7, 0x1.d27f200000000p-8, -0x1.2fd9a00000000p-5, -0x1.08125c0000000p-4, 0x1.95cfc00000000p-6, 0x1.8816280000000p-5, 0x1.b381e00000000p-7, 0x1.13a4c00000000p-5, -0x1.b4dcf80000000p-5, -0x1.7d3eca0000000p-5, -0x1.214c800000000p-10, -0x1.03f48a0000000p-5, -0x1.6b3d6a0000000p-4, -0x1.a888200000000p-7, -0x1.7521940000000p-4, 0x1.05a94c0000000p-4, 0x1.745b380000000p-5, -0x1.eefd900000000p-7, 0x1.03f2900000000p-4, 0x1.59a0f00000000p-6, -0x1.a57be20000000p-5, 0x1.5f5b100000000p-6, -0x1.2dc84c0000000p-4, 0x1.e49c680000000p-5, 0x1.e894f80000000p-5, -0x1.a7df000000000p-6, 0x1.2601680000000p-4, -0x1.4b72500000000p-6, 0x1.eedb180000000p-5, 0x1.4a94600000000p-6, 0x1.0f1d500000000p-5, -0x1.65dee00000000p-6, -0x1.c7209e0000000p-5, -0x1.0144de0000000p-4, -0x1.a4a09c0000000p-5, 0x1.898b500000000p-7, -0x1.24d8500000000p-4, -0x1.5bb1600000000p-5, 0x1.38d8f00000000p-5, 0x1.712d900000000p-5, 0x1.2fba300000000p-5, -0x1.1119500000000p-7, -0x1.0017f00000000p-5, -0x1.65cb780000000p-6, -0x1.159e5e0000000p-4, -0x1.7a400e0000000p-5, -0x1.3929280000000p-6, 0x1.fcf1000000000p-6, 0x1.76de400000000p-5, -0x1.65472c0000000p-4, 0x1.5412a80000000p-4, 0x1.4c47080000000p-4, 0x1.2280d00000000p-4, 0x1.57fa380000000p-5, 0x1.6789900000000p-4, -0x1.3ed2e20000000p-4, 0x1.673d2c0000000p-4, 0x1.3d92d80000000p-5, 0x1.e373c80000000p-5, -0x1.adc9e80000000p-6, -0x1.49ae200000000p-6, -0x1.fecd420000000p-5, -0x1.168dda0000000p-4, 0x1.32fd400000000p-5, 0x1.53e7500000000p-5, 0x1.144a740000000p-4, -0x1.6d73d00000000p-7, -0x1.7344540000000p-4, 0x1.8ba4e00000000p-7, 0x1.735a580000000p-5, -0x1.2a98c00000000p-9, -0x1.d1dcfe0000000p-5, 0x1.6f63f80000000p-4, -0x1.d48c080000000p-6, -0x1.3771e80000000p-5, -0x1.80669a0000000p-5, 0x1.38018c0000000p-4, -0x1.d1d7100000000p-5, 0x1.3395c40000000p-4, 0x1.511d780000000p-5, -0x1.ddca200000000p-7, -0x1.73dc080000000p-5, 0x1.1069400000000p-4, 0x1.bd5e400000000p-9, 0x1.c90ed80000000p-6, -0x1.40aae20000000p-5, -0x1.3182980000000p-6, -0x1.13566c0000000p-5, 0x1.5d64ac0000000p-4, 0x1.fa48100000000p-6, 0x1.2537800000000p-7, 0x1.0229e00000000p-5, -0x1.7102b20000000p-4, 0x1.b46a900000000p-5, 0x1.fd22c00000000p-6, 0x1.518bc40000000p-4, 0x1.f6c6d00000000p-5, -0x1.dbe2220000000p-5, -0x1.9783c00000000p-8, 0x1.29a9100000000p-4, -0x1.48aef80000000p-4, 0x1.6f70980000000p-4, 0x1.512b800000000p-4, -0x1.408aa00000000p-8, 0x1.253d840000000p-4, -0x1.565f5c0000000p-4, 0x1.40fd800000000p-6, 0x1.720acc0000000p-4, 0x1.8a2d980000000p-5, 0x1.bfae600000000p-8, -0x1.769b020000000p-4, -0x1.92ba0a0000000p-5, -0x1.3b29760000000p-4, 0x1.254c680000000p-5, 0x1.3b46bc0000000p-4, -0x1.631d840000000p-5, -0x1.534bb60000000p-4, -0x1.541b060000000p-5, 0x1.a0c2100000000p-5, -0x1.77c85e0000000p-4, 0x1.98f9100000000p-7, -0x1.6723980000000p-4, -0x1.df55a40000000p-5, -0x1.63116a0000000p-4, -0x1.3bae3a0000000p-4, 0x1.39ed200000000p-8, 0x1.dab4000000000p-12, 0x1.1888100000000p-5, 0x1.976cb00000000p-5, -0x1.a1f5180000000p-6, 0x1.250bc80000000p-6, -0x1.27d9ec0000000p-4, 0x1.237e8c0000000p-4, 0x1.4bc7900000000p-4, 0x1.11fe480000000p-5, -0x1.0e04100000000p-7, -0x1.1501ee0000000p-4, -0x1.f723400000000p-8, 0x1.2068c00000000p-5, 0x1.01a6700000000p-5, -0x1.bc24800000000p-6, 0x1.636d340000000p-4, 0x1.6984680000000p-6, -0x1.23d3c00000000p-6, -0x1.0353d80000000p-4, 0x1.3c4a740000000p-4, 0x1.1dfbf40000000p-4, 0x1.0104f00000000p-5, 0x1.360b4c0000000p-4, 0x1.8b52300000000p-5, 0x1.5126a00000000p-7, -0x1.555b4a0000000p-4, -0x1.505c400000000p-9, -0x1.fa88200000000p-5, -0x1.dd4e600000000p-8, 0x1.e401300000000p-5, 0x1.a2fe080000000p-5, 0x1.3827480000000p-4, 0x1.6f21880000000p-4, -0x1.1710a40000000p-5, -0x1.fb3a480000000p-5, -0x1.1bbc520000000p-4, 0x1.105d1c0000000p-4, 0x1.cdd8a00000000p-6, -0x1.55dbfc0000000p-5, 0x1.34f2180000000p-4, -0x1.01ac480000000p-6, 0x1.6ca6340000000p-4, 0x1.9db0100000000p-7, -0x1.fce3f00000000p-7, -0x1.d132e80000000p-6, 0x1.7e0b940000000p-4, 0x1.d874200000000p-5, 0x1.7264500000000p-6, -0x1.a997a00000000p-6, 0x1.ce83e80000000p-5, 0x1.49afa00000000p-8, 0x1.6f19b00000000p-7, 0x1.cc29a00000000p-6, -0x1.3c893e0000000p-4, -0x1.28778e0000000p-5, 0x1.b252980000000p-6, -0x1.6969000000000p-8, 0x1.127ccc0000000p-4, -0x1.64efdc0000000p-4, -0x1.6448d00000000p-6, -0x1.c9ccc00000000p-8, 0x1.a20a880000000p-5, 0x1.350ea40000000p-4, -0x1.f71abe0000000p-5, -0x1.3940000000000p-13, 0x1.219bdc0000000p-4, 0x1.1ae0580000000p-4, -0x1.7a1e720000000p-4, 0x1.7db2d80000000p-6, -0x1.459fca0000000p-4, 0x1.2275a00000000p-7, 0x1.7eb2f80000000p-5, -0x1.4304200000000p-8, -0x1.11e1800000000p-9, 0x1.0a4b580000000p-4, -0x1.cc0fe60000000p-5, 0x1.41420c0000000p-4, -0x1.18a1cc0000000p-4, 0x1.c879d80000000p-5, -0x1.2466200000000p-4, 0x1.a89da00000000p-5, -0x1.ace3820000000p-5, 0x1.613d300000000p-4, -0x1.6d94080000000p-5, -0x1.9d60be0000000p-5, 0x1.0111180000000p-4, 0x1.c3f8e00000000p-7, 0x1.3d30000000000p-4, 0x1.1c22e00000000p-5, -0x1.7fa2d00000000p-7, 0x1.c2da400000000p-5, 0x1.33e6340000000p-4, -0x1.d587480000000p-6, -0x1.0391480000000p-5, -0x1.3bd7600000000p-4, 0x1.9141b80000000p-6, -0x1.0071d00000000p-6, -0x1.e77f3e0000000p-5, -0x1.0a8d8e0000000p-5, 0x1.7149380000000p-6, -0x1.f8afcc0000000p-5, 0x1.28124c0000000p-4, -0x1.fb0d880000000p-5, 0x1.91b3580000000p-6, -0x1.214ed20000000p-4, -0x1.44a0620000000p-4, 0x1.3232bc0000000p-4, -0x1.19e1200000000p-6, -0x1.a091000000000p-6, 0x1.b253b80000000p-5, -0x1.0b8e3c0000000p-4, 0x1.b1c2800000000p-5, -0x1.99c5800000000p-9, -0x1.80b0cc0000000p-4, -0x1.aff3c00000000p-9, 0x1.9282e00000000p-7, -0x1.2bd4be0000000p-4, -0x1.d400c80000000p-6, 0x1.1374180000000p-5, -0x1.da9d1a0000000p-5, 0x1.1681800000000p-5, 0x1.cd2b000000000p-7, -0x1.5da3180000000p-6, 0x1.af7d000000000p-5, 0x1.308e800000000p-6, -0x1.0f2eb60000000p-4, 0x1.6000d00000000p-5, -0x1.e4de000000000p-6, 0x1.3db4700000000p-4, -0x1.5a11320000000p-5, -0x1.a55c160000000p-5, -0x1.2f6dcc0000000p-5, 0x1.780f540000000p-4, 0x1.0071800000000p-4, -0x1.40b3560000000p-4, 0x1.2e8e400000000p-9, 0x1.9d60c00000000p-8, -0x1.b66e420000000p-5, 0x1.ded4c00000000p-5, -0x1.c3cd3c0000000p-5, 0x1.6742880000000p-5, 0x1.4e46400000000p-4, 0x1.82ffb00000000p-7, -0x1.2dc6a00000000p-7, 0x1.78b2d80000000p-5, -0x1.322d2e0000000p-4, -0x1.389e600000000p-6, -0x1.d11da60000000p-5, 0x1.cc1d200000000p-5, 0x1.30a5b40000000p-4, 0x1.75ed400000000p-5, 0x1.24f4dc0000000p-4, 0x1.32c3900000000p-7, -0x1.0837080000000p-5, 0x1.9f1f980000000p-6, -0x1.26e6980000000p-5, 0x1.063e3c0000000p-4, -0x1.3ba4740000000p-4, -0x1.4375c00000000p-6, -0x1.1e87620000000p-5, -0x1.459cb40000000p-5, -0x1.af10200000000p-8, -0x1.558f040000000p-4, -0x1.f6390e0000000p-5, -0x1.3b74bc0000000p-4, -0x1.36a6380000000p-4, 0x1.db01700000000p-5, -0x1.5fe2000000000p-8, -0x1.429bf60000000p-4, 0x1.1dc2780000000p-6, -0x1.8100d40000000p-5, 0x1.c930800000000p-10, 0x1.1471400000000p-6, 0x1.04fd000000000p-5, 0x1.49ed5c0000000p-4, -0x1.77645c0000000p-5, -0x1.0f2dbe0000000p-4, 0x1.9a3d400000000p-5, 0x1.d913c80000000p-6, 0x1.082fd00000000p-5, -0x1.1d0c780000000p-4, -0x1.70a5900000000p-4, -0x1.0cef500000000p-4, 0x1.ac54680000000p-5, -0x1.04737e0000000p-4, -0x1.4275140000000p-4, 0x1.575d080000000p-4, 0x1.429c200000000p-6, 0x1.a95da80000000p-6, 0x1.627f580000000p-6, 0x1.dad4200000000p-8, -0x1.4319fe0000000p-5, -0x1.e7f1aa0000000p-5, -0x1.0b774c0000000p-5, -0x1.aaa3c80000000p-5, -0x1.5358500000000p-7, -0x1.cf7fc80000000p-5, -0x1.688f000000000p-10, -0x1.3f90000000000p-8, -0x1.47ee0c0000000p-4, 0x1.f54d480000000p-6, 0x1.913ce00000000p-7, -0x1.6abdce0000000p-4, 0x1.54ebf00000000p-5, 0x1.ca7d600000000p-5, -0x1.c568600000000p-6, 0x1.e491680000000p-6, -0x1.3a21b20000000p-5, 0x1.7928300000000p-6, 0x1.b6b9680000000p-5, -0x1.6a4db20000000p-5, -0x1.27c1e00000000p-5, 0x1.40b7380000000p-6, 0x1.ef9d700000000p-5, -0x1.42dc300000000p-6, -0x1.14fc660000000p-5, 0x1.a329080000000p-5, -0x1.58e3a60000000p-4, 0x1.c294400000000p-9, -0x1.5d298e0000000p-4, 0x1.0eb2780000000p-5, 0x1.cec5480000000p-6, -0x1.0d1dbc0000000p-4, 0x1.7523a80000000p-4, 0x1.355f840000000p-4, -0x1.e2fa540000000p-5, -0x1.5479f60000000p-4, 0x1.736f080000000p-5, 0x1.6264500000000p-6, -0x1.6f6eee0000000p-4, -0x1.6eb37e0000000p-4, -0x1.99e43c0000000p-5, -0x1.bc9d900000000p-7, 0x1.75bd280000000p-6, -0x1.392b540000000p-4, -0x1.8f2be80000000p-5, -0x1.5b61a80000000p-6, 0x1.4c60680000000p-6, 0x1.719f800000000p-9, 0x1.bf5bb80000000p-6, -0x1.72ef300000000p-7, -0x1.0764660000000p-4, -0x1.32ef840000000p-4, -0x1.ade27e0000000p-5, -0x1.32b2e80000000p-4, 0x1.a8c8000000000p-10, -0x1.1b8d500000000p-7, 0x1.e2f3600000000p-7, -0x1.ea60280000000p-6, 0x1.fbcb900000000p-5, 0x1.c51d500000000p-7, -0x1.f58b800000000p-9, -0x1.2ea2400000000p-5, 0x1.120bdc0000000p-4, -0x1.1325b80000000p-6, 0x1.9328f00000000p-5, 0x1.1106780000000p-4, -0x1.ea596e0000000p-5, 0x1.032e180000000p-5, 0x1.6358b00000000p-6, -0x1.2c970e0000000p-5, 0x1.2399000000000p-5, -0x1.b3d6400000000p-6, 0x1.1ad55c0000000p-4, 0x1.b25d680000000p-5, -0x1.6fa7f40000000p-5, -0x1.9264300000000p-7, 0x1.172d700000000p-6, 0x1.aef0080000000p-5, -0x1.2c0d800000000p-5, 0x1.2345980000000p-5, 0x1.2dee300000000p-4, -0x1.3095800000000p-7, -0x1.69b5d40000000p-5, 0x1.a1e1200000000p-8, 0x1.19abe80000000p-5, -0x1.a5fb120000000p-5, 0x1.212f5c0000000p-4, -0x1.4ae4100000000p-7, 0x1.003a000000000p-5, -0x1.5a804c0000000p-4, -0x1.1bbf920000000p-5, -0x1.4148980000000p-4, -0x1.39baa00000000p-5, 0x1.2dae900000000p-5, -0x1.8cdaaa0000000p-5, -0x1.e39db00000000p-6, 0x1.7c92e80000000p-4, -0x1.4567380000000p-4, 0x1.70200c0000000p-4, -0x1.3595f80000000p-4, 0x1.ad05600000000p-6, -0x1.eea5b00000000p-6, 0x1.d053480000000p-5, -0x1.bfc0100000000p-6, 0x1.5071a00000000p-6, 0x1.7328c40000000p-4, -0x1.4f89480000000p-6, 0x1.1863900000000p-4, 0x1.6a00840000000p-4, -0x1.4a03900000000p-6, 0x1.b9b3b80000000p-5, 0x1.b5db300000000p-5, -0x1.c892c60000000p-5, 0x1.6d212c0000000p-4, 0x1.b174d80000000p-5, 0x1.6d58a40000000p-4, -0x1.b74b480000000p-5, 0x1.2583480000000p-4, -0x1.5702700000000p-5, -0x1.e07b400000000p-5, -0x1.134bd40000000p-4, 0x1.10ff100000000p-5, -0x1.5101600000000p-6, -0x1.1ff5a20000000p-4, 0x1.6e05a80000000p-4, 0x1.5df5800000000p-4, 0x1.ca80300000000p-7, 0x1.f13b000000000p-5, 0x1.914d500000000p-7, 0x1.7c45480000000p-5, 0x1.39bf200000000p-7, -0x1.210cd00000000p-6, -0x1.795f500000000p-7, -0x1.84ee800000000p-7, -0x1.6d09f00000000p-7, 0x1.31ad480000000p-4, 0x1.a907100000000p-7, -0x1.0c68580000000p-6, -0x1.3d784e0000000p-4, -0x1.64b6b00000000p-7, -0x1.2f48040000000p-5, 0x1.5acbd00000000p-5, 0x1.2ed1380000000p-4, -0x1.b5c4720000000p-5, -0x1.bf8d480000000p-6, -0x1.21c2b40000000p-5, 0x1.c91fd00000000p-6, -0x1.65f48c0000000p-4, 0x1.7634100000000p-4, -0x1.483f700000000p-6, 0x1.0984cc0000000p-4, 0x1.42e9240000000p-4, 0x1.495dec0000000p-4, 0x1.cd4bf80000000p-6, 0x1.f2eb200000000p-5, 0x1.5d16d00000000p-4, -0x1.2fc8aa0000000p-5, 0x1.2824580000000p-4, -0x1.2298cc0000000p-5, -0x1.0a67e00000000p-5, 0x1.5ecc6c0000000p-4, 0x1.d4c5600000000p-8, 0x1.1ae72c0000000p-4, 0x1.761d000000000p-7, 0x1.9042080000000p-6, -0x1.3091da0000000p-4, 0x1.9e0b580000000p-5, -0x1.fe2f600000000p-7, 0x1.f305a80000000p-6, -0x1.e9a6600000000p-7, 0x1.4643b00000000p-4, 0x1.d70af80000000p-6, 0x1.c95d600000000p-5, -0x1.33a89c0000000p-4, -0x1.e4e2000000000p-11, -0x1.05d2e60000000p-4, -0x1.2148520000000p-4, -0x1.dd44fa0000000p-5, 0x1.0739180000000p-6, -0x1.3aca580000000p-6, 0x1.7851b00000000p-7, 0x1.1ae0d00000000p-6, 0x1.ad5f200000000p-8, -0x1.eecab00000000p-6, 0x1.187d300000000p-5, 0x1.d83a780000000p-5, 0x1.8e90200000000p-8, -0x1.dff4a00000000p-5, -0x1.409fee0000000p-4, 0x1.756eac0000000p-4, 0x1.7edd680000000p-5, 0x1.c719d00000000p-7, 0x1.7d61200000000p-5, 0x1.3c13300000000p-5, -0x1.2d52400000000p-4, -0x1.9ee9e20000000p-5, 0x1.490af00000000p-7, -0x1.a8b9780000000p-6, 0x1.5254f80000000p-4, -0x1.2b73500000000p-6, 0x1.67a2780000000p-5, 0x1.53b63c0000000p-4, -0x1.a6c4700000000p-6, 0x1.0e28200000000p-5, 0x1.2f0f700000000p-5, 0x1.90ae400000000p-7, -0x1.4b49100000000p-5, -0x1.ea58040000000p-5, 0x1.e63e480000000p-6, 0x1.8e49100000000p-6, 0x1.9c8ca00000000p-8, 0x1.4991780000000p-4, -0x1.6a3e3e0000000p-4, -0x1.65a08e0000000p-5, 0x1.73c8ac0000000p-4, 0x1.a270c00000000p-5, -0x1.d4a9800000000p-7, 0x1.f4a7c00000000p-6, 0x1.009df80000000p-4, -0x1.181f6e0000000p-4, -0x1.72d4120000000p-4, 0x1.5449480000000p-5, -0x1.6e94da0000000p-4, 0x1.55b4200000000p-4, 0x1.3ec9d80000000p-5, -0x1.2c4ab80000000p-4, -0x1.ea991e0000000p-5, -0x1.7611d60000000p-4, 0x1.059cb80000000p-4, 0x1.0275700000000p-4, -0x1.32eff80000000p-6, -0x1.5e7fd40000000p-4, 0x1.1794600000000p-4, -0x1.1cdfa00000000p-5, 0x1.1865e00000000p-5, -0x1.6617240000000p-4, 0x1.928b200000000p-8, -0x1.1e24c00000000p-7, -0x1.67847e0000000p-4, -0x1.7276b60000000p-4, 0x1.16cd180000000p-4, 0x1.f86a000000000p-5, 0x1.9bfee00000000p-6, -0x1.b137b00000000p-7, -0x1.5124200000000p-4}
, {-0x1.498a9e0000000p-4, 0x1.41ec800000000p-4, 0x1.b5da900000000p-7, -0x1.3611a00000000p-4, 0x1.4e29cc0000000p-4, 0x1.0f5b100000000p-4, -0x1.bf06400000000p-8, 0x1.10930c0000000p-4, 0x1.7f19880000000p-6, -0x1.1e81060000000p-4, -0x1.3b31a20000000p-4, -0x1.78baf00000000p-4, 0x1.0269700000000p-4, 0x1.bc56b00000000p-5, 0x1.4f81180000000p-5, -0x1.3ef7c40000000p-4, 0x1.fd17f00000000p-6, 0x1.7f01480000000p-4, 0x1.b7abf00000000p-6, -0x1.396bf60000000p-5, 0x1.4956240000000p-4, 0x1.b861400000000p-5, -0x1.45fcb40000000p-5, -0x1.ea033a0000000p-5, 0x1.0c6b600000000p-4, 0x1.9caf400000000p-5, -0x1.79cb0c0000000p-4, -0x1.4f92100000000p-6, -0x1.d798b60000000p-5, 0x1.0268400000000p-7, -0x1.2975500000000p-4, -0x1.2451200000000p-6, 0x1.b262b00000000p-5, -0x1.cae3400000000p-7, -0x1.045c680000000p-5, 0x1.4a4fb00000000p-6, -0x1.af289a0000000p-5, 0x1.28fa800000000p-5, -0x1.6d48140000000p-4, 0x1.c3c5380000000p-6, -0x1.0179200000000p-8, -0x1.db25840000000p-5, -0x1.59b2de0000000p-4, -0x1.3fb1200000000p-4, 0x1.91ea400000000p-5, -0x1.f35b000000000p-6, -0x1.78a9700000000p-5, -0x1.33c5640000000p-4, 0x1.4e9fb00000000p-5, -0x1.462e420000000p-5, 0x1.e8fae80000000p-5, 0x1.3c1b800000000p-5, -0x1.ad0dc00000000p-6, 0x1.65cd100000000p-5, -0x1.2c25740000000p-4, 0x1.8170980000000p-5, 0x1.826a780000000p-6, -0x1.eb38e00000000p-7, 0x1.4807a00000000p-8, -0x1.3c5f400000000p-6, -0x1.6e9bd40000000p-4, 0x1.033d880000000p-4, -0x1.55f4980000000p-4, -0x1.948e8c0000000p-5, -0x1.5d6d400000000p-5, -0x1.1d89880000000p-5, -0x1.2dd3300000000p-6, 0x1.6847880000000p-5, -0x1.aa89c00000000p-9, -0x1.3963260000000p-4, 0x1.5ff0a80000000p-4, -0x1.4b49580000000p-4, -0x1.97f6500000000p-7, 0x1.74d4a80000000p-5, 0x1.efca900000000p-6, -0x1.6c2c860000000p-5, -0x1.549b800000000p-4, 0x1.da42000000000p-5, 0x1.65aff40000000p-4, 0x1.ce42700000000p-6, -0x1.088d980000000p-4, -0x1.1f35f60000000p-5, -0x1.278b0a0000000p-4, -0x1.14a0720000000p-5, -0x1.13df8c0000000p-5, 0x1.7748840000000p-4, -0x1.11656a0000000p-5, -0x1.bf85760000000p-5, 0x1.6474800000000p-4, 0x1.c320f00000000p-5, 0x1.cc39200000000p-8, -0x1.2fc8b60000000p-5, -0x1.185ef00000000p-6, -0x1.e4e6120000000p-5, -0x1.7a796e0000000p-4, -0x1.6df4a00000000p-4, -0x1.46d8b00000000p-4, -0x1.6f4fb00000000p-6, -0x1.3c93f60000000p-4, 0x1.277f5c0000000p-4, -0x1.b500f00000000p-7, -0x1.7d5ca80000000p-6, 0x1.3521b00000000p-5, 0x1.7d83180000000p-4, 0x1.0735ac0000000p-4, -0x1.7eceac0000000p-4, -0x1.7652780000000p-4, 0x1.f309200000000p-7, 0x1.3317d00000000p-4, -0x1.c7d8800000000p-10, -0x1.e356800000000p-7, 0x1.23eb080000000p-4, -0x1.a8163e0000000p-5, -0x1.c546600000000p-8, -0x1.a83b440000000p-5, 0x1.4231e80000000p-5, -0x1.f6bea60000000p-5, -0x1.4d75360000000p-4, -0x1.5008800000000p-9, -0x1.5388ce0000000p-4, -0x1.2678f00000000p-7, -0x1.e891600000000p-7, 0x1.598fb00000000p-6, 0x1.566e280000000p-4, -0x1.daccc80000000p-6, 0x1.68aaa40000000p-4, 0x1.17b0c00000000p-4, -0x1.122e100000000p-4, 0x1.79cd500000000p-5, 0x1.b52f280000000p-6, -0x1.10d3620000000p-5, 0x1.68438c0000000p-4, -0x1.3d7b400000000p-5, -0x1.02153c0000000p-5, -0x1.51fdd40000000p-4, -0x1.f2ff640000000p-5, -0x1.7217e80000000p-6, -0x1.478f800000000p-10, 0x1.e2bf300000000p-7, 0x1.f002080000000p-5, 0x1.779ab80000000p-4, -0x1.51b3780000000p-4, -0x1.b7dbe40000000p-5, -0x1.b8a2f80000000p-6, 0x1.57a2500000000p-4, 0x1.bc9af80000000p-5, 0x1.1445a00000000p-4, -0x1.c4a5ec0000000p-5, -0x1.3c34200000000p-8, -0x1.3d5e8a0000000p-4, -0x1.f137e00000000p-5, 0x1.0543600000000p-5, -0x1.fccc300000000p-7, -0x1.1cf8500000000p-6, -0x1.5338d80000000p-4, 0x1.bcbe400000000p-5, 0x1.51735c0000000p-4, -0x1.3468200000000p-4, 0x1.748d3c0000000p-4, -0x1.5e40720000000p-4, -0x1.4674ec0000000p-4, -0x1.cd94180000000p-5, -0x1.79285e0000000p-4, 0x1.fe23500000000p-5, 0x1.9ab7680000000p-5, 0x1.535d040000000p-4, 0x1.5154000000000p-7, -0x1.482a400000000p-6, 0x1.c2b0880000000p-5, -0x1.2545560000000p-4, -0x1.7b84ea0000000p-4, -0x1.eab9d80000000p-6, 0x1.7fe6940000000p-4, -0x1.2ea0a80000000p-4, 0x1.4b2b7c0000000p-4, 0x1.46ab700000000p-4, 0x1.5ce3480000000p-4, 0x1.1e2dc80000000p-5, -0x1.d0dd120000000p-5, 0x1.fe3c180000000p-5, 0x1.5478b00000000p-4, 0x1.1ca0d00000000p-4, -0x1.d8cb000000000p-8, -0x1.20b43e0000000p-4, 0x1.d38df00000000p-6, 0x1.6159180000000p-4, -0x1.66e1dc0000000p-4, 0x1.89b3180000000p-6, 0x1.16b1c00000000p-4, 0x1.3c1a200000000p-4, -0x1.74a9ee0000000p-5, 0x1.c6d4700000000p-5, 0x1.a7e2180000000p-6, -0x1.482fa00000000p-6, 0x1.9585300000000p-5, -0x1.50afd00000000p-6, -0x1.e27da00000000p-7, 0x1.e956580000000p-5, 0x1.df14080000000p-5, -0x1.61c64e0000000p-5, -0x1.dfded00000000p-7, 0x1.7ee9b00000000p-4, 0x1.b08dd00000000p-5, 0x1.abb4400000000p-5, 0x1.0b52940000000p-4, 0x1.2a19380000000p-4, -0x1.f9aa060000000p-5, 0x1.0937680000000p-4, 0x1.e804080000000p-5, -0x1.9d71500000000p-6, 0x1.608ea00000000p-8, -0x1.f4c9a20000000p-5, -0x1.616e680000000p-6, 0x1.9a2db80000000p-5, -0x1.cbce240000000p-5, 0x1.2939580000000p-6, 0x1.5532600000000p-4, -0x1.6f49fa0000000p-4, 0x1.470ef00000000p-5, 0x1.4b9fa40000000p-4, -0x1.6d6d800000000p-9, -0x1.28dc380000000p-4, 0x1.094b580000000p-5, -0x1.571f500000000p-4, -0x1.598ec20000000p-5, -0x1.50bd0a0000000p-5, 0x1.4f36000000000p-5, 0x1.bc62f80000000p-6, -0x1.3b2bd60000000p-4, 0x1.819aa00000000p-5, 0x1.8d48800000000p-7, -0x1.2820a60000000p-4, -0x1.5b67580000000p-4, -0x1.f646000000000p-11, -0x1.820e500000000p-6, 0x1.b33f400000000p-9, -0x1.1989600000000p-8, 0x1.3ccc840000000p-4, -0x1.1eef800000000p-6, -0x1.4562a00000000p-4, 0x1.e6b3780000000p-6, -0x1.9fb8000000000p-11, -0x1.5819e40000000p-4, -0x1.f4b65e0000000p-5, -0x1.bdcf000000000p-7, 0x1.d8e6000000000p-9, 0x1.add4f00000000p-5, 0x1.52694c0000000p-4, -0x1.783f500000000p-6, -0x1.4829360000000p-4, -0x1.5c582c0000000p-4, -0x1.0199880000000p-6, 0x1.aea4c00000000p-6, -0x1.fd28460000000p-5, 0x1.08bf680000000p-6, 0x1.5550c00000000p-5, -0x1.05e5980000000p-4, 0x1.35adf00000000p-7, 0x1.312c800000000p-6, 0x1.4a8ab80000000p-5, -0x1.2be1a80000000p-6, 0x1.a5d4b00000000p-5, 0x1.1fbfcc0000000p-4, 0x1.162a980000000p-5, -0x1.00c4140000000p-4, -0x1.abafc00000000p-9, -0x1.2bdbaa0000000p-4, -0x1.5407600000000p-8, 0x1.6ae1100000000p-4, 0x1.c4a8800000000p-9, 0x1.2a3e400000000p-4, 0x1.54f6140000000p-4, 0x1.10c0b40000000p-4, -0x1.5ff84c0000000p-5, 0x1.c8e0c00000000p-5, -0x1.8551680000000p-5, -0x1.6ceebe0000000p-4, -0x1.45cea00000000p-8, 0x1.1178cc0000000p-4, -0x1.1fa37a0000000p-4, 0x1.28e6b40000000p-4, 0x1.3788a00000000p-4, 0x1.0205f00000000p-4, -0x1.2be4b00000000p-4, -0x1.a7a7800000000p-8, 0x1.cbd3f00000000p-5, 0x1.4ff5e80000000p-5, -0x1.38f14c0000000p-5, 0x1.c3d2100000000p-7, -0x1.3d65900000000p-7, -0x1.0335d00000000p-7, -0x1.4b48a40000000p-4, 0x1.23fdf80000000p-4, 0x1.7d90000000000p-4, 0x1.6e20a00000000p-4, 0x1.7bfd400000000p-5, -0x1.f564900000000p-5, 0x1.5b82080000000p-5, 0x1.3b65880000000p-5, 0x1.4147880000000p-4, -0x1.0c1c240000000p-4, -0x1.517fd20000000p-4, -0x1.00ada40000000p-4, 0x1.4f7f180000000p-4, -0x1.9a79220000000p-5, 0x1.c481c80000000p-5, 0x1.5037240000000p-4, -0x1.dd9f160000000p-5, -0x1.3531f20000000p-4, -0x1.551dcc0000000p-4, -0x1.51611a0000000p-5, 0x1.63f6140000000p-4, -0x1.05c2e20000000p-5, -0x1.f7f8200000000p-6, 0x1.69c0380000000p-4, -0x1.4990f40000000p-4, 0x1.793eb80000000p-5, -0x1.a723200000000p-5, -0x1.1410240000000p-4, -0x1.461c500000000p-5, -0x1.727ca00000000p-4, -0x1.c22db00000000p-7, -0x1.059f640000000p-4, 0x1.f2b4700000000p-5, 0x1.586ee00000000p-7, 0x1.311b080000000p-5, 0x1.38a7000000000p-5, 0x1.3bc9700000000p-4, 0x1.690c300000000p-6, -0x1.2732a00000000p-6, 0x1.d2bda80000000p-6, -0x1.25ad4c0000000p-4, 0x1.0dbc040000000p-4, 0x1.2e9f840000000p-4, -0x1.f182d20000000p-5, -0x1.25e30c0000000p-4, -0x1.4234980000000p-4, 0x1.7b55600000000p-6, -0x1.659aaa0000000p-4, 0x1.50a9280000000p-4, -0x1.1067c00000000p-5, 0x1.79fe880000000p-6, 0x1.372d080000000p-4, -0x1.f582aa0000000p-5, -0x1.03cf0c0000000p-4, 0x1.26e6d40000000p-4, 0x1.5388a80000000p-5, 0x1.8eeb600000000p-6, 0x1.04d0400000000p-5, -0x1.8491680000000p-6, 0x1.0e63000000000p-11, 0x1.7118ec0000000p-4, 0x1.4899280000000p-4, -0x1.6b55580000000p-5, -0x1.353a080000000p-6, 0x1.e18e880000000p-5, 0x1.25d5180000000p-6, -0x1.015bec0000000p-4, -0x1.1551fc0000000p-4, -0x1.1f8b7a0000000p-4, 0x1.7af3b80000000p-5, 0x1.f08ae00000000p-6, -0x1.1f42e00000000p-6, 0x1.7403680000000p-4, 0x1.86d1a00000000p-8, 0x1.efb0b80000000p-5, -0x1.6f0afe0000000p-5, 0x1.054ce80000000p-4, 0x1.ae19b00000000p-6, -0x1.24fe5e0000000p-4, -0x1.abe2880000000p-6, 0x1.a9d0800000000p-6, -0x1.14576e0000000p-4, 0x1.f0da200000000p-5, 0x1.6534fc0000000p-4, 0x1.be53c00000000p-6, -0x1.8ba1b00000000p-7, -0x1.afde800000000p-7, 0x1.8862200000000p-5, 0x1.272ea40000000p-4, 0x1.046bf00000000p-5, -0x1.e36cb40000000p-5, -0x1.f46da00000000p-6, -0x1.b384180000000p-6, -0x1.697dba0000000p-4, 0x1.bcae400000000p-5, -0x1.32d1580000000p-6, 0x1.319bc40000000p-4, 0x1.295a040000000p-4, 0x1.59ce200000000p-8, 0x1.5258b00000000p-4, 0x1.72eb380000000p-4, 0x1.81c6640000000p-4, 0x1.22f50c0000000p-4, -0x1.49df000000000p-6, -0x1.73dad00000000p-6, 0x1.647a440000000p-4, -0x1.22c43a0000000p-4, 0x1.21f7380000000p-6, 0x1.7884080000000p-4, 0x1.2c34200000000p-5, -0x1.d9b08a0000000p-5, 0x1.74f15c0000000p-4, 0x1.813ddc0000000p-4, 0x1.76706c0000000p-4, 0x1.09695c0000000p-4, -0x1.9e54c00000000p-6, -0x1.6340780000000p-4, 0x1.7bbf4c0000000p-4, 0x1.c7dc780000000p-6, -0x1.c6157c0000000p-5, 0x1.64ad040000000p-4, -0x1.13c6a00000000p-7, -0x1.289cc00000000p-4, -0x1.8a4e400000000p-9, -0x1.f895900000000p-5, 0x1.49cc600000000p-4, 0x1.7cf13c0000000p-4, -0x1.5dec4a0000000p-4, -0x1.3be2040000000p-4, -0x1.3443f20000000p-4, 0x1.2e18900000000p-4, 0x1.2f37980000000p-5, 0x1.c4e9780000000p-5, 0x1.4f0a680000000p-6, 0x1.19df900000000p-5, -0x1.6e17880000000p-4, -0x1.3e80ec0000000p-4, -0x1.6104f00000000p-5, 0x1.ab89b80000000p-6, -0x1.0487520000000p-4, 0x1.7450800000000p-7, 0x1.e8bf000000000p-7, 0x1.4bb6040000000p-4, 0x1.5154f00000000p-6, 0x1.62ee980000000p-5, -0x1.64729c0000000p-5, -0x1.74ee4e0000000p-4, 0x1.0f65040000000p-4, -0x1.0cca400000000p-9, 0x1.1b21180000000p-4, 0x1.1199c00000000p-9, 0x1.0bc6c00000000p-6, 0x1.727f280000000p-5, 0x1.5f16e00000000p-4, 0x1.4756800000000p-8, -0x1.adcb200000000p-7, -0x1.1695a00000000p-4, -0x1.6df24a0000000p-4, -0x1.8151e00000000p-7, -0x1.9f6e880000000p-6, -0x1.4818700000000p-7, -0x1.e0d7700000000p-5, -0x1.6a47560000000p-4, -0x1.a2e8080000000p-5, 0x1.8492c80000000p-5, -0x1.74b3c60000000p-5, -0x1.6b10000000000p-12, -0x1.f5b5f60000000p-5, 0x1.1204e80000000p-5, -0x1.0039480000000p-4, 0x1.4a54a00000000p-5, -0x1.5d52300000000p-7, 0x1.4e11100000000p-4, -0x1.d5aea00000000p-8, 0x1.a0f4780000000p-6, 0x1.041c4c0000000p-4, -0x1.49366c0000000p-5, 0x1.e840600000000p-7, 0x1.8cc0c00000000p-6, 0x1.708ec00000000p-7, 0x1.e47e200000000p-7, 0x1.dd90d00000000p-5, -0x1.2420700000000p-7, -0x1.1fb0ac0000000p-5, 0x1.5f9f2c0000000p-4, -0x1.1eadb40000000p-4, -0x1.2bb53a0000000p-5, 0x1.e516f80000000p-5, -0x1.46a31a0000000p-4, -0x1.3c70040000000p-5, 0x1.60ab680000000p-4, 0x1.b1fbb80000000p-5, 0x1.3622f00000000p-6, -0x1.dd08d00000000p-6, -0x1.4f85800000000p-9, 0x1.3cd7400000000p-7, 0x1.6b2f100000000p-5, 0x1.19b2600000000p-4, -0x1.a285100000000p-7, -0x1.f743700000000p-7, -0x1.7ab6400000000p-6, -0x1.fd97f80000000p-6, -0x1.4467320000000p-4, -0x1.7de6ac0000000p-5, -0x1.ec6d800000000p-6, 0x1.08e8740000000p-4, -0x1.3c844c0000000p-4, -0x1.b404b80000000p-6, 0x1.e1cec00000000p-8, -0x1.611e360000000p-4, 0x1.6474800000000p-4, -0x1.2e0a020000000p-5, -0x1.b87cfe0000000p-5, 0x1.45ccc80000000p-4, -0x1.3123900000000p-6, -0x1.2df1b40000000p-4, 0x1.c7bd180000000p-5, -0x1.64862e0000000p-4, 0x1.0c50b00000000p-6, -0x1.3431000000000p-9, -0x1.8efde00000000p-8, 0x1.0571800000000p-8, 0x1.2f6dd00000000p-4, -0x1.8eb54c0000000p-5, 0x1.7273f00000000p-4, 0x1.0a48280000000p-5, -0x1.4744200000000p-8, 0x1.29074c0000000p-4, -0x1.7faba80000000p-6, 0x1.3b8e800000000p-7, 0x1.b737700000000p-5, 0x1.7acf200000000p-6, 0x1.7d13b80000000p-4, -0x1.4b2b5c0000000p-4, -0x1.aed4f20000000p-5, 0x1.0a4b480000000p-6, -0x1.2bac160000000p-5, -0x1.7443600000000p-6, -0x1.afc4f00000000p-6, 0x1.d8e1680000000p-5, 0x1.3744f00000000p-7, -0x1.eb28140000000p-5, 0x1.06bb980000000p-4, -0x1.6e89380000000p-5, -0x1.6b95680000000p-6, -0x1.714e0a0000000p-4, -0x1.1892ee0000000p-4, -0x1.bc83560000000p-5, 0x1.117ed00000000p-6, -0x1.b953800000000p-10, -0x1.325fb80000000p-4, 0x1.61e9280000000p-6, -0x1.6dc5b00000000p-6, 0x1.52d9b80000000p-4, 0x1.12b0a80000000p-4, -0x1.77bfc00000000p-4, -0x1.6fbc520000000p-4, -0x1.acbde00000000p-7, -0x1.6ac6a40000000p-4, -0x1.726c980000000p-6, 0x1.5b7f680000000p-5, 0x1.d42e400000000p-8, 0x1.63d8d80000000p-5, 0x1.2e97800000000p-5, 0x1.340f000000000p-9, 0x1.91b3400000000p-6, 0x1.b750000000000p-6, 0x1.708b180000000p-5, -0x1.ea09500000000p-7, -0x1.f0d38c0000000p-5, 0x1.1109b00000000p-7, -0x1.7a7b400000000p-9, -0x1.03cda80000000p-4, -0x1.e0a3aa0000000p-5, -0x1.5de1900000000p-6, 0x1.4864780000000p-6, -0x1.1cd24c0000000p-4, 0x1.0122400000000p-4, -0x1.45884e0000000p-4, 0x1.ac19480000000p-6, 0x1.23a0e80000000p-5, 0x1.c8f0e00000000p-7, 0x1.3e7f140000000p-4, -0x1.3bb1200000000p-7, -0x1.43e88e0000000p-4}
, {0x1.1aea640000000p-4, -0x1.1bb9660000000p-5, -0x1.7323a80000000p-6, -0x1.5ad19e0000000p-5, -0x1.47ee4e0000000p-4, 0x1.16e8d80000000p-5, -0x1.8007400000000p-9, -0x1.ef3cc00000000p-8, -0x1.f68c4a0000000p-5, 0x1.19c6640000000p-4, -0x1.6898340000000p-4, -0x1.174df40000000p-4, -0x1.7320e00000000p-8, 0x1.2d4bb80000000p-4, -0x1.33669e0000000p-5, -0x1.2206d00000000p-5, 0x1.56f7500000000p-5, -0x1.5937f20000000p-5, 0x1.19cfc00000000p-5, -0x1.c519600000000p-5, 0x1.b927080000000p-6, 0x1.67cb400000000p-8, -0x1.1f84dc0000000p-5, 0x1.f8e5100000000p-6, -0x1.5e00ec0000000p-5, 0x1.7be6a80000000p-4, 0x1.852d600000000p-5, -0x1.4837940000000p-4, 0x1.842a580000000p-6, -0x1.1c50420000000p-4, 0x1.c7ba200000000p-5, -0x1.0345880000000p-6, -0x1.ff29360000000p-5, 0x1.efcb700000000p-6, 0x1.621b900000000p-5, 0x1.05da100000000p-5, -0x1.34858a0000000p-5, -0x1.68a3400000000p-4, -0x1.3b93900000000p-5, -0x1.47f9000000000p-10, 0x1.7b0cc00000000p-8, 0x1.62fe880000000p-5, -0x1.c03c880000000p-6, -0x1.e450460000000p-5, 0x1.47fff80000000p-4, 0x1.f3b8f00000000p-7, -0x1.6ac7280000000p-4, 0x1.65c2880000000p-6, -0x1.db5cde0000000p-5, -0x1.518c2e0000000p-4, 0x1.1493b00000000p-4, -0x1.bd11ec0000000p-5, -0x1.1285760000000p-5, -0x1.2a85480000000p-4, 0x1.ad72100000000p-5, -0x1.2d98b80000000p-5, -0x1.6856300000000p-5, -0x1.98b2180000000p-6, -0x1.3ba9a00000000p-6, -0x1.38eb080000000p-5, -0x1.1846e80000000p-4, -0x1.e06e600000000p-6, -0x1.8816ac0000000p-5, -0x1.eba2f00000000p-6, -0x1.3d5b8c0000000p-4, -0x1.3b5ace0000000p-4, -0x1.68700c0000000p-5, 0x1.9663d00000000p-5, -0x1.7a48d00000000p-4, 0x1.015c180000000p-4, 0x1.9858200000000p-7, 0x1.ace1b80000000p-5, 0x1.45734c0000000p-4, 0x1.f137500000000p-5, -0x1.4d15980000000p-4, -0x1.656f0c0000000p-5, 0x1.2adfb00000000p-5, 0x1.fea4c00000000p-6, 0x1.b135980000000p-5, 0x1.04acac0000000p-4, 0x1.a072c00000000p-6, -0x1.3ab3500000000p-7, 0x1.b464a00000000p-6, -0x1.5c94f00000000p-4, -0x1.90a9600000000p-6, -0x1.72f2800000000p-4, 0x1.91ced80000000p-6, -0x1.17ea800000000p-6, 0x1.c62e380000000p-6, 0x1.a1f6b80000000p-5, -0x1.fc7da00000000p-7, -0x1.d0d4360000000p-5, 0x1.d131180000000p-5, 0x1.2a4d400000000p-9, -0x1.1130960000000p-4, -0x1.10cd800000000p-6, -0x1.9073e80000000p-5, -0x1.1938000000000p-14, -0x1.85d9e80000000p-6, -0x1.9b53680000000p-6, -0x1.330e040000000p-4, -0x1.cdc3100000000p-5, 0x1.7aae340000000p-4, 0x1.3719600000000p-4, 0x1.57a8b00000000p-5, 0x1.f580700000000p-5, 0x1.1748c00000000p-4, -0x1.7e97dc0000000p-4, 0x1.d571280000000p-5, 0x1.2c9de80000000p-4, -0x1.7b633c0000000p-4, 0x1.671dd00000000p-5, -0x1.c5f2700000000p-5, 0x1.732fa80000000p-5, -0x1.2f8c780000000p-6, -0x1.7adf580000000p-4, 0x1.53c6800000000p-9, 0x1.d421c00000000p-9, 0x1.20dac00000000p-4, -0x1.ac4bc80000000p-5, 0x1.b36cc00000000p-8, 0x1.89db500000000p-6, -0x1.13daf80000000p-6, 0x1.43f4c00000000p-6, 0x1.65b9bc0000000p-4, 0x1.632c400000000p-8, 0x1.6d9b0c0000000p-4, -0x1.2431000000000p-7, -0x1.e1cec00000000p-7, 0x1.4a96100000000p-4, 0x1.7e42580000000p-5, -0x1.a9d09c0000000p-5, 0x1.0d7ccc0000000p-4, -0x1.2fc2d20000000p-5, 0x1.c86cc00000000p-5, -0x1.7d4a540000000p-5, 0x1.4eb1140000000p-4, 0x1.6803700000000p-4, 0x1.7489c00000000p-4, 0x1.9e13080000000p-5, 0x1.2406c00000000p-8, -0x1.81bbb20000000p-4, -0x1.0a36e20000000p-5, 0x1.cda4200000000p-5, 0x1.60b5280000000p-4, 0x1.30abe00000000p-8, -0x1.3fd1e80000000p-6, -0x1.5f1f400000000p-9, 0x1.982db00000000p-5, -0x1.3866f20000000p-4, 0x1.bb9f680000000p-6, -0x1.2f56800000000p-8, -0x1.262aa80000000p-6, -0x1.7ae9500000000p-6, 0x1.6d59f80000000p-4, 0x1.51bc800000000p-5, -0x1.7f19d40000000p-4, -0x1.53e3700000000p-4, 0x1.7e16940000000p-4, 0x1.6a43980000000p-4, 0x1.b0c0200000000p-5, 0x1.1760e00000000p-6, 0x1.5d06d00000000p-4, -0x1.9a29260000000p-5, 0x1.3697600000000p-7, 0x1.9fd1000000000p-7, 0x1.69e8280000000p-4, 0x1.bcf7400000000p-6, 0x1.65faa40000000p-4, -0x1.0f01d80000000p-4, -0x1.9f431a0000000p-5, -0x1.1c42300000000p-6, 0x1.0722080000000p-4, 0x1.36e7cc0000000p-4, 0x1.51a3d00000000p-6, 0x1.42ce400000000p-8, -0x1.d7937c0000000p-5, 0x1.7315900000000p-5, 0x1.7f57080000000p-6, 0x1.6760ac0000000p-4, -0x1.b516900000000p-7, 0x1.1737080000000p-6, -0x1.0f3c220000000p-4, 0x1.3e39e40000000p-4, 0x1.95c9400000000p-6, -0x1.938c440000000p-5, 0x1.cff1a00000000p-5, 0x1.98c5080000000p-6, -0x1.871c1e0000000p-5, -0x1.d7f9f00000000p-5, 0x1.f230800000000p-5, -0x1.b936200000000p-8, 0x1.e666880000000p-5, -0x1.8d1cd80000000p-5, -0x1.47262c0000000p-4, -0x1.de7a800000000p-7, -0x1.270bd40000000p-4, -0x1.2197b20000000p-5, 0x1.472bf80000000p-4, -0x1.b095c40000000p-5, -0x1.91a0ac0000000p-5, -0x1.d54c680000000p-5, -0x1.1492b80000000p-4, 0x1.2772380000000p-5, -0x1.20c3080000000p-4, 0x1.d6b2800000000p-6, -0x1.0894660000000p-5, 0x1.27ca9c0000000p-4, 0x1.92ced00000000p-6, 0x1.fcfb200000000p-7, -0x1.012c300000000p-4, -0x1.3173d20000000p-5, 0x1.711a100000000p-5, -0x1.8802a80000000p-6, -0x1.1a05c40000000p-4, -0x1.426d1e0000000p-4, 0x1.bd47f00000000p-7, 0x1.0151e80000000p-5, -0x1.dda67c0000000p-5, -0x1.cdce200000000p-8, 0x1.4db9f00000000p-4, -0x1.4ce0ce0000000p-5, -0x1.68703c0000000p-5, 0x1.1e30a00000000p-5, -0x1.640c880000000p-6, 0x1.5c36a00000000p-8, 0x1.325ae40000000p-4, 0x1.5919180000000p-5, -0x1.179de40000000p-4, 0x1.f54c600000000p-7, 0x1.5804900000000p-7, -0x1.8842b80000000p-5, -0x1.6571da0000000p-4, -0x1.10699c0000000p-4, 0x1.b14af80000000p-6, 0x1.ba79d80000000p-5, 0x1.4891c40000000p-4, 0x1.ca94e00000000p-5, -0x1.352b240000000p-4, 0x1.b07fa80000000p-6, -0x1.162a040000000p-4, 0x1.f4bbe00000000p-8, -0x1.a6ca860000000p-5, -0x1.76b9200000000p-8, -0x1.30deae0000000p-4, -0x1.93276a0000000p-5, -0x1.4169c80000000p-4, -0x1.8e84800000000p-5, -0x1.bb1dc00000000p-8, 0x1.ab7dc00000000p-6, 0x1.a7db200000000p-8, 0x1.3f90400000000p-5, 0x1.3da8b80000000p-6, -0x1.92b1400000000p-8, -0x1.12ff600000000p-6, 0x1.fd96300000000p-5, -0x1.2b5aa00000000p-4, -0x1.1526d00000000p-4, -0x1.825dee0000000p-5, -0x1.7638220000000p-4, 0x1.fae6400000000p-7, 0x1.68a2700000000p-5, -0x1.45bdb00000000p-6, 0x1.6a30c40000000p-4, -0x1.906bfe0000000p-5, 0x1.eacc500000000p-6, -0x1.179a2a0000000p-4, -0x1.4846760000000p-5, -0x1.25952e0000000p-4, 0x1.1e6c400000000p-4, -0x1.4f07b00000000p-4, 0x1.6a82940000000p-4, 0x1.161ab40000000p-4, 0x1.4600cc0000000p-4, 0x1.71d6c00000000p-5, -0x1.7ada960000000p-4, -0x1.3966e40000000p-4, -0x1.3115160000000p-5, 0x1.812f700000000p-4, 0x1.24477c0000000p-4, -0x1.97b38a0000000p-5, -0x1.2abcf00000000p-5, -0x1.d6bc800000000p-6, -0x1.33fa200000000p-7, 0x1.570f640000000p-4, 0x1.6628b00000000p-4, -0x1.f6d7f20000000p-5, 0x1.5ba4a00000000p-4, -0x1.023af80000000p-4, 0x1.75c6340000000p-4, 0x1.683d380000000p-4, -0x1.d217f00000000p-6, 0x1.f545d00000000p-5, -0x1.cfd8ac0000000p-5, 0x1.54fb200000000p-7, -0x1.bf37600000000p-6, -0x1.36e6200000000p-7, -0x1.6271b00000000p-6, 0x1.05cf940000000p-4, 0x1.0d5ac80000000p-5, 0x1.fe17000000000p-5, 0x1.5ec5d00000000p-6, -0x1.02eeb00000000p-6, -0x1.592ffc0000000p-4, -0x1.f823800000000p-8, -0x1.3af0c40000000p-5, -0x1.b2741e0000000p-5, -0x1.6abd7a0000000p-5, 0x1.ee47600000000p-7, 0x1.3bfb600000000p-7, -0x1.000d860000000p-4, -0x1.5a50020000000p-4, -0x1.bebd500000000p-5, 0x1.b1ab880000000p-5, 0x1.78ef400000000p-5, 0x1.ed0fe80000000p-5, 0x1.6ab7d80000000p-4, 0x1.2955f00000000p-4, 0x1.9a71300000000p-5, -0x1.5238c00000000p-4, -0x1.89e6800000000p-7, 0x1.18b1dc0000000p-4, 0x1.293ef00000000p-7, 0x1.6f08a80000000p-4, -0x1.6501a80000000p-6, -0x1.dba1bc0000000p-5, 0x1.17c2fc0000000p-4, -0x1.24de080000000p-4, 0x1.3a2b7c0000000p-4, -0x1.d953140000000p-5, 0x1.47c7d80000000p-5, 0x1.2e1bd00000000p-5, -0x1.eab1840000000p-5, -0x1.d3cb220000000p-5, 0x1.39e4a80000000p-5, 0x1.7aeb400000000p-5, 0x1.6157400000000p-4, 0x1.7fce400000000p-5, 0x1.a57e880000000p-5, -0x1.3578000000000p-8, 0x1.4703c80000000p-4, 0x1.845f780000000p-5, -0x1.24cfce0000000p-5, -0x1.3b98700000000p-4, -0x1.8eded80000000p-5, 0x1.d8d2a80000000p-6, 0x1.abccc00000000p-8, 0x1.5bc2400000000p-5, 0x1.6556980000000p-4, -0x1.654dfa0000000p-5, -0x1.2047800000000p-4, -0x1.4f64e20000000p-5, -0x1.74a5b00000000p-5, -0x1.89c5440000000p-5, 0x1.3160400000000p-4, -0x1.16c5500000000p-6, -0x1.8043160000000p-4, -0x1.31661c0000000p-4, -0x1.f7dd000000000p-5, -0x1.7aae500000000p-7, -0x1.5d99800000000p-10, 0x1.2d14980000000p-4, -0x1.1245960000000p-5, -0x1.7137560000000p-4, 0x1.1e40000000000p-11, 0x1.1d0e280000000p-5, -0x1.0c94480000000p-5, 0x1.41ca9c0000000p-4, 0x1.2447280000000p-4, 0x1.1995900000000p-5, -0x1.06ac500000000p-4, 0x1.8e39c80000000p-6, -0x1.b7d73c0000000p-5, -0x1.10c5660000000p-5, 0x1.46f6300000000p-5, 0x1.a507380000000p-5, -0x1.355a140000000p-4, -0x1.71f0520000000p-4, -0x1.3340a00000000p-4, 0x1.607a500000000p-6, 0x1.1b6ab00000000p-5, 0x1.1a75580000000p-4, -0x1.9ab3800000000p-10, -0x1.f6ed3c0000000p-5, 0x1.53cbb00000000p-5, -0x1.187d000000000p-11, 0x1.548ed00000000p-4, 0x1.7180280000000p-4, 0x1.1ee9780000000p-6, -0x1.393f1e0000000p-4, -0x1.e1ef3e0000000p-5, -0x1.85a1e00000000p-8, 0x1.de55c00000000p-5, -0x1.3a710a0000000p-4, 0x1.e11f480000000p-5, 0x1.6d75640000000p-4, 0x1.57f26c0000000p-4, -0x1.1c735a0000000p-4, -0x1.525f980000000p-4, -0x1.3810a60000000p-4, 0x1.ece8b80000000p-5, 0x1.7ef4980000000p-5, 0x1.2b26500000000p-5, -0x1.7fbc820000000p-4, 0x1.5d87300000000p-5, 0x1.c54fb00000000p-5, -0x1.fd5f7c0000000p-5, -0x1.2496da0000000p-4, -0x1.1a76c00000000p-4, -0x1.111d280000000p-5, -0x1.418d800000000p-8, -0x1.3146740000000p-5, 0x1.05f6900000000p-4, 0x1.0ac7440000000p-4, -0x1.24bfee0000000p-4, 0x1.7cdc740000000p-4, -0x1.8076dc0000000p-5, 0x1.4b06a40000000p-4, -0x1.2167640000000p-4, 0x1.1cfa000000000p-9, -0x1.d611080000000p-5, -0x1.ae930a0000000p-5, -0x1.501c260000000p-4, 0x1.4daee40000000p-4, 0x1.54cea40000000p-4, -0x1.d1cdc80000000p-5, -0x1.178abe0000000p-4, 0x1.c6f0600000000p-7, -0x1.d1c3400000000p-9, -0x1.7d1dd00000000p-6, 0x1.34bd540000000p-4, -0x1.722e700000000p-6, -0x1.2c706c0000000p-4, 0x1.7694b80000000p-6, -0x1.3e55540000000p-4, -0x1.b551a60000000p-5, -0x1.1300b00000000p-6, 0x1.6543bc0000000p-4, 0x1.0553240000000p-4, -0x1.49e7f60000000p-4, -0x1.6b14000000000p-8, 0x1.ad25800000000p-7, -0x1.25c3400000000p-5, -0x1.298b380000000p-4, -0x1.0716a80000000p-5, -0x1.315a9e0000000p-5, 0x1.bffba00000000p-8, 0x1.7786600000000p-6, -0x1.1f9ce20000000p-4, -0x1.d53f080000000p-5, -0x1.27c6840000000p-4, -0x1.1451b00000000p-4, -0x1.4f60200000000p-5, -0x1.b0ac900000000p-5, -0x1.3d3a860000000p-5, -0x1.0018800000000p-9, 0x1.8ecf400000000p-5, 0x1.e595e80000000p-6, 0x1.4392d40000000p-4, -0x1.dae9980000000p-6, 0x1.592c800000000p-4, -0x1.3948800000000p-8, 0x1.ab28900000000p-5, -0x1.4f0d380000000p-5, 0x1.1a4eac0000000p-4, 0x1.2fb3240000000p-4, 0x1.afd7e00000000p-6, 0x1.1ba5700000000p-6, -0x1.0617140000000p-4, -0x1.f6a5360000000p-5, 0x1.80a5640000000p-4, 0x1.cbe0e00000000p-5, -0x1.385fdc0000000p-4, -0x1.72d9d80000000p-5, -0x1.7951d20000000p-4, 0x1.499b900000000p-6, -0x1.a7b54c0000000p-5, -0x1.3e910e0000000p-4, -0x1.0f7c380000000p-6, -0x1.5a4f0c0000000p-4, -0x1.98965a0000000p-5, 0x1.a0b9800000000p-5, 0x1.1d60800000000p-6, 0x1.6256c80000000p-4, -0x1.2aab5e0000000p-5, 0x1.2c85100000000p-5, 0x1.3898dc0000000p-4, -0x1.3f40200000000p-4, -0x1.1d9e800000000p-9, 0x1.4e3b600000000p-5, -0x1.ede50e0000000p-5, 0x1.292d640000000p-4, -0x1.0e1e640000000p-4, 0x1.55d8100000000p-5, 0x1.4479a80000000p-4, 0x1.b837f00000000p-6, -0x1.35d96e0000000p-4, 0x1.43b3e00000000p-5, -0x1.04c8900000000p-6, -0x1.32f5400000000p-6, 0x1.2e4db00000000p-5, -0x1.0338b00000000p-5, 0x1.7c6a700000000p-4, 0x1.1057a00000000p-7, 0x1.d5bd780000000p-5, 0x1.fd24600000000p-8, -0x1.7bbaf20000000p-4, 0x1.3280e80000000p-4, 0x1.1e561c0000000p-4, 0x1.1db9580000000p-4, -0x1.3776300000000p-6, -0x1.2543d40000000p-4, 0x1.02c1600000000p-8, 0x1.acb8c00000000p-5, -0x1.6c78e20000000p-4, -0x1.276cf00000000p-5, 0x1.374be80000000p-4, 0x1.2a903c0000000p-4, -0x1.c2cc000000000p-13, -0x1.b62fe40000000p-5, -0x1.1cf1fe0000000p-5, -0x1.2596600000000p-4, -0x1.33c8880000000p-4, 0x1.746c4c0000000p-4, 0x1.ecd3d00000000p-6, -0x1.ac62700000000p-5, -0x1.8694080000000p-5, -0x1.eafd500000000p-6, -0x1.075b320000000p-5, -0x1.5e70c00000000p-6, 0x1.3f26ec0000000p-4, -0x1.8342c40000000p-5, 0x1.881c000000000p-9, 0x1.499f300000000p-5, 0x1.07f1000000000p-8, -0x1.4ab8e00000000p-8, -0x1.569b780000000p-5, 0x1.22cab00000000p-5, 0x1.8027580000000p-5, 0x1.81735c0000000p-4, -0x1.59ec800000000p-6, -0x1.737a060000000p-4, -0x1.187fa80000000p-6, -0x1.078e400000000p-4, 0x1.efbb380000000p-5, -0x1.42d2ea0000000p-5, 0x1.77b8000000000p-4, 0x1.b387500000000p-5, -0x1.59f45e0000000p-4, 0x1.0620a00000000p-6, 0x1.5052580000000p-5, 0x1.44db600000000p-5, -0x1.5fa2400000000p-9, 0x1.a5e4080000000p-6, -0x1.c7a1800000000p-7, 0x1.a286c00000000p-7, 0x1.da8d900000000p-5, -0x1.4e246c0000000p-4, 0x1.7ea4d80000000p-4, 0x1.84d1680000000p-5, -0x1.a52a100000000p-6, 0x1.ea83700000000p-5, 0x1.c657d80000000p-6, -0x1.2e0cc00000000p-6, -0x1.02744c0000000p-5, -0x1.7400340000000p-5, -0x1.19a8ce0000000p-4, -0x1.6d13ee0000000p-4, 0x1.8703780000000p-5, -0x1.b742780000000p-5, -0x1.05ab840000000p-4, 0x1.e95c500000000p-7, 0x1.29f8a80000000p-5, 0x1.af9cc00000000p-8, 0x1.2849300000000p-7, 0x1.446fcc0000000p-4}
, {0x1.b501c00000000p-5, 0x1.236f480000000p-5, 0x1.773b780000000p-5, -0x1.f370900000000p-7, -0x1.01e9c00000000p-8, 0x1.4216040000000p-4, 0x1.26cd000000000p-4, 0x1.5a47d80000000p-5, 0x1.6d12240000000p-4, -0x1.5719e80000000p-6, -0x1.1cc84e0000000p-5, -0x1.ed0cb00000000p-6, -0x1.54101e0000000p-4, 0x1.0fd5dc0000000p-4, 0x1.3c26580000000p-5, 0x1.4c17e80000000p-4, 0x1.2150600000000p-5, 0x1.627bc00000000p-6, -0x1.c345560000000p-5, 0x1.399c300000000p-6, 0x1.67daf00000000p-4, -0x1.10a0040000000p-4, -0x1.0748e40000000p-4, -0x1.65d46c0000000p-5, -0x1.b736000000000p-8, -0x1.c511380000000p-6, -0x1.1d82960000000p-4, -0x1.5d4b400000000p-8, 0x1.0b0e9c0000000p-4, -0x1.f32cfc0000000p-5, 0x1.6354580000000p-6, 0x1.1098000000000p-10, 0x1.378bb80000000p-4, -0x1.1b31680000000p-4, 0x1.c9b6800000000p-10, 0x1.3a7c500000000p-7, 0x1.ffdc900000000p-6, 0x1.0f7c080000000p-4, 0x1.004fbc0000000p-4, 0x1.04fd400000000p-4, -0x1.3381600000000p-4, 0x1.17e5340000000p-4, -0x1.8d6d280000000p-6, 0x1.82d7680000000p-5, -0x1.364aa00000000p-4, 0x1.1067d80000000p-5, 0x1.7e0c380000000p-4, -0x1.6dfbb00000000p-7, -0x1.4197120000000p-5, 0x1.6f3c340000000p-4, 0x1.b60b700000000p-6, -0x1.ebc0300000000p-5, 0x1.edb3000000000p-9, 0x1.e755c80000000p-5, -0x1.c668f00000000p-7, -0x1.fe992a0000000p-5, 0x1.8d55400000000p-9, -0x1.2710a40000000p-4, 0x1.99e2500000000p-7, 0x1.39a5a80000000p-5, 0x1.4cfd100000000p-6, 0x1.6446180000000p-6, -0x1.5036500000000p-5, -0x1.a7b7500000000p-7, -0x1.4f2a0c0000000p-4, -0x1.5f807c0000000p-4, 0x1.3054480000000p-4, 0x1.392e800000000p-5, -0x1.4de2f00000000p-7, -0x1.7958ac0000000p-5, -0x1.992c860000000p-5, -0x1.2860920000000p-4, -0x1.f7f4000000000p-9, -0x1.d7ea000000000p-11, 0x1.51b3000000000p-7, 0x1.7156080000000p-5, -0x1.06a1080000000p-4, -0x1.5b2d900000000p-6, -0x1.e6d3bc0000000p-5, 0x1.2d7ef00000000p-5, -0x1.a992e00000000p-8, 0x1.1e28c80000000p-4, -0x1.71376e0000000p-4, 0x1.d082280000000p-5, 0x1.d232c00000000p-9, -0x1.163c800000000p-4, 0x1.9c19780000000p-5, -0x1.17fa580000000p-6, 0x1.50aa080000000p-4, 0x1.37d8e80000000p-4, -0x1.2b34040000000p-4, 0x1.7d91c80000000p-6, 0x1.4b80ac0000000p-4, -0x1.4de9360000000p-4, 0x1.34f2580000000p-4, 0x1.e672600000000p-7, -0x1.327fa20000000p-4, 0x1.ab5b000000000p-11, -0x1.dd95020000000p-5, 0x1.755b000000000p-4, -0x1.677b0c0000000p-4, -0x1.205f200000000p-4, -0x1.3abb780000000p-4, 0x1.a7b9500000000p-5, -0x1.f43ed00000000p-5, -0x1.71f2ee0000000p-4, 0x1.ba5aa80000000p-6, 0x1.5798840000000p-4, -0x1.054e800000000p-9, 0x1.79a1200000000p-8, 0x1.e87cb80000000p-5, 0x1.a98d400000000p-6, 0x1.1fdcb80000000p-5, 0x1.e0ce500000000p-7, 0x1.d6fb880000000p-5, -0x1.27fa000000000p-9, -0x1.5970100000000p-7, -0x1.41911c0000000p-4, 0x1.875da80000000p-5, 0x1.a48a480000000p-5, 0x1.bd48a00000000p-5, -0x1.cd84e00000000p-7, -0x1.9137700000000p-5, -0x1.59709c0000000p-4, -0x1.27992c0000000p-5, 0x1.5f8b300000000p-6, -0x1.7550a20000000p-5, 0x1.7996700000000p-6, -0x1.75bdb60000000p-4, -0x1.9cb7e80000000p-6, -0x1.36b4240000000p-4, -0x1.a9427e0000000p-5, -0x1.5c1b380000000p-5, 0x1.43ad400000000p-4, -0x1.1240080000000p-4, -0x1.4126ea0000000p-5, -0x1.91e9200000000p-7, 0x1.80cdd80000000p-4, -0x1.9ed8be0000000p-5, -0x1.7486080000000p-5, -0x1.6c0dac0000000p-5, 0x1.7bcad80000000p-4, -0x1.695f940000000p-5, -0x1.3dae800000000p-8, -0x1.69ec240000000p-5, -0x1.449be20000000p-4, -0x1.0541a00000000p-4, 0x1.74d0780000000p-5, 0x1.d12c300000000p-7, -0x1.382e900000000p-7, 0x1.74efe80000000p-4, -0x1.29a3280000000p-6, -0x1.1617e00000000p-4, 0x1.144a200000000p-4, 0x1.4628200000000p-5, -0x1.607b280000000p-5, 0x1.1dee700000000p-5, -0x1.1771580000000p-6, -0x1.6a9edc0000000p-4, -0x1.6190ac0000000p-4, 0x1.5daba00000000p-5, -0x1.16d9640000000p-4, -0x1.2582da0000000p-4, 0x1.7ad5000000000p-9, 0x1.6926800000000p-5, 0x1.0b20180000000p-5, 0x1.f898e00000000p-6, -0x1.2ed9220000000p-5, 0x1.e04ec00000000p-7, 0x1.b9e1f80000000p-5, -0x1.5becd20000000p-5, -0x1.50af0c0000000p-4, 0x1.4cd8000000000p-13, 0x1.a268000000000p-14, -0x1.e6b91e0000000p-5, 0x1.8ea8000000000p-11, -0x1.dd8fc00000000p-7, 0x1.a0ee800000000p-5, 0x1.80c5900000000p-4, -0x1.1665640000000p-4, -0x1.41ce6c0000000p-5, 0x1.60bc100000000p-6, 0x1.3e60080000000p-5, 0x1.6c1fc00000000p-5, -0x1.07e8c40000000p-4, 0x1.25e0ac0000000p-4, -0x1.43cc740000000p-4, -0x1.6d61d00000000p-6, 0x1.4fccd80000000p-6, -0x1.39612c0000000p-4, 0x1.0ff9000000000p-4, -0x1.6f51a00000000p-7, -0x1.7d96d00000000p-7, -0x1.d65a160000000p-5, -0x1.457c940000000p-5, -0x1.2c1ad00000000p-4, 0x1.36e0380000000p-6, 0x1.6365300000000p-4, -0x1.5b93820000000p-5, -0x1.71f6460000000p-5, 0x1.ff5fb80000000p-5, -0x1.52e8760000000p-4, -0x1.e8e39a0000000p-5, -0x1.42e4d00000000p-5, -0x1.6c81e20000000p-5, -0x1.678ac00000000p-9, -0x1.830c200000000p-8, 0x1.acc8b80000000p-5, -0x1.c54daa0000000p-5, -0x1.223e060000000p-5, -0x1.1369740000000p-4, -0x1.fd9b400000000p-6, 0x1.86f7480000000p-6, 0x1.cfddc00000000p-6, 0x1.75a0b80000000p-4, -0x1.d5dc400000000p-7, -0x1.8007740000000p-4, 0x1.32b0c00000000p-5, 0x1.d0bb180000000p-5, -0x1.66aefc0000000p-5, -0x1.76b2c80000000p-6, -0x1.a4efe00000000p-8, -0x1.a511000000000p-8, -0x1.7ed03a0000000p-5, 0x1.61e3e00000000p-6, -0x1.c8ed400000000p-9, 0x1.092f240000000p-4, -0x1.d3b9000000000p-5, -0x1.1616a80000000p-5, -0x1.07c9040000000p-4, -0x1.a4d3b80000000p-5, -0x1.2e81240000000p-4, 0x1.3a00100000000p-5, 0x1.ee44000000000p-7, 0x1.4e40500000000p-4, 0x1.2f95100000000p-7, -0x1.8783200000000p-8, 0x1.2b73480000000p-5, 0x1.799c080000000p-5, -0x1.05d6560000000p-5, 0x1.64340c0000000p-4, 0x1.ec77400000000p-5, -0x1.037b5c0000000p-4, -0x1.e5c4800000000p-5, -0x1.62ec6e0000000p-5, -0x1.3c4b220000000p-5, 0x1.7363040000000p-4, 0x1.f523900000000p-5, -0x1.fe516c0000000p-5, -0x1.4d56a00000000p-8, -0x1.372c600000000p-8, 0x1.643eac0000000p-4, 0x1.3df4b00000000p-5, -0x1.6b8bd80000000p-4, 0x1.3b33a80000000p-6, -0x1.30b4480000000p-4, -0x1.2e4a5a0000000p-5, 0x1.37bd580000000p-4, 0x1.e8f5800000000p-8, 0x1.07db900000000p-5, 0x1.5648100000000p-4, -0x1.071f160000000p-4, 0x1.07a7e00000000p-5, 0x1.3e61b80000000p-4, 0x1.423b400000000p-9, 0x1.c4c3400000000p-7, -0x1.2c96e40000000p-4, 0x1.4ec2f40000000p-4, -0x1.5461ba0000000p-4, -0x1.9482340000000p-5, -0x1.a1f6700000000p-7, -0x1.3e75000000000p-5, 0x1.5709480000000p-5, 0x1.0dd8400000000p-4, 0x1.293b240000000p-4, 0x1.3e8ec80000000p-6, -0x1.654c780000000p-6, -0x1.12cfe80000000p-6, 0x1.9dcfa00000000p-5, -0x1.59b0100000000p-5, -0x1.4bd0100000000p-6, -0x1.d0447e0000000p-5, -0x1.5f08f40000000p-4, -0x1.1bff660000000p-4, -0x1.c1142a0000000p-5, 0x1.0d63800000000p-4, 0x1.6da6900000000p-4, -0x1.0abb480000000p-6, -0x1.4931060000000p-4, 0x1.f496e00000000p-8, -0x1.729e120000000p-5, 0x1.17a1580000000p-5, -0x1.f7b4c80000000p-6, -0x1.4c94080000000p-6, 0x1.b05bc00000000p-7, 0x1.0bc6580000000p-4, 0x1.fc4d300000000p-5, 0x1.2af4d00000000p-7, -0x1.e388c80000000p-5, -0x1.e93ec00000000p-5, -0x1.2093940000000p-5, 0x1.6102880000000p-5, -0x1.0531f00000000p-5, -0x1.8a70e00000000p-5, 0x1.c67c380000000p-6, -0x1.12f63c0000000p-5, -0x1.5b9f780000000p-5, 0x1.6226f00000000p-7, 0x1.88a9800000000p-6, 0x1.301fbc0000000p-4, -0x1.bfac400000000p-7, 0x1.da57180000000p-5, 0x1.4fcca80000000p-5, -0x1.bdd0d80000000p-5, 0x1.c891600000000p-7, 0x1.b6ae080000000p-5, -0x1.50649e0000000p-4, 0x1.0780500000000p-6, -0x1.05a1340000000p-4, 0x1.2fa9a00000000p-4, 0x1.4532300000000p-5, -0x1.c588800000000p-7, -0x1.dfd76a0000000p-5, -0x1.3109c80000000p-5, -0x1.211a8e0000000p-4, 0x1.feb9e80000000p-5, 0x1.ba9ba80000000p-5, -0x1.f746080000000p-5, 0x1.7701900000000p-7, 0x1.960b500000000p-6, 0x1.2656700000000p-6, -0x1.fac4d80000000p-5, -0x1.4269ba0000000p-4, -0x1.a665260000000p-5, -0x1.b36b400000000p-7, 0x1.c005380000000p-6, 0x1.649cf80000000p-5, -0x1.b86c760000000p-5, -0x1.b5e44a0000000p-5, 0x1.7d86980000000p-6, 0x1.804c000000000p-6, 0x1.0ef3c80000000p-4, 0x1.5168c00000000p-7, 0x1.c8aab80000000p-6, 0x1.196e980000000p-5, 0x1.57aa700000000p-4, 0x1.061f580000000p-4, -0x1.4b812a0000000p-4, -0x1.6cfb880000000p-4, 0x1.0082f80000000p-6, -0x1.fa71cc0000000p-5, -0x1.e6900a0000000p-5, 0x1.6a49080000000p-6, -0x1.1ac7a80000000p-5, 0x1.19f6e80000000p-4, 0x1.a11ba80000000p-6, 0x1.4490c80000000p-6, -0x1.ec75500000000p-6, -0x1.7570200000000p-4, 0x1.76a7b40000000p-4, 0x1.45ebc00000000p-4, 0x1.71d8380000000p-4, -0x1.7627800000000p-7, -0x1.578ca60000000p-5, -0x1.cb25080000000p-6, -0x1.0eaae80000000p-4, 0x1.d264000000000p-12, 0x1.29c0e00000000p-5, -0x1.586ae40000000p-5, -0x1.f285020000000p-5, -0x1.3429600000000p-8, 0x1.3649bc0000000p-4, 0x1.0e9f940000000p-4, -0x1.5990000000000p-13, -0x1.b079300000000p-7, 0x1.4f69a00000000p-6, 0x1.e1a2500000000p-5, 0x1.7b7bc00000000p-5, 0x1.9655e00000000p-5, 0x1.2d61380000000p-5, -0x1.7b07e60000000p-4, -0x1.188ff00000000p-6, 0x1.5206b00000000p-5, -0x1.6907c60000000p-5, 0x1.d06ea80000000p-6, 0x1.4fe9cc0000000p-4, 0x1.7ebe100000000p-7, -0x1.723af80000000p-6, 0x1.3095740000000p-4, 0x1.6369e80000000p-5, 0x1.75e1c00000000p-4, 0x1.6355440000000p-4, -0x1.d539da0000000p-5, -0x1.7d4a0c0000000p-4, -0x1.9b10280000000p-5, 0x1.a96ab00000000p-6, -0x1.038d3c0000000p-5, 0x1.a167980000000p-6, 0x1.0327f40000000p-4, -0x1.28bfe80000000p-6, -0x1.293d120000000p-5, 0x1.8493100000000p-5, 0x1.3a032c0000000p-4, -0x1.7798000000000p-9, -0x1.ba76280000000p-6, 0x1.47b2e00000000p-5, -0x1.2cc5000000000p-11, 0x1.fea5c80000000p-5, -0x1.0c07000000000p-9, 0x1.6f66480000000p-6, -0x1.b42b7a0000000p-5, -0x1.a558fa0000000p-5, 0x1.97fdc80000000p-5, -0x1.a1b87c0000000p-5, 0x1.aabdf00000000p-7, 0x1.79ac6c0000000p-4, -0x1.4928000000000p-9, 0x1.0b09c00000000p-9, 0x1.5c6c180000000p-5, -0x1.58a5ea0000000p-4, 0x1.e663180000000p-6, -0x1.55939c0000000p-4, -0x1.62cc380000000p-6, 0x1.353e780000000p-4, -0x1.78cefc0000000p-5, -0x1.0b35c00000000p-7, 0x1.58978c0000000p-4, -0x1.3eb0d40000000p-4, 0x1.35923c0000000p-4, 0x1.e88c500000000p-5, -0x1.25224a0000000p-4, 0x1.1202400000000p-7, 0x1.51b6400000000p-9, 0x1.0a97e00000000p-5, -0x1.753e740000000p-5, 0x1.fce4c00000000p-9, -0x1.222d380000000p-6, -0x1.490e6c0000000p-4, -0x1.d336e40000000p-5, 0x1.2b62a80000000p-6, -0x1.2811920000000p-5, 0x1.1603f00000000p-5, -0x1.7d56600000000p-8, -0x1.eabba40000000p-5, 0x1.56e0400000000p-6, 0x1.436a000000000p-4, -0x1.bd3edc0000000p-5, 0x1.3fbf600000000p-4, 0x1.e59bf00000000p-6, 0x1.0f92b00000000p-4, -0x1.17001c0000000p-5, -0x1.809d5e0000000p-4, 0x1.2fa8e00000000p-5, -0x1.0566a60000000p-4, 0x1.11c7340000000p-4, -0x1.23b4780000000p-5, 0x1.35cedc0000000p-4, 0x1.744ab80000000p-6, -0x1.aa79a00000000p-5, 0x1.0e66c40000000p-4, 0x1.a73af00000000p-7, 0x1.89a6800000000p-5, -0x1.19ce240000000p-4, -0x1.bc89160000000p-5, -0x1.654d220000000p-5, -0x1.f1afc00000000p-7, -0x1.a664100000000p-6, -0x1.80fb5e0000000p-5, -0x1.2472880000000p-4, -0x1.ef98140000000p-5, 0x1.1644700000000p-7, 0x1.ce07700000000p-7, 0x1.7571e00000000p-7, -0x1.8eeee00000000p-6, 0x1.68c2bc0000000p-4, -0x1.9613e00000000p-6, -0x1.5a3a140000000p-4, -0x1.6dec000000000p-8, 0x1.5587a00000000p-5, 0x1.20de500000000p-7, 0x1.3287ac0000000p-4, -0x1.ab9b2e0000000p-5, 0x1.10b3500000000p-4, -0x1.f69d580000000p-6, 0x1.40c9580000000p-4, 0x1.3d14100000000p-4, 0x1.4200a00000000p-5, -0x1.6cf7b00000000p-5, -0x1.086ee60000000p-5, -0x1.9bf3c00000000p-7, 0x1.f91e100000000p-5, 0x1.3c0c880000000p-4, 0x1.977ea00000000p-5, -0x1.09b6ce0000000p-5, -0x1.79af760000000p-4, -0x1.532a440000000p-5, -0x1.4379380000000p-4, 0x1.473c800000000p-4, 0x1.84c9900000000p-5, 0x1.0d7e500000000p-5, 0x1.660b280000000p-4, 0x1.3703600000000p-4, 0x1.efa3480000000p-5, -0x1.32bf3a0000000p-4, -0x1.0e198a0000000p-4, -0x1.6bd42e0000000p-4, 0x1.cc28500000000p-6, -0x1.89e8700000000p-7, -0x1.ae6f100000000p-6, -0x1.079ae00000000p-4, 0x1.06fc540000000p-4, 0x1.95aa800000000p-8, 0x1.7720e00000000p-5, -0x1.07d0040000000p-4, -0x1.818f220000000p-5, -0x1.625f800000000p-7, 0x1.9884380000000p-5, -0x1.7882f40000000p-5, 0x1.329ce80000000p-5, -0x1.81466e0000000p-4, -0x1.591c020000000p-4, -0x1.2438800000000p-5, -0x1.4565b00000000p-4, 0x1.ddade00000000p-5, -0x1.1e260a0000000p-4, -0x1.1d12540000000p-4, 0x1.0fdd540000000p-4, 0x1.6ff4b00000000p-4, 0x1.41fe600000000p-4, 0x1.3c40400000000p-5, -0x1.68afd40000000p-5, -0x1.6105740000000p-4, -0x1.773abe0000000p-4, 0x1.ff83e00000000p-8, 0x1.8453b00000000p-6, -0x1.c5f3920000000p-5, -0x1.f167e00000000p-6, 0x1.7df36c0000000p-4, 0x1.3c51d00000000p-5, -0x1.c2ff7a0000000p-5, -0x1.0736bc0000000p-5, -0x1.6e2d080000000p-6, 0x1.5560300000000p-5, -0x1.b70d9e0000000p-5, -0x1.041ff00000000p-6, -0x1.6fc8580000000p-6, -0x1.560e100000000p-6, -0x1.c369180000000p-6, 0x1.296b180000000p-6, 0x1.67bb800000000p-5, -0x1.382fca0000000p-4, 0x1.885d300000000p-6, -0x1.2b0db20000000p-4, -0x1.0d79aa0000000p-4, -0x1.11769c0000000p-4, 0x1.2176d00000000p-6, 0x1.2528140000000p-4, -0x1.9bb1360000000p-5, -0x1.6be4600000000p-7, 0x1.072b800000000p-8, 0x1.a311800000000p-9, 0x1.0039880000000p-5, -0x1.ebe32e0000000p-5, 0x1.3d15d00000000p-7, -0x1.6a7cc20000000p-5, -0x1.470cd00000000p-4, -0x1.7717600000000p-8, -0x1.5b5de60000000p-4, -0x1.f51a900000000p-5, -0x1.70bac00000000p-6, -0x1.dae68a0000000p-5, -0x1.24aa1e0000000p-5, 0x1.db57500000000p-5, -0x1.6a34300000000p-4, 0x1.6b28a40000000p-4, -0x1.91fc880000000p-6}
