/**
  ******************************************************************************
  * @file    weights/fc.cc
  * @author  Pierre-Emmanuel Novac <penovac@unice.fr>, LEAT, CNRS, Université Côte d'Azur, France
  * @version 1.0.0
  * @date    24 march 2020
  * @brief   Template generating plain C code for the implementation of Convolutional Neural Networks on MCU
  */

#include <stdint.h>

#define INPUT_SAMPLES 100
#define FC_UNITS 10


const float dense_3_bias[FC_UNITS] = {0x0.0p+0, 0x0.0p+0, 0x0.0p+0, 0x0.0p+0, 0x0.0p+0, 0x0.0p+0, 0x0.0p+0, 0x0.0p+0, 0x0.0p+0, 0x0.0p+0}
;

const float dense_3_kernel[FC_UNITS][INPUT_SAMPLES] = {{-0x1.2515f00000000p-6, 0x1.9874740000000p-3, -0x1.bb74cc0000000p-3, 0x1.59ddec0000000p-3, 0x1.5233900000000p-5, 0x1.058c000000000p-5, -0x1.a484200000000p-3, 0x1.7895f80000000p-4, 0x1.0e7a000000000p-5, 0x1.b78a940000000p-3, -0x1.d5c6a00000000p-7, -0x1.59fe4c0000000p-3, -0x1.b6929a0000000p-3, 0x1.2356800000000p-4, 0x1.2aec540000000p-3, 0x1.0fdf980000000p-3, -0x1.8121680000000p-4, 0x1.fd1bf00000000p-5, 0x1.23bd800000000p-6, -0x1.0d84bc0000000p-3, 0x1.4075100000000p-4, 0x1.035a280000000p-4, -0x1.2cac400000000p-8, -0x1.0d74bc0000000p-3, 0x1.0de0080000000p-4, 0x1.2ee5400000000p-6, -0x1.0564380000000p-3, 0x1.603e780000000p-3, -0x1.934c8c0000000p-3, 0x1.7331600000000p-3, 0x1.afa0900000000p-4, -0x1.9552640000000p-4, 0x1.6a19000000000p-9, 0x1.e340d00000000p-5, -0x1.9b90e40000000p-3, 0x1.9cdc900000000p-5, -0x1.4a20940000000p-3, -0x1.b508800000000p-8, -0x1.6f94000000000p-7, 0x1.fa19580000000p-4, 0x1.3c92f80000000p-4, 0x1.3785540000000p-3, 0x1.a0fbc40000000p-3, -0x1.2a3b040000000p-3, -0x1.b17c4c0000000p-4, -0x1.990c8e0000000p-3, 0x1.625f740000000p-3, 0x1.26ca280000000p-3, 0x1.0718280000000p-4, 0x1.3e0a1c0000000p-3, 0x1.e15e400000000p-8, -0x1.b8c6c40000000p-4, 0x1.4166100000000p-3, 0x1.6fe7f00000000p-3, -0x1.a424c00000000p-5, 0x1.ba04500000000p-3, -0x1.0a29540000000p-3, -0x1.40a8640000000p-4, -0x1.a878b80000000p-5, -0x1.6942e80000000p-3, 0x1.06e8980000000p-4, 0x1.bbf8a80000000p-3, 0x1.c288300000000p-5, 0x1.b2d8000000000p-11, -0x1.a838740000000p-3, 0x1.85bd400000000p-5, -0x1.86f8100000000p-4, 0x1.b20adc0000000p-3, 0x1.12cf400000000p-4, -0x1.2edd400000000p-5, 0x1.4378380000000p-3, 0x1.3f37280000000p-3, -0x1.6ad2dc0000000p-3, 0x1.4cff180000000p-3, -0x1.3bf1700000000p-3, 0x1.7f4af80000000p-4, -0x1.083c5e0000000p-3, 0x1.dbe8900000000p-3, -0x1.6dd9300000000p-3, 0x1.5c7e900000000p-5, -0x1.9b4db00000000p-3, -0x1.d3d6340000000p-3, 0x1.db55a40000000p-3, 0x1.15e9380000000p-3, 0x1.3c1ab00000000p-3, 0x1.7d00900000000p-5, 0x1.226c380000000p-4, 0x1.61fc200000000p-7, 0x1.20ecc80000000p-4, -0x1.a2d0780000000p-3, 0x1.db80480000000p-3, -0x1.db52a80000000p-4, -0x1.1036ac0000000p-3, 0x1.baf3800000000p-4, -0x1.4bdf280000000p-3, 0x1.661d100000000p-4, -0x1.c308300000000p-3, 0x1.cb5a840000000p-3, 0x1.5de2080000000p-4, -0x1.e671b00000000p-4}
, {-0x1.611ecc0000000p-4, 0x1.d6a6300000000p-3, 0x1.0508b40000000p-3, -0x1.fd86600000000p-4, 0x1.ad85000000000p-3, 0x1.85e24c0000000p-3, -0x1.ae6cea0000000p-3, -0x1.2a712c0000000p-3, 0x1.7ca4680000000p-3, -0x1.9b5ac00000000p-5, -0x1.8de1900000000p-6, -0x1.9b62a60000000p-3, -0x1.b4da000000000p-11, -0x1.a1d7180000000p-4, -0x1.5943600000000p-7, 0x1.1b1ad80000000p-3, -0x1.4b35580000000p-4, -0x1.36b0b00000000p-3, -0x1.2a07000000000p-8, -0x1.ae8b280000000p-4, -0x1.dc9b420000000p-4, 0x1.ab9c100000000p-3, -0x1.31d9180000000p-3, 0x1.b78ff80000000p-4, 0x1.e14c980000000p-4, 0x1.115ac00000000p-5, -0x1.3aade20000000p-3, -0x1.030a280000000p-3, 0x1.5954a00000000p-6, -0x1.8e9e280000000p-5, -0x1.4272400000000p-6, 0x1.0cfe300000000p-3, 0x1.611a340000000p-3, -0x1.c874e00000000p-7, 0x1.556d080000000p-4, -0x1.cd543c0000000p-3, -0x1.f76ae00000000p-4, 0x1.1f71680000000p-3, -0x1.2a28000000000p-5, 0x1.29d1000000000p-4, 0x1.f2fa600000000p-6, -0x1.047fe40000000p-4, 0x1.b0edc80000000p-3, -0x1.92ee9c0000000p-4, -0x1.409e940000000p-4, -0x1.f8fc100000000p-5, 0x1.7cc9a00000000p-3, 0x1.4480300000000p-3, -0x1.184b940000000p-4, 0x1.62d5800000000p-5, -0x1.b728dc0000000p-3, 0x1.14a6d80000000p-4, -0x1.067d3c0000000p-3, -0x1.1536d80000000p-3, -0x1.9e75ae0000000p-3, -0x1.2923a80000000p-3, 0x1.bf86800000000p-8, 0x1.55b4300000000p-3, 0x1.c084d80000000p-3, -0x1.77d5d80000000p-5, -0x1.a7b8260000000p-3, 0x1.82f0b80000000p-4, -0x1.facc780000000p-5, 0x1.8d59740000000p-3, 0x1.9fdd580000000p-4, -0x1.0f29800000000p-3, -0x1.7523180000000p-5, 0x1.70bad40000000p-3, 0x1.cde6f80000000p-4, 0x1.383bd40000000p-3, -0x1.c4c08c0000000p-3, -0x1.b341da0000000p-3, 0x1.febbe00000000p-6, 0x1.40b1200000000p-5, 0x1.92a6f80000000p-4, 0x1.50be240000000p-3, 0x1.77635c0000000p-3, -0x1.2910b00000000p-4, 0x1.287af40000000p-3, -0x1.1d48ea0000000p-3, -0x1.9860480000000p-3, 0x1.18aed40000000p-3, -0x1.1b58b40000000p-3, 0x1.350cd00000000p-5, 0x1.d954a00000000p-7, 0x1.c9d9680000000p-4, -0x1.bffb940000000p-4, -0x1.9d7cb80000000p-4, 0x1.d842e00000000p-4, 0x1.9eb9c80000000p-3, 0x1.b86b040000000p-3, -0x1.a4c85a0000000p-3, 0x1.c727f80000000p-4, 0x1.cc4c000000000p-11, 0x1.bf1fc00000000p-4, 0x1.546d980000000p-3, 0x1.3e67a80000000p-4, 0x1.1bbce00000000p-4, -0x1.515d280000000p-3, 0x1.9c60a80000000p-3}
, {-0x1.c353f20000000p-3, -0x1.78a6440000000p-4, -0x1.8bd45c0000000p-4, 0x1.ae5c100000000p-5, 0x1.c311380000000p-3, -0x1.a1a9e00000000p-3, -0x1.6460180000000p-3, 0x1.080cc00000000p-7, 0x1.3d76780000000p-3, -0x1.cf5a980000000p-5, 0x1.b107800000000p-5, -0x1.8732500000000p-3, 0x1.31549c0000000p-3, -0x1.fdfc340000000p-4, -0x1.018c5c0000000p-3, -0x1.bfe5ec0000000p-3, -0x1.60ae000000000p-5, -0x1.84e8640000000p-3, -0x1.d569580000000p-3, 0x1.e5ebe00000000p-4, 0x1.60a6f40000000p-3, -0x1.b6c76a0000000p-3, 0x1.705eb00000000p-3, -0x1.10c5800000000p-7, -0x1.bcb6be0000000p-3, -0x1.7681880000000p-5, -0x1.7ee0400000000p-5, -0x1.2c7d400000000p-7, -0x1.bf31960000000p-3, 0x1.5fe32c0000000p-3, -0x1.9d5abc0000000p-3, 0x1.72a0500000000p-4, -0x1.cb454a0000000p-4, 0x1.a0a1180000000p-3, 0x1.b81a400000000p-4, -0x1.2fcab40000000p-3, -0x1.bd51800000000p-3, 0x1.4d98c80000000p-4, -0x1.6329c40000000p-4, -0x1.8839600000000p-4, 0x1.4fad600000000p-4, 0x1.49090c0000000p-3, 0x1.6e74c00000000p-6, -0x1.0b0a080000000p-4, 0x1.76cae00000000p-3, -0x1.fbd6d80000000p-5, -0x1.feed600000000p-6, -0x1.0c134a0000000p-3, -0x1.afc28a0000000p-3, -0x1.097b7c0000000p-4, -0x1.2e95300000000p-3, 0x1.2643b80000000p-3, -0x1.bccf100000000p-4, -0x1.a480a00000000p-6, -0x1.655b920000000p-3, 0x1.52d51c0000000p-3, -0x1.6b9afc0000000p-4, 0x1.4bde400000000p-4, -0x1.43d2d00000000p-4, -0x1.97ea800000000p-9, -0x1.08f5300000000p-3, -0x1.a109940000000p-4, 0x1.2bd9200000000p-3, 0x1.324d200000000p-4, -0x1.3aa7c00000000p-5, 0x1.2cd7b00000000p-3, 0x1.4fd2380000000p-4, 0x1.68a9d80000000p-4, 0x1.221bc00000000p-8, -0x1.8e52b80000000p-4, -0x1.1553b80000000p-4, 0x1.47bfc80000000p-4, 0x1.6b8cc40000000p-3, -0x1.deecb00000000p-6, -0x1.bbc9100000000p-6, 0x1.a9e3800000000p-3, 0x1.22adb00000000p-5, -0x1.af23080000000p-5, -0x1.f3a6160000000p-4, 0x1.583d000000000p-9, 0x1.04ad000000000p-3, 0x1.d1c1cc0000000p-3, -0x1.8de6680000000p-3, 0x1.c834b00000000p-3, -0x1.6528f00000000p-5, 0x1.7339900000000p-5, -0x1.8c48160000000p-3, 0x1.a349700000000p-4, -0x1.c3d7300000000p-5, 0x1.1ade280000000p-3, 0x1.8ee9300000000p-4, -0x1.196a200000000p-7, 0x1.bfaf880000000p-3, 0x1.3e34a00000000p-4, 0x1.7ef05c0000000p-3, -0x1.2f1f700000000p-6, -0x1.16d5e40000000p-4, 0x1.3d31400000000p-3, 0x1.5f662c0000000p-3, -0x1.dac1a00000000p-6}
, {-0x1.5976fc0000000p-3, -0x1.7a58000000000p-12, 0x1.e088b00000000p-5, 0x1.e9c8300000000p-5, 0x1.b0f7e00000000p-7, 0x1.618ec00000000p-8, 0x1.b7d4100000000p-4, 0x1.c072d80000000p-3, 0x1.fb09e00000000p-5, -0x1.c24eb80000000p-5, -0x1.2bce960000000p-3, 0x1.bb2cb00000000p-5, -0x1.8622400000000p-3, -0x1.4af5e00000000p-3, 0x1.18ded40000000p-3, -0x1.7f27a00000000p-6, 0x1.076e480000000p-4, 0x1.f509f00000000p-5, -0x1.0219980000000p-3, -0x1.fd04000000000p-5, -0x1.636f500000000p-5, 0x1.14d9940000000p-3, 0x1.bb3d800000000p-3, -0x1.5d30980000000p-4, -0x1.6125580000000p-5, -0x1.afbf0a0000000p-3, -0x1.8489700000000p-5, 0x1.bd66000000000p-5, 0x1.c4d3940000000p-3, -0x1.d3242e0000000p-4, 0x1.ad70100000000p-5, -0x1.75086c0000000p-3, 0x1.0bf6d00000000p-5, 0x1.b9a8e00000000p-5, -0x1.32cd780000000p-4, -0x1.995bb80000000p-5, 0x1.6df5a00000000p-5, -0x1.b845800000000p-3, -0x1.114f480000000p-5, 0x1.ec04080000000p-4, -0x1.b24b000000000p-6, -0x1.b67c280000000p-5, 0x1.d8466c0000000p-3, 0x1.d8d6340000000p-3, 0x1.8996800000000p-7, -0x1.2364000000000p-6, 0x1.bf5a000000000p-3, -0x1.b248c80000000p-5, 0x1.305e840000000p-3, 0x1.6b02c40000000p-3, 0x1.130d300000000p-4, 0x1.d0eef80000000p-3, -0x1.9c37620000000p-3, -0x1.0b1d0c0000000p-3, 0x1.8c0c500000000p-4, 0x1.e1b0a80000000p-4, -0x1.6e4de00000000p-7, 0x1.a801c80000000p-3, 0x1.2897d00000000p-4, -0x1.4081980000000p-3, -0x1.8e5ba40000000p-4, -0x1.8160a80000000p-5, 0x1.9b3f800000000p-8, 0x1.2fffa00000000p-6, -0x1.df1ea20000000p-4, 0x1.20f86c0000000p-3, -0x1.792cea0000000p-3, 0x1.1553f00000000p-5, -0x1.5b94540000000p-4, 0x1.2518d40000000p-3, 0x1.d548d00000000p-3, -0x1.d57e400000000p-6, -0x1.1df9540000000p-3, 0x1.2589b80000000p-3, 0x1.c2d6a80000000p-3, 0x1.e90ff80000000p-4, 0x1.3ace600000000p-3, 0x1.d499400000000p-5, -0x1.8b95980000000p-3, 0x1.65cf200000000p-4, -0x1.f6c6580000000p-4, 0x1.aca2dc0000000p-3, 0x1.c45cb00000000p-4, -0x1.3b95b00000000p-3, 0x1.a420080000000p-4, -0x1.abb1700000000p-3, 0x1.861b740000000p-3, 0x1.dcbfd80000000p-3, -0x1.f6eb680000000p-5, 0x1.dbbd800000000p-5, -0x1.6508840000000p-3, -0x1.593af80000000p-3, 0x1.02aa380000000p-3, -0x1.3525f00000000p-4, -0x1.5210fc0000000p-3, 0x1.ddebe00000000p-4, -0x1.a8e2600000000p-6, -0x1.21ffe40000000p-4, -0x1.ab6f680000000p-5, 0x1.8be2a80000000p-4}
, {0x1.0651540000000p-3, 0x1.5061480000000p-4, -0x1.11dc000000000p-8, -0x1.1faef80000000p-5, -0x1.f973c00000000p-8, 0x1.0016280000000p-4, 0x1.2c8e040000000p-3, -0x1.83cef00000000p-4, -0x1.795ce80000000p-5, -0x1.33de600000000p-5, 0x1.1856200000000p-7, 0x1.081c240000000p-3, 0x1.164d4c0000000p-3, 0x1.ce5e640000000p-3, -0x1.27df1c0000000p-3, 0x1.5807e00000000p-4, 0x1.25a3440000000p-3, 0x1.b852100000000p-4, 0x1.f5b7c00000000p-7, 0x1.2ccc480000000p-3, -0x1.8611bc0000000p-4, -0x1.03ded40000000p-3, -0x1.9ac6f40000000p-3, -0x1.da7a900000000p-4, 0x1.e8e8d00000000p-5, 0x1.82d2d00000000p-3, 0x1.36c8000000000p-4, 0x1.08ae240000000p-3, 0x1.14b4880000000p-3, -0x1.25ba300000000p-3, 0x1.8108600000000p-5, -0x1.9a7d3e0000000p-3, 0x1.b13af80000000p-3, 0x1.07c7080000000p-4, 0x1.1cfea00000000p-7, -0x1.d5e0f20000000p-3, 0x1.d29bf00000000p-3, -0x1.cb19620000000p-4, 0x1.11f3580000000p-4, -0x1.84a0fc0000000p-3, -0x1.4debf80000000p-5, 0x1.2699580000000p-4, 0x1.331ed00000000p-3, 0x1.31bdd00000000p-4, 0x1.32d9c40000000p-3, 0x1.fb77400000000p-6, -0x1.bc8fbe0000000p-3, 0x1.1ff1080000000p-3, 0x1.c885580000000p-3, -0x1.ee04000000000p-11, -0x1.815b700000000p-4, -0x1.25c4480000000p-4, -0x1.1960380000000p-5, -0x1.25fc380000000p-3, -0x1.c266200000000p-7, -0x1.3bd9200000000p-4, 0x1.2c42000000000p-4, 0x1.e7cb400000000p-7, 0x1.73af100000000p-4, -0x1.1543d00000000p-3, -0x1.268c600000000p-7, -0x1.25d8f40000000p-3, 0x1.1136d00000000p-4, -0x1.0436080000000p-4, -0x1.b035180000000p-3, 0x1.6955240000000p-3, 0x1.08db4c0000000p-3, -0x1.dbd7e80000000p-5, -0x1.6c3a860000000p-3, 0x1.cb39d80000000p-3, 0x1.1526080000000p-3, -0x1.bd9a840000000p-3, 0x1.08c6fc0000000p-3, -0x1.319b3c0000000p-4, -0x1.5b5c200000000p-3, 0x1.6390bc0000000p-3, 0x1.04f4ac0000000p-3, 0x1.88b3000000000p-7, 0x1.5b729c0000000p-3, 0x1.1723ec0000000p-3, 0x1.d24ea00000000p-3, -0x1.5a87c00000000p-6, 0x1.6cef080000000p-4, -0x1.a573100000000p-6, 0x1.4109b40000000p-3, -0x1.1b70540000000p-4, -0x1.8197e00000000p-5, 0x1.50f9b00000000p-5, -0x1.40d3300000000p-3, 0x1.ac60c80000000p-4, -0x1.9398640000000p-4, -0x1.640abc0000000p-4, -0x1.80dec80000000p-5, -0x1.4b42980000000p-5, -0x1.4300a40000000p-3, 0x1.54e2500000000p-3, -0x1.1911bc0000000p-4, -0x1.22414c0000000p-3, 0x1.b6c2000000000p-5, 0x1.9fc9d00000000p-3}
, {0x1.72eef00000000p-5, -0x1.20991c0000000p-4, -0x1.624ac20000000p-3, 0x1.cdc3c00000000p-5, 0x1.6e6d080000000p-3, 0x1.312ec00000000p-3, 0x1.d1c94c0000000p-3, 0x1.ce38080000000p-3, -0x1.b5453c0000000p-4, 0x1.5d90b80000000p-4, -0x1.470d000000000p-4, 0x1.b396580000000p-4, -0x1.cd07c00000000p-4, -0x1.9097aa0000000p-3, -0x1.67f2980000000p-3, -0x1.0f12800000000p-5, 0x1.4d34500000000p-5, 0x1.7f0e980000000p-4, -0x1.3822780000000p-5, -0x1.4b2c480000000p-5, 0x1.3ba6d80000000p-3, 0x1.294a200000000p-4, 0x1.e64dc80000000p-4, 0x1.9830e80000000p-4, -0x1.ebabb00000000p-4, -0x1.bdea2e0000000p-4, -0x1.4c76180000000p-3, 0x1.c4ce200000000p-7, 0x1.8fba1c0000000p-3, -0x1.bf67ce0000000p-3, 0x1.e738800000000p-4, 0x1.6340500000000p-3, -0x1.dd26a20000000p-4, -0x1.6743380000000p-3, 0x1.9a43340000000p-3, 0x1.be6f800000000p-6, -0x1.b476a20000000p-3, -0x1.2049b00000000p-5, -0x1.53f6300000000p-6, 0x1.1fc0340000000p-3, -0x1.6bf9b60000000p-3, 0x1.bab96c0000000p-3, 0x1.37f4380000000p-4, 0x1.9d2e100000000p-5, 0x1.c8ad600000000p-7, 0x1.2250700000000p-5, -0x1.d018120000000p-4, 0x1.bfc4840000000p-3, 0x1.dfe0a00000000p-5, 0x1.1645700000000p-5, -0x1.33bff40000000p-4, 0x1.5795900000000p-3, 0x1.6575600000000p-3, 0x1.a496600000000p-5, 0x1.10a4e80000000p-3, 0x1.c12ce40000000p-3, 0x1.a29c980000000p-3, -0x1.a57b580000000p-3, 0x1.a667680000000p-3, 0x1.b933240000000p-3, 0x1.553e4c0000000p-3, 0x1.03884c0000000p-3, -0x1.1cdb600000000p-3, -0x1.d87edc0000000p-3, 0x1.334e300000000p-3, 0x1.2266200000000p-5, 0x1.9271ec0000000p-3, -0x1.73b6c40000000p-4, -0x1.790a3c0000000p-4, 0x1.d34de80000000p-3, 0x1.a437000000000p-10, -0x1.d781740000000p-3, 0x1.0dcc000000000p-4, -0x1.4223100000000p-3, 0x1.7bac400000000p-3, 0x1.ddf1e00000000p-3, -0x1.7fc9ea0000000p-3, 0x1.2743a80000000p-4, 0x1.7bc1d00000000p-4, 0x1.5612f80000000p-3, -0x1.48c1000000000p-8, -0x1.719aa00000000p-4, -0x1.6f8d300000000p-6, -0x1.69bd040000000p-3, 0x1.bd94700000000p-3, 0x1.74a3c00000000p-6, -0x1.3251b80000000p-3, 0x1.d398800000000p-5, -0x1.d64a840000000p-3, 0x1.1d667c0000000p-3, 0x1.9ec9c00000000p-6, -0x1.73ab880000000p-3, -0x1.ff73400000000p-6, -0x1.cb3a060000000p-4, -0x1.24088a0000000p-3, 0x1.bf3bb00000000p-5, 0x1.d5c9d00000000p-4, -0x1.8df9600000000p-5, 0x1.28dd5c0000000p-3, -0x1.9546640000000p-3}
, {-0x1.d91ce20000000p-3, -0x1.be53380000000p-3, -0x1.759c700000000p-3, -0x1.c992a00000000p-3, -0x1.74b0400000000p-4, 0x1.274d400000000p-8, -0x1.6fa8780000000p-4, 0x1.ea8a800000000p-9, -0x1.57e1d00000000p-4, -0x1.094ad00000000p-3, 0x1.ae91540000000p-3, 0x1.802e9c0000000p-3, 0x1.18137c0000000p-3, -0x1.35ea400000000p-7, 0x1.640ac00000000p-4, 0x1.42e7a00000000p-5, -0x1.746fae0000000p-3, 0x1.5176f00000000p-5, 0x1.2ddc800000000p-6, 0x1.9467000000000p-7, -0x1.26c6100000000p-4, -0x1.b274500000000p-6, 0x1.a0a9e00000000p-4, -0x1.2946940000000p-4, 0x1.7e30c00000000p-4, 0x1.327c0c0000000p-3, -0x1.9650800000000p-5, 0x1.a21b280000000p-3, -0x1.b7f98a0000000p-3, 0x1.25dae00000000p-4, 0x1.6128b00000000p-3, -0x1.b30d200000000p-4, -0x1.77aec40000000p-4, 0x1.094f480000000p-4, -0x1.e23fd20000000p-4, -0x1.6ec51c0000000p-4, 0x1.7044a80000000p-3, 0x1.9168d00000000p-5, 0x1.edf0d00000000p-4, 0x1.76f6c00000000p-8, 0x1.bca2600000000p-5, 0x1.9e43d80000000p-3, -0x1.5b90100000000p-3, -0x1.2518180000000p-4, 0x1.35e4d00000000p-4, -0x1.662a440000000p-4, -0x1.4fd7400000000p-8, 0x1.b5b6600000000p-6, -0x1.67fe100000000p-3, -0x1.5d6ad80000000p-3, 0x1.0296c80000000p-3, 0x1.a61c280000000p-4, 0x1.57fc500000000p-4, -0x1.aea5c80000000p-3, -0x1.77cfa40000000p-3, 0x1.878ae80000000p-3, 0x1.1f2ba00000000p-5, 0x1.1d19b00000000p-5, 0x1.c362c80000000p-3, 0x1.5826ac0000000p-3, -0x1.b7eb860000000p-3, -0x1.13a0440000000p-3, -0x1.6a99c00000000p-6, 0x1.44d20c0000000p-3, -0x1.d6322a0000000p-4, 0x1.9cb4600000000p-4, 0x1.11dd400000000p-3, 0x1.0820b80000000p-3, -0x1.0f3f380000000p-4, -0x1.a5d6a20000000p-3, 0x1.c192f00000000p-4, 0x1.225b080000000p-4, -0x1.c59be20000000p-3, -0x1.4ef4440000000p-3, -0x1.07ed780000000p-5, 0x1.d1d0000000000p-13, -0x1.6f15440000000p-4, -0x1.a0640c0000000p-3, -0x1.b3b1800000000p-5, -0x1.cd6f640000000p-4, -0x1.119fdc0000000p-4, 0x1.2cb9e40000000p-3, -0x1.a97b0c0000000p-3, -0x1.25db680000000p-4, -0x1.a82f4a0000000p-3, 0x1.c207200000000p-4, 0x1.3edc440000000p-3, 0x1.e1b9900000000p-5, -0x1.f0936e0000000p-4, 0x1.a81f200000000p-6, -0x1.d105000000000p-9, -0x1.2169ba0000000p-3, 0x1.d3b6480000000p-4, -0x1.a7c7cc0000000p-4, -0x1.5c6a8c0000000p-4, -0x1.aca3b00000000p-4, -0x1.316fd20000000p-3, 0x1.be09000000000p-4, 0x1.9599900000000p-3, 0x1.0cbe740000000p-3}
, {-0x1.bf487a0000000p-3, -0x1.3bf2d80000000p-3, -0x1.8d81740000000p-3, 0x1.d79dd40000000p-3, -0x1.aed8ca0000000p-3, -0x1.8c87d80000000p-3, 0x1.5a00680000000p-4, 0x1.ddc87c0000000p-3, -0x1.6577ce0000000p-3, -0x1.7fc68e0000000p-3, 0x1.d1b3e00000000p-6, 0x1.6d97380000000p-3, 0x1.1c78c40000000p-3, -0x1.90ddd80000000p-3, 0x1.34ebec0000000p-3, 0x1.4f41680000000p-4, 0x1.dd17f80000000p-3, -0x1.134b000000000p-6, 0x1.ae5f080000000p-4, 0x1.0983600000000p-4, 0x1.15cd400000000p-3, -0x1.3abfc00000000p-4, 0x1.567dc40000000p-3, -0x1.06bfb80000000p-5, 0x1.420e800000000p-6, 0x1.d4a4840000000p-3, 0x1.719de80000000p-4, 0x1.57ed0c0000000p-3, 0x1.cd98a80000000p-4, -0x1.17fb200000000p-5, -0x1.93ee1c0000000p-3, -0x1.a2ca280000000p-5, 0x1.60eebc0000000p-3, -0x1.12b7000000000p-7, 0x1.4496180000000p-3, -0x1.a677060000000p-3, 0x1.e759700000000p-5, 0x1.f735200000000p-5, -0x1.6612b40000000p-3, -0x1.c65f5c0000000p-3, 0x1.3584280000000p-4, -0x1.4330600000000p-5, 0x1.5349200000000p-6, 0x1.1eb3600000000p-4, 0x1.d93b200000000p-6, 0x1.8df6f40000000p-3, 0x1.4b7df00000000p-5, -0x1.04bc800000000p-4, -0x1.5cf5660000000p-3, -0x1.cdc70e0000000p-3, -0x1.05f1300000000p-4, 0x1.efbe300000000p-5, 0x1.f264c80000000p-4, 0x1.5a7cf00000000p-3, 0x1.81e5f00000000p-4, 0x1.6ff7340000000p-3, -0x1.fbabec0000000p-4, 0x1.71f3800000000p-4, -0x1.2c6cd80000000p-5, -0x1.c0500a0000000p-3, -0x1.41c4b00000000p-4, 0x1.d71d300000000p-4, -0x1.30f9600000000p-7, 0x1.7dd7100000000p-5, -0x1.b812e00000000p-3, 0x1.1279d00000000p-3, -0x1.8348f00000000p-3, 0x1.7395b80000000p-4, 0x1.4f8e500000000p-3, 0x1.c65c700000000p-4, 0x1.2bbc6c0000000p-3, -0x1.38d6e00000000p-4, 0x1.8ffdd00000000p-4, -0x1.cb5a040000000p-4, 0x1.1ecb700000000p-3, 0x1.337fac0000000p-3, -0x1.38710c0000000p-3, -0x1.bc194c0000000p-4, -0x1.12849e0000000p-3, 0x1.5562000000000p-4, -0x1.4f16880000000p-3, -0x1.9065ec0000000p-4, 0x1.f4b4800000000p-5, -0x1.bf89c80000000p-4, -0x1.4727e00000000p-7, -0x1.43f0540000000p-3, -0x1.f3a7320000000p-4, -0x1.c81ed80000000p-4, 0x1.354a200000000p-5, -0x1.15d1640000000p-3, -0x1.c4e8560000000p-4, -0x1.9c06b00000000p-3, 0x1.24ef2c0000000p-3, -0x1.b631a00000000p-3, -0x1.271d680000000p-4, 0x1.d7fed80000000p-3, -0x1.8927ea0000000p-3, 0x1.e526c00000000p-4, 0x1.aaeadc0000000p-3, 0x1.8ff1540000000p-3}
, {0x1.eba7a00000000p-6, 0x1.e675980000000p-4, 0x1.9d37700000000p-5, -0x1.cc85480000000p-3, 0x1.0f1da80000000p-4, -0x1.c21f7c0000000p-3, 0x1.91df280000000p-4, -0x1.73674c0000000p-4, -0x1.058a760000000p-3, 0x1.eb73480000000p-4, 0x1.15f16c0000000p-3, -0x1.364c340000000p-3, -0x1.9bd5000000000p-3, 0x1.c8fd980000000p-3, 0x1.016b700000000p-5, 0x1.12cedc0000000p-3, 0x1.49f6700000000p-4, -0x1.67d5b80000000p-4, 0x1.c472380000000p-3, 0x1.b89d9c0000000p-3, -0x1.2d599c0000000p-3, -0x1.16d6c40000000p-4, -0x1.dc44ca0000000p-4, 0x1.bf33500000000p-3, -0x1.7989ec0000000p-4, -0x1.bf58ae0000000p-3, -0x1.48ecf80000000p-3, -0x1.aac25e0000000p-3, 0x1.bb5f300000000p-5, -0x1.5b49000000000p-5, 0x1.2ee9400000000p-6, -0x1.53e83c0000000p-4, 0x1.ceeb600000000p-4, -0x1.0ce2880000000p-3, 0x1.c4dae00000000p-3, -0x1.4adb460000000p-3, 0x1.9b26280000000p-3, -0x1.22bdec0000000p-3, 0x1.dbc4dc0000000p-3, 0x1.7079980000000p-4, -0x1.d9a7420000000p-3, -0x1.3a50c20000000p-3, 0x1.b46d440000000p-3, 0x1.32a8900000000p-4, -0x1.a398800000000p-6, -0x1.25391e0000000p-3, 0x1.7fb3e00000000p-3, 0x1.01ee900000000p-3, -0x1.8e9b580000000p-3, 0x1.ddc9f00000000p-3, -0x1.dae2520000000p-3, 0x1.a4d6300000000p-4, 0x1.60c3b40000000p-3, 0x1.69867c0000000p-3, -0x1.0ab7880000000p-5, 0x1.2c0cc00000000p-5, -0x1.daf3140000000p-3, 0x1.6791d00000000p-4, 0x1.7dbc600000000p-6, -0x1.514d900000000p-4, 0x1.da6b500000000p-4, -0x1.20526e0000000p-3, -0x1.d27ce00000000p-3, -0x1.fad1500000000p-4, -0x1.ecea140000000p-4, 0x1.66b4fc0000000p-3, -0x1.3342a80000000p-4, -0x1.985b5a0000000p-3, -0x1.abdf180000000p-3, -0x1.b9ea360000000p-3, -0x1.d056fa0000000p-3, -0x1.50a5540000000p-3, 0x1.aed5800000000p-5, -0x1.1de7500000000p-5, 0x1.b6d4180000000p-4, 0x1.c47ec00000000p-3, -0x1.8ee1a40000000p-4, 0x1.0514100000000p-6, 0x1.dde9f00000000p-5, -0x1.4c73680000000p-3, 0x1.ee93a00000000p-5, -0x1.0e18c80000000p-4, -0x1.bddd900000000p-6, 0x1.b364200000000p-4, 0x1.1834300000000p-3, -0x1.0373700000000p-5, 0x1.5617600000000p-3, -0x1.1200aa0000000p-3, 0x1.c2bb000000000p-5, 0x1.4a199c0000000p-3, 0x1.e2cc200000000p-5, 0x1.4395bc0000000p-3, 0x1.6103d00000000p-3, 0x1.1d42a40000000p-3, 0x1.0eebe00000000p-7, 0x1.d152500000000p-3, 0x1.706fc40000000p-3, -0x1.66d0240000000p-4, -0x1.9a5e440000000p-4, -0x1.79ae540000000p-3}
, {0x1.d82c9c0000000p-3, 0x1.90a1040000000p-3, 0x1.e453c00000000p-8, -0x1.9b5b800000000p-8, -0x1.550edc0000000p-3, 0x1.210c040000000p-3, 0x1.30349c0000000p-3, -0x1.48bf220000000p-3, -0x1.66e9d40000000p-4, -0x1.5146900000000p-3, 0x1.dc04bc0000000p-3, 0x1.e419c00000000p-5, 0x1.06a75c0000000p-3, -0x1.3a41400000000p-6, 0x1.a1c0440000000p-3, 0x1.235ea80000000p-3, -0x1.9086440000000p-3, -0x1.f9f3900000000p-4, -0x1.affa200000000p-4, -0x1.6a9f900000000p-5, 0x1.211f140000000p-3, 0x1.fd15e00000000p-4, 0x1.a03d380000000p-4, -0x1.c543380000000p-3, -0x1.48aa9c0000000p-3, 0x1.d56a200000000p-4, 0x1.26f2c80000000p-4, 0x1.39bc500000000p-5, -0x1.0ed2300000000p-6, 0x1.3684b80000000p-3, 0x1.aeb36c0000000p-3, 0x1.c889000000000p-4, 0x1.cecf680000000p-4, -0x1.b6f7f60000000p-3, -0x1.9702dc0000000p-4, -0x1.412fac0000000p-3, 0x1.384ae80000000p-4, 0x1.7cfba00000000p-5, 0x1.45cde80000000p-4, -0x1.86a98a0000000p-3, 0x1.a799500000000p-5, -0x1.d640340000000p-3, 0x1.15a7880000000p-3, 0x1.0620700000000p-5, 0x1.6186c80000000p-3, -0x1.47541c0000000p-3, 0x1.3829480000000p-3, -0x1.eb11200000000p-5, 0x1.04ea400000000p-8, 0x1.9e49a00000000p-5, -0x1.b384c80000000p-5, 0x1.5af3e00000000p-5, 0x1.b3cab00000000p-3, -0x1.2740bc0000000p-3, 0x1.5c4a240000000p-3, -0x1.5471440000000p-3, -0x1.3272f80000000p-4, -0x1.629a300000000p-5, -0x1.72fdb00000000p-5, 0x1.463ae80000000p-4, 0x1.5ca6600000000p-5, -0x1.b1dc2c0000000p-3, 0x1.44c8180000000p-3, -0x1.0f0bd80000000p-5, -0x1.a8ed480000000p-3, -0x1.bf36860000000p-3, -0x1.90e3a00000000p-3, -0x1.22283e0000000p-3, 0x1.7a7f700000000p-5, 0x1.da55800000000p-7, -0x1.6a4c4c0000000p-4, -0x1.c9f7580000000p-3, -0x1.5e2e3c0000000p-4, -0x1.4230f00000000p-4, 0x1.1a7a800000000p-9, 0x1.9dac100000000p-4, -0x1.c312780000000p-3, 0x1.77ca000000000p-8, 0x1.34780c0000000p-3, -0x1.2837b00000000p-6, 0x1.6ec9500000000p-3, -0x1.975f440000000p-3, -0x1.6de9380000000p-3, -0x1.b8b4ac0000000p-4, -0x1.8dfc880000000p-4, 0x1.e2ada00000000p-5, 0x1.3de2a40000000p-3, 0x1.a8e58c0000000p-3, 0x1.919c200000000p-3, 0x1.19eb4c0000000p-3, -0x1.9c6ab40000000p-4, 0x1.490e540000000p-3, -0x1.267c300000000p-6, -0x1.5523400000000p-7, 0x1.cc33a00000000p-4, 0x1.e06a900000000p-4, 0x1.6bf4300000000p-4, -0x1.4737800000000p-4, -0x1.acccd80000000p-3, 0x1.3409e80000000p-3}
}
;

#undef INPUT_SAMPLES
#undef FC_UNITS