/**
  ******************************************************************************
  * @file    weights/fc.cc
  * @author  Pierre-Emmanuel Novac <penovac@unice.fr>, LEAT, CNRS, Université Côte d'Azur, France
  * @version 1.0.0
  * @date    24 march 2020
  * @brief   Template generating plain C code for the implementation of Convolutional Neural Networks on MCU
  */

#include <stdint.h>

#define INPUT_SAMPLES 100
#define FC_UNITS 10


const float dense_9_bias[FC_UNITS] = {0x0.0p+0, 0x0.0p+0, 0x0.0p+0, 0x0.0p+0, 0x0.0p+0, 0x0.0p+0, 0x0.0p+0, 0x0.0p+0, 0x0.0p+0, 0x0.0p+0}
;

const float dense_9_kernel[FC_UNITS][INPUT_SAMPLES] = {{-0x1.98fbcc0000000p-3, 0x1.dc106c0000000p-3, 0x1.7f55000000000p-8, 0x1.48216c0000000p-3, 0x1.34f6100000000p-5, -0x1.f0e5760000000p-4, -0x1.0474640000000p-4, 0x1.07c5680000000p-4, 0x1.59dd340000000p-3, -0x1.d1f9960000000p-3, 0x1.f5b3380000000p-4, 0x1.3462480000000p-3, 0x1.8e90080000000p-4, 0x1.9ac2500000000p-3, 0x1.bd6e880000000p-4, 0x1.4a5b900000000p-4, 0x1.89f1d00000000p-5, 0x1.0fc5dc0000000p-3, 0x1.c39f000000000p-3, 0x1.628d400000000p-5, 0x1.1c58900000000p-3, -0x1.be4c180000000p-3, -0x1.08844c0000000p-3, 0x1.edbdb00000000p-4, 0x1.86fb080000000p-4, -0x1.4f53860000000p-3, -0x1.95c4cc0000000p-3, 0x1.23d8e00000000p-5, 0x1.d27e4c0000000p-3, -0x1.b2db4c0000000p-3, 0x1.ec7e980000000p-4, 0x1.c909300000000p-3, 0x1.55d3300000000p-3, -0x1.0715980000000p-3, 0x1.8107200000000p-4, 0x1.e79d100000000p-5, 0x1.5a7c880000000p-3, 0x1.5706b00000000p-5, 0x1.ca26f40000000p-3, -0x1.255fe40000000p-3, -0x1.b5ba500000000p-4, -0x1.52ffd80000000p-4, 0x1.6f7c800000000p-3, 0x1.931a600000000p-7, -0x1.7d53900000000p-3, -0x1.c670e80000000p-3, -0x1.280f7c0000000p-3, 0x1.34dbe00000000p-5, 0x1.414ff00000000p-3, -0x1.d4c3e80000000p-5, 0x1.74c4800000000p-5, -0x1.5994360000000p-3, 0x1.d62b000000000p-8, 0x1.ff5a880000000p-4, -0x1.4899d40000000p-3, -0x1.57c7300000000p-3, 0x1.91af400000000p-5, -0x1.e39ad20000000p-4, -0x1.dc92a00000000p-6, -0x1.0051b40000000p-4, -0x1.240a940000000p-4, -0x1.8257180000000p-4, 0x1.2bab000000000p-3, -0x1.d223740000000p-3, -0x1.62e6ea0000000p-3, 0x1.2adf600000000p-7, 0x1.cd98c00000000p-8, 0x1.86dc380000000p-3, -0x1.5393f80000000p-5, -0x1.587ce00000000p-7, -0x1.2a92a00000000p-4, 0x1.ed9bd00000000p-5, 0x1.711d600000000p-5, 0x1.b6c6e40000000p-3, -0x1.e04d400000000p-5, -0x1.6516e80000000p-3, 0x1.a83ec40000000p-3, -0x1.6c9f640000000p-3, -0x1.2954d80000000p-3, 0x1.20f3500000000p-4, 0x1.941c000000000p-5, -0x1.9fae980000000p-5, 0x1.666ab00000000p-3, 0x1.3455200000000p-4, -0x1.a4eb600000000p-6, 0x1.10d4700000000p-3, -0x1.71cb2c0000000p-3, 0x1.65d4d80000000p-4, 0x1.44694c0000000p-3, 0x1.130c800000000p-4, 0x1.0182480000000p-3, 0x1.1eda280000000p-3, -0x1.18f4fc0000000p-3, 0x1.7266b00000000p-5, 0x1.b7b0d80000000p-4, 0x1.865bc00000000p-6, -0x1.d6a0200000000p-6, 0x1.d445e80000000p-4, -0x1.de36dc0000000p-3, 0x1.fc26880000000p-4}
, {-0x1.f23d500000000p-5, -0x1.a9f3a00000000p-6, -0x1.67ddc60000000p-3, 0x1.d8a3ac0000000p-3, 0x1.6d0eb40000000p-3, -0x1.eef4100000000p-5, -0x1.1c63480000000p-4, 0x1.799e300000000p-4, -0x1.0311640000000p-4, -0x1.35c8400000000p-5, 0x1.7b53e40000000p-3, 0x1.cb03880000000p-4, -0x1.d41b0c0000000p-3, -0x1.6a47680000000p-5, 0x1.166c800000000p-3, -0x1.c6c2280000000p-3, -0x1.07fb000000000p-3, 0x1.1dead40000000p-3, -0x1.cb19ac0000000p-4, -0x1.0ba02e0000000p-3, 0x1.39b0300000000p-5, -0x1.6a0f4a0000000p-3, 0x1.15af080000000p-4, 0x1.4b38b80000000p-3, 0x1.c439440000000p-3, 0x1.e6c7480000000p-4, -0x1.b639f00000000p-4, -0x1.769ff00000000p-6, -0x1.6473040000000p-3, 0x1.14e3900000000p-3, -0x1.21b89c0000000p-4, 0x1.54d5080000000p-3, 0x1.dbf5240000000p-3, -0x1.3ca1dc0000000p-4, -0x1.170be80000000p-4, 0x1.c3185c0000000p-3, -0x1.58f79e0000000p-3, 0x1.5f15f80000000p-3, 0x1.192d340000000p-3, 0x1.1e92200000000p-6, -0x1.90f2740000000p-4, -0x1.50574a0000000p-3, -0x1.fec1400000000p-7, -0x1.da35280000000p-5, 0x1.386d8c0000000p-3, 0x1.3b0c800000000p-5, -0x1.7168700000000p-3, -0x1.8c717c0000000p-3, -0x1.0492380000000p-5, -0x1.0628de0000000p-3, 0x1.e805700000000p-5, -0x1.1813a40000000p-4, -0x1.7a16700000000p-3, -0x1.570c340000000p-3, 0x1.68e3900000000p-3, 0x1.20c33c0000000p-3, 0x1.25dcc00000000p-4, 0x1.5f76e80000000p-3, 0x1.d1b0180000000p-4, 0x1.004f800000000p-4, 0x1.3d7b200000000p-4, 0x1.9405d80000000p-3, -0x1.4f0cc00000000p-5, -0x1.9f59500000000p-6, -0x1.31c93c0000000p-4, -0x1.5918ec0000000p-3, -0x1.73cc760000000p-3, -0x1.50bf480000000p-5, -0x1.41302c0000000p-3, -0x1.999a000000000p-6, -0x1.d710360000000p-3, -0x1.5511740000000p-3, -0x1.db77b40000000p-3, 0x1.81c2600000000p-4, -0x1.5693500000000p-6, 0x1.511fc40000000p-3, -0x1.d2179a0000000p-3, 0x1.6ed3b40000000p-3, -0x1.963db00000000p-3, -0x1.b407800000000p-9, 0x1.28a3a00000000p-7, 0x1.8d70c00000000p-6, -0x1.0bf3e00000000p-4, -0x1.30d3800000000p-9, -0x1.527b580000000p-3, -0x1.2092380000000p-5, 0x1.3e21500000000p-3, 0x1.ce0d280000000p-4, -0x1.741ba20000000p-3, -0x1.d3ae700000000p-5, -0x1.532fc20000000p-3, -0x1.8bab7c0000000p-4, -0x1.cf6fb60000000p-3, 0x1.ac10400000000p-4, 0x1.b0d0200000000p-6, -0x1.c63ad80000000p-3, 0x1.be46000000000p-7, 0x1.d2aaf80000000p-3, -0x1.69c2200000000p-3, -0x1.e8fb600000000p-5}
, {-0x1.778d500000000p-5, 0x1.0e4ec80000000p-3, 0x1.4f64380000000p-3, -0x1.18f5200000000p-5, -0x1.6b8d840000000p-3, -0x1.2952c00000000p-8, -0x1.9070660000000p-3, -0x1.ea0c200000000p-6, 0x1.50e98c0000000p-3, 0x1.9d0f640000000p-3, 0x1.2f3b180000000p-3, 0x1.a80fe00000000p-3, -0x1.dd732e0000000p-4, -0x1.9b75380000000p-3, 0x1.d7f0dc0000000p-3, 0x1.9221600000000p-6, -0x1.d3e1100000000p-3, 0x1.7dae400000000p-4, -0x1.a160940000000p-4, 0x1.b33e980000000p-4, -0x1.608ba00000000p-3, -0x1.4e59980000000p-3, -0x1.0ea5fc0000000p-3, 0x1.8a98c80000000p-3, 0x1.14e4240000000p-3, -0x1.11026a0000000p-3, -0x1.48065e0000000p-3, 0x1.5b1fc80000000p-4, -0x1.016e780000000p-5, 0x1.0570b00000000p-5, -0x1.2261a40000000p-4, -0x1.0b4ef60000000p-3, 0x1.bdbbb00000000p-5, 0x1.45afa80000000p-3, -0x1.bd048c0000000p-3, 0x1.2d46a80000000p-3, 0x1.d740380000000p-4, -0x1.0f4a8e0000000p-3, -0x1.721e1e0000000p-3, 0x1.2e1c180000000p-4, 0x1.6da6d00000000p-5, -0x1.7f47280000000p-3, -0x1.3e19f40000000p-3, -0x1.6c3c000000000p-10, -0x1.3fe2b20000000p-3, 0x1.c407a00000000p-7, 0x1.40d5780000000p-4, -0x1.d836800000000p-6, 0x1.5e08140000000p-3, 0x1.a21bf00000000p-4, -0x1.b8c6d80000000p-5, 0x1.dcfb040000000p-3, -0x1.25a95c0000000p-4, 0x1.a7f6280000000p-3, -0x1.94eb080000000p-5, -0x1.a8bed60000000p-3, 0x1.c832c00000000p-4, -0x1.5afa700000000p-6, -0x1.698f980000000p-4, 0x1.5082880000000p-3, 0x1.a7af280000000p-4, 0x1.8470000000000p-3, -0x1.d1a4000000000p-9, -0x1.135f640000000p-3, -0x1.4ea7400000000p-3, -0x1.a6da080000000p-5, 0x1.33ea1c0000000p-3, 0x1.4112400000000p-6, -0x1.c155a80000000p-5, -0x1.c7a0160000000p-4, -0x1.ee92d80000000p-4, 0x1.808c400000000p-5, 0x1.6c984c0000000p-3, 0x1.7680bc0000000p-3, -0x1.346b500000000p-5, 0x1.781bd00000000p-3, 0x1.be56400000000p-4, -0x1.32e7d00000000p-3, 0x1.37fe0c0000000p-3, -0x1.315eb00000000p-3, 0x1.1714200000000p-4, -0x1.c512340000000p-4, 0x1.9a0c900000000p-3, 0x1.39e6600000000p-3, 0x1.5573d00000000p-5, -0x1.27ac380000000p-4, 0x1.34f3f00000000p-4, 0x1.078e580000000p-4, 0x1.18c5c80000000p-4, 0x1.799b200000000p-5, -0x1.764f6c0000000p-3, -0x1.1fb4400000000p-8, 0x1.ea73500000000p-4, 0x1.463ac40000000p-3, 0x1.2048380000000p-3, 0x1.d4c6000000000p-5, 0x1.04df200000000p-4, -0x1.f046d00000000p-6, -0x1.8d2d1c0000000p-3, -0x1.8f6f5a0000000p-3}
, {0x1.34fe240000000p-3, -0x1.e666d20000000p-4, 0x1.6fd00c0000000p-3, 0x1.9cfb800000000p-4, -0x1.50abb00000000p-3, -0x1.d74a7c0000000p-4, -0x1.bc5ce00000000p-7, -0x1.6bff700000000p-3, 0x1.18cc500000000p-4, 0x1.5af2a00000000p-3, -0x1.100cec0000000p-4, 0x1.83b2180000000p-4, 0x1.906c040000000p-3, 0x1.4229a00000000p-4, 0x1.5d36080000000p-4, 0x1.3c41e00000000p-7, 0x1.56f0900000000p-4, -0x1.167c900000000p-4, 0x1.69a6780000000p-4, -0x1.fd93560000000p-4, -0x1.10f0240000000p-3, 0x1.5577800000000p-6, 0x1.fa80800000000p-4, 0x1.07afcc0000000p-3, 0x1.81e0000000000p-12, 0x1.6d67e40000000p-3, 0x1.37787c0000000p-3, -0x1.ad72080000000p-4, -0x1.4e7ffc0000000p-3, 0x1.a447080000000p-4, 0x1.eff8900000000p-5, 0x1.a934a00000000p-5, 0x1.63b2180000000p-4, 0x1.c1c7400000000p-7, -0x1.3cc2160000000p-3, 0x1.1a70d40000000p-3, -0x1.7f3f680000000p-5, 0x1.fd14400000000p-6, -0x1.c1b0d80000000p-4, -0x1.412ec00000000p-4, -0x1.39e8000000000p-10, -0x1.d5e88a0000000p-4, -0x1.9890100000000p-5, 0x1.5beeec0000000p-3, -0x1.1819f00000000p-4, 0x1.3e50a00000000p-5, 0x1.284ec00000000p-3, -0x1.1521f80000000p-4, 0x1.b5777c0000000p-3, -0x1.cea52a0000000p-3, 0x1.2db4380000000p-4, 0x1.f922200000000p-6, -0x1.57fa4e0000000p-3, -0x1.66ec8c0000000p-3, 0x1.a8a0000000000p-15, -0x1.c7f5460000000p-4, -0x1.2ab1be0000000p-3, -0x1.8075940000000p-4, -0x1.8245340000000p-3, 0x1.bfa9b80000000p-3, -0x1.02baec0000000p-3, 0x1.8e1d240000000p-3, 0x1.0bfc280000000p-4, 0x1.840ac00000000p-5, -0x1.39c9880000000p-5, -0x1.309c480000000p-3, -0x1.be90c20000000p-4, 0x1.dc30880000000p-4, 0x1.604b180000000p-4, -0x1.7463d80000000p-5, -0x1.24e8480000000p-4, -0x1.3335240000000p-3, -0x1.be7e140000000p-4, 0x1.5792400000000p-3, -0x1.625cc80000000p-5, 0x1.7750f00000000p-3, -0x1.911e500000000p-3, 0x1.5fe96c0000000p-3, -0x1.3152700000000p-5, -0x1.a080e40000000p-4, 0x1.5174d40000000p-3, -0x1.6a64e00000000p-4, 0x1.0568880000000p-3, 0x1.db789c0000000p-3, 0x1.de00880000000p-3, 0x1.b6aee00000000p-7, 0x1.ad99080000000p-3, -0x1.0783c80000000p-4, -0x1.97d1ac0000000p-3, 0x1.1041880000000p-4, -0x1.b4523c0000000p-3, -0x1.d7640e0000000p-4, -0x1.3a66cc0000000p-3, -0x1.a276780000000p-3, 0x1.299e980000000p-3, -0x1.b5d2e40000000p-3, -0x1.99f1200000000p-7, -0x1.a11a700000000p-6, 0x1.944fd00000000p-3, -0x1.35b3580000000p-3}
, {-0x1.a71c800000000p-8, 0x1.03b5240000000p-3, 0x1.4edba80000000p-3, -0x1.b875b40000000p-3, 0x1.c568800000000p-9, 0x1.d7c5480000000p-4, -0x1.fa5c800000000p-8, 0x1.d218900000000p-5, 0x1.b390d00000000p-5, -0x1.ca3ae00000000p-7, 0x1.335f300000000p-3, -0x1.1a04400000000p-7, 0x1.22bfbc0000000p-3, -0x1.d95b960000000p-3, -0x1.5d1dc40000000p-3, -0x1.0d37140000000p-3, -0x1.265adc0000000p-3, -0x1.957e3c0000000p-3, 0x1.580ec40000000p-3, -0x1.46f0280000000p-5, -0x1.01f5140000000p-3, 0x1.0724f00000000p-5, 0x1.aaac600000000p-6, -0x1.32f0300000000p-6, -0x1.c623c00000000p-3, 0x1.4dadf80000000p-4, -0x1.d9a9e40000000p-3, -0x1.bc6cbc0000000p-4, -0x1.7447640000000p-4, -0x1.9e081e0000000p-3, 0x1.8b013c0000000p-3, -0x1.26e1540000000p-3, -0x1.bb0d720000000p-3, -0x1.760f840000000p-4, 0x1.7009580000000p-4, -0x1.168ccc0000000p-4, -0x1.588a400000000p-5, -0x1.6cd7500000000p-5, 0x1.eb6ed80000000p-4, 0x1.af84200000000p-6, 0x1.6f7a6c0000000p-3, 0x1.a472000000000p-6, -0x1.6870800000000p-9, -0x1.e378240000000p-4, 0x1.d248e00000000p-4, 0x1.3a8d040000000p-3, -0x1.b2a5140000000p-4, -0x1.1292100000000p-5, -0x1.b8bf5c0000000p-4, 0x1.0f21c00000000p-6, 0x1.55fc080000000p-4, -0x1.8e48d80000000p-3, 0x1.db36fc0000000p-3, -0x1.9f6f800000000p-7, 0x1.89bae00000000p-5, 0x1.e2cbe00000000p-5, 0x1.18ff500000000p-5, 0x1.5165cc0000000p-3, -0x1.1d354c0000000p-4, -0x1.dbd8980000000p-3, 0x1.c165a00000000p-5, -0x1.5146d20000000p-3, 0x1.4170500000000p-4, -0x1.9144d80000000p-5, -0x1.03cd200000000p-6, 0x1.b577c00000000p-5, 0x1.0e41600000000p-7, -0x1.6231540000000p-3, -0x1.358f600000000p-6, 0x1.7538400000000p-5, -0x1.76c3700000000p-3, -0x1.c95e0c0000000p-3, -0x1.1a5de00000000p-3, 0x1.9af2680000000p-4, -0x1.043cec0000000p-4, 0x1.969d5c0000000p-3, 0x1.5e0a180000000p-3, 0x1.c08a500000000p-3, 0x1.7578c00000000p-7, -0x1.99f59c0000000p-3, -0x1.c38f360000000p-3, 0x1.6438c00000000p-6, 0x1.41fb540000000p-3, 0x1.71361c0000000p-3, -0x1.033b860000000p-3, 0x1.1f30c00000000p-4, 0x1.6dc8b00000000p-4, -0x1.32a6000000000p-3, 0x1.bce8c00000000p-4, 0x1.ecbdb00000000p-4, 0x1.bc35c00000000p-4, 0x1.7d1c780000000p-3, 0x1.999f680000000p-3, 0x1.e514f00000000p-4, 0x1.88bad00000000p-4, -0x1.264e1c0000000p-3, -0x1.ae967c0000000p-3, -0x1.22b3380000000p-5, 0x1.44beb40000000p-3, -0x1.3f89a80000000p-3}
, {0x1.5b6e180000000p-4, 0x1.61e0940000000p-3, 0x1.156d340000000p-3, 0x1.99e8b00000000p-4, -0x1.6fabd00000000p-6, 0x1.8e5c840000000p-3, -0x1.02c2a00000000p-5, 0x1.7bc1040000000p-3, 0x1.7eb9280000000p-3, -0x1.d0dcb80000000p-3, -0x1.b3017c0000000p-3, -0x1.7fb2880000000p-3, 0x1.3416a00000000p-6, 0x1.ec3fb00000000p-5, -0x1.2b16d00000000p-5, -0x1.2bd64c0000000p-3, 0x1.24c4600000000p-6, -0x1.3831480000000p-4, 0x1.d7b9e00000000p-4, -0x1.153a340000000p-4, -0x1.1ddf340000000p-4, -0x1.cc59580000000p-4, 0x1.0edc300000000p-4, 0x1.58d0440000000p-3, -0x1.6548be0000000p-3, -0x1.62073c0000000p-4, -0x1.36ea400000000p-7, -0x1.1781fc0000000p-3, -0x1.bcf7160000000p-3, 0x1.65ddc80000000p-4, 0x1.0292800000000p-7, 0x1.d5ae280000000p-4, -0x1.04b2b00000000p-5, -0x1.8df85c0000000p-3, 0x1.c318b00000000p-4, -0x1.14bf440000000p-3, -0x1.e5ea400000000p-8, 0x1.cc02c00000000p-3, -0x1.1a9ec40000000p-4, 0x1.a72c800000000p-5, -0x1.c380ca0000000p-3, 0x1.67cf400000000p-6, 0x1.0893800000000p-4, -0x1.01d2a80000000p-4, 0x1.73eaf80000000p-3, -0x1.d2e4120000000p-3, -0x1.d34ef40000000p-3, 0x1.483de00000000p-5, 0x1.1ef7000000000p-6, 0x1.0d362c0000000p-3, 0x1.4bcff00000000p-4, -0x1.2173980000000p-5, 0x1.0087500000000p-3, -0x1.b73a800000000p-5, -0x1.bcae880000000p-5, 0x1.7ec2d80000000p-3, 0x1.51fe200000000p-4, -0x1.ab2ed40000000p-4, -0x1.08ff200000000p-7, -0x1.9829600000000p-4, -0x1.7fd7060000000p-3, -0x1.5a68dc0000000p-4, -0x1.5ed0600000000p-3, -0x1.da703a0000000p-4, -0x1.27709c0000000p-3, 0x1.6ec1400000000p-7, 0x1.a0ea280000000p-4, -0x1.ed9e060000000p-4, -0x1.0544c00000000p-3, -0x1.53c12c0000000p-4, -0x1.9b16640000000p-3, 0x1.41a6700000000p-3, -0x1.593ca00000000p-3, 0x1.9101980000000p-4, 0x1.3930000000000p-3, 0x1.8851040000000p-3, -0x1.59d4280000000p-5, -0x1.7729a40000000p-4, -0x1.ca835c0000000p-3, -0x1.efab0c0000000p-4, 0x1.b63b600000000p-3, 0x1.c126300000000p-4, 0x1.43e1800000000p-3, -0x1.0939540000000p-4, 0x1.f2a4200000000p-6, -0x1.0025a00000000p-5, -0x1.663f9a0000000p-3, 0x1.08b6c00000000p-6, 0x1.3c55040000000p-3, -0x1.014e700000000p-3, -0x1.7979480000000p-3, -0x1.2cafd00000000p-3, 0x1.14fc300000000p-3, 0x1.c3e4800000000p-4, 0x1.9fc0d00000000p-5, 0x1.98c9e00000000p-4, 0x1.85ae980000000p-3, 0x1.7bb3bc0000000p-3, 0x1.e2a8e00000000p-6, 0x1.c5a8a40000000p-3}
, {-0x1.6c96ec0000000p-3, -0x1.9afa140000000p-3, -0x1.39b8980000000p-4, -0x1.78827c0000000p-3, 0x1.60e72c0000000p-3, -0x1.ba35800000000p-6, -0x1.23752c0000000p-3, 0x1.9ce6300000000p-3, 0x1.8f8a380000000p-4, -0x1.d66e600000000p-5, 0x1.19ca780000000p-4, -0x1.d328bc0000000p-3, 0x1.9b0e480000000p-3, -0x1.d182c60000000p-3, 0x1.c46b0c0000000p-3, 0x1.3505bc0000000p-3, -0x1.3876300000000p-3, -0x1.ddd1400000000p-8, -0x1.83610c0000000p-3, 0x1.4fc3c00000000p-5, 0x1.72d3580000000p-4, -0x1.9dc7280000000p-4, 0x1.3e9ca80000000p-4, 0x1.1dd4d00000000p-4, 0x1.8a86800000000p-4, -0x1.ae15a00000000p-3, 0x1.a6d1d80000000p-3, 0x1.8b86980000000p-4, -0x1.3da06c0000000p-3, -0x1.b608b80000000p-4, -0x1.d067a80000000p-5, -0x1.c277400000000p-5, 0x1.65b8ac0000000p-3, 0x1.6518b00000000p-3, -0x1.2227a00000000p-3, -0x1.768f800000000p-4, 0x1.489bc80000000p-3, -0x1.bab9f00000000p-5, 0x1.0ed3b40000000p-3, -0x1.adada40000000p-3, 0x1.ccebc00000000p-8, -0x1.7226100000000p-4, -0x1.4ab62c0000000p-4, 0x1.4b52c00000000p-6, 0x1.88ee900000000p-5, -0x1.7f6d0c0000000p-3, 0x1.6bf5000000000p-6, 0x1.11ba600000000p-5, -0x1.5e95a00000000p-5, -0x1.87ab0e0000000p-3, -0x1.4c049c0000000p-3, 0x1.21e5bc0000000p-3, -0x1.62f9400000000p-5, -0x1.c328cc0000000p-3, -0x1.1152d00000000p-6, 0x1.d40d500000000p-4, 0x1.cc5a000000000p-4, -0x1.c9b0ee0000000p-3, -0x1.0c6d960000000p-3, -0x1.6314580000000p-4, 0x1.9103500000000p-5, 0x1.b1eecc0000000p-3, 0x1.a3a3500000000p-4, -0x1.3e15300000000p-6, 0x1.2c46300000000p-5, -0x1.c251500000000p-6, -0x1.894ee40000000p-3, 0x1.f229200000000p-5, -0x1.2d5e740000000p-3, -0x1.afb9a80000000p-5, 0x1.2ccf7c0000000p-3, 0x1.2fd9f00000000p-3, -0x1.4d71a00000000p-3, -0x1.fcd9ba0000000p-4, -0x1.e9d6600000000p-4, 0x1.83deb00000000p-5, 0x1.8200280000000p-4, -0x1.cd77400000000p-6, 0x1.be897c0000000p-3, -0x1.06b3640000000p-3, -0x1.957dd40000000p-3, 0x1.7bfbb00000000p-3, -0x1.f2b7be0000000p-4, -0x1.ab58ec0000000p-4, -0x1.0508940000000p-4, -0x1.f15d280000000p-4, -0x1.7c51c80000000p-3, 0x1.6c3ab40000000p-3, -0x1.324dc80000000p-4, -0x1.d477d20000000p-3, 0x1.4864e80000000p-4, 0x1.afc7100000000p-3, 0x1.b75d680000000p-4, -0x1.6258ae0000000p-3, 0x1.f41e200000000p-7, 0x1.8afaa00000000p-4, -0x1.de2fcc0000000p-3, -0x1.022a780000000p-3, 0x1.e2b0500000000p-5, -0x1.1e2ce80000000p-5}
, {0x1.b32a200000000p-5, -0x1.f096680000000p-4, 0x1.8ea8f00000000p-4, -0x1.23a4b20000000p-3, 0x1.5a6e580000000p-4, 0x1.d3a0100000000p-5, -0x1.d35c000000000p-3, 0x1.1c66c00000000p-7, 0x1.fa8c780000000p-4, 0x1.cd0e500000000p-3, 0x1.40bda80000000p-4, -0x1.ea76c40000000p-4, -0x1.0eee4c0000000p-4, -0x1.5ef4500000000p-3, 0x1.f7cd180000000p-4, 0x1.c87f880000000p-3, 0x1.4aa4400000000p-6, -0x1.23f6100000000p-3, -0x1.677a580000000p-3, -0x1.0f54300000000p-4, -0x1.6f62240000000p-3, -0x1.83cb900000000p-5, -0x1.4bbd440000000p-3, 0x1.7f5f000000000p-10, 0x1.2902840000000p-3, -0x1.df09240000000p-4, -0x1.0a13f00000000p-4, 0x1.429e600000000p-3, 0x1.eaf1600000000p-4, -0x1.8d4c500000000p-6, 0x1.5f5ee00000000p-3, 0x1.2f67a00000000p-5, 0x1.3ebb080000000p-4, 0x1.5b77b80000000p-4, -0x1.d87a360000000p-4, -0x1.3e04f80000000p-4, 0x1.0880200000000p-6, -0x1.aa86420000000p-3, 0x1.cab5140000000p-3, 0x1.7b54b00000000p-5, 0x1.e50ac00000000p-5, 0x1.95c8900000000p-5, 0x1.845bbc0000000p-3, -0x1.1490800000000p-3, -0x1.4d8bc80000000p-3, -0x1.111c400000000p-4, 0x1.50db600000000p-4, -0x1.97f5d00000000p-4, 0x1.baa9380000000p-4, -0x1.43243c0000000p-3, 0x1.01db600000000p-7, 0x1.4aefa00000000p-4, 0x1.f388200000000p-7, -0x1.9cfda40000000p-3, 0x1.3dd3600000000p-6, 0x1.96f9400000000p-5, -0x1.7bb7f00000000p-3, -0x1.8729700000000p-3, 0x1.f0f6800000000p-6, 0x1.08f8000000000p-13, 0x1.5d16c40000000p-3, 0x1.6597900000000p-3, 0x1.babfd00000000p-4, -0x1.5889440000000p-4, 0x1.54ed9c0000000p-3, 0x1.ca919c0000000p-3, -0x1.2ae6080000000p-3, 0x1.69d2640000000p-3, 0x1.3070e00000000p-6, -0x1.79420c0000000p-4, 0x1.bfebfc0000000p-3, -0x1.1ce95c0000000p-3, 0x1.cc7a300000000p-3, -0x1.6104480000000p-3, 0x1.c140a00000000p-3, 0x1.3cb9000000000p-9, -0x1.9e7a200000000p-4, 0x1.2383a00000000p-3, -0x1.797edc0000000p-3, -0x1.7ed14c0000000p-4, 0x1.3ee0280000000p-4, 0x1.51b9800000000p-5, -0x1.1656d80000000p-4, 0x1.a9be040000000p-3, 0x1.49c7780000000p-4, -0x1.e11fa00000000p-7, 0x1.5c37480000000p-3, -0x1.e78f200000000p-5, -0x1.b4248c0000000p-3, 0x1.0bd0800000000p-5, 0x1.35b9d40000000p-3, -0x1.6e9f080000000p-3, 0x1.44c6980000000p-4, -0x1.aff1e40000000p-3, 0x1.adb4c00000000p-6, -0x1.abe1ec0000000p-3, 0x1.61d6280000000p-3, 0x1.aa2f600000000p-3, 0x1.d07dc80000000p-4, -0x1.c4dfee0000000p-4}
, {-0x1.00f6900000000p-6, 0x1.be26380000000p-4, 0x1.36b1a00000000p-3, -0x1.1fdb160000000p-3, 0x1.3c27300000000p-3, 0x1.8ad6d00000000p-5, 0x1.16d2b40000000p-3, 0x1.0e15000000000p-6, -0x1.6423600000000p-5, -0x1.d76bb40000000p-3, -0x1.9986080000000p-3, 0x1.b825800000000p-6, 0x1.b4c7c00000000p-5, -0x1.29ce180000000p-4, -0x1.bb58280000000p-4, -0x1.cf6cb00000000p-6, 0x1.209bf00000000p-3, 0x1.b021f80000000p-3, -0x1.1d9a500000000p-4, -0x1.b075340000000p-4, 0x1.a1c1100000000p-3, -0x1.c4a7a80000000p-5, 0x1.b1a3500000000p-5, -0x1.a15a3c0000000p-3, 0x1.04d4900000000p-6, -0x1.93895c0000000p-3, -0x1.ba38040000000p-3, -0x1.8409440000000p-4, -0x1.c717b00000000p-4, -0x1.551e7a0000000p-3, 0x1.f8d2200000000p-5, -0x1.a6b5600000000p-4, 0x1.331c400000000p-6, -0x1.d6f5fe0000000p-4, 0x1.0a6d680000000p-3, -0x1.3df2aa0000000p-3, -0x1.68238c0000000p-4, -0x1.d51f1a0000000p-3, 0x1.e867880000000p-4, -0x1.c649a40000000p-3, -0x1.fef24e0000000p-4, 0x1.13b9840000000p-3, -0x1.5c4e780000000p-3, 0x1.a518c00000000p-6, 0x1.5123200000000p-5, 0x1.9fe9e80000000p-4, -0x1.da720a0000000p-3, -0x1.cd60d80000000p-5, -0x1.8df0ac0000000p-4, 0x1.219a6c0000000p-3, 0x1.1441700000000p-3, -0x1.20983c0000000p-4, 0x1.a58dc40000000p-3, -0x1.7eea860000000p-3, -0x1.81d8b00000000p-3, -0x1.5a8f1c0000000p-4, 0x1.3862200000000p-5, 0x1.9cdee80000000p-4, -0x1.f5c2b00000000p-5, 0x1.d9336c0000000p-3, 0x1.73da180000000p-3, -0x1.757ba00000000p-3, -0x1.4082800000000p-4, 0x1.7df4280000000p-3, 0x1.0a7ed80000000p-3, -0x1.689b360000000p-3, -0x1.fdb4da0000000p-4, 0x1.7968d80000000p-3, -0x1.e321240000000p-4, 0x1.b5f7540000000p-3, -0x1.ae36500000000p-6, -0x1.34b8800000000p-5, 0x1.96c2400000000p-6, 0x1.c0a5940000000p-3, 0x1.8e70800000000p-8, -0x1.976c400000000p-6, -0x1.df92020000000p-4, -0x1.3eff7c0000000p-3, 0x1.ebe7c80000000p-4, -0x1.a9dbb80000000p-5, 0x1.5b2a200000000p-7, -0x1.51a8dc0000000p-3, 0x1.82f47c0000000p-3, 0x1.7019300000000p-3, -0x1.48366c0000000p-4, 0x1.273e340000000p-3, -0x1.80d0980000000p-4, 0x1.726b600000000p-4, 0x1.4e7b380000000p-3, 0x1.2731f00000000p-3, 0x1.63dd900000000p-5, 0x1.ce14bc0000000p-3, 0x1.b62a980000000p-4, -0x1.c15a660000000p-3, -0x1.8036ec0000000p-3, 0x1.33edcc0000000p-3, -0x1.8df6b80000000p-3, -0x1.91aaf60000000p-3, -0x1.5e1bc80000000p-3, -0x1.09b9c00000000p-3}
, {0x1.3e90c00000000p-4, -0x1.fe68a00000000p-4, -0x1.ce84ac0000000p-4, -0x1.b9b9400000000p-3, -0x1.b481a40000000p-4, -0x1.d7873c0000000p-3, -0x1.d273cc0000000p-3, -0x1.f56aa00000000p-6, 0x1.6412b00000000p-4, 0x1.1a68d40000000p-3, -0x1.75fc560000000p-3, -0x1.3e44800000000p-5, 0x1.19ddc00000000p-6, -0x1.ab2d880000000p-5, 0x1.c3b6e00000000p-5, -0x1.bfe8480000000p-3, 0x1.2682f40000000p-3, 0x1.88e0640000000p-3, -0x1.96cc540000000p-4, -0x1.cafcd40000000p-4, 0x1.a37f500000000p-5, 0x1.e473400000000p-4, -0x1.4224100000000p-3, -0x1.a5b2240000000p-4, -0x1.84f7fc0000000p-3, -0x1.a08fec0000000p-3, 0x1.5ab0a00000000p-5, -0x1.c311600000000p-5, 0x1.1ab4b80000000p-3, 0x1.a388380000000p-4, -0x1.4da07c0000000p-4, -0x1.7dde000000000p-4, 0x1.4dad380000000p-4, 0x1.6d2a100000000p-3, -0x1.b2aa800000000p-5, -0x1.b636000000000p-10, -0x1.b2b75c0000000p-4, 0x1.0439400000000p-5, -0x1.71437c0000000p-3, -0x1.8ba6100000000p-6, 0x1.c60cc00000000p-4, 0x1.330f200000000p-5, -0x1.2908380000000p-3, 0x1.71f7000000000p-4, 0x1.c44bc00000000p-5, -0x1.c81c280000000p-3, 0x1.da5c600000000p-4, 0x1.b2d6100000000p-5, -0x1.06e2b00000000p-3, 0x1.d046a80000000p-4, -0x1.8d04e80000000p-4, 0x1.2357b80000000p-3, -0x1.703ae60000000p-3, 0x1.40f4a00000000p-5, 0x1.d1b8e80000000p-4, -0x1.1945b40000000p-3, -0x1.cd17ec0000000p-4, -0x1.cfbe260000000p-4, -0x1.ca02600000000p-7, -0x1.ce827a0000000p-3, -0x1.c2c7f00000000p-3, -0x1.1be5be0000000p-3, -0x1.bffa800000000p-6, -0x1.353ab00000000p-3, 0x1.7fdeb40000000p-3, 0x1.c7a4500000000p-5, 0x1.76a18c0000000p-3, -0x1.94a0f40000000p-3, 0x1.d078e00000000p-3, 0x1.80691c0000000p-3, 0x1.47e5c00000000p-3, 0x1.be6c080000000p-4, -0x1.5f0b4a0000000p-3, -0x1.076bc80000000p-3, -0x1.27ebde0000000p-3, -0x1.7450100000000p-6, -0x1.a97c880000000p-5, -0x1.505d740000000p-3, -0x1.b692fc0000000p-4, -0x1.84b0a80000000p-5, 0x1.84a9bc0000000p-3, 0x1.84f9200000000p-6, -0x1.1523d80000000p-3, 0x1.a477a80000000p-3, 0x1.dbdf480000000p-3, 0x1.36c3700000000p-5, 0x1.bb8a400000000p-8, 0x1.f86a080000000p-4, -0x1.9a800c0000000p-3, 0x1.eb69780000000p-4, 0x1.1b24000000000p-4, 0x1.f05a000000000p-5, -0x1.c428780000000p-5, -0x1.dca5300000000p-5, 0x1.0d42500000000p-5, -0x1.97a0ec0000000p-3, -0x1.3bd0e00000000p-7, 0x1.be68080000000p-3, 0x1.215a400000000p-5, -0x1.3e25800000000p-9}
}
;

#undef INPUT_SAMPLES
#undef FC_UNITS