/**
  ******************************************************************************
  * @file    weights/fc.cc
  * @author  Pierre-Emmanuel Novac <penovac@unice.fr>, LEAT, CNRS, Université Côte d'Azur, France
  * @version 1.0.0
  * @date    24 march 2020
  * @brief   Template generating plain C code for the implementation of Convolutional Neural Networks on MCU
  */

#include <stdint.h>

#define INPUT_SAMPLES 576
#define FC_UNITS 100


const float dense_12_bias[FC_UNITS] = {0x0.0p+0, 0x0.0p+0, 0x0.0p+0, 0x0.0p+0, 0x0.0p+0, 0x0.0p+0, 0x0.0p+0, 0x0.0p+0, 0x0.0p+0, 0x0.0p+0, 0x0.0p+0, 0x0.0p+0, 0x0.0p+0, 0x0.0p+0, 0x0.0p+0, 0x0.0p+0, 0x0.0p+0, 0x0.0p+0, 0x0.0p+0, 0x0.0p+0, 0x0.0p+0, 0x0.0p+0, 0x0.0p+0, 0x0.0p+0, 0x0.0p+0, 0x0.0p+0, 0x0.0p+0, 0x0.0p+0, 0x0.0p+0, 0x0.0p+0, 0x0.0p+0, 0x0.0p+0, 0x0.0p+0, 0x0.0p+0, 0x0.0p+0, 0x0.0p+0, 0x0.0p+0, 0x0.0p+0, 0x0.0p+0, 0x0.0p+0, 0x0.0p+0, 0x0.0p+0, 0x0.0p+0, 0x0.0p+0, 0x0.0p+0, 0x0.0p+0, 0x0.0p+0, 0x0.0p+0, 0x0.0p+0, 0x0.0p+0, 0x0.0p+0, 0x0.0p+0, 0x0.0p+0, 0x0.0p+0, 0x0.0p+0, 0x0.0p+0, 0x0.0p+0, 0x0.0p+0, 0x0.0p+0, 0x0.0p+0, 0x0.0p+0, 0x0.0p+0, 0x0.0p+0, 0x0.0p+0, 0x0.0p+0, 0x0.0p+0, 0x0.0p+0, 0x0.0p+0, 0x0.0p+0, 0x0.0p+0, 0x0.0p+0, 0x0.0p+0, 0x0.0p+0, 0x0.0p+0, 0x0.0p+0, 0x0.0p+0, 0x0.0p+0, 0x0.0p+0, 0x0.0p+0, 0x0.0p+0, 0x0.0p+0, 0x0.0p+0, 0x0.0p+0, 0x0.0p+0, 0x0.0p+0, 0x0.0p+0, 0x0.0p+0, 0x0.0p+0, 0x0.0p+0, 0x0.0p+0, 0x0.0p+0, 0x0.0p+0, 0x0.0p+0, 0x0.0p+0, 0x0.0p+0, 0x0.0p+0, 0x0.0p+0, 0x0.0p+0, 0x0.0p+0, 0x0.0p+0}
;

const float dense_12_kernel[FC_UNITS][INPUT_SAMPLES] = {{0x1.3c4f480000000p-5, 0x1.fd23a00000000p-6, 0x1.265f6c0000000p-4, 0x1.20d4640000000p-4, -0x1.3fd9740000000p-4, 0x1.c911280000000p-5, -0x1.23a9300000000p-4, -0x1.f392440000000p-5, 0x1.9ff2a00000000p-6, 0x1.7038d40000000p-4, 0x1.7822580000000p-5, 0x1.2395d80000000p-5, -0x1.fc68080000000p-6, 0x1.ce5a300000000p-7, -0x1.ff7cba0000000p-5, 0x1.28378c0000000p-4, -0x1.391dc40000000p-5, -0x1.35c00a0000000p-4, 0x1.6e7e400000000p-5, -0x1.bf3f460000000p-5, -0x1.edd8700000000p-5, -0x1.c240e00000000p-7, 0x1.bafa780000000p-5, 0x1.2ae3e40000000p-4, -0x1.d08b180000000p-6, -0x1.9a56c00000000p-5, -0x1.cc87100000000p-7, -0x1.c0e2400000000p-7, -0x1.20ba880000000p-4, -0x1.b4d8200000000p-6, -0x1.33a0d80000000p-4, -0x1.279d600000000p-7, 0x1.7ab1400000000p-6, -0x1.dd24240000000p-5, 0x1.410d480000000p-4, 0x1.1716a00000000p-5, 0x1.50dba80000000p-5, 0x1.19f9800000000p-10, 0x1.1e89a40000000p-4, -0x1.3a514c0000000p-4, 0x1.6f40300000000p-5, -0x1.d502000000000p-11, -0x1.9c26c00000000p-6, 0x1.b4e2a80000000p-6, -0x1.56498e0000000p-4, -0x1.2540880000000p-4, 0x1.d79ab00000000p-5, -0x1.60855a0000000p-4, 0x1.10d1400000000p-4, -0x1.30beca0000000p-5, 0x1.7cf2600000000p-6, 0x1.d1a9e00000000p-5, -0x1.c1862a0000000p-5, -0x1.5eaf2a0000000p-4, -0x1.d99b580000000p-6, -0x1.a81b6c0000000p-5, 0x1.7fad500000000p-4, 0x1.e0e4000000000p-8, -0x1.7b9bc40000000p-4, 0x1.6d8c880000000p-5, -0x1.e353c00000000p-9, -0x1.62bf120000000p-5, -0x1.b3b9280000000p-6, 0x1.d526e00000000p-5, 0x1.5aa6800000000p-9, 0x1.77aa340000000p-4, 0x1.3704d80000000p-6, 0x1.6586f80000000p-5, -0x1.2d259e0000000p-4, 0x1.1b60480000000p-4, -0x1.1eeddc0000000p-4, -0x1.59fbbc0000000p-4, -0x1.60b09e0000000p-5, 0x1.0309f80000000p-5, 0x1.5e4ae00000000p-4, 0x1.3621a00000000p-7, 0x1.1c28d00000000p-4, -0x1.0f56280000000p-6, -0x1.6570780000000p-6, -0x1.1f80300000000p-7, -0x1.92e4900000000p-6, 0x1.5a05900000000p-6, 0x1.8441680000000p-6, -0x1.cef2400000000p-8, -0x1.549d020000000p-4, -0x1.44d5360000000p-5, -0x1.2601000000000p-6, -0x1.d32c880000000p-6, -0x1.902c400000000p-6, 0x1.7057540000000p-4, 0x1.3561100000000p-5, -0x1.1051d80000000p-4, 0x1.e42c000000000p-9, 0x1.503f600000000p-7, 0x1.cccd700000000p-5, -0x1.b615600000000p-8, -0x1.8761a80000000p-6, -0x1.64d4800000000p-10, 0x1.01d5d80000000p-4, -0x1.6720840000000p-5, 0x1.357d600000000p-8, 0x1.2ed2400000000p-9, 0x1.1161800000000p-7, 0x1.b278c80000000p-5, -0x1.e40b800000000p-9, -0x1.314ae20000000p-4, 0x1.3f1de00000000p-5, 0x1.5762340000000p-4, -0x1.753c240000000p-4, -0x1.146d1a0000000p-4, 0x1.f2ccf00000000p-5, 0x1.51ec580000000p-5, 0x1.27c4400000000p-9, 0x1.7c5f6c0000000p-4, -0x1.414b900000000p-4, 0x1.5167c00000000p-8, 0x1.cb8f200000000p-8, 0x1.3094d80000000p-4, -0x1.afba380000000p-6, -0x1.4771e60000000p-4, -0x1.805e500000000p-4, 0x1.79f0100000000p-5, 0x1.442eec0000000p-4, 0x1.2d67980000000p-4, 0x1.879a780000000p-5, -0x1.0c2cfc0000000p-5, 0x1.d7f2400000000p-6, -0x1.a957000000000p-11, -0x1.183aba0000000p-4, -0x1.fe0ef40000000p-5, 0x1.40886c0000000p-4, 0x1.353c200000000p-6, 0x1.4822400000000p-6, -0x1.afec900000000p-5, 0x1.430ee00000000p-5, 0x1.5872bc0000000p-4, 0x1.f014700000000p-7, 0x1.c894480000000p-6, -0x1.701c040000000p-4, 0x1.8f3ae00000000p-6, -0x1.e85ff00000000p-5, 0x1.16c1380000000p-5, 0x1.c582380000000p-5, -0x1.7ef6920000000p-5, -0x1.4384a80000000p-6, -0x1.c52fb40000000p-5, -0x1.b9cbc00000000p-7, 0x1.f7db680000000p-6, -0x1.03cdcc0000000p-4, 0x1.74fb980000000p-5, 0x1.594fb00000000p-4, 0x1.d0ced00000000p-5, -0x1.3a91e60000000p-5, 0x1.244e080000000p-4, -0x1.70ac720000000p-5, 0x1.ffaff00000000p-6, -0x1.10e8c00000000p-9, 0x1.6718a40000000p-4, 0x1.ef0c400000000p-7, 0x1.1f0cc80000000p-4, 0x1.f069000000000p-8, -0x1.cef4500000000p-6, -0x1.7dc04e0000000p-4, 0x1.1846c80000000p-4, 0x1.6d5a5c0000000p-4, -0x1.17ed480000000p-4, 0x1.cfd7100000000p-5, -0x1.e5f7600000000p-5, -0x1.7768e80000000p-4, 0x1.188ff00000000p-5, 0x1.65edc00000000p-5, -0x1.1087800000000p-9, 0x1.afd2b00000000p-6, -0x1.9b94aa0000000p-5, -0x1.16ad600000000p-6, -0x1.357ea20000000p-5, -0x1.1b35e00000000p-6, 0x1.2a37580000000p-4, 0x1.52a0f00000000p-6, 0x1.297ee00000000p-5, 0x1.c3e7a00000000p-6, -0x1.4d4fd60000000p-4, 0x1.26ee940000000p-4, -0x1.4a65c80000000p-4, -0x1.2906200000000p-4, 0x1.01e5540000000p-4, -0x1.29dbe80000000p-4, -0x1.0892a80000000p-5, 0x1.022d400000000p-7, -0x1.e1c4000000000p-6, 0x1.32ed540000000p-4, 0x1.e824200000000p-6, -0x1.6088d00000000p-6, 0x1.1ddda40000000p-4, 0x1.06e5580000000p-6, -0x1.e8b5780000000p-6, -0x1.d6c2620000000p-5, 0x1.cd56000000000p-5, 0x1.7becdc0000000p-4, -0x1.43db8e0000000p-5, -0x1.e025200000000p-7, -0x1.8b55300000000p-7, -0x1.6e08b60000000p-4, -0x1.2d38ac0000000p-4, -0x1.4be8c60000000p-4, -0x1.6e3f800000000p-6, -0x1.082adc0000000p-4, 0x1.db6b700000000p-5, 0x1.7b53000000000p-5, 0x1.23fb080000000p-5, -0x1.78e2020000000p-5, -0x1.337a800000000p-8, -0x1.a23c000000000p-5, -0x1.f3fa5e0000000p-5, -0x1.32fffa0000000p-4, 0x1.96c6e00000000p-6, 0x1.8a3fa80000000p-5, 0x1.7c605c0000000p-4, 0x1.73f8900000000p-5, 0x1.34b5f80000000p-5, -0x1.21c1aa0000000p-5, -0x1.754f680000000p-5, 0x1.69fb880000000p-5, -0x1.0ca9fa0000000p-4, -0x1.c4edf20000000p-5, -0x1.767b0c0000000p-5, 0x1.660f000000000p-4, -0x1.1375040000000p-4, -0x1.e383980000000p-6, 0x1.fe1f000000000p-8, 0x1.66cf680000000p-5, 0x1.db15f80000000p-6, 0x1.21832c0000000p-4, 0x1.196c800000000p-6, 0x1.00138c0000000p-4, -0x1.bfebbc0000000p-5, 0x1.5653000000000p-7, -0x1.87e9ec0000000p-5, -0x1.a8d1000000000p-7, -0x1.3236880000000p-4, 0x1.d9b4800000000p-10, -0x1.600d360000000p-4, 0x1.2c5d680000000p-5, -0x1.e2d86a0000000p-5, 0x1.799eb00000000p-4, 0x1.0e6fd80000000p-4, 0x1.39dc400000000p-5, 0x1.7607000000000p-4, 0x1.f122580000000p-5, -0x1.c4f6a80000000p-5, 0x1.7e26f00000000p-5, 0x1.9596a80000000p-6, 0x1.42679c0000000p-4, -0x1.6064bc0000000p-4, -0x1.e327900000000p-6, 0x1.5fb2680000000p-4, -0x1.7078700000000p-6, 0x1.6825e80000000p-4, 0x1.0ce4080000000p-5, 0x1.84c9600000000p-6, 0x1.4d86600000000p-8, 0x1.5b3b000000000p-4, -0x1.fe9cbe0000000p-5, 0x1.4e91100000000p-6, -0x1.b1005e0000000p-5, -0x1.98cc780000000p-6, 0x1.b99d780000000p-5, 0x1.6311000000000p-7, 0x1.3dabe00000000p-8, 0x1.7ce1a00000000p-5, 0x1.5eda680000000p-5, 0x1.fd84e00000000p-8, -0x1.b825000000000p-11, -0x1.da44700000000p-6, -0x1.1eed800000000p-6, 0x1.6f49980000000p-5, -0x1.7038000000000p-13, -0x1.485ec00000000p-9, -0x1.1a52be0000000p-5, -0x1.87bda60000000p-5, 0x1.fcdcc00000000p-6, -0x1.f5e6b00000000p-7, 0x1.4119680000000p-6, 0x1.a3c9480000000p-5, 0x1.a7c3d00000000p-5, 0x1.7fe3200000000p-5, -0x1.258e700000000p-4, 0x1.1009d00000000p-5, 0x1.37d9000000000p-4, -0x1.03c18c0000000p-4, -0x1.36c7e80000000p-6, 0x1.bf54600000000p-5, 0x1.072c000000000p-4, 0x1.f3ff680000000p-5, -0x1.7929400000000p-6, 0x1.36b5b80000000p-5, 0x1.5c41a40000000p-4, 0x1.c5f2980000000p-5, -0x1.6e14880000000p-6, 0x1.c999480000000p-5, -0x1.53eb880000000p-6, -0x1.de21c20000000p-5, 0x1.8b3ee00000000p-6, -0x1.9ba2d80000000p-5, -0x1.00b1920000000p-4, -0x1.9728c40000000p-5, -0x1.74ea1c0000000p-4, -0x1.3ed1240000000p-5, -0x1.13de880000000p-4, -0x1.71a2880000000p-6, 0x1.3763940000000p-4, -0x1.78e0140000000p-5, 0x1.0883180000000p-5, -0x1.2e9a560000000p-5, 0x1.4785780000000p-6, 0x1.45eba00000000p-8, -0x1.2499680000000p-6, -0x1.00e2d00000000p-5, 0x1.9f13400000000p-7, 0x1.7760f80000000p-4, -0x1.2902880000000p-6, 0x1.0f466c0000000p-4, 0x1.319f580000000p-6, 0x1.ace6180000000p-5, -0x1.606e9a0000000p-4, -0x1.8ec9220000000p-5, 0x1.dc49a80000000p-5, -0x1.a7fc480000000p-5, -0x1.4390cc0000000p-4, 0x1.66fc900000000p-5, -0x1.72cbaa0000000p-5, -0x1.74acec0000000p-4, 0x1.a0fe480000000p-5, 0x1.a04ea80000000p-5, 0x1.e11e000000000p-5, 0x1.a9f7780000000p-5, -0x1.3950f80000000p-5, 0x1.27a1b40000000p-4, 0x1.bdccc00000000p-8, 0x1.9e65200000000p-8, -0x1.26a8500000000p-6, 0x1.bd96a80000000p-6, 0x1.a533400000000p-5, 0x1.64e8cc0000000p-4, -0x1.5da8be0000000p-5, -0x1.513c900000000p-6, -0x1.42959a0000000p-4, 0x1.1cb6a00000000p-8, 0x1.2451f00000000p-5, -0x1.6fe9400000000p-6, 0x1.559b980000000p-4, 0x1.1b84dc0000000p-4, -0x1.865dac0000000p-5, -0x1.af33f80000000p-6, -0x1.2657b40000000p-4, -0x1.41d6180000000p-6, -0x1.0dc9280000000p-5, 0x1.3dc3500000000p-5, 0x1.662a980000000p-4, 0x1.94a7d00000000p-5, 0x1.53e7540000000p-4, 0x1.ea58e80000000p-5, -0x1.6491820000000p-5, -0x1.e2a5d00000000p-6, 0x1.9427180000000p-5, 0x1.5d22fc0000000p-4, 0x1.2086180000000p-5, -0x1.028e200000000p-6, 0x1.c61ec00000000p-6, -0x1.5f215a0000000p-4, -0x1.f9a1bc0000000p-5, -0x1.1c22f00000000p-4, -0x1.6b98180000000p-5, 0x1.5bb67c0000000p-4, 0x1.2e1b580000000p-6, 0x1.db83880000000p-6, -0x1.2b35620000000p-5, -0x1.ba47d00000000p-6, 0x1.471a700000000p-6, -0x1.723f300000000p-7, 0x1.c79f100000000p-6, -0x1.da3c700000000p-7, -0x1.276a200000000p-6, -0x1.1f15000000000p-9, -0x1.e273b80000000p-6, -0x1.39c9800000000p-10, -0x1.5f45e80000000p-4, 0x1.5867200000000p-5, 0x1.51ca700000000p-5, -0x1.cfaf000000000p-7, -0x1.d15ff00000000p-6, -0x1.1f80940000000p-4, 0x1.f9b1200000000p-5, 0x1.1af4700000000p-4, -0x1.18dd300000000p-7, -0x1.891efc0000000p-5, 0x1.d242200000000p-8, -0x1.1351e80000000p-4, 0x1.68a1e80000000p-4, 0x1.feaf000000000p-6, 0x1.ae77580000000p-5, 0x1.fb30c00000000p-5, -0x1.581e460000000p-4, 0x1.86a6a00000000p-8, -0x1.4154dc0000000p-4, 0x1.8717f80000000p-5, 0x1.b6c8500000000p-6, -0x1.5bc9540000000p-4, -0x1.3d66bc0000000p-4, -0x1.2797380000000p-4, -0x1.e60a980000000p-5, -0x1.399bb40000000p-4, 0x1.1672d00000000p-7, 0x1.abc3d80000000p-5, 0x1.a081500000000p-5, 0x1.f4dc780000000p-5, -0x1.5154560000000p-4, -0x1.5698780000000p-6, 0x1.7edfe00000000p-5, 0x1.f1b1300000000p-5, 0x1.72c9200000000p-7, -0x1.54adb60000000p-5, 0x1.1787880000000p-5, -0x1.50bea00000000p-8, -0x1.8bef6a0000000p-5, 0x1.4705900000000p-7, -0x1.7bcdee0000000p-4, 0x1.4bced80000000p-5, -0x1.d8cf900000000p-5, -0x1.31e8880000000p-6, 0x1.c638180000000p-5, 0x1.d502c00000000p-5, 0x1.7bc4c00000000p-9, -0x1.52229e0000000p-5, -0x1.85b0a80000000p-6, 0x1.4e20a80000000p-6, -0x1.802d1c0000000p-4, 0x1.0aacc80000000p-4, -0x1.4e0fb80000000p-4, 0x1.45e57c0000000p-4, -0x1.00c3420000000p-4, 0x1.31aa080000000p-4, -0x1.d918f00000000p-7, -0x1.7c17880000000p-6, -0x1.a2b4a00000000p-6, -0x1.3143580000000p-5, 0x1.2bc6040000000p-4, 0x1.7adf640000000p-4, -0x1.1186e80000000p-6, 0x1.183fe00000000p-6, -0x1.db2ffa0000000p-5, -0x1.18eeac0000000p-5, 0x1.4c44fc0000000p-4, -0x1.53ddc80000000p-5, 0x1.eb8bc00000000p-7, -0x1.28af280000000p-6, -0x1.1e26ba0000000p-4, 0x1.9238880000000p-5, -0x1.042ca40000000p-5, -0x1.5629f00000000p-7, -0x1.6ee7c20000000p-4, -0x1.4f21b60000000p-5, -0x1.79b3420000000p-4, -0x1.5585680000000p-5, -0x1.45fe5a0000000p-4, -0x1.77e2b00000000p-7, 0x1.6be2e00000000p-4, 0x1.f0cf800000000p-10, 0x1.8012100000000p-5, -0x1.407c400000000p-6, -0x1.693efa0000000p-5, 0x1.04b5100000000p-4, -0x1.4656ea0000000p-5, -0x1.253f780000000p-4, 0x1.206b240000000p-4, -0x1.33efb20000000p-5, -0x1.ec7a800000000p-7, 0x1.e0afe80000000p-5, -0x1.ae62d00000000p-6, -0x1.d93a4e0000000p-5, -0x1.1350c80000000p-6, 0x1.b80c000000000p-5, -0x1.b2fa780000000p-5, 0x1.1614e80000000p-4, -0x1.663e080000000p-6, 0x1.387fe40000000p-4, -0x1.4709c60000000p-5, 0x1.f533300000000p-6, -0x1.fc5c440000000p-5, -0x1.1784300000000p-7, -0x1.37fdf00000000p-6, -0x1.159bb40000000p-4, -0x1.1dcec80000000p-4, 0x1.0fedd80000000p-5, -0x1.1493d00000000p-7, -0x1.9223400000000p-6, -0x1.93aa5e0000000p-5, -0x1.19b5020000000p-4, 0x1.e6cd180000000p-6, -0x1.5d3ab80000000p-6, -0x1.f9aef80000000p-5, -0x1.1655de0000000p-5, 0x1.4684000000000p-6, -0x1.44e1020000000p-4, -0x1.7d8f1c0000000p-5, 0x1.c8e2000000000p-5, -0x1.501e680000000p-4, 0x1.1bbef80000000p-5, -0x1.5f452c0000000p-4, -0x1.81c3d80000000p-5, 0x1.d9ffb00000000p-5, 0x1.433dd00000000p-7, -0x1.4437300000000p-6, -0x1.7a5e100000000p-4, -0x1.ef32000000000p-5, -0x1.b2a8700000000p-7, -0x1.63f8400000000p-4, -0x1.a1b1760000000p-5, 0x1.ce0e880000000p-5, 0x1.4248000000000p-6, -0x1.5ffab20000000p-4, -0x1.28dedc0000000p-5, -0x1.8d92a80000000p-6, 0x1.8a28400000000p-8, 0x1.086fd80000000p-5, 0x1.4f3bf80000000p-4, 0x1.c068d80000000p-5, -0x1.36c4ee0000000p-5, 0x1.507b480000000p-4, -0x1.70cd3a0000000p-4, 0x1.420fcc0000000p-4, -0x1.2637320000000p-4, -0x1.5a76200000000p-7, -0x1.388e9c0000000p-4, -0x1.ea18900000000p-7, -0x1.08f6600000000p-4, 0x1.a819000000000p-9, -0x1.1e57560000000p-5, 0x1.0642a80000000p-4, -0x1.18fdca0000000p-5, 0x1.c0e0800000000p-5, 0x1.29ba780000000p-5, -0x1.8ba8b00000000p-7, -0x1.3a05080000000p-4, 0x1.47bdb80000000p-4, -0x1.3ba7040000000p-4, -0x1.5783a00000000p-4, -0x1.fc6c600000000p-5, -0x1.103c4c0000000p-4, 0x1.150a580000000p-6, -0x1.54a8700000000p-7, 0x1.56cfd80000000p-5, 0x1.5535640000000p-4, 0x1.89bcb00000000p-6, -0x1.8ecb4c0000000p-5, -0x1.f7a7e00000000p-6, 0x1.75ebbc0000000p-4, -0x1.0bdce80000000p-4, 0x1.0bc3a00000000p-7, 0x1.169d980000000p-4, -0x1.84ceec0000000p-5, -0x1.0fef720000000p-5, 0x1.ad2a000000000p-8, 0x1.caddb80000000p-5, 0x1.7921e00000000p-7, -0x1.d567a20000000p-5, 0x1.b89e880000000p-5, -0x1.043bd00000000p-6, -0x1.86c8b20000000p-5, -0x1.85b1200000000p-5, 0x1.4027800000000p-5, 0x1.725c700000000p-5, 0x1.f61f480000000p-6, -0x1.b13c180000000p-6, 0x1.c937f00000000p-7, 0x1.366ec00000000p-4}
, {-0x1.d217e00000000p-5, -0x1.65ddbe0000000p-5, 0x1.b27f000000000p-10, -0x1.90878c0000000p-5, 0x1.25d91c0000000p-4, 0x1.e87d780000000p-5, -0x1.73d5140000000p-4, -0x1.c5a7960000000p-5, -0x1.320f400000000p-6, 0x1.9ed3300000000p-5, 0x1.2d36c00000000p-5, 0x1.3be32c0000000p-4, -0x1.0607400000000p-7, 0x1.34be880000000p-4, 0x1.60b7280000000p-6, -0x1.8268dc0000000p-5, -0x1.1e80000000000p-13, -0x1.5cd0c40000000p-4, -0x1.f9467e0000000p-5, -0x1.4ebb300000000p-4, 0x1.757e240000000p-4, 0x1.4821fc0000000p-4, -0x1.41bd760000000p-5, -0x1.36dd6e0000000p-5, 0x1.47f8780000000p-5, -0x1.e2f9300000000p-6, -0x1.7cff500000000p-7, 0x1.4ea67c0000000p-4, -0x1.2a45d80000000p-6, -0x1.0c1ab80000000p-6, -0x1.3929120000000p-5, -0x1.32bbe00000000p-8, -0x1.f1fa840000000p-5, -0x1.cbba000000000p-11, 0x1.5e53500000000p-4, -0x1.6112380000000p-4, 0x1.277cac0000000p-4, 0x1.0f64400000000p-5, 0x1.5eb6b40000000p-4, -0x1.3327360000000p-5, 0x1.b8d8d80000000p-6, -0x1.7f68e40000000p-5, -0x1.db7ad40000000p-5, 0x1.620ab40000000p-4, 0x1.02b39c0000000p-4, 0x1.4f2e480000000p-6, -0x1.5e86240000000p-5, 0x1.dbd6d00000000p-6, 0x1.10051c0000000p-4, 0x1.f09d600000000p-8, -0x1.4ba9280000000p-5, 0x1.2a50180000000p-4, 0x1.cabec00000000p-5, 0x1.4fb1300000000p-5, 0x1.a579000000000p-6, -0x1.2842de0000000p-4, 0x1.deac880000000p-6, -0x1.42996c0000000p-4, -0x1.343c0e0000000p-4, 0x1.36353c0000000p-4, -0x1.225f1e0000000p-4, -0x1.6b9c4a0000000p-5, -0x1.14abcc0000000p-5, 0x1.44cbdc0000000p-4, 0x1.34f8840000000p-4, 0x1.18e9940000000p-4, -0x1.a890920000000p-5, 0x1.294cec0000000p-4, 0x1.0767700000000p-6, -0x1.6eac400000000p-9, -0x1.dd4e000000000p-7, 0x1.1977880000000p-4, -0x1.18d71e0000000p-4, -0x1.678ea60000000p-5, -0x1.f8c6080000000p-5, -0x1.a603200000000p-5, 0x1.6d13680000000p-4, -0x1.058b480000000p-6, 0x1.55744c0000000p-4, -0x1.32164e0000000p-4, 0x1.2043900000000p-7, 0x1.0631980000000p-5, -0x1.12ebbc0000000p-4, -0x1.6545200000000p-4, 0x1.75d24c0000000p-4, 0x1.4c78840000000p-4, -0x1.af8fa00000000p-6, 0x1.840a380000000p-6, 0x1.7891380000000p-4, 0x1.b271300000000p-7, -0x1.045c500000000p-5, 0x1.7f5aa00000000p-8, 0x1.daa6480000000p-5, -0x1.09af680000000p-5, -0x1.54a8f40000000p-5, -0x1.625bfc0000000p-4, -0x1.160bc00000000p-4, 0x1.759fc00000000p-4, -0x1.2a431e0000000p-4, 0x1.65ee880000000p-4, -0x1.0dee640000000p-4, 0x1.32b3000000000p-7, 0x1.61f4900000000p-4, 0x1.29ce400000000p-5, -0x1.df97080000000p-6, -0x1.e324400000000p-9, 0x1.2284d00000000p-5, -0x1.3d56a00000000p-7, 0x1.3188600000000p-7, -0x1.4b8c180000000p-4, 0x1.6d3a580000000p-4, -0x1.c2e2000000000p-11, 0x1.3715b80000000p-5, 0x1.5e67600000000p-8, 0x1.711be00000000p-8, -0x1.69827c0000000p-4, -0x1.59b5920000000p-5, 0x1.079ec00000000p-6, 0x1.3df5e40000000p-4, -0x1.125e520000000p-5, 0x1.e3ac300000000p-7, -0x1.dfc1780000000p-5, 0x1.4a56980000000p-4, 0x1.f529400000000p-5, -0x1.ade0cc0000000p-5, 0x1.2720fc0000000p-4, 0x1.6e82d80000000p-6, 0x1.0ab3000000000p-7, 0x1.0811b80000000p-5, -0x1.8090000000000p-7, 0x1.13e7700000000p-7, -0x1.ab31aa0000000p-5, -0x1.a99cbe0000000p-5, -0x1.1760220000000p-4, 0x1.6877880000000p-5, -0x1.accd5e0000000p-5, -0x1.0722140000000p-4, 0x1.4b53900000000p-4, -0x1.645ea00000000p-8, -0x1.4900100000000p-4, -0x1.b162600000000p-8, 0x1.7d79680000000p-4, 0x1.0b88cc0000000p-4, 0x1.3204f80000000p-4, -0x1.6cf2940000000p-4, 0x1.42ac700000000p-6, 0x1.3e8e9c0000000p-4, -0x1.74095e0000000p-4, 0x1.6e15400000000p-4, -0x1.bac5600000000p-6, 0x1.7d09800000000p-9, 0x1.f6b0780000000p-6, 0x1.15d7580000000p-6, 0x1.0577e00000000p-8, -0x1.6783d00000000p-6, 0x1.26f3680000000p-5, 0x1.349bf40000000p-4, 0x1.b21c800000000p-5, -0x1.3ad2c40000000p-4, -0x1.1d93480000000p-6, -0x1.6472600000000p-4, -0x1.f51b900000000p-7, 0x1.0757840000000p-4, 0x1.eb95900000000p-5, -0x1.4240220000000p-4, 0x1.87edf80000000p-5, -0x1.5ba5380000000p-6, 0x1.56eb480000000p-4, 0x1.edef000000000p-6, 0x1.a87a480000000p-5, -0x1.4bd2d00000000p-7, -0x1.166f420000000p-4, -0x1.00d79c0000000p-4, -0x1.793d900000000p-7, -0x1.1d07480000000p-6, 0x1.0e14600000000p-8, 0x1.f2dbc00000000p-8, -0x1.5bee3c0000000p-4, 0x1.b9a2d00000000p-7, -0x1.1820200000000p-6, -0x1.f2a3100000000p-5, -0x1.1b08b60000000p-4, 0x1.2f1d580000000p-4, -0x1.2b695c0000000p-4, 0x1.f7fb900000000p-5, 0x1.19d0480000000p-4, -0x1.05398c0000000p-4, -0x1.a8411c0000000p-5, -0x1.5c836a0000000p-5, -0x1.cd524a0000000p-5, -0x1.25d3c80000000p-5, 0x1.0e03300000000p-6, -0x1.420fa80000000p-4, 0x1.f7b7980000000p-5, 0x1.2e8ec80000000p-4, 0x1.1a54000000000p-12, 0x1.5688800000000p-10, 0x1.1ea7940000000p-4, -0x1.2750040000000p-4, 0x1.6969e00000000p-4, -0x1.8027a00000000p-5, 0x1.5476d40000000p-4, 0x1.8042400000000p-5, 0x1.540a580000000p-6, 0x1.0388b80000000p-4, -0x1.d927600000000p-6, 0x1.1a8c840000000p-4, 0x1.0799f00000000p-7, -0x1.18bab80000000p-6, -0x1.4848fc0000000p-4, -0x1.268a980000000p-4, -0x1.6bbc4c0000000p-4, 0x1.37df600000000p-4, 0x1.9e73480000000p-6, -0x1.6772260000000p-4, 0x1.557bc00000000p-4, -0x1.d6b7a00000000p-8, 0x1.aa11400000000p-6, 0x1.911aa00000000p-6, 0x1.3c4df00000000p-4, 0x1.909db00000000p-5, 0x1.9018d80000000p-6, 0x1.6ea0580000000p-6, 0x1.4608a00000000p-8, -0x1.05c1540000000p-5, -0x1.61b8000000000p-9, 0x1.501f700000000p-4, -0x1.244fe00000000p-8, -0x1.7755020000000p-4, 0x1.1a9f5c0000000p-4, 0x1.16214c0000000p-4, 0x1.1afe900000000p-4, 0x1.4475340000000p-4, -0x1.f378200000000p-5, 0x1.c67d200000000p-5, 0x1.9e96b00000000p-7, 0x1.7697180000000p-4, 0x1.42b2900000000p-6, -0x1.5b5ed80000000p-6, -0x1.5e51560000000p-5, 0x1.c501d00000000p-5, -0x1.f555660000000p-5, -0x1.05be900000000p-7, 0x1.febf480000000p-5, 0x1.8ed9f00000000p-6, -0x1.04e5580000000p-5, -0x1.45d2000000000p-7, 0x1.b5c2600000000p-5, -0x1.8f37800000000p-5, 0x1.66a7080000000p-5, 0x1.75d2800000000p-5, -0x1.2a38180000000p-6, 0x1.7f84600000000p-4, 0x1.ece0d00000000p-7, 0x1.696d400000000p-5, -0x1.fbba000000000p-10, 0x1.56c5300000000p-4, -0x1.3fe3000000000p-8, 0x1.292ce00000000p-5, -0x1.3673880000000p-4, -0x1.59770a0000000p-4, 0x1.7935f80000000p-5, 0x1.a084f80000000p-5, -0x1.0897940000000p-4, 0x1.433f100000000p-4, -0x1.8d1a100000000p-5, -0x1.85e0000000000p-8, -0x1.ec7c6a0000000p-5, -0x1.9233e20000000p-5, -0x1.94dd100000000p-6, 0x1.7a8d740000000p-4, 0x1.64f67c0000000p-4, 0x1.124a3c0000000p-4, 0x1.804d880000000p-5, -0x1.40eca80000000p-6, 0x1.d790080000000p-5, -0x1.82c9840000000p-5, 0x1.ad47100000000p-7, -0x1.73d7100000000p-4, -0x1.07f3d60000000p-4, -0x1.3956b60000000p-5, -0x1.6ea5940000000p-4, 0x1.3ddbb80000000p-4, 0x1.4d909c0000000p-4, -0x1.7c6f620000000p-4, -0x1.4253720000000p-4, -0x1.846b1c0000000p-5, -0x1.3a22880000000p-6, -0x1.075b440000000p-4, -0x1.6bce380000000p-4, -0x1.60aaf00000000p-4, 0x1.8114900000000p-4, -0x1.fcea400000000p-6, 0x1.4940000000000p-17, 0x1.9f4ab00000000p-5, -0x1.7b3da00000000p-4, 0x1.2328b80000000p-4, -0x1.3efb100000000p-4, -0x1.1c97be0000000p-4, 0x1.b2c6800000000p-9, -0x1.6a1ece0000000p-4, 0x1.e7eaa80000000p-5, 0x1.467f480000000p-5, 0x1.72f3e00000000p-7, 0x1.9bf6000000000p-11, -0x1.ca1b880000000p-6, -0x1.471e000000000p-7, -0x1.8f33ea0000000p-5, -0x1.80e4960000000p-4, -0x1.c296a00000000p-7, -0x1.8095600000000p-6, -0x1.43d20a0000000p-5, 0x1.7492800000000p-4, -0x1.7792d00000000p-6, -0x1.9fe5ce0000000p-5, -0x1.05b8b00000000p-7, -0x1.1935f00000000p-4, 0x1.3e70e80000000p-6, 0x1.c207d00000000p-7, -0x1.3e5f900000000p-7, 0x1.1271400000000p-5, 0x1.f3b0180000000p-5, 0x1.064fc80000000p-5, -0x1.abf8800000000p-6, -0x1.138f5a0000000p-4, -0x1.7dcbd40000000p-4, -0x1.1bbc3a0000000p-5, -0x1.ee693c0000000p-5, 0x1.83ec900000000p-7, -0x1.3953600000000p-7, 0x1.1a51200000000p-7, -0x1.a461600000000p-8, -0x1.eed0880000000p-6, -0x1.5234000000000p-5, 0x1.53c4400000000p-6, -0x1.9f70220000000p-5, 0x1.41e8e00000000p-4, 0x1.e4dd700000000p-5, -0x1.9ba9280000000p-5, 0x1.1e72c00000000p-6, -0x1.52b1f00000000p-7, 0x1.390e940000000p-4, 0x1.172b9c0000000p-4, -0x1.c39dfc0000000p-5, -0x1.329cea0000000p-5, -0x1.809c360000000p-5, -0x1.7863dc0000000p-5, -0x1.701f260000000p-4, -0x1.15d7940000000p-5, 0x1.0f96b00000000p-7, 0x1.188e400000000p-6, -0x1.d5025c0000000p-5, 0x1.6c22d80000000p-4, -0x1.7a89ba0000000p-5, 0x1.1c62840000000p-4, -0x1.963b200000000p-8, 0x1.dc47680000000p-6, 0x1.f661280000000p-6, -0x1.0814d00000000p-4, -0x1.5060000000000p-5, -0x1.339c200000000p-8, -0x1.d8dc600000000p-5, 0x1.fcc8000000000p-8, 0x1.488c680000000p-5, 0x1.6fff0c0000000p-4, 0x1.87ad980000000p-6, -0x1.3a52720000000p-4, 0x1.cd0d000000000p-10, 0x1.1c12e80000000p-6, -0x1.5b6b3c0000000p-4, -0x1.19a6080000000p-4, 0x1.5d03d80000000p-4, 0x1.82fd100000000p-7, -0x1.7f10b60000000p-4, -0x1.61e0c80000000p-6, -0x1.5fe0d60000000p-4, 0x1.3e9ca00000000p-6, -0x1.7529100000000p-5, -0x1.00ebf00000000p-4, -0x1.d781400000000p-8, 0x1.5916b80000000p-6, -0x1.0d0fc00000000p-6, 0x1.8156a00000000p-4, 0x1.cc79d80000000p-5, -0x1.a07c400000000p-6, 0x1.cd09900000000p-6, 0x1.029c700000000p-6, -0x1.3d91e00000000p-8, 0x1.5581980000000p-5, -0x1.f771ca0000000p-5, 0x1.861bd00000000p-5, -0x1.a799600000000p-6, -0x1.4d3a540000000p-4, 0x1.5eb9c40000000p-4, 0x1.60c7a80000000p-5, -0x1.2a6eb80000000p-4, 0x1.0073140000000p-4, 0x1.bae3200000000p-5, -0x1.bc5b700000000p-6, -0x1.f53d000000000p-10, 0x1.a6ea500000000p-7, 0x1.014dd00000000p-7, -0x1.9d32000000000p-6, 0x1.6ecc580000000p-5, 0x1.cd5fd00000000p-5, 0x1.64eb880000000p-4, -0x1.1d07860000000p-5, -0x1.d490000000000p-9, 0x1.58a6000000000p-11, 0x1.a9a7300000000p-5, -0x1.4bbaba0000000p-5, 0x1.8f05280000000p-5, 0x1.0db5000000000p-4, 0x1.96dd980000000p-6, 0x1.7689f80000000p-6, 0x1.20d6880000000p-4, 0x1.9bb4a80000000p-6, -0x1.3e9c6e0000000p-4, -0x1.4d6f100000000p-7, -0x1.64b0200000000p-4, 0x1.ed1a680000000p-5, 0x1.ec74300000000p-5, -0x1.913fec0000000p-5, -0x1.2b09a00000000p-4, 0x1.7f38400000000p-4, -0x1.2427240000000p-4, -0x1.a111060000000p-5, -0x1.9821c00000000p-9, 0x1.66bea00000000p-6, 0x1.7ef8b00000000p-5, -0x1.4a6f6a0000000p-4, 0x1.64c5dc0000000p-4, 0x1.5ba64c0000000p-4, -0x1.6f8d800000000p-10, 0x1.6f8f280000000p-4, 0x1.e337300000000p-5, 0x1.6d37b80000000p-5, 0x1.e9a9f80000000p-5, 0x1.40db200000000p-5, 0x1.a21d400000000p-7, -0x1.543a1c0000000p-5, -0x1.d330000000000p-14, -0x1.5623660000000p-4, -0x1.08d4820000000p-4, -0x1.8990000000000p-8, 0x1.4119e00000000p-6, 0x1.6aaf4c0000000p-4, 0x1.f357780000000p-5, -0x1.2e1c9e0000000p-4, -0x1.364a080000000p-5, -0x1.f656d40000000p-5, -0x1.d0068e0000000p-5, 0x1.16d6400000000p-4, -0x1.d863140000000p-5, 0x1.40c5bc0000000p-4, 0x1.403d1c0000000p-4, -0x1.736e300000000p-6, -0x1.4d1f2c0000000p-4, -0x1.13767c0000000p-4, -0x1.74c8200000000p-7, -0x1.c79c200000000p-6, -0x1.dc83b40000000p-5, -0x1.fc80340000000p-5, -0x1.6419400000000p-6, -0x1.c5dfe00000000p-5, 0x1.371df80000000p-4, 0x1.aa57400000000p-8, 0x1.1b61100000000p-4, 0x1.46de400000000p-5, 0x1.de73f80000000p-5, -0x1.78b9fe0000000p-4, -0x1.a9c2000000000p-7, -0x1.74a0200000000p-8, -0x1.3ec90a0000000p-4, -0x1.3eae000000000p-8, 0x1.07671c0000000p-4, -0x1.542d580000000p-5, 0x1.cf70480000000p-5, -0x1.0c282c0000000p-4, -0x1.e2a3780000000p-6, -0x1.4a4e000000000p-6, -0x1.75ad5c0000000p-4, -0x1.72cb4a0000000p-4, -0x1.b6e5f00000000p-7, 0x1.2984340000000p-4, -0x1.9180900000000p-7, -0x1.7451820000000p-5, 0x1.653a600000000p-7, -0x1.7b13f60000000p-4, -0x1.bcad400000000p-9, 0x1.2524b00000000p-5, 0x1.f1e2100000000p-5, 0x1.3777e80000000p-4, -0x1.188e100000000p-6, 0x1.6698000000000p-6, -0x1.180c240000000p-4, 0x1.95aaf00000000p-5, 0x1.038d280000000p-6, -0x1.3ca1140000000p-4, -0x1.1bdb9a0000000p-4, -0x1.5057140000000p-4, 0x1.7a7a900000000p-4, 0x1.9267800000000p-5, 0x1.7b4fd40000000p-4, -0x1.ef3ffe0000000p-5, -0x1.9964b80000000p-6, 0x1.aa7cc00000000p-7, 0x1.2644000000000p-8, -0x1.5fae800000000p-4, 0x1.3ed6900000000p-6, -0x1.6b4b680000000p-5, 0x1.cb39780000000p-6, -0x1.f5a62e0000000p-5, -0x1.376b300000000p-4, -0x1.8889900000000p-5, -0x1.7edc360000000p-4, 0x1.7ccf740000000p-4, -0x1.4af4be0000000p-4, -0x1.618b200000000p-8, -0x1.6ef30a0000000p-4, 0x1.5eb8840000000p-4, -0x1.6bdc100000000p-7, -0x1.63f7400000000p-6, -0x1.75f0760000000p-5, -0x1.dcb1100000000p-5, 0x1.abb2f80000000p-5, -0x1.8ca16e0000000p-5, 0x1.283fc80000000p-4, 0x1.3d4bb40000000p-4, -0x1.0180fa0000000p-4, 0x1.b59d200000000p-8, 0x1.8783080000000p-5, -0x1.3b1c100000000p-4, 0x1.67d5080000000p-5, 0x1.be36880000000p-6, -0x1.1e8bc40000000p-5, -0x1.d592380000000p-6, 0x1.a245400000000p-9, -0x1.57591e0000000p-5, -0x1.7c6a9a0000000p-4, 0x1.2c9cf80000000p-4, 0x1.72bf7c0000000p-4, -0x1.cfb0700000000p-6, 0x1.7ac7f40000000p-4, 0x1.2d42780000000p-5, -0x1.1df0a80000000p-6, -0x1.ed2a9e0000000p-5, -0x1.20bea00000000p-6, 0x1.66adb80000000p-4, -0x1.0a88120000000p-4, -0x1.6507ca0000000p-5, -0x1.d9314e0000000p-5, 0x1.2f2f900000000p-6, -0x1.654e420000000p-5, 0x1.0e6a880000000p-5, 0x1.7dba7c0000000p-4, 0x1.3aeaa80000000p-6, -0x1.1b30a20000000p-4, 0x1.51b9c00000000p-6, -0x1.6fe64c0000000p-4, 0x1.d6ce680000000p-5, 0x1.46a4380000000p-6, -0x1.0d1de20000000p-5, 0x1.dd5cb80000000p-5, -0x1.a4228e0000000p-5, -0x1.b2bdf80000000p-6, -0x1.5a52580000000p-4, 0x1.e223700000000p-6, -0x1.fe28640000000p-5, -0x1.99e3920000000p-5, -0x1.b484740000000p-5, -0x1.3649000000000p-6, 0x1.63e3280000000p-6, -0x1.8517480000000p-6, -0x1.9caf100000000p-6, -0x1.9b6a5c0000000p-5}
, {0x1.622d880000000p-4, 0x1.8aee180000000p-5, 0x1.80f0dc0000000p-4, -0x1.71137c0000000p-4, -0x1.33a4780000000p-4, -0x1.21f9400000000p-5, -0x1.d220440000000p-5, -0x1.12b4080000000p-4, -0x1.6fb0e00000000p-4, 0x1.0ffa780000000p-4, -0x1.11f2240000000p-4, 0x1.59fee00000000p-5, -0x1.f053600000000p-6, 0x1.5cc8700000000p-7, 0x1.62ff700000000p-4, 0x1.92bc400000000p-6, 0x1.73ecc80000000p-4, 0x1.7f165c0000000p-4, 0x1.b875900000000p-7, -0x1.134c0a0000000p-4, -0x1.cb6a780000000p-6, 0x1.2881880000000p-5, 0x1.5b62f00000000p-4, -0x1.8378000000000p-6, 0x1.cf4e900000000p-6, -0x1.2012640000000p-4, -0x1.8f00180000000p-6, 0x1.7157a00000000p-4, -0x1.1c2d000000000p-9, -0x1.1006a40000000p-4, -0x1.69d3a00000000p-7, 0x1.c448000000000p-7, 0x1.5c8a640000000p-4, -0x1.4f50dc0000000p-5, -0x1.49133c0000000p-4, 0x1.cac6800000000p-5, -0x1.6a65280000000p-5, -0x1.6ca67c0000000p-4, 0x1.1c8dd40000000p-4, -0x1.c4c5c40000000p-5, 0x1.2538d00000000p-5, 0x1.7d59b00000000p-5, -0x1.69e1ec0000000p-4, 0x1.8e61200000000p-8, -0x1.7df3f60000000p-5, 0x1.fc9d800000000p-8, -0x1.1e46d40000000p-4, 0x1.1325780000000p-5, -0x1.9bbc200000000p-8, -0x1.4bba7e0000000p-4, 0x1.50e29c0000000p-4, -0x1.48e92a0000000p-4, 0x1.56b5280000000p-5, -0x1.3c16d40000000p-4, 0x1.991c000000000p-12, 0x1.1031580000000p-5, 0x1.a904000000000p-9, 0x1.8cbec80000000p-5, 0x1.0a5a100000000p-5, 0x1.297bf40000000p-4, -0x1.25e0f80000000p-5, -0x1.32d0660000000p-5, 0x1.4d1f940000000p-4, -0x1.b5a8000000000p-8, 0x1.506f300000000p-4, 0x1.9bd6d80000000p-6, 0x1.45f7b80000000p-4, 0x1.73f4d40000000p-4, -0x1.f69c980000000p-5, 0x1.f651b00000000p-7, -0x1.2959aa0000000p-4, -0x1.729d860000000p-4, 0x1.a7d1980000000p-5, -0x1.c948200000000p-7, -0x1.32cde60000000p-4, -0x1.33b6a80000000p-6, 0x1.53c8c00000000p-4, -0x1.6690c00000000p-5, -0x1.01132c0000000p-4, 0x1.b399580000000p-5, -0x1.e120a00000000p-7, -0x1.c862720000000p-5, 0x1.857cc00000000p-5, 0x1.7836ac0000000p-4, -0x1.b253700000000p-6, -0x1.bd07c00000000p-6, -0x1.65108e0000000p-5, -0x1.f1ad200000000p-5, 0x1.d6aef00000000p-7, -0x1.a94d400000000p-9, -0x1.ce976a0000000p-5, 0x1.e6fc880000000p-5, -0x1.569b660000000p-4, -0x1.284c500000000p-4, -0x1.0504020000000p-5, 0x1.219f900000000p-4, -0x1.1ef2b20000000p-5, 0x1.e140400000000p-8, 0x1.b799e00000000p-7, 0x1.a098600000000p-5, 0x1.9ec4800000000p-7, -0x1.80e1260000000p-4, 0x1.3a6d080000000p-4, -0x1.a628700000000p-7, -0x1.9fcbb80000000p-6, 0x1.7073d40000000p-4, -0x1.79d1ec0000000p-4, 0x1.1805180000000p-4, -0x1.c91c000000000p-9, 0x1.7787340000000p-4, -0x1.a142dc0000000p-5, -0x1.40cbd00000000p-4, -0x1.0ce2b80000000p-6, -0x1.8b90e00000000p-5, 0x1.2f31000000000p-4, -0x1.3de3420000000p-4, 0x1.2fceec0000000p-4, 0x1.4f66f80000000p-5, 0x1.30c6d80000000p-4, -0x1.78e3660000000p-4, 0x1.9869a80000000p-6, 0x1.04f7c00000000p-5, 0x1.579b240000000p-4, 0x1.77272c0000000p-4, -0x1.592a200000000p-8, -0x1.87a7400000000p-9, -0x1.0697de0000000p-4, 0x1.5e26ac0000000p-4, 0x1.3e893c0000000p-4, -0x1.8c61220000000p-5, -0x1.fcfd2c0000000p-5, 0x1.9ee2f80000000p-5, -0x1.aa60180000000p-5, -0x1.29b6d80000000p-6, 0x1.60bde80000000p-5, 0x1.5dc0d00000000p-4, 0x1.01c7d80000000p-4, 0x1.0262400000000p-5, 0x1.5d1b8c0000000p-4, 0x1.e2a5f80000000p-5, -0x1.aa58480000000p-6, -0x1.c61db80000000p-6, -0x1.1272580000000p-6, -0x1.6570d80000000p-6, -0x1.15fcca0000000p-5, -0x1.2984e80000000p-6, 0x1.ea41100000000p-7, 0x1.94ca400000000p-7, 0x1.6022e00000000p-6, -0x1.b68a9e0000000p-5, 0x1.2f520c0000000p-4, -0x1.4dde6c0000000p-4, 0x1.e251980000000p-5, 0x1.f309b00000000p-7, 0x1.7aad280000000p-4, 0x1.5754b00000000p-5, -0x1.4fdae20000000p-5, -0x1.15c9f80000000p-4, -0x1.6335f60000000p-5, 0x1.98b3980000000p-6, 0x1.4a05500000000p-4, 0x1.6f0e400000000p-8, -0x1.6891d20000000p-5, -0x1.227e5e0000000p-4, -0x1.faade80000000p-6, 0x1.3709680000000p-4, 0x1.dbc6400000000p-7, -0x1.8111020000000p-4, -0x1.6c74000000000p-13, -0x1.31e8000000000p-13, 0x1.b994b80000000p-6, 0x1.4a0b600000000p-4, 0x1.7f3a400000000p-9, 0x1.64fd880000000p-5, -0x1.1439ce0000000p-4, -0x1.d84ab80000000p-5, 0x1.4c34f00000000p-7, 0x1.2788200000000p-8, 0x1.74f4d80000000p-4, -0x1.991f400000000p-8, 0x1.6bc4b80000000p-5, 0x1.16ca680000000p-4, 0x1.4d0cd00000000p-6, -0x1.293cf40000000p-4, 0x1.b3f8780000000p-5, 0x1.0ac4e00000000p-4, -0x1.6658680000000p-5, 0x1.1f1e600000000p-7, 0x1.03be640000000p-4, -0x1.b1a9920000000p-5, -0x1.0cfa440000000p-5, -0x1.77f5000000000p-7, 0x1.0178180000000p-5, -0x1.7f0e920000000p-4, -0x1.25fcf00000000p-6, -0x1.488b300000000p-4, 0x1.6aeb5c0000000p-4, -0x1.936f880000000p-5, 0x1.4f6bb00000000p-4, 0x1.f323b00000000p-7, -0x1.9eca200000000p-8, -0x1.4127ec0000000p-4, -0x1.69f1a60000000p-4, -0x1.b7bf660000000p-5, -0x1.4652d00000000p-6, 0x1.8cfc000000000p-7, 0x1.8879780000000p-5, -0x1.0567b00000000p-4, 0x1.7da7940000000p-4, -0x1.c99b2e0000000p-5, -0x1.efdf500000000p-7, 0x1.6e336c0000000p-4, 0x1.5a2dc00000000p-8, -0x1.8320b00000000p-7, -0x1.b5ed620000000p-5, 0x1.4f139c0000000p-4, -0x1.37eb460000000p-4, -0x1.05ea2a0000000p-5, 0x1.5cc74c0000000p-4, 0x1.e83bb00000000p-7, -0x1.a629900000000p-7, 0x1.a7c5f00000000p-5, -0x1.b0982a0000000p-5, 0x1.4acdd80000000p-6, -0x1.7550700000000p-6, 0x1.2d00e00000000p-4, -0x1.0743000000000p-9, 0x1.7d81a00000000p-5, 0x1.656c500000000p-7, -0x1.2241c40000000p-4, -0x1.5a21300000000p-7, 0x1.257d780000000p-5, 0x1.9a91000000000p-9, 0x1.f6d7400000000p-5, -0x1.2968e80000000p-4, -0x1.8fc59e0000000p-5, 0x1.b9b1400000000p-6, 0x1.35f35c0000000p-4, 0x1.adc4d00000000p-5, -0x1.029af00000000p-7, -0x1.810b300000000p-5, -0x1.5e7fbc0000000p-4, 0x1.0b12b00000000p-5, 0x1.be48080000000p-5, -0x1.4dc1020000000p-4, 0x1.5c52800000000p-7, -0x1.ce028e0000000p-5, -0x1.e70c060000000p-5, -0x1.7b5f600000000p-4, -0x1.1a2bdc0000000p-4, -0x1.ef4c000000000p-5, -0x1.52386c0000000p-4, -0x1.650dc00000000p-7, 0x1.0cf5800000000p-5, -0x1.cdf7c00000000p-9, 0x1.8349180000000p-5, 0x1.2a1c0c0000000p-4, 0x1.7e7fc00000000p-4, -0x1.93f7000000000p-7, -0x1.10ec800000000p-9, -0x1.3a58800000000p-7, 0x1.06d1680000000p-5, -0x1.12f7e20000000p-5, -0x1.27905c0000000p-4, -0x1.937b8c0000000p-5, 0x1.8b73280000000p-5, 0x1.255bd40000000p-4, 0x1.5dac700000000p-7, 0x1.a46a400000000p-6, 0x1.4004200000000p-7, -0x1.10ea600000000p-4, 0x1.4184f00000000p-5, -0x1.7a76000000000p-6, -0x1.c1a7000000000p-9, 0x1.1c74f80000000p-6, 0x1.3f62880000000p-4, 0x1.414ae00000000p-7, -0x1.65e19c0000000p-5, -0x1.38361a0000000p-5, 0x1.41b1300000000p-4, 0x1.795c240000000p-4, -0x1.c1e2800000000p-6, -0x1.0016920000000p-4, -0x1.4b8b000000000p-7, 0x1.6b69f80000000p-6, -0x1.da2aa20000000p-5, -0x1.4508760000000p-5, -0x1.ebe8a00000000p-7, 0x1.99e2880000000p-5, 0x1.1a1b100000000p-7, 0x1.31803c0000000p-4, 0x1.451d880000000p-6, 0x1.4d06180000000p-4, 0x1.7f8c740000000p-4, -0x1.30cdb80000000p-6, 0x1.2d07780000000p-4, 0x1.698ca80000000p-5, 0x1.5b9ee00000000p-5, -0x1.6494000000000p-10, 0x1.3854f80000000p-4, -0x1.42048a0000000p-5, -0x1.2f7c880000000p-6, -0x1.1b98260000000p-4, -0x1.96dc400000000p-6, -0x1.c7733e0000000p-5, -0x1.331e800000000p-4, -0x1.c7d1000000000p-7, 0x1.55a2600000000p-5, -0x1.59f7ec0000000p-4, -0x1.2aa70e0000000p-4, -0x1.6e67660000000p-4, -0x1.505c120000000p-4, 0x1.1ce1980000000p-5, -0x1.6737200000000p-4, 0x1.43db980000000p-5, 0x1.0e6d680000000p-5, -0x1.2076de0000000p-4, 0x1.408e580000000p-5, -0x1.8ee5ea0000000p-5, 0x1.af1dc00000000p-8, 0x1.1b08b40000000p-4, 0x1.2b2c480000000p-5, -0x1.95961a0000000p-5, 0x1.2202b80000000p-4, -0x1.c6e2100000000p-5, -0x1.269d7c0000000p-5, -0x1.6230f00000000p-6, -0x1.150fe60000000p-5, -0x1.4bc6800000000p-10, -0x1.288f340000000p-5, -0x1.8a28b40000000p-5, -0x1.138fb40000000p-5, -0x1.b704e80000000p-6, 0x1.5131c80000000p-4, 0x1.7422f80000000p-6, -0x1.32e9d60000000p-5, 0x1.2f42d00000000p-4, 0x1.1c3ea80000000p-4, -0x1.bffb160000000p-5, -0x1.df8fd20000000p-5, -0x1.1759500000000p-6, 0x1.4c32ec0000000p-4, -0x1.16e8d60000000p-4, 0x1.e6f8800000000p-10, 0x1.bdb8c00000000p-9, -0x1.138e320000000p-5, -0x1.e6d4ac0000000p-5, 0x1.16e2f80000000p-4, -0x1.4a9dd00000000p-4, 0x1.a59a480000000p-5, 0x1.b8f6000000000p-5, -0x1.1083540000000p-4, 0x1.7a80400000000p-6, 0x1.8ec7180000000p-6, 0x1.1194400000000p-8, -0x1.0596f40000000p-4, 0x1.387f340000000p-4, 0x1.6248b00000000p-5, 0x1.6366280000000p-5, 0x1.4f94280000000p-4, 0x1.6843300000000p-5, -0x1.2ce7700000000p-4, 0x1.7f0df00000000p-6, -0x1.3c2a720000000p-4, 0x1.14ccfc0000000p-4, 0x1.8a7f100000000p-6, 0x1.addc400000000p-7, -0x1.7e10380000000p-5, 0x1.52a9100000000p-7, 0x1.0df0040000000p-4, -0x1.1718c80000000p-6, 0x1.2ac5e00000000p-7, -0x1.3187ca0000000p-4, 0x1.72c7100000000p-6, 0x1.4e23ac0000000p-4, 0x1.d9c5e00000000p-5, -0x1.2aebda0000000p-4, 0x1.6e90800000000p-7, 0x1.0791d80000000p-5, -0x1.3c5b440000000p-4, -0x1.819c900000000p-4, -0x1.29a0d80000000p-5, -0x1.03e2ec0000000p-4, 0x1.0dbe400000000p-4, -0x1.521c960000000p-4, -0x1.17e50a0000000p-5, 0x1.7bbb540000000p-4, -0x1.091e900000000p-4, -0x1.8e106e0000000p-5, 0x1.6bb0200000000p-4, -0x1.6ba6220000000p-4, -0x1.7cebe00000000p-6, -0x1.13db680000000p-4, -0x1.1d60440000000p-4, 0x1.3378800000000p-10, -0x1.6ff1640000000p-5, -0x1.75f11a0000000p-4, 0x1.e7b1380000000p-5, -0x1.7401c20000000p-5, -0x1.645c380000000p-6, 0x1.50c8b80000000p-4, -0x1.41ca3a0000000p-4, 0x1.9755000000000p-5, -0x1.872a000000000p-10, -0x1.54ef480000000p-5, -0x1.4b696c0000000p-5, -0x1.db5df40000000p-5, 0x1.5c73a40000000p-4, 0x1.a3fe000000000p-12, 0x1.cca6980000000p-5, 0x1.1113cc0000000p-4, 0x1.4ce3740000000p-4, -0x1.5389a80000000p-6, 0x1.17fa000000000p-8, -0x1.5f97a20000000p-4, 0x1.3b5c880000000p-6, -0x1.6f8f0e0000000p-4, 0x1.950da00000000p-8, -0x1.9b63a00000000p-8, -0x1.0eabf00000000p-7, -0x1.78179a0000000p-5, 0x1.52de480000000p-4, -0x1.61e3220000000p-5, -0x1.1385d00000000p-6, 0x1.fbb8000000000p-8, 0x1.4ee7b80000000p-4, 0x1.6b301c0000000p-4, -0x1.35d3500000000p-6, -0x1.53e7ea0000000p-4, 0x1.4529900000000p-6, 0x1.7adc200000000p-6, 0x1.fc51f00000000p-5, -0x1.0564e80000000p-4, -0x1.f291a20000000p-5, 0x1.3f0d800000000p-7, 0x1.7a4b000000000p-9, -0x1.ebe0000000000p-8, 0x1.754ce80000000p-5, 0x1.0993780000000p-6, 0x1.609d180000000p-4, -0x1.b25ef00000000p-6, 0x1.6d07200000000p-4, -0x1.d8e3b80000000p-5, 0x1.835b700000000p-7, 0x1.05ae680000000p-4, -0x1.467a480000000p-6, 0x1.23d3f00000000p-7, 0x1.4f81200000000p-4, 0x1.12a8b40000000p-4, 0x1.d465080000000p-6, -0x1.ed2ea00000000p-6, 0x1.20b2bc0000000p-4, 0x1.17a6d00000000p-4, 0x1.7419f00000000p-5, 0x1.16d8000000000p-4, -0x1.550b000000000p-7, 0x1.7592c80000000p-5, 0x1.77e1bc0000000p-4, -0x1.2487b60000000p-4, -0x1.a21f000000000p-9, 0x1.325bc80000000p-4, 0x1.50eb340000000p-4, -0x1.09133a0000000p-4, 0x1.5cd39c0000000p-4, -0x1.d790600000000p-5, -0x1.faa5aa0000000p-5, 0x1.5313a80000000p-5, 0x1.15b2a00000000p-4, 0x1.5aeaa80000000p-4, 0x1.a8b4980000000p-5, 0x1.67c8f00000000p-4, -0x1.785b260000000p-5, 0x1.3046280000000p-6, -0x1.80cf2e0000000p-4, -0x1.18eac00000000p-8, -0x1.69b1000000000p-7, 0x1.a8ed900000000p-6, -0x1.9349480000000p-5, -0x1.f459b00000000p-7, -0x1.cd59a00000000p-6, 0x1.4e5fb00000000p-7, -0x1.2cb7820000000p-4, -0x1.80ad7a0000000p-4, -0x1.17ba340000000p-4, 0x1.2f7b200000000p-5, 0x1.3db1480000000p-5, 0x1.3b87e00000000p-5, -0x1.669ad40000000p-4, -0x1.b868ee0000000p-5, 0x1.7db8780000000p-5, -0x1.d9cc900000000p-5, -0x1.5dbc860000000p-5, -0x1.db9ce20000000p-5, 0x1.41d2480000000p-5, -0x1.3683a00000000p-8, -0x1.3f11400000000p-6, 0x1.5c3ec40000000p-4, -0x1.32aba00000000p-7, -0x1.680de00000000p-5, -0x1.7d50020000000p-4, 0x1.258ba00000000p-5, 0x1.345ac00000000p-7, 0x1.815ab40000000p-4, -0x1.2980260000000p-5, 0x1.f347f00000000p-5, -0x1.917e800000000p-8, -0x1.7699a40000000p-4, 0x1.a52e380000000p-5, 0x1.962d680000000p-5, -0x1.b625800000000p-7, 0x1.0a92980000000p-4, -0x1.aeb6000000000p-11, 0x1.305e8c0000000p-4, 0x1.6adcc00000000p-4, -0x1.e7e9b40000000p-5, -0x1.2edc9e0000000p-4, 0x1.41fa700000000p-4, 0x1.8167600000000p-4, 0x1.97f9a00000000p-6, -0x1.8f57640000000p-5, 0x1.af16a80000000p-5, -0x1.5d58000000000p-6, 0x1.53eadc0000000p-4, 0x1.e02d600000000p-7, -0x1.66f5fa0000000p-4, -0x1.3cac680000000p-4, 0x1.4c270c0000000p-4, -0x1.2eb3780000000p-4, -0x1.52939e0000000p-4, 0x1.1d5db80000000p-4, -0x1.3eebaa0000000p-4, 0x1.7333680000000p-5, -0x1.6ab5fc0000000p-4, 0x1.633f7c0000000p-4, 0x1.8f35a80000000p-5, -0x1.f9b44c0000000p-5, 0x1.54cd800000000p-4, -0x1.21eda40000000p-4, 0x1.a97f200000000p-5, -0x1.9ad89e0000000p-5, -0x1.6f69700000000p-4, -0x1.9a88040000000p-5, 0x1.0977c00000000p-4, 0x1.d184900000000p-5, -0x1.006a600000000p-4, 0x1.394a240000000p-4, 0x1.e3fa000000000p-7, -0x1.3eeed80000000p-4, 0x1.6867400000000p-8, 0x1.dcd7400000000p-7, -0x1.069c500000000p-6, -0x1.ff0e280000000p-6, 0x1.62d7fc0000000p-4, -0x1.054f1e0000000p-4, 0x1.0b7dc40000000p-4, -0x1.d786880000000p-5, -0x1.0539700000000p-6, -0x1.9a6f920000000p-5, 0x1.7db0a00000000p-4, 0x1.4dc3100000000p-4, 0x1.61543c0000000p-4, -0x1.3dbbf00000000p-6, -0x1.57f7000000000p-11, -0x1.70ffd00000000p-7, 0x1.b7b8180000000p-5, -0x1.4c8ecc0000000p-4, -0x1.c84f820000000p-5, -0x1.c7d1300000000p-6, 0x1.8fe7e00000000p-5, -0x1.0d6eda0000000p-5, 0x1.4420ac0000000p-4, -0x1.75b1c00000000p-7, 0x1.4f8a600000000p-5, 0x1.73a4a00000000p-5, 0x1.bc18a80000000p-5, 0x1.4984e00000000p-4}
, {-0x1.0f44e00000000p-4, 0x1.360f980000000p-4, -0x1.d8b09c0000000p-5, -0x1.3c99a40000000p-4, -0x1.896a060000000p-5, -0x1.3dee000000000p-4, -0x1.2a5dda0000000p-4, -0x1.7ede6e0000000p-4, -0x1.9765700000000p-5, 0x1.23eae00000000p-8, -0x1.7c3c640000000p-4, -0x1.192b140000000p-4, -0x1.0daaea0000000p-4, 0x1.1206900000000p-6, 0x1.37feac0000000p-4, -0x1.310d080000000p-5, -0x1.f4682c0000000p-5, 0x1.7c82200000000p-4, 0x1.4171c80000000p-4, -0x1.72ddd80000000p-6, -0x1.3538360000000p-4, 0x1.2396e00000000p-6, 0x1.14be3c0000000p-4, 0x1.78e5600000000p-4, 0x1.1c666c0000000p-4, 0x1.de33800000000p-9, 0x1.3011200000000p-6, -0x1.5456ba0000000p-4, 0x1.8d6f500000000p-7, 0x1.19c2200000000p-4, 0x1.df24780000000p-5, -0x1.5ee7a80000000p-6, -0x1.5ba1740000000p-4, -0x1.6a16c00000000p-8, -0x1.d04f900000000p-7, -0x1.b4d4960000000p-5, -0x1.faca800000000p-9, -0x1.5cdc7e0000000p-4, 0x1.d335280000000p-5, -0x1.6f8e840000000p-5, -0x1.7185700000000p-7, -0x1.ab3a620000000p-5, -0x1.5c23780000000p-6, -0x1.5ea23c0000000p-4, 0x1.9c23800000000p-9, -0x1.5477580000000p-4, 0x1.2e0f5c0000000p-4, -0x1.84a6d60000000p-5, -0x1.02a5e00000000p-4, -0x1.886b700000000p-7, 0x1.254d2c0000000p-4, -0x1.3f0e480000000p-4, 0x1.90f0900000000p-5, 0x1.27a1000000000p-10, -0x1.4fa4b00000000p-4, 0x1.ed65a00000000p-5, 0x1.378d440000000p-4, -0x1.e9441e0000000p-5, -0x1.dfb1200000000p-6, -0x1.3841000000000p-7, 0x1.56ec680000000p-5, 0x1.415ff00000000p-7, -0x1.54b2200000000p-6, -0x1.6cf3120000000p-4, -0x1.5317000000000p-10, -0x1.9d14c20000000p-5, 0x1.3007a40000000p-4, 0x1.0e96c40000000p-4, -0x1.4736800000000p-4, 0x1.7788640000000p-4, -0x1.6772320000000p-4, -0x1.bb8c680000000p-5, -0x1.5834d60000000p-4, -0x1.68fd020000000p-4, -0x1.b3cf860000000p-5, -0x1.aae3f00000000p-5, -0x1.36f23a0000000p-4, -0x1.bb6c240000000p-5, 0x1.0be5c00000000p-6, -0x1.a072f00000000p-6, 0x1.186f440000000p-4, -0x1.d960500000000p-5, -0x1.54f80a0000000p-5, -0x1.aed7e80000000p-5, 0x1.534c4c0000000p-4, 0x1.737f540000000p-4, -0x1.f9be9c0000000p-5, 0x1.ad86080000000p-5, -0x1.cef1300000000p-6, 0x1.ba39180000000p-5, 0x1.8058d00000000p-5, 0x1.a835a00000000p-5, 0x1.e479800000000p-6, -0x1.5bc5760000000p-4, 0x1.26663c0000000p-4, -0x1.5fb8d20000000p-4, -0x1.3ff4c60000000p-5, -0x1.ae98200000000p-5, -0x1.40f1e00000000p-4, -0x1.ffc2600000000p-8, 0x1.0ac52c0000000p-4, 0x1.3d35800000000p-10, 0x1.57df000000000p-9, 0x1.82e7780000000p-5, -0x1.f837960000000p-5, 0x1.ab2aa80000000p-5, -0x1.2f45540000000p-4, 0x1.266c540000000p-4, -0x1.68b3780000000p-6, 0x1.3c0de80000000p-5, 0x1.e3cce80000000p-6, -0x1.525d8c0000000p-4, 0x1.9104d80000000p-6, 0x1.67b8c00000000p-7, 0x1.aad2680000000p-5, -0x1.110c4a0000000p-5, -0x1.2209320000000p-4, -0x1.2575200000000p-4, -0x1.5d186a0000000p-5, 0x1.30a7d40000000p-4, 0x1.235ce00000000p-8, -0x1.160ac80000000p-6, -0x1.3b478a0000000p-5, 0x1.8fac800000000p-5, -0x1.6907280000000p-5, -0x1.57e8ac0000000p-4, 0x1.a323900000000p-5, 0x1.e924500000000p-5, -0x1.f9e68e0000000p-5, 0x1.47dd7c0000000p-4, 0x1.2f12440000000p-4, -0x1.3b5d080000000p-6, 0x1.509d9c0000000p-4, -0x1.6977ca0000000p-4, -0x1.1990860000000p-4, -0x1.6aa6a80000000p-4, 0x1.24c5600000000p-4, -0x1.77d1880000000p-4, 0x1.011c980000000p-4, -0x1.d015200000000p-7, -0x1.54ebf00000000p-5, 0x1.6cc10c0000000p-4, 0x1.7c03300000000p-7, 0x1.5df40c0000000p-4, -0x1.8b37080000000p-6, -0x1.8160200000000p-4, -0x1.250ea00000000p-4, -0x1.78518a0000000p-4, -0x1.0dea000000000p-10, 0x1.6f0ed00000000p-5, -0x1.d3ba500000000p-5, 0x1.cd05000000000p-8, 0x1.4d90c00000000p-5, 0x1.964e600000000p-8, -0x1.cf96000000000p-7, 0x1.01a1440000000p-4, -0x1.e8dbd40000000p-5, -0x1.4450b00000000p-7, 0x1.3f2bcc0000000p-4, 0x1.0d4ad00000000p-5, -0x1.39f6180000000p-4, -0x1.f143400000000p-8, 0x1.7dfd500000000p-4, -0x1.97c8c80000000p-5, 0x1.984bd00000000p-5, 0x1.c4e0000000000p-14, -0x1.5591f60000000p-4, 0x1.f648780000000p-5, 0x1.5653080000000p-6, -0x1.1ea5a60000000p-4, 0x1.494e500000000p-6, -0x1.76c4800000000p-8, -0x1.1c9b3a0000000p-5, -0x1.268fe80000000p-6, -0x1.3d0ee20000000p-4, 0x1.7e81300000000p-7, 0x1.555c780000000p-6, 0x1.3370040000000p-4, -0x1.dd77700000000p-6, -0x1.0cd9580000000p-5, 0x1.979d100000000p-5, 0x1.0a4a000000000p-4, 0x1.d5cd700000000p-5, -0x1.0f7ad00000000p-7, 0x1.0d20a00000000p-5, -0x1.662cee0000000p-5, -0x1.c3747c0000000p-5, -0x1.68a6fe0000000p-4, -0x1.2ea1000000000p-10, 0x1.d6a9400000000p-7, 0x1.0f3f5c0000000p-4, 0x1.0a54100000000p-4, -0x1.a0a4f00000000p-7, -0x1.61186a0000000p-4, 0x1.880a600000000p-5, 0x1.5d7f500000000p-4, -0x1.56375e0000000p-5, 0x1.12c8800000000p-8, 0x1.3291f00000000p-5, -0x1.7592700000000p-4, -0x1.2d9ed80000000p-4, -0x1.6c60880000000p-6, -0x1.1cd7100000000p-7, 0x1.86bb000000000p-11, -0x1.799d540000000p-4, 0x1.5864600000000p-4, 0x1.1e57b80000000p-5, -0x1.077c5a0000000p-4, -0x1.2f61a40000000p-5, 0x1.576a2c0000000p-4, -0x1.ff7a380000000p-6, -0x1.6b61140000000p-5, -0x1.3389260000000p-5, 0x1.cf27600000000p-8, -0x1.bca7f00000000p-6, 0x1.e928200000000p-5, 0x1.25af3c0000000p-4, -0x1.1eb2e40000000p-4, 0x1.1ef9480000000p-5, -0x1.2a0a600000000p-7, 0x1.bd1e600000000p-5, -0x1.3e45ce0000000p-4, -0x1.08146a0000000p-4, -0x1.17b5600000000p-7, -0x1.66de400000000p-9, 0x1.1b41c00000000p-7, -0x1.9d37400000000p-9, 0x1.dafb200000000p-5, 0x1.8e9c600000000p-5, 0x1.5da88c0000000p-4, 0x1.25dea80000000p-4, 0x1.c3e9380000000p-5, -0x1.a96e600000000p-8, -0x1.f09f120000000p-5, -0x1.6052980000000p-4, -0x1.427ee00000000p-5, -0x1.721fd80000000p-4, 0x1.02a3400000000p-5, 0x1.4ace500000000p-4, -0x1.bbee880000000p-5, 0x1.93b9980000000p-6, 0x1.471d080000000p-4, -0x1.52977c0000000p-4, 0x1.4686b80000000p-6, -0x1.0a38040000000p-5, -0x1.39dab40000000p-4, 0x1.38b4d80000000p-4, 0x1.67f0480000000p-5, 0x1.343c400000000p-8, 0x1.4e77680000000p-4, -0x1.7cbf700000000p-7, 0x1.dc9b380000000p-5, 0x1.0f82880000000p-4, 0x1.1199400000000p-7, 0x1.c141400000000p-8, -0x1.70b6e60000000p-4, -0x1.3eb2b60000000p-5, 0x1.ac00780000000p-5, 0x1.0d28000000000p-10, -0x1.7f4cd20000000p-4, 0x1.92c7400000000p-7, 0x1.24ecb40000000p-4, 0x1.bf8b680000000p-5, 0x1.75eefc0000000p-4, 0x1.d695800000000p-7, 0x1.ef30d00000000p-6, 0x1.1c5f980000000p-5, 0x1.8e84000000000p-13, -0x1.62653e0000000p-4, 0x1.0911d80000000p-5, -0x1.d5c1c80000000p-6, 0x1.0815580000000p-5, -0x1.9168920000000p-5, -0x1.6729ca0000000p-5, -0x1.102c8a0000000p-4, 0x1.51c4500000000p-4, 0x1.56c0e00000000p-4, 0x1.1e87200000000p-7, 0x1.0fd2440000000p-4, 0x1.7367280000000p-4, 0x1.4332f40000000p-4, 0x1.97b7b80000000p-5, -0x1.cd74340000000p-5, -0x1.1da0000000000p-4, 0x1.0825e80000000p-4, 0x1.62ed900000000p-4, -0x1.e5bfe20000000p-5, -0x1.a2193c0000000p-5, -0x1.1af8a80000000p-6, -0x1.ece8f20000000p-5, 0x1.61a0140000000p-4, -0x1.0bb1400000000p-9, -0x1.2a05100000000p-4, -0x1.3127680000000p-6, -0x1.2188ec0000000p-4, 0x1.343cd00000000p-5, 0x1.e4faf00000000p-5, -0x1.1d60100000000p-7, 0x1.9486600000000p-8, -0x1.21ad260000000p-4, 0x1.0c45400000000p-8, -0x1.5304000000000p-8, -0x1.a57c800000000p-5, -0x1.ccf5680000000p-6, -0x1.2f5eea0000000p-5, -0x1.e8d6080000000p-5, 0x1.3dcfc00000000p-5, -0x1.6792000000000p-8, 0x1.a936a80000000p-5, -0x1.8725100000000p-7, 0x1.9280e80000000p-5, -0x1.9d77000000000p-8, 0x1.934b980000000p-5, 0x1.2aeb600000000p-5, -0x1.2aca920000000p-4, 0x1.6271300000000p-4, 0x1.34c7400000000p-8, 0x1.d682480000000p-6, 0x1.ee7e400000000p-5, 0x1.566c600000000p-6, -0x1.7403020000000p-4, 0x1.af43000000000p-7, 0x1.8867e00000000p-8, 0x1.7b30800000000p-8, 0x1.54e8e00000000p-5, 0x1.781cf00000000p-5, -0x1.ee63a00000000p-8, -0x1.2ff4300000000p-6, -0x1.0a7e580000000p-6, 0x1.393d180000000p-4, 0x1.c121900000000p-7, 0x1.1933500000000p-6, -0x1.00604c0000000p-5, 0x1.1d69a00000000p-7, -0x1.2d377e0000000p-5, 0x1.37f0900000000p-6, -0x1.1134000000000p-9, 0x1.a1ce180000000p-5, 0x1.99f3100000000p-6, 0x1.2106980000000p-5, 0x1.4c97480000000p-4, -0x1.7e25b40000000p-4, 0x1.4c21a80000000p-5, 0x1.672c100000000p-5, -0x1.ad0bb00000000p-6, 0x1.499af80000000p-4, -0x1.89a6780000000p-6, -0x1.cf416a0000000p-5, 0x1.2eea280000000p-4, 0x1.013e780000000p-4, 0x1.2785e80000000p-4, -0x1.2a28020000000p-4, 0x1.1b31280000000p-4, -0x1.f23a280000000p-5, 0x1.800ff00000000p-4, 0x1.0df8800000000p-8, 0x1.21ed900000000p-5, -0x1.40dce00000000p-8, 0x1.1bbcac0000000p-4, -0x1.67c8000000000p-4, -0x1.2be37c0000000p-4, -0x1.197b2a0000000p-4, -0x1.0ac2ee0000000p-4, 0x1.d8d7000000000p-6, 0x1.084d980000000p-6, 0x1.8338080000000p-6, -0x1.7ce7620000000p-4, 0x1.0df6e80000000p-5, 0x1.c2c9080000000p-6, -0x1.22b8da0000000p-4, 0x1.3387a80000000p-4, 0x1.7407000000000p-6, -0x1.81544c0000000p-5, -0x1.ab05580000000p-6, -0x1.4238400000000p-8, -0x1.fd10800000000p-6, 0x1.1cc2900000000p-5, 0x1.62f9580000000p-5, -0x1.b79efc0000000p-5, 0x1.2b33180000000p-4, 0x1.1586680000000p-5, -0x1.1ea07e0000000p-4, -0x1.e33dc00000000p-8, 0x1.0e89f00000000p-4, -0x1.6dfb920000000p-5, 0x1.44fa800000000p-9, -0x1.da95600000000p-6, 0x1.d631100000000p-6, -0x1.b0f1300000000p-6, -0x1.960c280000000p-6, -0x1.1a9c500000000p-6, 0x1.d271280000000p-5, 0x1.42ffe80000000p-6, 0x1.39b8fc0000000p-4, -0x1.c0306a0000000p-5, 0x1.5e143c0000000p-4, -0x1.84f7580000000p-6, -0x1.08afb80000000p-5, -0x1.0dd8980000000p-6, -0x1.0f44f80000000p-5, 0x1.9da3f80000000p-5, -0x1.0d91920000000p-5, -0x1.75ab0e0000000p-4, -0x1.6cd9720000000p-4, 0x1.83d1500000000p-6, 0x1.e94bc80000000p-5, -0x1.347d6a0000000p-4, -0x1.3256100000000p-4, -0x1.2b02fa0000000p-5, 0x1.03d3140000000p-4, 0x1.36f69c0000000p-4, 0x1.1bec7c0000000p-4, 0x1.5a49500000000p-5, 0x1.4b85800000000p-4, 0x1.7916dc0000000p-4, -0x1.4d6e320000000p-4, -0x1.5ceba80000000p-6, -0x1.2c72c80000000p-4, -0x1.0d0fa80000000p-4, 0x1.57cd880000000p-4, -0x1.9f07e40000000p-5, 0x1.5f1b180000000p-6, -0x1.0e29340000000p-4, 0x1.ea9e000000000p-11, -0x1.ebf5a80000000p-6, 0x1.f576480000000p-5, 0x1.4516000000000p-8, -0x1.28b1e60000000p-4, -0x1.aef9c80000000p-5, 0x1.6d92280000000p-6, 0x1.479f800000000p-7, -0x1.99135e0000000p-5, 0x1.7eaf580000000p-4, 0x1.0166e00000000p-7, 0x1.d68b800000000p-5, 0x1.52f2240000000p-4, 0x1.c2fd680000000p-5, -0x1.80ef720000000p-4, 0x1.7d44680000000p-5, 0x1.8b29a80000000p-6, 0x1.60b1f80000000p-5, 0x1.7996880000000p-6, -0x1.99dc200000000p-8, 0x1.0046b80000000p-5, -0x1.c179040000000p-5, 0x1.61f1800000000p-4, -0x1.b772900000000p-6, -0x1.3dd2840000000p-4, -0x1.69e6a80000000p-4, 0x1.1454ac0000000p-4, -0x1.55ae880000000p-4, 0x1.4316480000000p-4, 0x1.5a73700000000p-4, -0x1.8a2f660000000p-5, -0x1.1910ae0000000p-4, 0x1.4e76200000000p-7, 0x1.7307a00000000p-4, -0x1.8e9e200000000p-7, 0x1.08df980000000p-4, 0x1.2159c00000000p-4, -0x1.7343ec0000000p-5, -0x1.3f89a20000000p-4, -0x1.7f31e00000000p-5, -0x1.7b348e0000000p-4, -0x1.09754e0000000p-4, 0x1.dbeb600000000p-8, 0x1.4a17e80000000p-5, 0x1.f602780000000p-5, -0x1.82c4260000000p-5, -0x1.68f1000000000p-7, -0x1.e3fb200000000p-7, -0x1.8c32e00000000p-5, 0x1.523f880000000p-6, 0x1.7be3100000000p-4, -0x1.50a8900000000p-7, -0x1.e8d22c0000000p-5, 0x1.7a6e580000000p-5, 0x1.18a1400000000p-8, 0x1.4002d00000000p-4, -0x1.035c940000000p-5, -0x1.1a3bf00000000p-5, 0x1.152a900000000p-4, 0x1.3501100000000p-5, 0x1.372e580000000p-5, -0x1.b608460000000p-5, 0x1.dd66700000000p-7, -0x1.28919c0000000p-5, 0x1.dabbb00000000p-5, 0x1.dc82c00000000p-9, 0x1.5610680000000p-4, 0x1.a837e00000000p-8, -0x1.24673c0000000p-4, 0x1.e6f9180000000p-6, -0x1.e09b000000000p-11, -0x1.55e6de0000000p-4, 0x1.f710600000000p-5, -0x1.8560400000000p-8, 0x1.bdec000000000p-9, -0x1.1a68e00000000p-6, -0x1.4d49740000000p-4, 0x1.fa63b00000000p-7, 0x1.faea200000000p-6, 0x1.7004cc0000000p-4, 0x1.bbbb600000000p-6, -0x1.0af6d00000000p-4, 0x1.85e2400000000p-5, -0x1.267dbc0000000p-5, 0x1.2c80a80000000p-4, 0x1.1b22380000000p-4, -0x1.3165d40000000p-5, 0x1.a17df80000000p-5, -0x1.f6a5660000000p-5, 0x1.4d18000000000p-11, 0x1.8143100000000p-4, 0x1.2e87680000000p-6, 0x1.8bff300000000p-5, 0x1.7870fc0000000p-4, -0x1.e9f0a00000000p-7, 0x1.98a9100000000p-5, -0x1.17fc680000000p-4, 0x1.c266300000000p-6, -0x1.5ee0a00000000p-4, -0x1.1f0d000000000p-11, 0x1.f54da00000000p-5, -0x1.664f780000000p-6, -0x1.a618800000000p-6, 0x1.eab0580000000p-5, 0x1.c948200000000p-6, 0x1.0871980000000p-5, -0x1.37caca0000000p-5, 0x1.446e0c0000000p-4, 0x1.1b3d640000000p-4, -0x1.cda8f60000000p-5, -0x1.97f2f00000000p-5, -0x1.74d2640000000p-5, 0x1.02c2880000000p-5, -0x1.f108200000000p-8, -0x1.69f1220000000p-4, 0x1.c3c6a00000000p-6, -0x1.4c2c800000000p-6, 0x1.08ee680000000p-6, -0x1.5422280000000p-4, -0x1.5ce7780000000p-5, 0x1.8d83e00000000p-7, -0x1.7828d00000000p-7, -0x1.b145d00000000p-6, -0x1.8489d20000000p-5, -0x1.df39a80000000p-6, 0x1.006b780000000p-5, -0x1.ad56500000000p-7, 0x1.fb93600000000p-6, -0x1.5027200000000p-4, -0x1.b112f00000000p-6, -0x1.1281700000000p-7, -0x1.26b4680000000p-4, -0x1.4257a00000000p-6, 0x1.4136980000000p-4, 0x1.a811000000000p-7, -0x1.6d30980000000p-5, 0x1.ed82c00000000p-5, -0x1.c8ed500000000p-6, 0x1.3568c80000000p-4, -0x1.bcfb680000000p-6, -0x1.2f3e620000000p-4, -0x1.1218400000000p-4, 0x1.6a83600000000p-4, 0x1.5921e40000000p-4, 0x1.672cf00000000p-7, 0x1.e592c00000000p-8, 0x1.664d780000000p-6, -0x1.3cc0620000000p-5, -0x1.62a41a0000000p-4, 0x1.9aa4600000000p-7, 0x1.6912780000000p-4, 0x1.c612480000000p-5, 0x1.f283e00000000p-5}
, {0x1.7f91200000000p-5, -0x1.aa81de0000000p-5, 0x1.5c99800000000p-7, 0x1.35b7840000000p-4, 0x1.7ab0c00000000p-8, -0x1.9544c00000000p-5, 0x1.6ff7800000000p-5, -0x1.791b880000000p-4, 0x1.9c2fa00000000p-5, -0x1.92c5280000000p-5, -0x1.203ac80000000p-4, -0x1.ffec000000000p-12, -0x1.d7b8b00000000p-6, 0x1.04a0f00000000p-5, -0x1.7ceca00000000p-6, -0x1.06a0f00000000p-5, 0x1.8f7c780000000p-5, -0x1.23a8500000000p-4, 0x1.fd9ab00000000p-7, 0x1.cec4000000000p-12, 0x1.1aba600000000p-6, 0x1.caae200000000p-5, -0x1.9c53100000000p-5, 0x1.453b300000000p-4, 0x1.6bbf600000000p-5, -0x1.5f3d480000000p-4, -0x1.2ca9d80000000p-6, 0x1.7b0a400000000p-7, -0x1.024a240000000p-5, 0x1.61a0600000000p-5, -0x1.ec65180000000p-6, 0x1.a797780000000p-5, 0x1.d8bfa00000000p-8, -0x1.a315b00000000p-6, 0x1.1ae5380000000p-4, 0x1.5c4c780000000p-4, 0x1.4104bc0000000p-4, 0x1.6fd7140000000p-4, 0x1.d720880000000p-5, -0x1.22e3820000000p-5, -0x1.7545540000000p-4, -0x1.a772b00000000p-5, -0x1.f190000000000p-6, 0x1.7afe8c0000000p-4, -0x1.bdfde00000000p-5, 0x1.a957f00000000p-6, 0x1.7ebba40000000p-4, 0x1.b707b80000000p-6, 0x1.051a580000000p-4, -0x1.de9a660000000p-5, -0x1.ab097c0000000p-5, -0x1.d41fc80000000p-6, -0x1.30c6240000000p-5, -0x1.6f7f400000000p-7, 0x1.02e0bc0000000p-4, 0x1.07d9580000000p-6, -0x1.097d140000000p-4, -0x1.2b5c320000000p-5, -0x1.2206dc0000000p-5, 0x1.d77dc00000000p-9, 0x1.1a51600000000p-4, 0x1.0daaa00000000p-5, 0x1.41573c0000000p-4, -0x1.385d800000000p-4, 0x1.82d1200000000p-7, 0x1.72162c0000000p-4, 0x1.13b2600000000p-6, 0x1.b4b0c80000000p-5, 0x1.7fe0bc0000000p-4, -0x1.d812d80000000p-6, -0x1.3b0e200000000p-8, 0x1.3314000000000p-5, 0x1.a9c2000000000p-10, -0x1.64f3000000000p-10, 0x1.1014e80000000p-5, -0x1.3de6e20000000p-5, -0x1.4189440000000p-5, 0x1.152e080000000p-5, 0x1.40973c0000000p-4, -0x1.250c320000000p-5, -0x1.4832100000000p-6, -0x1.8592800000000p-6, -0x1.3d53a00000000p-7, 0x1.aa34780000000p-5, 0x1.1eeb800000000p-8, 0x1.009ccc0000000p-4, 0x1.713da80000000p-5, 0x1.fa27c00000000p-5, -0x1.344e540000000p-5, -0x1.addba80000000p-5, 0x1.605e0c0000000p-4, 0x1.7338400000000p-8, -0x1.60d9600000000p-6, -0x1.995cce0000000p-5, -0x1.dbba400000000p-9, 0x1.2c12c00000000p-4, -0x1.7225300000000p-6, -0x1.80d58a0000000p-5, -0x1.6498320000000p-5, 0x1.e120000000000p-14, 0x1.0a38d80000000p-4, -0x1.f7c9440000000p-5, 0x1.6d29400000000p-5, -0x1.50e9000000000p-6, 0x1.42b3b00000000p-4, 0x1.3a321c0000000p-4, 0x1.0dcb600000000p-8, -0x1.0a1a440000000p-4, -0x1.f6ed840000000p-5, -0x1.3a6ae40000000p-5, 0x1.4e98980000000p-5, -0x1.1481c20000000p-4, 0x1.2d050c0000000p-4, -0x1.d3cbe00000000p-8, -0x1.d837e00000000p-6, 0x1.ff66f00000000p-6, 0x1.5632a80000000p-5, -0x1.73d3800000000p-5, -0x1.d819360000000p-5, 0x1.10382c0000000p-4, 0x1.4c59000000000p-10, 0x1.289cd00000000p-5, -0x1.3b08e00000000p-6, -0x1.51f6020000000p-5, 0x1.7a64a80000000p-6, 0x1.ae1f400000000p-6, 0x1.27a3180000000p-4, 0x1.059bd40000000p-4, 0x1.73caa00000000p-4, -0x1.ee9ca00000000p-6, -0x1.05a1340000000p-5, 0x1.fcf5d00000000p-5, 0x1.990b980000000p-6, 0x1.7f30600000000p-8, 0x1.1e57580000000p-5, 0x1.3029280000000p-4, -0x1.6698a80000000p-6, -0x1.0e153c0000000p-4, -0x1.6430a00000000p-6, 0x1.f09b300000000p-7, 0x1.8e28580000000p-6, 0x1.4c45900000000p-5, 0x1.0bd8c00000000p-5, -0x1.1ae17e0000000p-4, 0x1.ef7d980000000p-6, 0x1.ed14780000000p-5, -0x1.40c1f60000000p-5, -0x1.53ef980000000p-6, 0x1.ca20f80000000p-5, -0x1.b1bf280000000p-6, -0x1.aa10dc0000000p-5, -0x1.7266e80000000p-4, 0x1.619c480000000p-5, 0x1.6591100000000p-7, 0x1.7444e40000000p-4, -0x1.5575a60000000p-4, -0x1.36b9400000000p-5, -0x1.18d3080000000p-6, 0x1.1992640000000p-4, -0x1.300b7c0000000p-4, -0x1.c99d1c0000000p-5, 0x1.85c0c00000000p-6, -0x1.7b53b20000000p-4, 0x1.bb3f600000000p-5, 0x1.3e6b280000000p-4, 0x1.14aae80000000p-6, -0x1.c793300000000p-7, -0x1.2468980000000p-5, 0x1.19342c0000000p-4, -0x1.8722b80000000p-6, 0x1.7952c00000000p-5, -0x1.7214900000000p-4, 0x1.7824380000000p-5, 0x1.63a3e00000000p-6, 0x1.ca4fb00000000p-5, -0x1.c71ed40000000p-5, 0x1.3c7e280000000p-5, -0x1.5ff56c0000000p-4, 0x1.ca66e00000000p-8, -0x1.50fbda0000000p-4, -0x1.45a87a0000000p-5, 0x1.54ec180000000p-4, -0x1.3936060000000p-4, -0x1.7c460c0000000p-4, 0x1.c83fd00000000p-5, 0x1.f1e8d00000000p-5, 0x1.3626a80000000p-5, -0x1.9e1d7e0000000p-5, 0x1.2c73400000000p-5, 0x1.3c68f00000000p-4, -0x1.8890580000000p-6, 0x1.0238780000000p-4, 0x1.a015d80000000p-5, -0x1.12bf8c0000000p-5, 0x1.f934400000000p-8, -0x1.5da5cc0000000p-4, 0x1.0d43a80000000p-5, 0x1.8706980000000p-5, -0x1.93092c0000000p-5, -0x1.544fe00000000p-6, -0x1.3f16ee0000000p-4, 0x1.690c740000000p-4, -0x1.31280c0000000p-4, 0x1.65ce000000000p-9, 0x1.d093200000000p-6, -0x1.4886800000000p-10, -0x1.65aeb80000000p-6, 0x1.7564780000000p-4, 0x1.1bf5680000000p-5, -0x1.f0ca800000000p-5, 0x1.3126300000000p-4, -0x1.38f3000000000p-9, 0x1.2c32d00000000p-4, 0x1.1027000000000p-4, 0x1.7d1f200000000p-7, 0x1.a43a180000000p-5, -0x1.9277ce0000000p-5, -0x1.7ff7be0000000p-4, 0x1.dafe800000000p-7, 0x1.b6d4880000000p-5, 0x1.7460400000000p-4, 0x1.01abf40000000p-4, 0x1.4e83700000000p-5, 0x1.9f81600000000p-5, -0x1.1868a80000000p-4, 0x1.e540200000000p-5, -0x1.3fa5660000000p-4, -0x1.459d5c0000000p-4, -0x1.818aa80000000p-5, -0x1.e70d580000000p-6, 0x1.db83100000000p-6, -0x1.8161ae0000000p-5, 0x1.76212c0000000p-4, 0x1.b5b0a80000000p-5, -0x1.70f44e0000000p-4, -0x1.80a73c0000000p-5, 0x1.2f78a00000000p-4, -0x1.55bbd00000000p-6, -0x1.610dc40000000p-4, -0x1.250c0e0000000p-4, -0x1.6cde100000000p-4, 0x1.42d3640000000p-4, -0x1.7ee9000000000p-4, 0x1.d27fa80000000p-6, 0x1.9a32d00000000p-5, -0x1.15b62e0000000p-4, -0x1.c886880000000p-5, 0x1.7621500000000p-7, -0x1.b698c00000000p-6, -0x1.7e65700000000p-5, -0x1.5b0ba80000000p-5, -0x1.2a45300000000p-7, 0x1.bf55c80000000p-6, -0x1.4d837c0000000p-4, -0x1.6e4bca0000000p-5, 0x1.f482600000000p-5, -0x1.86e0100000000p-5, -0x1.6639520000000p-4, 0x1.c929e00000000p-5, -0x1.6fe9440000000p-4, 0x1.2b9ad80000000p-4, 0x1.418dd80000000p-4, -0x1.c3e4380000000p-6, -0x1.59b7dc0000000p-4, 0x1.7954e80000000p-4, -0x1.969a500000000p-6, 0x1.9dc5980000000p-5, 0x1.021a680000000p-4, 0x1.833ff00000000p-5, -0x1.4b5ccc0000000p-5, 0x1.51f5800000000p-9, 0x1.7924280000000p-6, -0x1.1b724c0000000p-4, -0x1.a924180000000p-6, 0x1.3f77500000000p-4, 0x1.5cd1e00000000p-7, 0x1.7bd2ac0000000p-4, 0x1.8093080000000p-4, -0x1.acbc180000000p-6, -0x1.279e900000000p-4, -0x1.4ddb700000000p-7, 0x1.6d1c300000000p-7, 0x1.747a700000000p-5, 0x1.e04b100000000p-6, -0x1.131b960000000p-5, 0x1.446e480000000p-6, -0x1.d8c5d80000000p-6, 0x1.1d9dd80000000p-5, 0x1.1252380000000p-5, -0x1.d93d980000000p-6, 0x1.577d1c0000000p-4, -0x1.9721400000000p-7, -0x1.7ecf540000000p-5, -0x1.93d0000000000p-6, 0x1.2432e80000000p-6, 0x1.6808c40000000p-4, -0x1.fdb5e00000000p-8, 0x1.6534200000000p-4, 0x1.f12fa00000000p-6, -0x1.c0dcc80000000p-6, -0x1.c42fb00000000p-5, 0x1.c12e400000000p-9, -0x1.1e67840000000p-4, -0x1.10b7740000000p-5, 0x1.5096000000000p-6, -0x1.0c48d80000000p-4, 0x1.1f5c400000000p-8, 0x1.8b98780000000p-6, 0x1.e586180000000p-5, -0x1.358abc0000000p-4, -0x1.fc3ef80000000p-6, -0x1.2b52d00000000p-7, 0x1.6a76ac0000000p-4, 0x1.d89bc80000000p-5, -0x1.6068200000000p-6, 0x1.35eed80000000p-5, -0x1.4afa100000000p-5, 0x1.a956900000000p-5, 0x1.8c99000000000p-5, -0x1.12cd000000000p-7, 0x1.980dd80000000p-5, -0x1.0a92000000000p-10, -0x1.43588c0000000p-4, -0x1.1ca6b80000000p-6, -0x1.e472b40000000p-5, -0x1.f9e8a00000000p-6, -0x1.65f29c0000000p-5, -0x1.1ed0900000000p-4, 0x1.fcf8400000000p-7, 0x1.d598280000000p-5, 0x1.660e100000000p-5, -0x1.002ff00000000p-7, -0x1.70e95a0000000p-4, 0x1.e44c780000000p-6, -0x1.46a7640000000p-4, -0x1.3fcd460000000p-4, -0x1.75a3ba0000000p-5, 0x1.4bfca00000000p-6, -0x1.e696c00000000p-9, 0x1.f73b800000000p-7, -0x1.5f38980000000p-4, 0x1.4ad8f00000000p-5, 0x1.3b9f100000000p-7, -0x1.492ad40000000p-5, 0x1.7e21cc0000000p-4, -0x1.8f18500000000p-6, 0x1.67cb800000000p-9, 0x1.41f5100000000p-4, -0x1.6f04ea0000000p-4, 0x1.0f0ef00000000p-5, 0x1.27c0900000000p-5, 0x1.251e900000000p-4, 0x1.7e2d480000000p-5, -0x1.16155c0000000p-4, -0x1.7507920000000p-5, -0x1.e074980000000p-6, -0x1.b63d180000000p-6, 0x1.01a4340000000p-4, 0x1.5da67c0000000p-4, 0x1.ba5b400000000p-9, 0x1.7291b40000000p-4, -0x1.1561800000000p-9, -0x1.1a44000000000p-4, -0x1.62c14e0000000p-4, 0x1.2dce180000000p-5, 0x1.f07d300000000p-5, -0x1.c94b700000000p-6, 0x1.6121a80000000p-5, -0x1.b5bc700000000p-5, -0x1.686de00000000p-4, -0x1.4da65e0000000p-5, 0x1.c930f80000000p-5, -0x1.35b0b40000000p-4, 0x1.6a29a00000000p-8, 0x1.4455800000000p-5, 0x1.5be61c0000000p-4, 0x1.472dd00000000p-4, 0x1.be92300000000p-7, 0x1.9942700000000p-6, 0x1.ea0c300000000p-5, 0x1.604ad40000000p-4, -0x1.1f45b00000000p-6, 0x1.7e36e40000000p-4, -0x1.303ac00000000p-4, 0x1.13932c0000000p-4, -0x1.b2c1540000000p-5, 0x1.0d1a100000000p-5, -0x1.7c28200000000p-7, 0x1.cc66a00000000p-5, 0x1.f077f00000000p-6, -0x1.ff81500000000p-6, -0x1.451a4a0000000p-4, -0x1.90787a0000000p-5, 0x1.1838300000000p-4, -0x1.964b000000000p-7, 0x1.8960000000000p-16, -0x1.a432400000000p-9, 0x1.3b52980000000p-5, -0x1.70afca0000000p-5, -0x1.29a76a0000000p-4, -0x1.3cb8180000000p-5, -0x1.80fe100000000p-6, 0x1.163be40000000p-4, -0x1.2eadd20000000p-4, 0x1.5754300000000p-7, -0x1.fef8bc0000000p-5, 0x1.6a71380000000p-4, -0x1.c38de00000000p-8, -0x1.aaf7000000000p-9, -0x1.66ac360000000p-4, 0x1.3bc7800000000p-4, -0x1.e6d9b80000000p-6, 0x1.90e8280000000p-5, 0x1.b6fc300000000p-5, -0x1.1eb9000000000p-9, -0x1.9cc14a0000000p-5, -0x1.506f5c0000000p-5, 0x1.db71380000000p-5, -0x1.25a84e0000000p-4, 0x1.6cff480000000p-4, -0x1.25ebce0000000p-5, 0x1.bd8c800000000p-6, 0x1.36251c0000000p-4, -0x1.a5b3d80000000p-5, 0x1.e41d700000000p-5, 0x1.e4b2380000000p-5, -0x1.7a2c1a0000000p-4, -0x1.4fd1520000000p-5, 0x1.1fd3780000000p-5, -0x1.52c4060000000p-4, 0x1.223f700000000p-5, -0x1.f3c1000000000p-11, -0x1.5587500000000p-4, -0x1.7840fc0000000p-4, 0x1.715c700000000p-4, 0x1.72b7b00000000p-4, 0x1.49c1440000000p-4, -0x1.4964400000000p-6, 0x1.4628840000000p-4, -0x1.7e76580000000p-5, -0x1.2ef4c80000000p-5, 0x1.9da4900000000p-6, -0x1.0989dc0000000p-4, 0x1.57ba280000000p-5, 0x1.ba24280000000p-5, 0x1.22a6300000000p-5, 0x1.1b93200000000p-7, -0x1.c0bcc00000000p-7, 0x1.1ccb400000000p-9, 0x1.5cdb800000000p-4, 0x1.b71ca80000000p-6, 0x1.d916100000000p-5, -0x1.30dc300000000p-4, -0x1.228be40000000p-5, -0x1.730cca0000000p-4, -0x1.0090800000000p-4, 0x1.089f800000000p-5, 0x1.66e9840000000p-4, -0x1.e194000000000p-8, 0x1.cafdc00000000p-9, -0x1.0f32a80000000p-6, -0x1.1141a80000000p-4, 0x1.8098e00000000p-5, 0x1.6cf2500000000p-4, 0x1.dae7b80000000p-5, -0x1.2639260000000p-5, 0x1.bd7dd80000000p-5, -0x1.bdeb900000000p-6, 0x1.0c82e00000000p-7, 0x1.73a3f00000000p-5, -0x1.c918ca0000000p-5, 0x1.8192d00000000p-5, 0x1.bd07100000000p-7, 0x1.6e97f00000000p-4, -0x1.4959ea0000000p-4, -0x1.3e93260000000p-4, 0x1.5066500000000p-5, 0x1.43912c0000000p-4, -0x1.bb70c20000000p-5, -0x1.6068000000000p-7, -0x1.0f00f20000000p-5, -0x1.14f6f00000000p-6, 0x1.6414f80000000p-5, -0x1.5077d80000000p-6, 0x1.474cd00000000p-5, 0x1.1e73380000000p-5, -0x1.8827300000000p-7, 0x1.4fd4800000000p-4, -0x1.7242800000000p-6, -0x1.9857400000000p-9, -0x1.d888ce0000000p-5, -0x1.239d680000000p-4, -0x1.1da2ce0000000p-4, 0x1.6e4c080000000p-5, 0x1.3ce5dc0000000p-4, 0x1.96a2900000000p-5, -0x1.7dc8e00000000p-7, 0x1.7301d80000000p-4, -0x1.4030b00000000p-4, -0x1.3586380000000p-5, 0x1.5f95c00000000p-6, 0x1.4586000000000p-4, 0x1.f516c80000000p-5, 0x1.4525580000000p-4, 0x1.6e6c700000000p-4, -0x1.2e774c0000000p-4, 0x1.002af80000000p-6, -0x1.07511c0000000p-4, 0x1.af02980000000p-5, -0x1.5f84200000000p-6, -0x1.3485300000000p-7, 0x1.67a7180000000p-4, 0x1.3293300000000p-4, 0x1.f667480000000p-5, 0x1.5190500000000p-7, -0x1.778ec00000000p-6, 0x1.9cf3380000000p-5, 0x1.025fd00000000p-5, 0x1.2b62680000000p-5, -0x1.5cd9000000000p-7, -0x1.63a6000000000p-12, -0x1.5119640000000p-4, -0x1.1031040000000p-4, -0x1.2b6cb00000000p-5, 0x1.76b8540000000p-4, 0x1.00f96c0000000p-4, 0x1.e8ac180000000p-5, 0x1.7141800000000p-6, 0x1.7274b00000000p-4, -0x1.6113720000000p-5, -0x1.6219660000000p-4, 0x1.562c1c0000000p-4, -0x1.29b7500000000p-5, -0x1.573f720000000p-5, 0x1.24c4600000000p-7, -0x1.da6f500000000p-7, 0x1.19f56c0000000p-4, 0x1.462f300000000p-5, -0x1.9b97700000000p-7, 0x1.143ba00000000p-5, -0x1.2704640000000p-4, -0x1.49a1b00000000p-6, 0x1.8865600000000p-7, 0x1.b79b000000000p-8, -0x1.48992e0000000p-5, 0x1.0c8c200000000p-5, 0x1.bd73c00000000p-8, 0x1.4b95180000000p-6, -0x1.2e29620000000p-5, 0x1.cb70e00000000p-6, 0x1.186a500000000p-5, -0x1.0904be0000000p-4, -0x1.7fc1680000000p-6, 0x1.3b97b00000000p-7, -0x1.3ab2000000000p-7, 0x1.146cd00000000p-4, -0x1.90ba000000000p-5, 0x1.2f49200000000p-7, -0x1.3a05c80000000p-4, -0x1.2334560000000p-5, -0x1.4cd9b20000000p-4, -0x1.a4e9580000000p-6, -0x1.828be80000000p-6, -0x1.6304980000000p-4, 0x1.7c1fd80000000p-4, -0x1.c296dc0000000p-5, 0x1.1a24b80000000p-5, 0x1.bb94000000000p-6, 0x1.f6cd000000000p-5, -0x1.a7cbc40000000p-5, -0x1.1555800000000p-8, 0x1.d066600000000p-5, -0x1.4780020000000p-5, -0x1.2a4d580000000p-5, -0x1.5fc1fc0000000p-5, 0x1.308d240000000p-4}
, {-0x1.0915ea0000000p-4, 0x1.17b2540000000p-4, 0x1.66e1400000000p-5, 0x1.26b5b40000000p-4, -0x1.340ef40000000p-4, 0x1.7a62680000000p-5, -0x1.6636c00000000p-4, 0x1.9f86900000000p-6, -0x1.5d9a840000000p-4, 0x1.9761600000000p-5, -0x1.4532e80000000p-4, 0x1.03b6f40000000p-4, -0x1.359f040000000p-4, -0x1.1ec5240000000p-4, 0x1.937c400000000p-6, -0x1.46fca80000000p-4, -0x1.cacd820000000p-5, 0x1.2ff7b40000000p-4, -0x1.ed3be60000000p-5, 0x1.3177200000000p-5, 0x1.0be6800000000p-5, -0x1.d929800000000p-8, -0x1.3751c00000000p-7, -0x1.7bb3c40000000p-4, 0x1.723c180000000p-6, -0x1.4e99e00000000p-7, 0x1.9768100000000p-5, -0x1.b740300000000p-7, 0x1.7d65600000000p-4, -0x1.4ca3300000000p-6, -0x1.a1a3880000000p-6, -0x1.c1f8ac0000000p-5, 0x1.93d2680000000p-5, 0x1.239ad80000000p-5, -0x1.62d1200000000p-8, 0x1.7c69400000000p-5, -0x1.38e4f00000000p-7, -0x1.5d24300000000p-7, -0x1.4403800000000p-5, -0x1.7b63480000000p-4, -0x1.4cabca0000000p-4, 0x1.50c5900000000p-7, 0x1.1c3b800000000p-9, -0x1.124fc40000000p-5, 0x1.0072780000000p-5, 0x1.b9ff080000000p-5, 0x1.0b04a00000000p-8, -0x1.b392560000000p-5, 0x1.2b45080000000p-5, 0x1.3b32a00000000p-6, -0x1.d10f560000000p-5, -0x1.338b260000000p-4, 0x1.534f400000000p-5, -0x1.5ecaf00000000p-4, 0x1.5a71000000000p-4, 0x1.0397340000000p-4, 0x1.513e1c0000000p-4, 0x1.ab3fd80000000p-5, 0x1.6e29100000000p-5, -0x1.7fc1800000000p-7, -0x1.1e1eb00000000p-7, 0x1.13a2400000000p-5, -0x1.c3aaa80000000p-5, 0x1.5d14ec0000000p-4, 0x1.037d1c0000000p-4, -0x1.2140980000000p-4, 0x1.1794f00000000p-4, 0x1.3546100000000p-5, 0x1.5b2cdc0000000p-4, 0x1.8d1b000000000p-9, -0x1.66eb000000000p-9, 0x1.61a2c80000000p-6, 0x1.099aa00000000p-5, 0x1.1be6900000000p-5, 0x1.fb7dc00000000p-6, 0x1.9576b80000000p-5, 0x1.57fa840000000p-4, 0x1.0fee940000000p-4, -0x1.67d1d00000000p-7, 0x1.4e14800000000p-6, -0x1.dcc8600000000p-6, 0x1.72c6680000000p-4, 0x1.7b8f040000000p-4, -0x1.994fe00000000p-7, 0x1.db90880000000p-5, -0x1.0ee1f40000000p-4, -0x1.e22c620000000p-5, 0x1.2381600000000p-4, 0x1.bb60c00000000p-5, -0x1.0518400000000p-9, -0x1.01d1c80000000p-5, -0x1.05608c0000000p-4, -0x1.49bad00000000p-4, 0x1.c603680000000p-5, -0x1.aeb9600000000p-6, -0x1.848ae80000000p-6, 0x1.82ac500000000p-6, -0x1.60f8780000000p-6, 0x1.4a74d00000000p-5, 0x1.4a89680000000p-4, -0x1.6fcbf00000000p-5, -0x1.6e35400000000p-4, -0x1.f51a200000000p-6, 0x1.548e940000000p-4, 0x1.523a800000000p-8, -0x1.61455a0000000p-4, 0x1.b1b9f80000000p-6, -0x1.007d1e0000000p-4, -0x1.5588960000000p-4, 0x1.0568a00000000p-7, 0x1.34ed280000000p-5, 0x1.5e47e80000000p-5, -0x1.ceaede0000000p-5, 0x1.7548100000000p-4, -0x1.1dea860000000p-4, -0x1.31ae040000000p-4, -0x1.d3e49e0000000p-5, 0x1.9c70000000000p-5, -0x1.26329a0000000p-5, -0x1.6b11100000000p-4, -0x1.6dad9c0000000p-5, 0x1.fd03000000000p-6, -0x1.a0d1100000000p-7, 0x1.aa4d580000000p-5, -0x1.a159180000000p-5, -0x1.ec88000000000p-13, -0x1.6042460000000p-4, -0x1.a1f70a0000000p-5, 0x1.7874000000000p-8, -0x1.48c2ba0000000p-5, -0x1.7acace0000000p-4, 0x1.7245c40000000p-4, 0x1.39c0700000000p-7, -0x1.21714e0000000p-5, 0x1.619b300000000p-4, -0x1.d9cf040000000p-5, 0x1.f0f6000000000p-9, 0x1.14b9800000000p-7, -0x1.9e03e00000000p-8, -0x1.c721a80000000p-5, -0x1.40770c0000000p-4, -0x1.01370c0000000p-4, -0x1.4369760000000p-5, -0x1.1222300000000p-4, -0x1.bef3340000000p-5, 0x1.168c000000000p-8, 0x1.7892ec0000000p-4, 0x1.5b81080000000p-5, -0x1.1afbd80000000p-6, 0x1.1b05180000000p-6, -0x1.1571000000000p-11, 0x1.3bcaec0000000p-4, 0x1.00da580000000p-5, 0x1.3633b80000000p-6, 0x1.68e6280000000p-4, -0x1.6896b80000000p-5, 0x1.6ca0980000000p-5, 0x1.90f5b00000000p-6, -0x1.bb33700000000p-6, -0x1.408e9e0000000p-4, 0x1.3a44d80000000p-5, 0x1.028eb80000000p-5, -0x1.dfe5b00000000p-6, 0x1.283b780000000p-4, -0x1.ef98400000000p-7, -0x1.2bac900000000p-4, -0x1.cdf3e80000000p-5, 0x1.10b6f40000000p-4, 0x1.f4b5700000000p-7, 0x1.1633500000000p-7, 0x1.68eb800000000p-5, -0x1.28b3620000000p-5, -0x1.06ac400000000p-6, 0x1.b151480000000p-6, -0x1.ff45860000000p-5, -0x1.1277f20000000p-4, -0x1.7272300000000p-4, 0x1.372ce80000000p-5, 0x1.6b34900000000p-6, 0x1.8afda80000000p-5, -0x1.ef86520000000p-5, 0x1.1a7c000000000p-5, 0x1.75f1800000000p-5, -0x1.1fe9320000000p-4, -0x1.055e280000000p-6, 0x1.659c4c0000000p-4, 0x1.42be680000000p-6, -0x1.d35c300000000p-6, 0x1.2807c80000000p-5, -0x1.2acb240000000p-4, 0x1.4d7c1c0000000p-4, 0x1.2eae2c0000000p-4, -0x1.5fd5160000000p-4, -0x1.26ea300000000p-6, -0x1.8ade7c0000000p-5, 0x1.37b1780000000p-4, 0x1.1a97680000000p-6, 0x1.6d73780000000p-5, 0x1.74b3e00000000p-5, 0x1.e92d080000000p-5, 0x1.0fde840000000p-4, -0x1.102a960000000p-4, 0x1.9b5b780000000p-5, -0x1.20975e0000000p-4, -0x1.0825000000000p-11, -0x1.a860860000000p-5, 0x1.60dd080000000p-4, 0x1.6feab80000000p-4, 0x1.87f0780000000p-5, 0x1.d886580000000p-6, 0x1.d3bf280000000p-5, -0x1.d38e220000000p-5, -0x1.5f5cb40000000p-4, 0x1.26c9500000000p-4, 0x1.3a13c00000000p-5, -0x1.7c88420000000p-5, 0x1.17ebb00000000p-5, 0x1.f4d5980000000p-5, -0x1.00680a0000000p-4, 0x1.5209b80000000p-4, 0x1.faf8500000000p-6, 0x1.26b2440000000p-4, -0x1.0e30020000000p-4, -0x1.b4c3000000000p-11, -0x1.75bd8a0000000p-5, -0x1.20822c0000000p-4, -0x1.59d0c00000000p-5, -0x1.bb6fac0000000p-5, -0x1.6d6d980000000p-4, -0x1.6c08580000000p-6, -0x1.fd3ab20000000p-5, 0x1.ebc5c80000000p-6, -0x1.659b4e0000000p-4, 0x1.fdcf080000000p-5, 0x1.2e03f80000000p-5, 0x1.313eb00000000p-4, 0x1.1198000000000p-5, 0x1.5000a40000000p-4, -0x1.814c600000000p-8, -0x1.ef1c0c0000000p-5, -0x1.a8fda00000000p-8, -0x1.76c0c40000000p-5, -0x1.7850620000000p-4, 0x1.3a08e80000000p-5, 0x1.a279000000000p-6, -0x1.201de80000000p-5, -0x1.6851000000000p-10, 0x1.220fac0000000p-4, 0x1.0e09a40000000p-4, -0x1.aea0400000000p-8, 0x1.25b5040000000p-4, -0x1.a8a61a0000000p-5, 0x1.0de54c0000000p-4, -0x1.1d46ac0000000p-4, 0x1.6444900000000p-4, -0x1.9f53c00000000p-9, -0x1.fb14b00000000p-6, 0x1.9612c00000000p-5, 0x1.979fa80000000p-5, -0x1.bdfc800000000p-9, -0x1.1055060000000p-4, -0x1.90c7500000000p-7, 0x1.9dd7200000000p-5, 0x1.0c87c80000000p-4, 0x1.1f33500000000p-5, -0x1.9380e00000000p-6, -0x1.c69f400000000p-9, -0x1.5a66f40000000p-4, -0x1.7f039e0000000p-4, 0x1.185e140000000p-4, 0x1.b7a1000000000p-6, -0x1.7e9b5a0000000p-4, 0x1.80d26c0000000p-4, 0x1.6623400000000p-8, -0x1.3097200000000p-5, 0x1.9a7af00000000p-6, -0x1.592eb00000000p-7, 0x1.3636140000000p-4, -0x1.2f98700000000p-7, -0x1.0277e80000000p-4, -0x1.cd7fa60000000p-5, 0x1.7084c00000000p-4, 0x1.5655300000000p-4, -0x1.a069800000000p-6, -0x1.139d460000000p-5, 0x1.d39bf80000000p-5, 0x1.7a6b000000000p-5, 0x1.f677100000000p-5, -0x1.42dc7a0000000p-5, -0x1.109b3c0000000p-5, -0x1.8bd3100000000p-7, 0x1.6cbf440000000p-4, 0x1.7bc78c0000000p-4, 0x1.1142e80000000p-4, 0x1.fc84d00000000p-5, 0x1.53e04c0000000p-4, -0x1.34cb700000000p-7, 0x1.1d1e780000000p-6, 0x1.6b18440000000p-4, -0x1.7aee300000000p-6, 0x1.f275700000000p-7, 0x1.113d640000000p-4, -0x1.5c220c0000000p-4, 0x1.92acb00000000p-7, -0x1.45f0000000000p-7, -0x1.6d2a6c0000000p-5, 0x1.7dabb40000000p-4, -0x1.13c9800000000p-8, 0x1.9121800000000p-6, -0x1.7666100000000p-7, -0x1.cb54000000000p-11, 0x1.5a4bd80000000p-5, -0x1.5996820000000p-4, -0x1.1f84880000000p-4, -0x1.9a0be60000000p-5, -0x1.74d09a0000000p-5, 0x1.452cb00000000p-4, 0x1.4274880000000p-4, 0x1.cff9a00000000p-7, 0x1.bf38980000000p-6, 0x1.ca62300000000p-5, -0x1.715e5c0000000p-5, -0x1.1a2d500000000p-4, 0x1.143f400000000p-4, -0x1.56ce700000000p-4, -0x1.0f0e400000000p-7, -0x1.0905920000000p-4, -0x1.3637ce0000000p-5, -0x1.fb52900000000p-7, 0x1.4da8800000000p-5, -0x1.5824300000000p-4, 0x1.0ffce80000000p-6, -0x1.77cc840000000p-5, -0x1.58e6680000000p-6, -0x1.19c2b20000000p-5, -0x1.78ca700000000p-4, 0x1.0562400000000p-7, 0x1.079b000000000p-9, -0x1.0cb4500000000p-4, -0x1.1019700000000p-4, -0x1.0a8c300000000p-6, 0x1.2315700000000p-6, 0x1.07c6200000000p-4, -0x1.5c05bc0000000p-5, 0x1.606a480000000p-6, 0x1.72c6900000000p-5, -0x1.4fad0c0000000p-4, 0x1.a884000000000p-9, 0x1.56af100000000p-5, 0x1.bb7cc00000000p-7, 0x1.4fcd380000000p-4, -0x1.27d6fa0000000p-5, -0x1.464fba0000000p-4, -0x1.2ef91e0000000p-5, 0x1.3d3f600000000p-4, 0x1.5e3c540000000p-4, -0x1.9247500000000p-7, 0x1.3de72c0000000p-4, -0x1.8e7d100000000p-6, -0x1.1a2fa60000000p-5, -0x1.28d0980000000p-6, -0x1.47d0580000000p-4, 0x1.fe63f00000000p-7, -0x1.2fb0d40000000p-4, -0x1.76fb140000000p-5, -0x1.a109f40000000p-5, -0x1.3ae6440000000p-5, 0x1.156bd00000000p-5, -0x1.6df6ac0000000p-4, -0x1.c8e4b20000000p-5, -0x1.be04c00000000p-5, -0x1.4909c00000000p-9, -0x1.8392480000000p-6, 0x1.0250800000000p-5, 0x1.17af300000000p-5, 0x1.e2e6c80000000p-5, 0x1.3fd4c00000000p-5, 0x1.09f6480000000p-4, 0x1.1ad9d80000000p-5, 0x1.e404180000000p-6, 0x1.2814200000000p-5, 0x1.6eb6780000000p-4, -0x1.64dd400000000p-8, -0x1.ed26e40000000p-5, -0x1.1c5e0a0000000p-5, -0x1.8236f80000000p-5, 0x1.06a7400000000p-7, -0x1.21ff9c0000000p-5, -0x1.8a9c700000000p-6, 0x1.f572f80000000p-6, -0x1.62812c0000000p-4, -0x1.f795f00000000p-7, -0x1.758f180000000p-4, 0x1.6029300000000p-6, -0x1.5e2be20000000p-4, -0x1.0d42b80000000p-5, 0x1.df69a00000000p-8, 0x1.e36ad00000000p-6, 0x1.2c83a00000000p-4, 0x1.255b200000000p-8, -0x1.f692fc0000000p-5, 0x1.eba7280000000p-6, -0x1.2fc34c0000000p-5, 0x1.f6f3900000000p-5, -0x1.10a0840000000p-4, -0x1.1634960000000p-4, -0x1.4787b80000000p-6, -0x1.6770b00000000p-5, 0x1.1c93140000000p-4, -0x1.40119a0000000p-5, -0x1.7399c60000000p-4, 0x1.f469200000000p-6, -0x1.00cb2c0000000p-5, 0x1.0dc26c0000000p-4, 0x1.fb63d00000000p-6, 0x1.08eb500000000p-6, 0x1.e3e0f00000000p-7, 0x1.d69d680000000p-5, -0x1.0935aa0000000p-4, 0x1.2ba2440000000p-4, 0x1.f5cd400000000p-7, 0x1.55d3340000000p-4, 0x1.92e6380000000p-5, 0x1.58f6200000000p-5, 0x1.6004000000000p-8, -0x1.4de6a00000000p-6, 0x1.c109c00000000p-8, -0x1.791ca80000000p-4, -0x1.42e9ec0000000p-4, 0x1.1d5e2c0000000p-4, -0x1.35ee600000000p-8, -0x1.db79ee0000000p-5, 0x1.6257900000000p-7, 0x1.7551a40000000p-4, -0x1.4166e20000000p-5, -0x1.a9b8100000000p-5, -0x1.126ab80000000p-6, -0x1.6d8e620000000p-5, -0x1.21eea60000000p-5, -0x1.16b7000000000p-4, -0x1.2c4fbc0000000p-5, -0x1.7c96400000000p-9, 0x1.0dbb180000000p-4, 0x1.f8b5500000000p-6, -0x1.6e12780000000p-5, 0x1.fdb1400000000p-5, -0x1.8c25d20000000p-5, 0x1.b5b9780000000p-5, 0x1.59dd580000000p-6, 0x1.9962c00000000p-7, 0x1.d7dbe00000000p-5, 0x1.8591000000000p-5, 0x1.7bfa4c0000000p-4, 0x1.af82200000000p-7, -0x1.8602b60000000p-5, -0x1.7ff0d80000000p-5, 0x1.b5efe00000000p-5, 0x1.1841500000000p-5, 0x1.061dc00000000p-5, 0x1.46ea740000000p-4, -0x1.135bd00000000p-7, -0x1.fac5000000000p-6, -0x1.67d8460000000p-5, -0x1.066c820000000p-4, 0x1.562e600000000p-5, 0x1.7675b80000000p-5, 0x1.59e2500000000p-6, -0x1.5d34b80000000p-4, 0x1.01f7d80000000p-6, 0x1.ea81c00000000p-5, -0x1.e837b80000000p-6, -0x1.4912500000000p-4, 0x1.960bb80000000p-5, 0x1.9205400000000p-5, 0x1.c724780000000p-5, -0x1.13e78e0000000p-4, 0x1.4854bc0000000p-4, -0x1.53dd3e0000000p-4, -0x1.0108000000000p-6, -0x1.47f7c60000000p-4, -0x1.53fbca0000000p-5, 0x1.6ae0bc0000000p-4, 0x1.4ccac00000000p-6, 0x1.db1e500000000p-5, -0x1.d44a480000000p-6, -0x1.5169d80000000p-4, 0x1.2e61c80000000p-5, -0x1.12ad140000000p-4, -0x1.2857860000000p-4, 0x1.53ad5c0000000p-4, -0x1.2772000000000p-12, -0x1.735cea0000000p-4, 0x1.8aa2580000000p-5, -0x1.0c46780000000p-4, -0x1.ce2afa0000000p-5, 0x1.203f780000000p-4, -0x1.f6e8da0000000p-5, 0x1.60ccf80000000p-5, -0x1.161c6c0000000p-4, 0x1.db4aa00000000p-6, 0x1.7fd8800000000p-8, -0x1.1c116c0000000p-4, 0x1.09e2a00000000p-7, 0x1.ac3a080000000p-5, -0x1.0581680000000p-5, 0x1.471a040000000p-4, -0x1.73787e0000000p-5, 0x1.f0c3a80000000p-6, -0x1.7547420000000p-4, -0x1.40965e0000000p-4, -0x1.fc14000000000p-5, 0x1.2a29080000000p-6, 0x1.23b8600000000p-4, 0x1.52c5980000000p-4, -0x1.2a03ee0000000p-4, -0x1.541b800000000p-6, -0x1.16e3f60000000p-4, -0x1.390f120000000p-5, 0x1.7faa340000000p-4, 0x1.b6f3600000000p-6, -0x1.c510000000000p-11, -0x1.4f11a60000000p-5, -0x1.8f0a6a0000000p-5, 0x1.7370ac0000000p-4, -0x1.c2c0d00000000p-7, 0x1.a243000000000p-9, -0x1.0aeb000000000p-9, -0x1.6aafea0000000p-4, -0x1.890e5c0000000p-5, -0x1.28925c0000000p-4, -0x1.650f000000000p-5, -0x1.96aefe0000000p-5, -0x1.e8d4e60000000p-5, -0x1.adddc00000000p-7, 0x1.deb8880000000p-5, -0x1.698bac0000000p-4, -0x1.f2e5700000000p-5, 0x1.2a59200000000p-5, 0x1.649de80000000p-6, 0x1.5bf7ac0000000p-4, -0x1.1e53e60000000p-4, 0x1.44897c0000000p-4, -0x1.75c92e0000000p-5, 0x1.604c180000000p-4, 0x1.e767b00000000p-6, 0x1.2c69980000000p-6, 0x1.37c9900000000p-5, -0x1.55f0e60000000p-5, -0x1.b7212a0000000p-5, -0x1.3f88d40000000p-4, -0x1.ac88400000000p-6, 0x1.385bd40000000p-4, -0x1.7b04880000000p-6, 0x1.4a72500000000p-4, -0x1.1778460000000p-5, -0x1.7c77400000000p-5, -0x1.6494d40000000p-4, -0x1.8be90e0000000p-5, 0x1.784fa00000000p-4, 0x1.4626f80000000p-5, -0x1.a4d7880000000p-5, -0x1.4d8cd00000000p-7, -0x1.5bc95a0000000p-4, -0x1.24c7360000000p-4, 0x1.2cb0540000000p-4, -0x1.86d0400000000p-7, 0x1.111cf80000000p-5, 0x1.dafdb80000000p-5, -0x1.1938700000000p-4, 0x1.c5b3f80000000p-5, -0x1.4c17f40000000p-4, -0x1.47ee700000000p-7, 0x1.2208e00000000p-5, 0x1.dce8500000000p-5, -0x1.4e44800000000p-10, -0x1.4debce0000000p-4}
, {-0x1.ae673c0000000p-5, 0x1.3d09a00000000p-5, -0x1.7887ce0000000p-5, 0x1.632f640000000p-4, -0x1.ceadfa0000000p-5, -0x1.5132480000000p-5, 0x1.ee29980000000p-6, 0x1.ecddf80000000p-5, -0x1.6c9dc00000000p-7, -0x1.7585c00000000p-4, 0x1.863cc00000000p-9, -0x1.488ac40000000p-5, -0x1.e4cc580000000p-5, 0x1.f171400000000p-5, -0x1.7c897c0000000p-5, 0x1.79ca200000000p-7, -0x1.1b6a800000000p-10, -0x1.a7caf00000000p-7, 0x1.d788800000000p-10, 0x1.c34b500000000p-5, 0x1.5452980000000p-5, -0x1.4d8d080000000p-6, 0x1.78ef180000000p-6, 0x1.7857b40000000p-4, 0x1.7b5ab00000000p-4, 0x1.8e6d680000000p-5, -0x1.1832b20000000p-4, -0x1.4dede00000000p-5, 0x1.47bb600000000p-6, -0x1.33de980000000p-5, 0x1.2f2b000000000p-4, 0x1.2415c80000000p-6, -0x1.12cf800000000p-6, 0x1.6778c00000000p-5, -0x1.b0571c0000000p-5, 0x1.1b32b80000000p-5, -0x1.3867d00000000p-7, 0x1.7e68280000000p-5, 0x1.20e4f80000000p-4, 0x1.7c35500000000p-5, -0x1.c3dd940000000p-5, 0x1.d9bfa80000000p-5, -0x1.c6699e0000000p-5, 0x1.07ec300000000p-4, -0x1.3aa6c40000000p-4, -0x1.9237b00000000p-7, 0x1.34d5a00000000p-6, 0x1.cc87200000000p-5, -0x1.8858320000000p-5, 0x1.b524000000000p-11, 0x1.4334e40000000p-4, 0x1.3b66600000000p-8, -0x1.290b420000000p-4, 0x1.59f9e80000000p-4, 0x1.6982000000000p-5, -0x1.eebe5c0000000p-5, -0x1.e378780000000p-6, -0x1.63af1e0000000p-4, -0x1.b9191a0000000p-5, 0x1.3dd1800000000p-8, 0x1.12ae680000000p-4, 0x1.af62500000000p-6, -0x1.a2fa400000000p-8, -0x1.658bf20000000p-4, -0x1.8d08660000000p-5, 0x1.80e7d80000000p-4, 0x1.53ed000000000p-11, 0x1.190fac0000000p-4, -0x1.a9e5f20000000p-5, 0x1.a41b380000000p-6, 0x1.39a4c00000000p-7, 0x1.a2dcb00000000p-6, 0x1.3d43100000000p-6, -0x1.a931700000000p-5, 0x1.a2ee580000000p-5, -0x1.7f93e60000000p-4, 0x1.f11a580000000p-5, -0x1.d3d3240000000p-5, 0x1.df95500000000p-5, 0x1.73c6580000000p-4, -0x1.f502040000000p-5, 0x1.e8d4b00000000p-7, 0x1.78d6580000000p-6, 0x1.177a300000000p-7, -0x1.76eeb80000000p-4, 0x1.3d5a680000000p-5, 0x1.62aab00000000p-5, 0x1.3ddc500000000p-4, 0x1.86f3e00000000p-7, -0x1.5e91a20000000p-4, -0x1.48b4020000000p-4, 0x1.8a0d800000000p-9, 0x1.7d8b480000000p-6, -0x1.78d3920000000p-4, -0x1.4507a80000000p-6, 0x1.1ec3100000000p-5, 0x1.0ee5e80000000p-5, -0x1.a0dde00000000p-6, 0x1.531c900000000p-4, 0x1.895cb00000000p-6, -0x1.22c2880000000p-4, -0x1.02f2980000000p-5, 0x1.14f3800000000p-9, 0x1.cf2d700000000p-5, 0x1.6b60180000000p-5, 0x1.dfe5a00000000p-7, 0x1.b399c80000000p-5, 0x1.76edb80000000p-5, 0x1.6efe900000000p-6, 0x1.ce5bc80000000p-5, 0x1.0c98d80000000p-5, 0x1.bada400000000p-8, -0x1.e392f80000000p-6, -0x1.3ac57a0000000p-5, -0x1.00a6ac0000000p-5, -0x1.3de0c80000000p-4, -0x1.31b8c00000000p-7, -0x1.97dae80000000p-6, -0x1.1b32000000000p-9, -0x1.1473a60000000p-4, -0x1.3493b80000000p-5, -0x1.0a28a20000000p-4, -0x1.8237400000000p-9, 0x1.8170640000000p-4, 0x1.d0b4900000000p-6, 0x1.4cf7b00000000p-5, -0x1.c9f0a00000000p-8, -0x1.3a21200000000p-8, 0x1.e8c3d80000000p-5, -0x1.0cf3f80000000p-6, -0x1.27f63a0000000p-4, 0x1.1d90d80000000p-6, -0x1.14e3d40000000p-4, 0x1.3a2ec40000000p-4, 0x1.2112180000000p-6, 0x1.e924380000000p-5, -0x1.a84f300000000p-6, 0x1.1eda580000000p-4, 0x1.9b82600000000p-5, -0x1.19b61e0000000p-5, -0x1.0eb53a0000000p-4, -0x1.4406520000000p-5, 0x1.9144100000000p-5, -0x1.74b9060000000p-4, -0x1.7e04060000000p-4, -0x1.0892100000000p-7, 0x1.220b200000000p-4, 0x1.11d5780000000p-5, -0x1.24d03a0000000p-4, -0x1.f5f0160000000p-5, -0x1.69a0500000000p-6, -0x1.4f1be80000000p-6, -0x1.5595d80000000p-6, -0x1.7f80d80000000p-4, -0x1.2e0f600000000p-5, -0x1.3746780000000p-4, -0x1.3f1f440000000p-4, -0x1.9f529a0000000p-5, 0x1.1315300000000p-4, 0x1.5a08140000000p-4, 0x1.0251600000000p-4, -0x1.de27be0000000p-5, 0x1.5a33a80000000p-4, 0x1.91b2e00000000p-8, -0x1.c1a6f20000000p-5, 0x1.f9d3800000000p-6, 0x1.49e1000000000p-6, -0x1.8f98580000000p-6, -0x1.941e300000000p-7, -0x1.3aeb680000000p-6, 0x1.0b02000000000p-11, 0x1.ad3b900000000p-7, -0x1.043c6c0000000p-4, 0x1.d3db180000000p-6, -0x1.7128b00000000p-7, -0x1.30bce00000000p-8, 0x1.109b000000000p-6, -0x1.5605b20000000p-4, -0x1.147e080000000p-4, 0x1.173f6c0000000p-4, 0x1.23b3e80000000p-6, 0x1.68df280000000p-5, 0x1.5827280000000p-4, 0x1.50d8580000000p-5, 0x1.664b100000000p-5, 0x1.5494880000000p-4, -0x1.749bb40000000p-4, -0x1.6539280000000p-4, 0x1.0df1400000000p-5, 0x1.be18100000000p-5, -0x1.2318440000000p-4, -0x1.3821c00000000p-7, 0x1.db78a00000000p-6, -0x1.01d7e40000000p-4, 0x1.0d6d580000000p-5, 0x1.3aed100000000p-5, -0x1.35fc000000000p-4, 0x1.55b0080000000p-5, -0x1.629b080000000p-5, 0x1.3e0ae80000000p-5, -0x1.52b36a0000000p-4, -0x1.fc20040000000p-5, 0x1.e2e3e80000000p-5, -0x1.3b04a00000000p-4, 0x1.5e2ddc0000000p-4, 0x1.6425300000000p-7, 0x1.1155d00000000p-7, 0x1.e062000000000p-12, 0x1.05bb080000000p-4, -0x1.4a29a60000000p-4, -0x1.4e963c0000000p-4, -0x1.a92c960000000p-5, 0x1.6b214c0000000p-4, 0x1.5678400000000p-9, 0x1.b773380000000p-5, 0x1.5884000000000p-5, -0x1.4236c20000000p-5, 0x1.f0c2600000000p-7, 0x1.1c5fc80000000p-4, 0x1.dde0600000000p-5, -0x1.f39d880000000p-6, 0x1.9ec6980000000p-5, -0x1.06446c0000000p-4, 0x1.74b1680000000p-5, 0x1.5f71900000000p-5, -0x1.4809200000000p-8, 0x1.4d84240000000p-4, 0x1.d7dba80000000p-6, -0x1.5b21520000000p-5, -0x1.9823480000000p-6, -0x1.d589780000000p-6, -0x1.312b3a0000000p-5, 0x1.84f3a80000000p-6, -0x1.85a2000000000p-11, 0x1.cb89380000000p-5, 0x1.7aca5c0000000p-4, 0x1.11e6480000000p-5, -0x1.3b4e280000000p-4, -0x1.1375080000000p-6, -0x1.57e8be0000000p-4, 0x1.187ce80000000p-6, -0x1.0693600000000p-4, 0x1.1642600000000p-7, 0x1.cae7000000000p-9, 0x1.6fa2280000000p-4, 0x1.c30d380000000p-5, -0x1.36c15a0000000p-5, -0x1.aeb1da0000000p-5, 0x1.9fc8800000000p-7, -0x1.967d200000000p-6, 0x1.9dfe700000000p-5, 0x1.02ec100000000p-4, -0x1.613e140000000p-5, -0x1.41a45a0000000p-5, 0x1.8494080000000p-5, 0x1.8c0f700000000p-6, -0x1.3f069c0000000p-4, 0x1.1e1a180000000p-4, 0x1.0c2ae80000000p-4, -0x1.1a87f20000000p-4, 0x1.4f46200000000p-4, 0x1.aabab80000000p-6, -0x1.bda0c00000000p-9, -0x1.fe60120000000p-5, 0x1.07c8e00000000p-7, 0x1.a15d580000000p-6, -0x1.2d80820000000p-4, 0x1.3e02980000000p-6, 0x1.5d3f800000000p-5, 0x1.9522e00000000p-6, -0x1.2116640000000p-5, -0x1.f6322e0000000p-5, 0x1.7465600000000p-6, 0x1.04335c0000000p-4, 0x1.51ad500000000p-6, -0x1.7a65980000000p-4, -0x1.6ed5c40000000p-5, -0x1.146f800000000p-4, 0x1.a992a00000000p-6, 0x1.03f6ec0000000p-4, -0x1.cec5600000000p-7, 0x1.a723000000000p-5, -0x1.651fbe0000000p-4, -0x1.6c26ec0000000p-4, -0x1.a97f120000000p-5, 0x1.599d280000000p-4, 0x1.35fea00000000p-4, 0x1.b534880000000p-6, 0x1.b4bdc80000000p-5, -0x1.3adda40000000p-5, 0x1.edcbf00000000p-6, -0x1.417cbc0000000p-4, -0x1.5637c40000000p-4, 0x1.6d02a80000000p-5, 0x1.0fb4500000000p-5, 0x1.89c4100000000p-7, -0x1.5eb5580000000p-6, 0x1.71a6400000000p-5, 0x1.2b3d7c0000000p-4, -0x1.87ef800000000p-10, -0x1.30b1100000000p-4, 0x1.9cab300000000p-5, 0x1.26b2d40000000p-4, 0x1.1d9ffc0000000p-4, -0x1.4f051e0000000p-5, -0x1.8155c00000000p-6, -0x1.a8e18c0000000p-5, -0x1.a448d00000000p-6, 0x1.2e69880000000p-5, -0x1.857a640000000p-5, -0x1.1932c00000000p-8, -0x1.e1ccb00000000p-7, -0x1.1f58fc0000000p-4, 0x1.32f6200000000p-5, 0x1.0167580000000p-4, 0x1.8ae8780000000p-5, 0x1.2e71c00000000p-8, 0x1.28ee500000000p-5, 0x1.02f4e00000000p-4, 0x1.3d80100000000p-5, 0x1.8027780000000p-5, -0x1.76e3000000000p-8, 0x1.25f3500000000p-7, -0x1.5757240000000p-5, -0x1.0ddae00000000p-6, 0x1.42e0a00000000p-5, 0x1.e3e7f00000000p-7, -0x1.340ee80000000p-4, 0x1.4e09100000000p-5, 0x1.9c3f200000000p-6, 0x1.62ca880000000p-6, 0x1.5217840000000p-4, 0x1.7695480000000p-5, -0x1.48bb240000000p-5, 0x1.68b1900000000p-5, -0x1.2ded4c0000000p-4, 0x1.fccc900000000p-5, 0x1.e15a100000000p-5, 0x1.4204380000000p-4, -0x1.1e7eb80000000p-4, -0x1.931fc00000000p-6, 0x1.3bc4e00000000p-8, 0x1.74c3180000000p-5, -0x1.c031ea0000000p-5, -0x1.c2e0200000000p-7, -0x1.baa7880000000p-6, -0x1.172a880000000p-4, -0x1.eb9a680000000p-5, 0x1.09b9f80000000p-5, 0x1.2c01780000000p-4, -0x1.15a4000000000p-13, -0x1.9cf8c80000000p-5, -0x1.b55a6a0000000p-5, 0x1.ff40000000000p-5, 0x1.2c86b00000000p-4, -0x1.66b2980000000p-4, 0x1.213b080000000p-4, -0x1.30aaac0000000p-4, 0x1.289c100000000p-4, 0x1.09f7780000000p-5, 0x1.3cbe200000000p-4, 0x1.4974100000000p-7, 0x1.a0bc380000000p-5, -0x1.5d06520000000p-5, 0x1.3e33580000000p-5, 0x1.0176c80000000p-6, 0x1.5cc6c00000000p-7, -0x1.9af6640000000p-5, 0x1.4f22380000000p-5, -0x1.200ce60000000p-5, 0x1.27b9240000000p-4, -0x1.8010360000000p-4, -0x1.a011000000000p-5, 0x1.4db7000000000p-4, 0x1.ad47100000000p-7, 0x1.9ba2200000000p-5, -0x1.5598000000000p-6, 0x1.711f000000000p-4, -0x1.79aec80000000p-5, -0x1.71d7b40000000p-5, 0x1.fb4c000000000p-10, 0x1.443c000000000p-13, -0x1.1bc0c60000000p-4, 0x1.8617a00000000p-6, 0x1.22c2e00000000p-5, -0x1.3212c00000000p-6, 0x1.1386480000000p-4, 0x1.f03be80000000p-6, -0x1.39077c0000000p-4, 0x1.a852800000000p-6, 0x1.8f4e200000000p-8, 0x1.68f9980000000p-4, 0x1.ba02b00000000p-5, -0x1.3936ec0000000p-4, -0x1.429e940000000p-5, -0x1.7417e00000000p-4, -0x1.c80ebe0000000p-5, 0x1.232f100000000p-5, 0x1.cfbf480000000p-5, 0x1.4ed5e40000000p-4, -0x1.314f980000000p-4, -0x1.c0a1220000000p-5, -0x1.010f680000000p-4, 0x1.1943e80000000p-4, 0x1.1b5ac00000000p-4, 0x1.8c50b00000000p-5, -0x1.2efad00000000p-5, -0x1.c072ec0000000p-5, 0x1.9f06280000000p-6, -0x1.2e021e0000000p-4, -0x1.6776a00000000p-5, -0x1.2725700000000p-4, 0x1.77ef280000000p-4, 0x1.f0c7a00000000p-6, -0x1.8666b80000000p-5, -0x1.07b4c00000000p-8, 0x1.be07e80000000p-6, -0x1.34bbc80000000p-4, -0x1.af84e20000000p-5, 0x1.2ac2a80000000p-4, 0x1.2860f80000000p-4, -0x1.a6d0680000000p-6, -0x1.f799bc0000000p-5, -0x1.683dc80000000p-5, -0x1.83dbc00000000p-6, 0x1.59d8a00000000p-4, -0x1.0c78f00000000p-7, -0x1.05981c0000000p-4, -0x1.4fd5880000000p-4, -0x1.07d5020000000p-4, 0x1.ccd8800000000p-10, 0x1.8cbec80000000p-6, -0x1.4b87ec0000000p-4, -0x1.76e3600000000p-8, -0x1.4999b80000000p-5, -0x1.c50cc00000000p-9, -0x1.abb0da0000000p-5, 0x1.33b0400000000p-6, -0x1.56d59e0000000p-4, 0x1.8368200000000p-8, 0x1.3cf9d00000000p-5, 0x1.56b5000000000p-7, 0x1.bfbbb80000000p-6, 0x1.aa88d00000000p-7, 0x1.3df8980000000p-4, -0x1.2065fa0000000p-4, -0x1.28bec00000000p-7, -0x1.e8c1700000000p-7, -0x1.4bb79e0000000p-5, -0x1.38bff40000000p-4, -0x1.c6ca8e0000000p-5, -0x1.9c66800000000p-8, 0x1.8ffd180000000p-5, 0x1.a0c6580000000p-5, -0x1.0015f40000000p-4, 0x1.4025680000000p-4, -0x1.8899700000000p-5, 0x1.73e8f00000000p-4, 0x1.d71f800000000p-5, -0x1.ef7ad40000000p-5, 0x1.7665800000000p-7, -0x1.73e4be0000000p-5, -0x1.2558f00000000p-6, 0x1.5fad580000000p-4, 0x1.a8f3100000000p-5, 0x1.94d8180000000p-5, -0x1.5211c00000000p-8, -0x1.4412da0000000p-4, 0x1.46dca00000000p-7, 0x1.5789f80000000p-5, -0x1.26c5b80000000p-6, -0x1.61d6dc0000000p-4, 0x1.80e4080000000p-6, -0x1.a18bf00000000p-7, 0x1.1c96d00000000p-5, -0x1.d70a800000000p-9, -0x1.71964c0000000p-4, -0x1.299c180000000p-6, 0x1.51e8dc0000000p-4, -0x1.b540c00000000p-8, -0x1.6755be0000000p-4, -0x1.8102ec0000000p-4, 0x1.4ef7ac0000000p-4, -0x1.36bd100000000p-6, -0x1.54d3c80000000p-6, 0x1.0845600000000p-7, -0x1.0c2d980000000p-5, -0x1.2c37a80000000p-6, 0x1.cce5280000000p-5, 0x1.28c0d80000000p-6, 0x1.8ae2880000000p-5, 0x1.63c5600000000p-4, 0x1.fcd2500000000p-6, 0x1.13de180000000p-5, 0x1.2db1d80000000p-4, 0x1.4159a80000000p-6, 0x1.0f64c80000000p-4, 0x1.ff70280000000p-5, -0x1.f7f8e00000000p-8, -0x1.f3e7dc0000000p-5, 0x1.095a000000000p-5, -0x1.b71d500000000p-6, 0x1.2cbdc00000000p-7, 0x1.6377900000000p-4, 0x1.0702000000000p-9, -0x1.3ca1860000000p-5, -0x1.dc32de0000000p-5, -0x1.798ede0000000p-4, 0x1.903a600000000p-7, 0x1.f7f9100000000p-7, 0x1.6ad2980000000p-6, 0x1.18cd700000000p-4, -0x1.4387780000000p-4, 0x1.15d1f80000000p-4, -0x1.fa2f400000000p-9, 0x1.9944000000000p-11, 0x1.3a28880000000p-5, -0x1.5852420000000p-4, -0x1.cc56ee0000000p-5, -0x1.3c60ce0000000p-5, 0x1.8b17680000000p-6, 0x1.857b580000000p-6, 0x1.35ff7c0000000p-4, -0x1.7f58a40000000p-5, 0x1.b9a9100000000p-6, -0x1.5561800000000p-10, 0x1.19e7140000000p-4, 0x1.13c8600000000p-8, -0x1.8632a80000000p-6, -0x1.1f6b0c0000000p-4, 0x1.0403840000000p-4, -0x1.2d82700000000p-4, -0x1.4950900000000p-4, 0x1.9035980000000p-6, 0x1.4b1d400000000p-4, -0x1.7d12e00000000p-7, -0x1.42ddd20000000p-4, -0x1.10dae00000000p-5, -0x1.0fbc600000000p-4, -0x1.3b64480000000p-6, -0x1.1c11080000000p-6, -0x1.71052a0000000p-4, -0x1.526a1e0000000p-5, -0x1.38e9300000000p-6, 0x1.0114b80000000p-5, 0x1.51f4140000000p-4, -0x1.2ca5080000000p-6, -0x1.dce3b40000000p-5, 0x1.615ad00000000p-5, -0x1.0706f00000000p-7, 0x1.9966800000000p-6, -0x1.0f541c0000000p-4, 0x1.1a4bdc0000000p-4, 0x1.157a400000000p-5, 0x1.93b0700000000p-5, 0x1.0ef4600000000p-5, -0x1.6e80f80000000p-6, -0x1.c46b800000000p-10, 0x1.2ac2f00000000p-4, 0x1.587ae00000000p-8, 0x1.2c13500000000p-6, 0x1.612edc0000000p-4, -0x1.10c9cc0000000p-4, -0x1.56d1800000000p-4, 0x1.78fd180000000p-4, -0x1.dbcb3c0000000p-5, 0x1.f5ca200000000p-5, -0x1.3217820000000p-4, -0x1.4f9cf00000000p-5, -0x1.265a800000000p-6, -0x1.0b67600000000p-4, -0x1.65fcac0000000p-4, 0x1.67bd700000000p-7, -0x1.233a9a0000000p-4, -0x1.f307580000000p-6, 0x1.f71d000000000p-6}
